<unk>	0
<s>	0
</s>	0
▁	-3.25247
)	-3.49955
1	-3.56282
2	-3.72623
ৰ	-3.73508
▁(	-3.79426
0	-3.79489
,	-3.99341
5	-4.07565
4	-4.09469
3	-4.09909
6	-4.24511
8	-4.30156
7	-4.39295
9	-4.4677
-	-4.59785
।	-4.60391
▁কাম	-4.84813
(	-4.86703
▁আৰু	-4.90539
'	-4.93285
:	-5.02758
ত	-5.06392
_	-5.19305
.	-5.25607
▁'	-5.26229
▁দ্বাৰা	-5.52977
▁মতামত	-5.59086
’	-5.60357
▁কৰা	-5.63486
ক	-5.74723
>	-5.75943
▁বা	-5.77219
ে	-5.77917
▁=	-5.7882
▁-	-5.84298
▁চুমাচুমি	-5.87844
▁এই	-5.8992
▁বাবে	-5.92319
▁চমকানি	-5.92866
▁হ	-5.99718
',	-6.00371
▁চমকানো	-6.08496
▁শৃগালী	-6.12259
▁ছলচাতুরী	-6.1268
ব	-6.16722
▁:	-6.20929
s	-6.25403
▁কৰিব	-6.26273
▁পৰা	-6.26335
▁আপোনাৰ	-6.26986
/	-6.27649
▁আবৃত	-6.30002
▁কৰি	-6.36383
▁হৈছে	-6.39686
▁বিনিময়	-6.4561
▁আলো	-6.48197
▁কোনো	-6.51599
▁আপুনি	-6.51922
▁লাটভিয়ান	-6.52634
ই	-6.55197
▁কৰক	-6.55869
▁এটা	-6.56694
ল	-6.56771
▁হয়	-6.56949
▁ক	-6.61673
▁সমূহ	-6.6247
▁»	-6.62667
ঔৣ	-6.63169
িত	-6.65076
▁_	-6.65115
▁তথ্য	-6.69263
▁অসমীয়া	-6.70494
▁বীমা	-6.71776
া	-6.75532
▁কৰে	-6.76545
?	-6.76734
▁হোৱা	-6.77907
লৈ	-6.78542
▁এক	-6.78787
▁/	-6.79285
▁পৃষ্ঠা	-6.81103
বা	-6.81942
ন	-6.82995
੔	-6.8401
ি	-6.85416
▁পাৰে	-6.86835
▁আমাৰ	-6.87034
▁আমি	-6.8996
▁ই	-6.91603
▁সংখ্যা	-6.93176
▁প	-6.98524
ী	-6.99034
▁দিয়া	-7.00183
▁আছে	-7.00986
▁যি	-7.03085
▁থকা	-7.03159
▁সতীচ্ছদ	-7.06455
সমূহ	-7.0992
▁ইছলাম	-7.10084
▁"	-7.13406
ম	-7.14105
িক	-7.14623
▁কি	-7.15414
▁যে	-7.16319
▁ব্যৱহাৰ	-7.19767
▁প্ৰদান	-7.19836
▁সৈতে	-7.21011
▁চ	-7.2256
ো	-7.23012
▁যৌনাংগ	-7.23147
▁অ	-7.23494
▁কৰিবলৈ	-7.23845
▁আচমন	-7.25217
▁মাই	-7.25923
▁মি	-7.26132
]	-7.26461
▁বীমাকৃত	-7.26696
"	-7.27193
▁হৈ	-7.28716
▁ইয়াৰ	-7.28855
▁যদি	-7.29142
▁সেই	-7.30232
▁আন	-7.30294
▁[	-7.31122
▁কৰাৰ	-7.31158
۝	-7.31605
▁বিভিন্ন	-7.31863
▁অথ	-7.32354
▁এ	-7.33646
▁দাবী	-7.33938
▁বড়ো	-7.34747
▁সুৰক্ষা	-7.35234
▁গুৱাহাটী	-7.35276
▁বিষয়ে	-7.35506
ও	-7.35763
▁ব্যক্তিগত	-7.35802
▁গণিত	-7.37158
▁নাই	-7.38027
য়ে	-7.38503
✞	-7.40625
▁স	-7.40654
▁G	-7.40729
কৈ	-7.42822
▁বিষয়	-7.43289
▁উপাদান	-7.4452
ছ	-7.45184
▁কৰিছে	-7.47251
...	-7.4797
▁বিজ্ঞান	-7.48066
▁TV	-7.49733
▁বি	-7.50015
▁ক্ষতি	-7.50567
▁সেৱা	-7.50912
▁ব	-7.5175
দ	-7.52084
▁মিলি	-7.52759
▁আল	-7.53232
▁News	-7.53361
▁অনুবাদ	-7.53411
▁হাত	-7.53523
ঃ	-7.53931
▁লাভ	-7.55106
▁প্ৰতি	-7.55313
টো	-7.55971
▁আ	-7.56226
▁নহয়	-7.56321
▁অসম	-7.5649
্	-7.56913
▁অধিক	-7.57741
▁ৰ	-7.578
▁‘	-7.58133
▁নতুন	-7.58264
▁ল	-7.58571
▁ম	-7.5878
▁T	-7.58794
%	-7.59348
▁ক্ষেত্ৰত	-7.59603
▁টকা	-7.60299
▁সকলো	-7.60643
▁লগত	-7.6292
▁B	-7.63168
কোনো	-7.64807
▁বিন	-7.65292
▁দৃদ্ধ	-7.65439
তে	-7.67222
▁India	-7.67444
লে	-7.67476
▁ব্যক্তি	-7.67909
ীয়	-7.68279
▁নাম	-7.68687
▁S	-7.69492
▁$	-7.70582
▁উল্লেখ	-7.70621
▁খামখেয়াল	-7.70725
▁লাগিব	-7.70729
▁তেওঁ	-7.71352
▁Assamese	-7.72105
▁।	-7.73879
▁ঢকান	-7.74169
▁সময়ত	-7.74405
ভাৱে	-7.74536
x	-7.74747
কে	-7.74833
▁ওপৰত	-7.75037
▁লগতে	-7.75275
▁প্ৰ	-7.75544
▁“	-7.75762
▁C	-7.76302
▁নীতি	-7.76304
▁তেন্তে	-7.76358
ৰা	-7.76582
▁ভাল	-7.7666
্য	-7.76892
▁তাৰ	-7.78893
▁কথা	-7.79886
▁গ	-7.80114
এই	-7.80684
খন	-7.81341
▁আইটেম	-7.81443
▁শক্তি	-7.8161
▁A	-7.81663
বোৰ	-7.81778
▁অতি	-7.81988
তা	-7.83501
▁আই	-7.85734
য়	-7.85803
▁ও	-7.85967
▁বন্ধ	-7.87313
▁জ্ঞান	-7.8745
ু	-7.88089
▁ভাষা	-7.90031
াৰ	-7.9022
▁হিচাপে	-7.90259
▁P	-7.90755
▁সময়	-7.90807
▁২	-7.90861
▁মৃত্যু	-7.90867
R	-7.91323
▁ভিতৰত	-7.91491
▁ক্যাটাগৰি	-7.91773
▁ভাৰতীয়	-7.92238
▁এপসন	-7.92606
▁আপোনাক	-7.92639
▁এখন	-7.92873
ড	-7.94311
▁of	-7.94363
▁in	-7.94374
;	-7.94702
	-7.95126
”	-7.95689
▁সহায়	-7.96298
মেইল	-7.9654
a	-7.96569
▁বিশেষ	-7.96753
▁টকিঅ	-7.97071
টা	-7.972
gina	-7.97799
▁অধীনত	-7.9786
▁যোগাযোগ	-7.97882
▁ভিডিও	-7.97884
ৰে	-7.98313
▁Sora	-7.98695
▁মই	-7.99565
▁মুখগত	-8.00039
▁গোলগাল	-8.00508
▁এনে	-8.00579
y	-8.01084
▁১	-8.01112
▁তৃতীয়	-8.01503
▁বোঁচকা	-8.02351
▁যায়	-8.02567
od	-8.03111
▁মূল্য	-8.03487
email	-8.03536
b	-8.03669
লিচি	-8.03747
সকলৰ	-8.04978
▁ন	-8.05365
▁গছ	-8.05766
protected	-8.05822
▁খনক	-8.06016
꧂	-8.06096
▁꧁	-8.06156
▁তথা	-8.06173
▁হৈছিল	-8.06321
▁টা	-8.06794
▁L	-8.06844
▁সৃষ্টি	-8.07233
▁বুলি	-8.07455
▁সি	-8.07812
▁মখোমুখী	-8.08304
C	-8.08713
▁স্বাস্থ্য	-8.09083
▁ড	-8.09086
▁দিব	-8.09251
▁res	-8.09385
ং	-8.09413
▁উত্তৰ	-8.09496
▁পলিচী	-8.09846
☬	-8.09978
etter	-8.10093
▁তেওঁলোক	-8.10322
▁–	-8.10776
▁চিকিৎসা	-8.10796
▁সামগ্ৰী	-8.10985
▁ভি	-8.11025
onit	-8.1131
▁সম্পাদনা	-8.11468
i	-8.11597
▁পি	-8.12085
▁তলত	-8.12593
▁লৈ	-8.1346
হ	-8.13477
▁অধিকাৰ	-8.14127
▁তেওঁৰ	-8.14167
▁প্ৰশ্ন	-8.14176
Va	-8.146
▁এটি	-8.14659
▁সুবিধা	-8.15015
▁কাৰণে	-8.15119
▁ধাৰা	-8.15914
েই	-8.16068
াই	-8.16417
৷	-8.16523
▁লোৱা	-8.16738
▁সম্পূৰ্ণ	-8.17021
ywo	-8.17589
▁পক্ষ	-8.18429
▁শেল্ফ	-8.18461
▁জিপ্লাছ	-8.18604
▁পোৱা	-8.18855
তকৈ	-8.19167
ণ	-8.19431
com	-8.19454
▁..	-8.1967
▁শিক্ষা	-8.20408
▁দেশ	-8.20591
▁বিভাগ	-8.20592
▁বীজ	-8.2086
}}	-8.21071
র	-8.21363
জ	-8.21614
▁দ	-8.21652
▁সম্পৰ্কে	-8.21919
▁ধন	-8.22576
!	-8.22579
▁বছৰ	-8.22707
▁দায়িত্ব	-8.23059
▁আইন	-8.23301
▁কম	-8.2376
▁বেছি	-8.24178
▁আছিল	-8.24405
▁বৃদ্ধি	-8.24714
▁অন্য	-8.24765
L	-8.24926
▁মুহাম্ম	-8.25246
লা	-8.2525
▁টিউব	-8.25289
▁কিন্তু	-8.25296
▁মহিলা	-8.25302
ৰপৰা	-8.25653
▁?	-8.26067
▁কিছুমান	-8.26433
",	-8.2646
▁সা	-8.26578
▁প্ৰকাশ	-8.26748
▁লোকচান	-8.26999
▁দুৰ্ঘটনা	-8.27656
▁সম্পত্তি	-8.27666
▁থাকিব	-8.27781
ট	-8.2781
চ	-8.27821
▁ভাষাত	-8.27923
▁লক্ষ্য	-8.27975
▁গ্ৰহণ	-8.28259
▁✞	-8.28307
e	-8.28677
▁এজন	-8.29054
স	-8.29189
▁য	-8.2932
▁ছ	-8.30149
t	-8.30197
▁সাক্ষাৎকাৰ	-8.30218
▁গোপনীয়তা	-8.30401
▁__	-8.30665
▁পলিচীৰ	-8.31128
▁IFFCO	-8.31319
n	-8.31337
▁ৰামানুজন	-8.31366
প্ৰযুক্তি	-8.31458
▁মৌলিক	-8.31584
▁অসমৰ	-8.31665
▁অংশ	-8.31911
▁ইয়াত	-8.31997
▁মা	-8.32246
▁যেনে	-8.32433
☬✞	-8.32552
▁on	-8.32838
▁hr	-8.33446
u	-8.33647
এ	-8.33799
▁ত	-8.33925
▁১০	-8.34072
▁তাক	-8.34421
▁ৰহমান	-8.35064
▁বিশ্ববিদ্যালয়	-8.35127
▁হোৱাৰ	-8.35188
বলৈ	-8.35459
▁আদি	-8.35863
▁ধৰি	-8.36054
▁দি	-8.36567
▁নম্বৰ	-8.36899
▁তালিকা	-8.36998
তো	-8.37572
▁চমু	-8.37653
▁নিষ্পেষণ	-8.37682
▁ইসুজু	-8.37734
▁অন্যান্য	-8.37796
▁ৰোগ	-8.37809
p	-8.38216
A	-8.38708
২	-8.38743
▁ব্যয়	-8.3883
â	-8.38973
▁সমাধান	-8.39021
▁দিয়ে	-8.39161
▁প্ৰথম	-8.39729
▁চৰকাৰ	-8.40123
ing	-8.40256
▁নিম্ন	-8.40363
▁কাৰণ	-8.40516
▁কোৰআন	-8.40649
▁পিছত	-8.40713
▁কৰিলে	-8.41156
▁এইটো	-8.41455
Ð	-8.41694
▁থাকে	-8.41724
▁দা	-8.42119
▁পূৰ্বৱৰ্তী	-8.43126
▁লাগে	-8.43147
▁উচ্চ	-8.43235
▁লেখক	-8.43508
▁+	-8.4428
▁পৰিশোধ	-8.44531
▁আমাক	-8.44676
▁বিশ্ব	-8.44796
▁The	-8.44797
▁যদিহে	-8.44941
▁দৰে	-8.44975
▁ছবি	-8.45554
▁J	-8.4586
▁ব্যুৰ	-8.45887
▁বিকাশ	-8.45966
▁ৰিচাৰ্	-8.4618
▁সংগ্ৰহ	-8.46222
▁©	-8.46233
▁সামৰি	-8.4625
ed	-8.4658
সুৰক্ষিত	-8.46616
▁যোৱা	-8.46856
S	-8.4736
▁টি	-8.47381
▁খ	-8.47646
▁আৰম্ভ	-8.48155
URA	-8.49876
W	-8.49878
▁আলোচনা	-8.50094
▁উ	-8.50142
▁ব্যৱস্থা	-8.50216
آ	-8.50332
▁কোম্পানীৰ	-8.50354
▁মোৰ	-8.50706
▁প্ৰকাৰ	-8.51148
▁প্ৰয়োজন	-8.5121
oll	-8.51295
মান	-8.514
ř	-8.51847
▁খৰচ	-8.51882
▁ইংৰাজী	-8.51948
▁অনুমতি	-8.51948
▁ইত্যাদি	-8.52121
▁ইমেইল	-8.5219
▁ইছলামী	-8.52526
▁ৱেবছাইট	-8.52729
▁পাছত	-8.52942
▁চিকিৎসালয়	-8.53407
▁ইফকো	-8.53452
▁আজি	-8.53941
▁নে	-8.54062
▁মাহ	-8.54338
▁লোক	-8.54516
▁তেতিয়া	-8.54549
▁কৰিছিল	-8.54909
▁ভাৰতত	-8.54965
▁মেটাৰ্চ	-8.54986
সমূহৰ	-8.55017
▁যেতিয়া	-8.5512
:$	-8.55408
▁এতিয়া	-8.55414
PL	-8.55602
▁ভ	-8.55648
▁জন	-8.5585
▁এক্স	-8.56154
P	-8.56392
▁ধনৰাশিৰ	-8.56448
ê	-8.56536
▁সমস্যা	-8.56699
▁যিবোৰ	-8.57244
▁কে	-8.57443
মূলক	-8.57867
▁সদস্য	-8.58058
ҟ	-8.58148
▁ধজভংগ	-8.58183
▁প্ৰডাক্ট	-8.58394
অসমীয়া	-8.58517
বুৰ	-8.58519
▁সু	-8.5871
▁পৰীক্ষা	-8.58713
▁খবৰ	-8.58743
▁I	-8.58746
▁জ	-8.58764
▁প্ৰেৰণ	-8.58896
▁#	-8.59048
V	-8.59101
▁D	-8.5915
▁ইতিহাস	-8.59224
B	-8.59548
▁৫	-8.59721
▁আৰ	-8.60187
▁সাধাৰণ	-8.60431
▁অনলাইন	-8.60442
unja	-8.60471
▁ভাৰত	-8.60485
উপাদান	-8.60511
▁উপ	-8.60513
▁চা	-8.60575
▁ব্যৱসায়	-8.60797
▁পৰিয়াল	-8.60884
K	-8.61042
▁যোগান	-8.61222
▁নিজৰ	-8.61277
Ŧ	-8.61454
▁অনুসৰি	-8.61493
▁হাবি	-8.61522
হে	-8.61754
▁সীমা	-8.61782
▁xxx	-8.61793
▁ৰাষ্ট্ৰীয়	-8.61817
বিলাক	-8.62306
d	-8.62337
▁যিটো	-8.62343
লিখিত	-8.6262
প	-8.62879
•	-8.6315
▁বাহন	-8.64165
▁the	-8.64532
▁যাৰ	-8.6469
▁মন্তব্য	-8.64833
পৰা	-8.64873
▁KPR	-8.64972
▁Xiaomi	-8.6498
H	-8.65117
▁নি	-8.65403
▁উদ্দেশ্য	-8.65568
▁মন	-8.65691
▁+'	-8.65773
▁XXX	-8.66656
▁দৰঙী	-8.66658
১	-8.66845
▁জড়ি	-8.66852
▁ৰখা	-8.66854
টি	-8.67098
আপোনাৰ	-8.67199
▁আঘাত	-8.6723
al	-8.67322
অ	-8.67537
▁ট	-8.67949
▁জীৱন	-8.68159
না	-8.68431
▁কম্পিউটাৰ	-8.6845
▁সম্পৰ্কীয়	-8.68783
▁অতিৰিক্	-8.68831
ীয়া	-8.69219
Don	-8.69381
▁ধনৰাশি	-8.69632
old	-8.7005
▁প্ৰিমিয়াম	-8.70126
▁যুদ্ধ	-8.70263
▁কিচ্কিচ্	-8.70267
▁যাতে	-8.70286
▁মূল	-8.70295
▁ডি	-8.70482
▁কয়	-8.70513
▁কোটি	-8.70533
▁পালন	-8.70572
▁সঠিক	-8.70579
▁মাজত	-8.70733
k	-8.71127
▁জ্যোতি	-8.71203
▁বিজ্ঞানী	-8.7139
▁M	-8.71396
text	-8.71817
▁এন	-8.72061
▁হব	-8.72086
h	-8.72527
▁আমেৰিকা	-8.72561
▁প্ৰৱেশ	-8.72584
▁কেৱল	-8.72666
▁ফ	-8.7318
▁উপলব্ধ	-8.73746
▁হস্পিটেল	-8.74005
▁clip	-8.74036
গছনি	-8.74793
▁বছৰৰ	-8.74929
▁প্র	-8.7509
▁ক্লেইম	-8.75107
▁কা	-8.75138
▁ৰাজ্য	-8.75221
▁অন্তৰ্ভুক্ত	-8.75438
ান	-8.75533
▁ঠিকনা	-8.75549
▁অহা	-8.75574
িং	-8.75622
▁x	-8.75698
in	-8.75868
▁One	-8.75919
▁কীপ্যাড	-8.75926
▁প্ৰযোজ্য	-8.75927
▁ঈক্ষণকামী	-8.76206
▁অনুগ্ৰহ	-8.76423
▁বৰ্তমান	-8.76431
▁বৰা	-8.76583
▁কেন্দ্ৰ	-8.76695
পি	-8.76762
▁চনৰ	-8.77057
▁আব্দুল	-8.77091
▁দায়বদ্ধতা	-8.77108
▁ক্ষতিৰ	-8.77258
▁কৰো	-8.77726
▁দুটা	-8.77868
—	-8.77872
▁ঈমান	-8.7789
▁Comments	-8.77895
▁জীৱনী	-8.78048
জন	-8.78075
▁ভিডিঅ	-8.7822
▁বহু	-8.78321
বি	-8.7844
লৈকে	-8.78595
▁অনু	-8.7901
▁সম	-8.79315
▁বাংলা	-8.79544
গ	-8.79701
▁ইউ	-8.79796
▁জৰিয়তে	-8.79887
▁অৱশ্যে	-8.799
▁নেকি	-8.79967
▁মুখ্য	-8.79973
▁কেনেকৈ	-8.80073
▁আগতে	-8.80111
▁ফলত	-8.80192
▁চাৰি	-8.80393
▁ধৰ্ম	-8.80634
▁জিলা	-8.80696
ফ	-8.80855
ৱে	-8.81005
তি	-8.81096
▁সং	-8.81289
▁ধৰণৰ	-8.81342
▁পদ্ধতি	-8.81424
▁কাৰ্য্য	-8.81636
ta	-8.81918
▁ক্ৰীড়া	-8.81929
▁দিল্লী	-8.82009
▁কীচেইনে	-8.8201
▁আল্লাহ	-8.82027
▁লিমাজীন	-8.82098
খিনি	-8.82244
নে	-8.82269
▁কোম্পানী	-8.82422
am	-8.82784
গত	-8.82946
no	-8.82999
▁লগে	-8.83154
▁গা	-8.83412
▁কিয়	-8.83466
▁সংযোগ	-8.83526
▁দিনৰ	-8.83592
▁এম	-8.8379
▁Times	-8.84024
▁ছালাত	-8.84057
স্বামী	-8.84095
▁সৰ্বাধিক	-8.84098
▁বুড়	-8.84126
▁বিক্ৰী	-8.84185
▁চীন	-8.84245
▁সংস্কৃতি	-8.84275
▁দক্ষতা	-8.84385
▁গৃহ	-8.84431
চি	-8.84714
▁এইচকিউ	-8.84727
T	-8.84918
পত্ৰ	-8.85068
▁চাকৰি	-8.85275
▁জন্ম	-8.85363
X	-8.85492
Y	-8.85817
▁প্ৰতিষ্ঠান	-8.8596
▁Bo	-8.85975
▁প্ৰয়োজনীয়	-8.86132
▁বাহিৰে	-8.86186
▁প্ৰিয়	-8.86217
▁গুৰুত্বপূৰ্ণ	-8.86401
▁বাতিল	-8.86581
▁F	-8.87082
▁{{	-8.87117
ল্লাল্লাহ	-8.87334
▁গ্ৰাহক	-8.87892
▁এইচ	-8.88083
মা	-8.88101
▁সমাজ	-8.88121
ugu	-8.88282
▁ফজিলত	-8.88307
▁কিছু	-8.88367
▁গ্লে	-8.88393
▁দেখা	-8.88593
▁যদিও	-8.88643
▁এগৰাকী	-8.88694
▁বিজ্ঞাপন	-8.88778
▁ক্ষমতা	-8.88899
তাৰ	-8.89069
যোগ্য	-8.8908
▁পৰি	-8.89139
▁H	-8.89732
ভাৰ	-8.89757
▁গ্ৰন্থ	-8.89822
েৰে	-8.90478
▁অনুৰোধ	-8.9053
▁অছাল্লাম	-8.90532
▁নৱীকৰণ	-8.90532
▁ইতিমধ্যে	-8.90532
▁আৰবী	-8.90581
▁প্ৰচাৰ	-8.90596
▁আহিছে	-8.90708
ন্ন	-8.9072
▁স্থান	-8.90943
▁মাস	-8.91109
▁সন্ধান	-8.91182
▁পাৰিব	-8.91267
▁সহজ	-8.91383
▁ভাৰতৰ	-8.91644
▁ফাইল	-8.92282
▁সলনি	-8.92442
▁৩	-8.92666
▁Tel	-8.92756
tog	-8.92782
▁আবেদন	-8.92787
▁Economic	-8.92804
▁দিন	-8.92844
▁শেষ	-8.9288
▁অৱ	-8.92887
▁অনুসন্ধান	-8.92998
page	-8.93006
▁চি	-8.93161
▁মুঠ	-8.93189
▁বিৱৰণী	-8.93322
▁E	-8.93353
▁বিৱৰণ	-8.93785
▁বস্তু	-8.93885
=	-8.94313
ari	-8.94438
▁জীবন	-8.94751
▁&	-8.95003
▁বাণিজ্য	-8.95213
▁আটাই	-8.95368
▁Xxx	-8.95409
▁দ্বিতীয়	-8.95424
▁ভুল	-8.95534
▁মতে	-8.95807
▁কোন	-8.95907
▁পাব	-8.95957
g	-8.95969
টোৰ	-8.96076
▁থকাৰ	-8.96215
জাতীয়	-8.9624
guy	-8.96287
▁Jan	-8.96466
কৰণ	-8.96796
▁ভিত্তি	-8.9683
▁গৱেষণা	-8.96844
▁শ্ৰী	-8.96943
▁মান	-8.97106
য়া	-8.97245
▁বৰকটকী	-8.97444
▁Archive	-8.97509
▁নেটৱৰ্ক	-8.97509
▁ক্ষতিপূৰণ	-8.97516
edit	-8.97532
▁ক্লাব	-8.97588
▁NTM	-8.97602
▁যৌন	-8.97637
▁চনত	-8.97718
▁সম্পৰ্কিত	-8.9772
▁পাৰো	-8.97735
▁আলাইহি	-8.97913
ভাবে	-8.97988
ীন	-8.98252
▁জি	-8.98396
▁শিশু	-8.98453
াম	-8.98584
েন	-8.98594
on	-8.9878
M	-8.98846
ফিকু	-8.98988
কা	-8.99107
বদ্ধ	-8.99172
▁পুনৰ	-8.99189
▁সক্ষম	-8.99293
জনক	-8.9974
▁লয়	-8.99971
rance	-9.00048
▁বৈদ্যুতিক	-9.00061
▁চাওক	-9.0007
▁বিধি	-9.00111
▁প্ৰায়	-9.0023
▁কিট	-9.00354
▁বিশ্বাস	-9.00422
গণিত	-9.00514
▁বাদ	-9.00563
▁R	-9.00762
▁আব্দু	-9.00945
▁এল	-9.0102
ৎ	-9.0114
বাৰ	-9.01239
▁এইখন	-9.01256
▁ঘৰ	-9.01511
▁তেনে	-9.01634
o	-9.01845
কেটেগৰী	-9.02427
▁Insu	-9.02445
▁গোছলখানা	-9.02447
▁যোগেদি	-9.02447
▁হ্যান্ডব্যাগ	-9.02449
▁বিৰুদ্ধে	-9.02452
▁জানিব	-9.02462
▁হেঁচকা	-9.02549
▁কাল	-9.02593
▁মু	-9.02783
▁শ	-9.02808
▁বিচাৰে	-9.03008
▁নহ	-9.03316
▁মানুহ	-9.03472
▁অন	-9.03483
কাকত	-9.0357
eneral	-9.03978
▁কৰিম	-9.04343
▁দাস	-9.04457
▁পৰিণতি	-9.04678
৩	-9.04754
▁শ্বাইখ	-9.05008
▁অভিযোগ	-9.05009
▁কোম্পানীয়ে	-9.05078
cy	-9.05342
▁নিৰ্দিষ্ট	-9.05401
▁কৰোৱা	-9.05554
▁হাঁ	-9.05611
▁পাৰি	-9.05666
TV	-9.06125
ভ	-9.06414
▁অৰ্থ	-9.06772
D	-9.0694
▁আঁচনি	-9.07109
ನ	-9.07617
▁June	-9.07641
▁অলিম্পিয়াড	-9.07643
▁নিৰ্মাতা	-9.07645
▁অকচ	-9.07647
r	-9.07726
▁দিয়ক	-9.07732
okio	-9.07737
▁অন্তিম	-9.07746
▁মালিক	-9.07808
▁নিৰ্মাণ	-9.07855
▁নীড়পাতা	-9.0786
ন্দ	-9.07864
এবং	-9.07939
▁অফ	-9.07961
videos	-9.07964
আপুনি	-9.08125
▁খাদ্য	-9.08554
ll	-9.08608
নি	-9.08966
েল	-9.09054
°	-9.09113
mm	-9.09156
▁মুছলিম	-9.09187
এচ	-9.09629
▁গণিতজ্ঞ	-9.10082
),	-9.10093
▁খন	-9.10114
▁দিশ	-9.10154
Privacy	-9.10319
▁লোমষ	-9.10338
▁আপগুলি	-9.10344
▁গৈছে	-9.10353
▁পা	-9.10359
▁দৈনিক	-9.10371
ভৰ্ত্তি	-9.10452
▁শেহতীয়া	-9.10523
▁Indian	-9.1056
▁স্থানান্তৰ	-9.10691
▁ইয়াক	-9.10693
▁মটৰ	-9.10895
▁তাৰিখ	-9.10923
▁ঘোষণা	-9.11092
▁মনত	-9.11286
▁বীমাৰ	-9.11624
▁সম্পৰ্ক	-9.11701
▁অভিজ্ঞতা	-9.11981
স্বন	-9.12508
ন্ত	-9.12941
ৱ	-9.12943
▁চিনেমা	-9.13119
▁ক্লিপ	-9.1312
▁ব্যাখ্যা	-9.13121
▁উচিত	-9.13121
▁আদায়	-9.13135
▁বাতৰি	-9.13232
▁K	-9.13286
▁ডিচেম্বৰ	-9.13352
▁ক্লিক	-9.13417
▁'$	-9.13462
সকলে	-9.13564
▁গণনা	-9.13614
▁$$	-9.13739
▁প্ৰভাৱ	-9.13756
কাৰী	-9.13793
▁তেখেত	-9.13815
▁প্ৰকাশিত	-9.13984
▁বজাৰ	-9.14306
ছৰ	-9.14328
টোৱে	-9.14663
@	-9.14887
▁তেল	-9.151
▁পৃষ্ঠাসমূহ	-9.15172
▁ছাত্ৰ	-9.15238
es	-9.1549
▁স্থায়ী	-9.15636
বলগীয়া	-9.15659
▁by	-9.15732
▁ঘটনা	-9.15838
tooltip	-9.15954
▁আপডেট	-9.15973
▁পৰামৰ্শ	-9.16011
▁অক্টোবৰ	-9.16093
▁কল্পনা	-9.16098
▁জাননী	-9.16212
▁অভিযান	-9.16216
▁জমা	-9.16358
▁ধ	-9.16669
▁ঈশান	-9.16832
▁অগ্নিকাণ্ড	-9.16842
ment	-9.16913
অসম	-9.17076
হীন	-9.17088
ভাৰত	-9.17201
▁Ni	-9.17229
▁ইণ্ডিয়া	-9.17395
▁W	-9.17521
+	-9.1801
▁একে	-9.18479
▁সঞ্চালক	-9.18522
▁কুমাৰ	-9.18534
WOOD	-9.18895
▁বিক্রী	-9.18915
▁হজ্জ	-9.1892
▁সার্চ	-9.18923
▁অনুমোদন	-9.18929
▁আয়োগ	-9.18951
▁গাড়ী	-9.18966
▁জনপ্ৰিয়	-9.19023
▁এইচবি	-9.19055
▁প্ৰক্ৰিয়া	-9.19074
▁উদাহৰণ	-9.1916
▁কিমান	-9.19186
সকল	-9.19218
▁AS	-9.19271
▁একাউন্ট	-9.19331
▁ধৰা	-9.19401
ক্স	-9.19558
▁ঠ	-9.1961
▁নিজ	-9.19688
▁ব্যক্তিয়ে	-9.19848
▁ভাবে	-9.19882
▁সিদ্ধান্ত	-9.20005
▁কো	-9.20137
▁পৰিকল্পনা	-9.20224
OLL	-9.20472
▁উদ্যোগ	-9.20511
▁চুৰি	-9.20546
▁গোট	-9.20664
▁কাগজ	-9.20981
য়েই	-9.21068
▁কৰাটো	-9.21143
"$	-9.21219
▁প্ৰকল্প	-9.21227
▁V	-9.21365
▁আধাৰ	-9.21401
▁তাত	-9.21574
▁শিল্প	-9.2163
▁প্ৰয়োগ	-9.21637
▁অনুষ্ঠান	-9.21821
ান্ত	-9.21896
▁—	-9.21898
search	-9.21917
▁ফিকহ	-9.21926
ha	-9.21954
mg	-9.21969
▁ভাগ	-9.21978
▁বিত্তীয়	-9.22071
সমুহ	-9.2211
দু	-9.22147
▁লিখা	-9.22149
▁ব্যৱসায়িক	-9.2219
▁শব্দ	-9.22215
▁বঁটা	-9.22253
_$	-9.2227
▁ব্যৱস্থাপনা	-9.22274
E	-9.22288
▁যিয়ে	-9.22301
▁Bu	-9.22499
লি	-9.22592
▁অৱস্থান	-9.22597
▁এইবোৰ	-9.22598
▁বাহনখন	-9.22607
▁জীৱনৰ	-9.22621
▁গে	-9.23055
০০০	-9.23204
▁মানি	-9.23342
ৰী	-9.2337
▁ভিত্তিত	-9.23433
ervice	-9.23508
l	-9.23578
m	-9.23584
▁সময়ৰ	-9.23814
▁to	-9.23918
ধাৰা	-9.23919
মি	-9.23935
▁যোগ	-9.24231
Q	-9.24395
েও	-9.24444
▁পাঠ	-9.24473
ৰি	-9.24501
▁ফটো	-9.24584
▁পৰাই	-9.24622
up	-9.24698
▁Poli	-9.2488
‘	-9.24885
×	-9.25051
▁অনা	-9.25056
▁নিবন্ধ	-9.25064
▁দ্রঢ়িমা	-9.2507
▁ক্ৰয়	-9.25071
▁পুষ্পহীনতা	-9.25073
▁অনুষ্ঠিত	-9.25074
INR	-9.25117
▁আদব	-9.25176
▁গল্প	-9.25191
▁প্ৰধানমন্ত্ৰী	-9.252
▁পৰৱৰ্তী	-9.25216
▁নবী	-9.25278
▁কৰাত	-9.25509
কৃত	-9.25529
om	-9.2554
ভিত্তিক	-9.25568
যুক্ত	-9.25698
ny	-9.25719
▁তা	-9.25782
ভি	-9.25783
er	-9.26398
▁৬	-9.26459
ন়্	-9.26919
▁একাউণ্ট	-9.26953
c	-9.27244
▁প্ৰযুক্তি	-9.27424
ur	-9.27574
▁পৃষ্ঠাটো	-9.27586
$$	-9.27604
▁ক্ষেত্ৰ	-9.2769
▁\	-9.27806
কৰ	-9.28045
▁অর্ডাৰ	-9.28234
▁বৈধ	-9.28243
র্ডেনীয়ার্চ	-9.28261
dhi	-9.28269
▁সাহায্য	-9.28276
▁Kati	-9.28288
▁সন্দৰ্ভত	-9.28289
▁গতিকে	-9.28298
▁অধ্যয়ন	-9.28314
▁বিচৰা	-9.28316
Ke	-9.28423
▁জুলাই	-9.28426
▁লভ্য	-9.28486
▁বিকল্প	-9.28554
j	-9.28626
▁প্ৰয়োজনীয়তা	-9.28636
▁Windows	-9.28823
▁অৰ্থাৎ	-9.28845
▁নাথ	-9.28914
▁সংস্কৰণ	-9.28918
yar	-9.29011
▁লগ	-9.29233
▁and	-9.29237
▁এজেন্ট	-9.29424
▁বয়স	-9.29624
▁প্ৰমাণ	-9.29661
▁Assam	-9.29817
▁চাপ	-9.29866
▁নকৰা	-9.30266
▁অৱস্থা	-9.30286
▁*	-9.30326
O	-9.30339
▁গুণ	-9.30658
▁ইনফ	-9.30743
বিধান	-9.30748
ৈ	-9.30824
হি	-9.30835
▁ক্ৰম	-9.30838
]]	-9.30901
▁ৱেবচাইট	-9.3092
▁পৰিচালনা	-9.31016
▁সম্প	-9.31122
▁স্পষ্ট	-9.31187
▁পৰিসংখ্যা	-9.31365
title	-9.31481
▁উন্নত	-9.31498
উদ্ভট	-9.31593
▁খণ্ড	-9.31601
꙰	-9.3161
▁ৰাজহুৱা	-9.3161
▁গাইড	-9.31612
▁ভ্ৰমণ	-9.31755
▁সামাজিক	-9.31758
▁শাস্তি	-9.31759
▁হাদীছ	-9.31781
▁'{{	-9.31823
▁সংৰক্ষিত	-9.31991
▁~	-9.32014
func	-9.32066
▁৮	-9.32095
}	-9.32191
▁উপায়	-9.3223
▁বিজ	-9.32318
erm	-9.32323
▁নিৰ্বাচিত	-9.32344
▁বিধান	-9.32444
▁জল	-9.3248
▁ষ্ট	-9.32605
▁{	-9.32642
য	-9.32651
▁N	-9.3267
▁ফুট	-9.32741
▁ইয়া	-9.3276
▁Go	-9.32811
▁শতাংশ	-9.33003
জনিত	-9.33127
delete	-9.33357
▁ৰাখিব	-9.33934
৫	-9.34154
াদ	-9.34173
ষ্ট	-9.34262
▁ভাষাৰ	-9.34282
ফাইল	-9.34288
▁সেৱাসমূহ	-9.3438
▁সময়ে	-9.34381
▁এয়া	-9.34418
▁ইবন	-9.34475
▁আদিৰ	-9.34495
▁নং	-9.34509
▁দিয়াৰ	-9.34644
▁৪	-9.34742
▁ডিজাইন	-9.35058
▁উদ্ভিদ	-9.35058
▁কলসীয়	-9.3506
▁আক্ৰান্ত	-9.35068
▁ডাটা	-9.35076
▁মডেল	-9.35087
▁কাৰ্য্যালয়	-9.35095
bble	-9.35102
▁জানক	-9.35187
'''	-9.35286
▁পু	-9.35342
▁সংকলন	-9.3537
▁মাহৰ	-9.35407
৮	-9.35642
মোৰ	-9.35713
▁অৱস্থাত	-9.36125
▁পথ	-9.36203
▁Vi	-9.36222
▁আলী	-9.36354
▁মুক্ত	-9.36827
▁সমৰ্থন	-9.36897
co	-9.36921
rev	-9.36998
▁প্ৰস্তুত	-9.37068
▁অধ্যাপক	-9.37102
জি	-9.37172
I	-9.37237
▁নিশ্চিত	-9.37307
দৰে	-9.3753
▁প্ৰাপ্ত	-9.37558
মগ্ৰ	-9.37564
▁ডিভাইচ	-9.37862
\	-9.37871
▁যাব	-9.37874
▁শিক্ষক	-9.38208
Z	-9.38302
শান	-9.38354
▁আছ	-9.3844
র্মে	-9.38519
f	-9.38559
▁ভট্ভটি	-9.38629
▁মুকলি	-9.38631
▁অনুভৱ	-9.38631
▁জানুৱাৰী	-9.38637
Super	-9.38643
▁থোৱা	-9.38657
▁স্থানীয়	-9.38874
▁মানৱ	-9.38924
ায়	-9.38931
▁সংঘট	-9.38948
▁নকৰে	-9.39016
▁শান্তি	-9.39259
▁Tech	-9.393
▁তিনি	-9.39331
▁লাখ	-9.39342
▁জাৰি	-9.3946
ুল	-9.39516
▁প্ৰতিটো	-9.39617
ময়	-9.39732
▁নফ	-9.39767
দি	-9.3987
▁বিপদাশংকা	-9.39875
িকা	-9.39879
নতুন	-9.39955
়	-9.40366
▁তল	-9.40458
নাছ	-9.40548
▁বিশেষজ্ঞ	-9.40558
▁মানে	-9.40605
▁ৰেচম	-9.4078
▁দে	-9.41128
▁নিজে	-9.41219
▁২০	-9.41248
▁আৰব	-9.41257
ীক	-9.41527
Xxx	-9.41911
▁১৯	-9.42021
th	-9.42063
▁লগা	-9.42085
▁বতৰ	-9.42097
▁কালদৈৰ্ঘ্য	-9.42122
▁আহি	-9.4219
prefs	-9.42331
▁District	-9.42333
▁Delhi	-9.42333
▁Spy	-9.42335
▁বেলেগ	-9.42489
▁কাৰ্য	-9.42556
▁ভাইৰাছ	-9.42648
▁নিয়ন্ত্ৰণ	-9.42663
াহ	-9.42689
▁ইফক	-9.42714
▁ডাঙৰ	-9.4277
▁২০১৪	-9.42808
▁স্কুল	-9.42838
▁দিবলৈ	-9.42845
▁লিখক	-9.42888
va	-9.43094
নৰ	-9.43225
▁নিয়ম	-9.43447
িল	-9.43581
▁লিখিত	-9.43905
▁at	-9.44003
▁পুথি	-9.4404
িন	-9.44313
v	-9.4433
at	-9.44394
▁দৃষ্টি	-9.44419
▁www	-9.44589
৪	-9.44596
▁গুৱাহাটীত	-9.44689
▁ওপৰ	-9.44728
▁বৈশিষ্ট্য	-9.44733
▁টকাৰ	-9.44908
F	-9.44918
খনৰ	-9.45051
▁ৰাখি	-9.45099
▁৭	-9.45247
an	-9.4536
▁কৰ্ম	-9.45528
▁মহা	-9.45611
▁বাৰ্তা	-9.45876
▁ঔষধ	-9.45878
right	-9.46015
▁মে	-9.46047
ইউনাইটেড	-9.46101
কো	-9.46102
atch	-9.46141
▁তৰবিয়ত	-9.46179
▁স্বভাৱ	-9.4618
▁মেটাল	-9.46181
▁পৰিচয়	-9.46185
▁আগবঢ়োৱা	-9.4619
▁তৈয়াৰ	-9.46198
▁চেষ্টা	-9.46222
▁নিৰ্ভৰ	-9.46242
▁পাওঁ	-9.46299
▁সে	-9.46307
▁সৰু	-9.4631
▁থ	-9.46316
▁ইঞ্চুৰেঞ্চ	-9.46344
▁প্ৰধান	-9.46353
▁নোৱাৰিব	-9.4636
▁বিলাক	-9.46485
▁ইন	-9.46512
▁সুন্দৰ	-9.46561
▁পানী	-9.4676
▁কলেজ	-9.46835
▁পলিচীখন	-9.46855
লৱে	-9.47079
▁সুৰক্ষাৰ	-9.47141
দা	-9.47306
▁১৪	-9.47427
▁বৰ্ণনা	-9.4743
িয়া	-9.47459
পা	-9.47463
▁এইচসি	-9.47521
▁লিমিটেড	-9.48051
▁ষ্টেচ	-9.48159
▁নাগৰিক	-9.48309
▁আপুনা	-9.48327
▁মন্ত্ৰী	-9.48485
▁সৰ্ব	-9.48522
▁খেল	-9.48616
▁দুৰ্ঘটনাৰ	-9.48764
▁মেথ	-9.48811
র্ণ	-9.48838
তম	-9.4905
SP	-9.49268
▁ka	-9.49429
▁...	-9.49452
স্	-9.49511
▁প্ৰস্তাৱ	-9.49558
▁দায়িত্বৰ	-9.49649
Assamese	-9.49774
▁ছলে	-9.49785
▁কৃষি	-9.49928
▁কুকি	-9.50046
ুতীয়া	-9.50068
▁Abhi	-9.50181
▁অনুসাৰে	-9.50183
▁ফিল্ম	-9.50187
os	-9.50188
▁আদেশ	-9.50207
▁উপযুক্ত	-9.50207
://	-9.50207
▁গঠন	-9.50244
▁শস্য	-9.50258
বিহীন	-9.50306
▁প্ৰফেছৰ	-9.5032
▁পঞ্জীয়ন	-9.50349
▁ডাউনলোড	-9.50366
▁গো	-9.50373
▁বাকী	-9.50373
jan	-9.50398
▁ম্যাদ	-9.50415
ান্ডা	-9.50427
▁দ্বীন	-9.50461
েৰেল	-9.50469
▁প্ৰিমিয়ামৰ	-9.50505
▁মেডিকেল	-9.50519
▁আইনী	-9.50694
link	-9.50716
ন্	-9.50728
error	-9.50803
▁মূল্যৰ	-9.50814
▁c	-9.50888
▁পায়	-9.50955
▁স্ব	-9.51006
▁বিষয়টো	-9.51105
▁যাত্ৰা	-9.51138
▁O	-9.51141
▁Rach	-9.51271
file	-9.51733
▁বৰ	-9.51914
▁জুন	-9.51988
▁বিনষ্ট	-9.52146
▁দু	-9.52354
▁পদ	-9.52369
এচএ	-9.52415
কিং	-9.52465
alla	-9.52717
▁শাখা	-9.5278
▁নিউক্ল	-9.5295
াল	-9.53141
my	-9.53263
▁এচ	-9.53322
is	-9.53423
▁এছ	-9.53611
ছে	-9.53716
▁অসুস্থতা	-9.53869
expr	-9.53912
▁দৈ	-9.53942
▁উপস্থিত	-9.53955
▁কিতাপ	-9.54081
পূ	-9.54261
▁নেতৃত্ব	-9.54346
▁সাংসদ	-9.54346
▁≤	-9.54346
▁দাখিল	-9.54347
▁কেইটামান	-9.54353
▁সুযোগ	-9.54353
▁আহৰণ	-9.5437
।”	-9.54448
কিঅ	-9.54494
▁চৰিয়ত	-9.54515
&	-9.54524
▁ফেব্ৰুৱাৰী	-9.54563
▁স্থাপন	-9.54564
▁সম্পদ	-9.54576
পাতি	-9.54599
▁গোটেই	-9.54609
▁বিগত	-9.54618
cm	-9.54639
দে	-9.54754
▁ডেটা	-9.54764
G	-9.54786
▁বিষয়সমূহ	-9.54991
০	-9.55098
▁গঢ়	-9.55145
▁সৌন্দৰ্য	-9.55178
ka	-9.55178
▁জেন	-9.55392
▁মীমাংস	-9.55396
▁অনুচ্ছেদ	-9.55439
▁নিৰ্দেশনা	-9.555
▁মুদ্ৰা	-9.55563
বোৰৰ	-9.5558
▁সমুহ	-9.55596
▁অংক	-9.55654
▁পৰিমাণ	-9.55771
N	-9.55899
▁কৰ	-9.55996
▁।'	-9.56043
▁মনো	-9.56072
▁দৰ্শন	-9.5618
▁নিয়োগ	-9.56439
▁ভগ	-9.56484
গৰাকী	-9.5666
▁সাহিত্য	-9.56759
▁a	-9.56885
by	-9.56927
▁দূৰ	-9.56931
▁আত্ম	-9.5698
▁নিৰ্বাচন	-9.57051
▁কল	-9.57355
লগ	-9.57374
▁বৃদ্ধ	-9.57387
য়ো	-9.57444
▁বে	-9.57491
▁সী	-9.57541
হব	-9.57592
▁"'''	-9.57623
▁Compa	-9.57796
▁শিক্ষাৰ	-9.57882
▁প্ৰদৰ্শন	-9.58205
▁PC	-9.58253
▁বিল	-9.58273
▁ৰে	-9.58353
জৰ	-9.58636
▁নোৱাৰি	-9.58677
▁পিতৃ	-9.58692
್	-9.58694
action	-9.58694
▁পর্যালোচনা	-9.58694
▁সংঘৰ্ষ	-9.58694
▁আনহাতে	-9.58695
▁প্ৰাকৃতিক	-9.58697
▁কেডব্লু	-9.58698
▁Live	-9.58712
▁অৰ্জন	-9.58721
▁ছায়াছবি	-9.58765
▁ভা	-9.58805
▁পোস্ট	-9.58841
▁মেৰামতি	-9.58872
▁ঔ	-9.58873
▁উপৰিও	-9.58887
▁ৰচনা	-9.58893
▁tub	-9.59052
▁লে	-9.59156
▁নিৰ্দেশ	-9.59212
▁চুক্তি	-9.59214
▁Enter	-9.59247
▁বালিকা	-9.59254
▁চলি	-9.5927
হিক	-9.59387
▁চিকিৎসক	-9.59405
▁বিশাল	-9.59435
▁ফলাফল	-9.5945
▁১২	-9.59497
▁সন্মান	-9.59562
▁৫০	-9.59582
▁কবৰ	-9.5977
াত	-9.59778
▁বেংক	-9.604
▁নিজা	-9.60402
▁গুপ্তশব্দ	-9.60415
en	-9.60974
ভূত	-9.61037
▁জনা	-9.61102
▁Mi	-9.61128
টোত	-9.61162
নাহ	-9.61172
শ	-9.61238
▁আগৰ	-9.61332
▁সপ্তাহ	-9.61392
▁উচ্চত	-9.61407
▁মহাবিদ্যালয়	-9.61444
▁উৎস	-9.61504
▁২৭	-9.61511
▁অনলাইনত	-9.61711
ENAME	-9.61919
খ্যাত	-9.61993
▁হাৰ	-9.62292
▁সহযোগী	-9.62383
▁গৈ	-9.62461
▁চিন্তা	-9.62611
থ	-9.62693
log	-9.62848
▁সম্বন্ধ	-9.62936
▁সংস্থা	-9.62961
▁বিষয়া	-9.6297
▁বিদেশ	-9.62976
PC	-9.62986
▁গৰাকী	-9.63008
▁অংকটো	-9.63042
▁ব্যাপক	-9.63052
▁প্ৰপত্ৰ	-9.63132
▁বিস্ফোৰণ	-9.63239
ফাওজান	-9.63239
▁Dynam	-9.63239
▁দৰমহা	-9.63239
▁প্ৰশিক্ষণ	-9.6324
▁মিনোল	-9.63241
▁ৰেহাই	-9.63242
tails	-9.63247
▁চাওঁক	-9.63247
▁যোগদান	-9.63249
▁অডিঅ	-9.63256
▁আকার	-9.63261
▁বিপৰীতে	-9.63275
▁পদক্ষেপ	-9.6329
কালীন	-9.63296
▁লওক	-9.63354
▁সংশোধনী	-9.63393
▁জাল	-9.63452
নন্দ	-9.636
▁কৰোঁ	-9.63613
▁প্ৰতিলিপি	-9.63615
▁নোহোৱা	-9.63699
▁বিচাৰি	-9.63814
▁কোৱা	-9.63876
দৰ্শনকাৰী	-9.63889
▁না	-9.64107
্ব	-9.6412
▁দিওঁ	-9.64167
▁গেলৱে	-9.64239
▁বেহা	-9.64314
▁১৮	-9.64387
FC	-9.64463
▁প্ৰশাসন	-9.64595
আই	-9.6463
▁পত্ৰ	-9.64676
িষ্ট	-9.64737
te	-9.64808
Tut	-9.64825
▁তোলা	-9.64831
ত্ব	-9.64985
▁Z	-9.65004
▁কৰ্মচাৰী	-9.65005
name	-9.6507
▁জৰি	-9.65322
▁Bha	-9.65485
▁তেজ	-9.65558
স্ত	-9.65717
▁শৰ্মা	-9.65923
▁চাব	-9.65959
▁লোকৰ	-9.66091
১৯	-9.66102
▁হে	-9.66125
▁এণ্ড	-9.6639
▁একক	-9.66451
▁NT	-9.66453
▁ফোন	-9.6652
▁হিন্দু	-9.66889
ৃত	-9.66918
ter	-9.66998
▁বাজ	-9.67016
ুলি	-9.67256
▁হোটেল	-9.67399
▁সংশোধন	-9.67529
▁ডাউনল	-9.67557
নীন	-9.67593
▁ধাৰাবাহিক	-9.67641
ৱা	-9.67737
▁কাৰণত	-9.67753
▁সদস্যৰ	-9.67772
▁চিহ্ন	-9.6787
▁হিতাধিকাৰ	-9.67916
▁নিউ	-9.67922
▁লোকে	-9.67948
▁পাৰ	-9.67977
ी	-9.68001
▁উত্পাদক	-9.68001
▁চৌহদ	-9.68001
▁পাৰ্থক্য	-9.68001
▁শ্বিৰ্ক	-9.68001
▁দেখুৱাওক	-9.68002
চদাচদি	-9.68003
▁শাৰীৰিক	-9.68005
▁সংগ্রহ	-9.6801
▁মুখ্যমন্ত্ৰী	-9.68014
▁আগষ্ট	-9.68016
▁প্ৰবন্ধ	-9.68018
▁নথকা	-9.68045
বতৰা	-9.6812
▁বক্স	-9.68121
▁ৰূপ	-9.68141
▁ৱিকি	-9.68197
ia	-9.68209
▁খৰছ	-9.68213
▁আমা	-9.6825
▁পুৰণি	-9.68255
▁স্থিৰ	-9.68382
▁U	-9.68411
um	-9.68561
সলনি	-9.6873
বাহন	-9.68761
▁ঘ	-9.68778
Special	-9.68848
▁প্ৰৱন্ধ	-9.68867
প্ৰাপ্ত	-9.68872
▁মিনি	-9.68884
্তন	-9.68939
▁ME	-9.68955
▁বৃহ	-9.69079
group	-9.69201
▁বিপদ	-9.69229
le	-9.69245
BC	-9.693
▁১৩	-9.69686
▁খেলনা	-9.69709
দ্বাৰা	-9.69857
বেশি	-9.69859
▁সংজ্ঞা	-9.70036
▁তথ্যসমূহ	-9.70041
▁উন্নয়ন	-9.70311
imited	-9.7054
▁কলা	-9.70596
▁পাম	-9.70598
াঙি	-9.70644
▁সহ	-9.70768
▁বহুত	-9.70837
আৰ	-9.70895
▁বিমান	-9.71056
সি	-9.71436
▁চৰকাৰে	-9.71483
রত	-9.71673
▁চলা	-9.71696
▁ঠিক	-9.71732
J	-9.71793
▁মাল	-9.72239
▁প্ৰা	-9.72555
▁যন্ত্ৰ	-9.72758
▁তে	-9.72775
▁চাইট	-9.72802
ল্	-9.72818
▁সমকাম	-9.72966
ৰফ	-9.72973
▁প্রতি	-9.72994
▁সো	-9.72999
िन	-9.73001
€	-9.73001
▁বঙালী	-9.73001
▁কেৰিয়াৰ	-9.73001
▁শিঙা	-9.73002
▁২০২০	-9.73002
▁এনকিউ	-9.73003
▁গুৰুতৰ	-9.73007
▁সোধা	-9.73025
▁অন্যতম	-9.73032
▁অলপ	-9.73036
▁অধ্যায়	-9.73052
▁TX	-9.731
▁বিবাহ	-9.73156
▁প্লেট	-9.73185
▁বিপ্লৱ	-9.73189
▁অনুযায়ী	-9.73193
▁উৎপাদন	-9.73197
▁গাণিতিক	-9.73214
▁কৰোতা	-9.73239
▁য়	-9.73241
▁দুআ	-9.73267
▁মড	-9.73351
▁পাবলৈ	-9.73356
▁Na	-9.73446
▁দুই	-9.73488
▁বিষয়বস্তু	-9.73508
▁২৪	-9.73528
▁দিলে	-9.7354
▁শইকীয়া	-9.73603
স্থান	-9.7363
▁অটোক্যাড	-9.73638
▁২০১৯	-9.73638
▁ধাৰণা	-9.73667
▁সূচী	-9.74104
▁সাল	-9.742
▁অন্তৰ	-9.7432
▁যা	-9.74442
▁মাজ	-9.74524
▁সেইবোৰ	-9.74569
▁মহিলাৰ	-9.74652
▁পে	-9.74683
▁সহায়ক	-9.74715
২৬	-9.74721
▁সমল	-9.74774
▁হাতত	-9.74797
ডে	-9.74799
নৈতিক	-9.75146
▁পৃথিৱী	-9.75164
▁হট	-9.75235
▁ঠাইত	-9.75445
াথম	-9.75542
লেটি	-9.75995
৭	-9.76167
িফেন	-9.76397
▁আৰক্ষী	-9.76489
নী	-9.76499
▁কাৰ	-9.76554
▁সমান	-9.76812
▁Re	-9.76889
▁বো	-9.77058
িকুল	-9.771
ulb	-9.77123
ংগ	-9.77251
▁X	-9.7741
▁Nation	-9.77707
esar	-9.7774
▁মাতৃ	-9.77849
▁হল	-9.77921
▁মাহত	-9.77954
▁বাইবেল	-9.77955
▁ব্যতিক্ৰম	-9.77994
▁ৱেব	-9.78133
ম্	-9.78186
org	-9.78213
▁সফল	-9.78247
যান্ত্ৰিক	-9.78251
▁নথি	-9.78258
▁গুৰুত্ব	-9.78262
±	-9.78264
द	-9.78264
ह	-9.78264
्	-9.78264
ಡ	-9.78264
▁অবিহনে	-9.78264
▁নিৰাপত্তা	-9.78264
▁বীণাবিশেষ	-9.78264
▁শুল্ক	-9.78264
▁উৎপত্তি	-9.78265
ಕ	-9.78265
▁Microsoft	-9.78266
▁ঘূৰ	-9.78266
watchlist	-9.78267
▁বিদ্ৰোহ	-9.78271
▁নিশ্চয়তা	-9.78276
▁পণ্য	-9.78278
▁উত্তম	-9.78296
▁ইবাদত	-9.78309
▁কেইবা	-9.7831
▁প্ৰাৰ্থী	-9.78311
▁ব্যৱহাৰৰ	-9.78313
▁বিৰল	-9.78319
▁বহন	-9.78337
ষ	-9.78343
▁দুৰ্ঘটনামূলক	-9.78344
▁চচমকানো	-9.78367
▁দল	-9.78405
▁কেতিয়া	-9.78457
▁তৌহীদ	-9.78458
▁প্ৰত্যেক	-9.78467
▁নামেৰে	-9.78474
▁বাধা	-9.78506
▁বায়ু	-9.78538
Page	-9.78651
▁পূৰণ	-9.78653
▁আশা	-9.78676
▁স্বৰূপে	-9.78685
▁বৃক্ক	-9.78706
এম	-9.78723
▁তেখেতে	-9.78841
▁ব্যাগ	-9.78881
▁ইচ্ছা	-9.78911
ch	-9.7895
▁ওচৰত	-9.7899
▁বয়	-9.79114
▁উক্ত	-9.79145
▁Tube	-9.79146
▁সমকামী	-9.79175
টন	-9.79249
▁বিজেপিৰ	-9.7933
▁যান	-9.79346
এটা	-9.79357
▁কৰিবলগীয়া	-9.79385
বাৰ্ষিক	-9.79386
▁প্যাড	-9.79389
▁ছু	-9.79398
show	-9.79516
িয়ান	-9.79542
▁ঘটনাৰ	-9.79553
▁মোক	-9.79597
▁লেখা	-9.79961
গ্ৰ	-9.80121
▁একমাত্	-9.802
দী	-9.80245
▁੔	-9.8032
un	-9.80521
তী	-9.80529
▁৩০	-9.80569
ল্লাহ	-9.80759
পৃষ্ঠা	-9.80801
াংশ	-9.8081
any	-9.80906
টিন	-9.80937
ৰাম	-9.80979
ID	-9.81067
▁ঘণ্টা	-9.81086
মু	-9.81189
▁To	-9.81203
▁পৰে	-9.81217
nit	-9.81338
নেল	-9.81376
োট	-9.81484
ধিক	-9.81564
বছৰ	-9.81638
মতে	-9.81905
▁সভাপতি	-9.81939
▁সকল	-9.82093
দান	-9.82112
▁No	-9.82313
▁f	-9.82327
IT	-9.82517
▁যেন	-9.82533
▁শিৰোণামা	-9.82546
▁বিষয়ৰ	-9.82796
▁যতন	-9.83377
▁লোকসকল	-9.83588
protect	-9.83753
ডি	-9.83784
▁সক্ৰিয়	-9.83812
▁ভভারতীয়	-9.8382
৅	-9.8382
▁ইফফচো	-9.8382
▁ধন্যবাদ	-9.8382
▁যোজনা	-9.8382
▁আদালত	-9.83822
▁সাধাৰন	-9.83822
▁ইণ্টাৰনেট	-9.83823
▁উপদেশ	-9.83827
▁(₹)	-9.83831
▁অনুমোদ	-9.83839
▁ইউৰোপ	-9.83839
▁সম্ভাৱনা	-9.83876
▁ইফালে	-9.83889
▁বিচাৰ	-9.8392
মাহা	-9.83933
▁মাটি	-9.83936
KB	-9.83946
▁ওজন	-9.83955
▁প্ৰত্যক্ষ	-9.8396
▁বাহিৰেও	-9.83969
▁প্ৰদানকাৰী	-9.83988
▁for	-9.83994
▁গ্রহণ	-9.84006
▁ফু	-9.84023
▁জৰুৰী	-9.84024
▁বানপানী	-9.84027
▁পেটেণ্ট	-9.84028
▁ৰাজনীতি	-9.84028
▁শ্ৰমিক	-9.8404
▁জাপানী	-9.84044
▁লিখনী	-9.84048
বাইল	-9.84072
▁জন্য	-9.84087
েষ্ট	-9.84109
▁ব্যুৰো	-9.84144
▁Maha	-9.84163
▁আপ	-9.84245
▁সবিশেষ	-9.84359
▁উদ্ধাৰ	-9.84362
▁মেম	-9.84435
▁দেহ	-9.84453
▁মুখ	-9.8452
▁অটো	-9.84529
▁পৰিস্থিতি	-9.84587
▁সম্ভৱ	-9.84641
▁ৰূপত	-9.84673
▁জে	-9.84715
▁ত্ৰুটী	-9.84765
▁ৰঞ্জি	-9.8485
▁সেইটো	-9.84866
খ	-9.84885
▁হওক	-9.85024
▁Comp	-9.85055
▁পাছ	-9.85056
▁এফ	-9.85071
▁-'	-9.85116
চ্	-9.8513
▁প্ৰাক	-9.85138
বিজ্ঞান	-9.85168
tain	-9.85217
ca	-9.85248
–	-9.85364
▁মেপ	-9.85431
history	-9.8551
▁আম	-9.85579
▁চো	-9.85598
▁AN	-9.85685
▁সংখ্য	-9.85819
▁উদ্দেশ্যে	-9.86183
arga	-9.86222
password	-9.86238
▁ৱেবচাইটত	-9.8633
চা	-9.86512
▁স্প	-9.86665
ূ	-9.86898
▁ফিত	-9.87
জীজ	-9.87113
▁শিশুসকল	-9.87135
কাৰ	-9.87153
▁যথ	-9.87821
র্	-9.87939
▁উৎপাদ	-9.88103
▁শ্ৰেণী	-9.88209
▁প্রা	-9.88251
user	-9.88282
▁২৫	-9.88299
াধিক	-9.88408
▁মীমাংসা	-9.88472
op	-9.88631
▁ভাৱে	-9.88685
▁আঘাতৰ	-9.88777
হৰ	-9.88994
▁সেইবোৰৰ	-9.89052
▁অধিন	-9.89148
▁ছৌদ	-9.89162
▁গণ	-9.89196
▁আব	-9.89357
ock	-9.89416
▁অব	-9.89443
re	-9.89593
▁চিনাক্ত	-9.89601
move	-9.89667
ر	-9.89695
▁হাস্পতাল	-9.89702
▁ৰক্ষাকৰ্ত্তা	-9.89702
▁ধৰ্মঘট	-9.89703
▁অস্বচ্ছতা	-9.89704
▁তেজপুৰ	-9.89704
এক্সপ্ৰেছ	-9.89704
▁নীতিমালা	-9.89708
▁ভভিজা	-9.8971
▁ভৰ্তি	-9.89713
▁প্ৰতিনিধিত্ব	-9.89716
▁প্ৰতিবেদন	-9.8972
▁ঋণ	-9.8973
▁দিছিল	-9.89733
▁পাইছে	-9.89738
▁লিংক	-9.89809
▁গতি	-9.89816
▁শিকক	-9.89857
▁পৰামৰ্শসমূহ	-9.89863
ণ্ড	-9.89896
▁টয়লেট	-9.89917
▁বাহ্যিক	-9.89919
▁সবের্াচ্চ	-9.89921
▁উদয়	-9.89963
▁তিনিটা	-9.9
▁বিকল্পসমূহ	-9.90056
▁FL	-9.90069
ীল	-9.90101
▁সংগঠন	-9.90107
গছনিৰ	-9.90122
▁চেক	-9.90151
▁১১	-9.90163
▁পৰ্যন্ত	-9.90183
▁নগদ	-9.90219
▁কেন্দ্ৰী	-9.90264
▁চৰকাৰী	-9.90345
▁কেজি	-9.90353
▁লাইফ	-9.90432
যুক্তি	-9.90486
▁কপি	-9.90519
▁you	-9.90597
▁থাকিলে	-9.90605
▁হয়তো	-9.90619
ীৰ	-9.9068
▁ছেটিংছ	-9.90759
▁DB	-9.90766
▁সৰল	-9.90775
▁কেয়াৰ	-9.90784
▁ইমান	-9.90841
▁মিমি	-9.90859
AS	-9.90876
▁ৰক্ষা	-9.90931
▁ডিব্ৰুগড়	-9.90976
▁আটক	-9.90976
▁'''	-9.91002
ঞ্জী	-9.91111
▁অসুবিধা	-9.91113
ত্	-9.9116
▁কৃপ	-9.91174
▁পো	-9.91195
নীয়	-9.91562
__	-9.91676
▁॥	-9.91705
ৌ	-9.9175
▁পালে	-9.91774
জিস	-9.91797
উ	-9.91877
▁@	-9.9197
kg	-9.9202
▁৯	-9.92084
এইচ	-9.92121
মেয়ে	-9.92396
▁লিখি	-9.92501
াব	-9.92502
ৱান	-9.92504
পূৰ্ণ	-9.92537
▁ঠাইৰ	-9.92642
াত্মক	-9.92642
version	-9.9286
ৰঞ্জন	-9.92862
▁ক্ষেত্	-9.92921
রেল	-9.92939
▁জয়	-9.93071
েন্টৰ	-9.93097
int	-9.93206
*	-9.93554
▁ৱ	-9.93559
মত	-9.93565
▁কন্ট	-9.93603
▁জনলৈ	-9.9377
ago	-9.9385
▁বয়সৰ	-9.93927
rc	-9.93942
▁চোৱা	-9.94022
▁সত্য	-9.9403
▁ফতোৱা	-9.94164
▁নগ	-9.94187
▁পুনঃ	-9.94392
▁উঠা	-9.9453
▁আশ্ব	-9.9455
▁অত্য	-9.94588
▁অংশীদাৰ	-9.94733
বাচক	-9.94774
ছন	-9.94887
not	-9.9495
বাইট	-9.95188
▁বিলা	-9.95211
নেকুৱা	-9.95352
অঙ্গুলিসঁচালন	-9.95361
বাচি	-9.95479
কিবা	-9.95514
▁ফা	-9.95525
▁মৃত	-9.95556
মই	-9.95716
▁অনন্য	-9.95754
image	-9.95759
▁অনুবাদক	-9.95809
▁বৰঙণি	-9.9587
▁জো	-9.95883
▁বাহিৰ	-9.95939
ছিল	-9.95946
privacy	-9.95952
▁INDIA	-9.95952
▁মেশিন	-9.95952
▁সংক্ষিপ্ত	-9.95952
▁உ	-9.95952
▁চিক্ৰেট	-9.95953
category	-9.95953
▁ৰিস্ক	-9.95954
▁কৰ্মশালা	-9.95955
▁উদ্ভূত	-9.95955
▁Channel	-9.95956
▁পুস্তিকা	-9.95956
▁অব্যাহত	-9.95959
▁সালসলনি	-9.95959
▁Make	-9.9596
▁কু	-9.9597
▁প্ৰদূষণ	-9.95973
NCB	-9.95982
▁উত্থাপন	-9.95983
pages	-9.95983
▁জনোৱা	-9.95983
▁ক্ষয়	-9.9599
▁বক্ল	-9.95993
▁And	-9.95994
▁পুলিচ	-9.95995
▁Roll	-9.95998
▁পৰিবহন	-9.96005
▁নোহোৱাকৈ	-9.96012
▁মিনিট	-9.96013
▁আৰক্ষীয়ে	-9.96016
▁কৈ	-9.96021
▁কৰিছো	-9.96051
সদস্য	-9.96058
▁বিদ্যালয়	-9.96109
▁শিক্ষণ	-9.96117
Videos	-9.96131
▁ৰাইট	-9.96144
▁সংকট	-9.96159
▁বিতৰণ	-9.96161
▁পৃথক	-9.96194
▁ঘৰৰ	-9.96199
▁হ্ৰাস	-9.96208
help	-9.96246
▁মেল	-9.96256
▁মাৰ্চ	-9.96294
▁মূলধন	-9.96317
▁দয়া	-9.96323
▁অসমত	-9.96371
▁<	-9.9642
▁মিডিয়া	-9.96429
▁যোগ্যতা	-9.96438
▁ত্ৰুটি	-9.96445
▁ব্যক্তিত্ব	-9.96613
ion	-9.96613
▁≥	-9.96697
▁বিবেচনা	-9.96726
জুৰি	-9.96767
▁কৰোতে	-9.96785
▁স্বাক্ষৰ	-9.96873
▁কোঁ	-9.96895
▁ছা	-9.96995
▁ঘৰত	-9.97038
MY	-9.97089
▁পৰিছে	-9.97129
▁সেয়া	-9.97217
▁ৰাম	-9.97248
▁গড়	-9.97276
▁ৰোগী	-9.9734
WD	-9.97567
▁অঞ্চল	-9.97645
ংকা	-9.97662
▁সঁজুলি	-9.97763
▁লিখিব	-9.97791
▁পাঁচ	-9.97848
▁ধৰণে	-9.9789
▁চন্দ্ৰ	-9.97898
▁মাত্ৰা	-9.97919
wiki	-9.98001
▁চাই	-9.98014
বিশেষ	-9.98088
▁বাৰণ	-9.98111
▁মেন	-9.98183
)।	-9.98312
ashion	-9.98335
iaries	-9.98349
▁ৰোধ	-9.98365
িবলৈ	-9.98469
▁দলৰ	-9.98612
নিশ্চিত	-9.98613
II	-9.98617
বল	-9.9881
▁হা	-9.98836
্লাচ	-9.98847
▁°	-9.9885
▁কৰ্মচাৰীৰ	-9.99025
গৃহীত	-9.99088
লগীয়া	-9.99108
ex	-9.99145
▁টে	-9.99184
it	-9.99306
▁আলোক	-9.99395
▁নাচ	-9.99445
পানীৰ	-9.99528
▁লোকচানৰ	-9.99686
▁IP	-9.9979
▁সমস্যাৰ	-9.99849
▁ডাইৰেক্ট	-10.0012
ik	-10.0019
▁যোগ্য	-10.0021
৬	-10.0022
ণ্ড্রু	-10.0036
▁শ্ৰেষ্ঠ	-10.0042
▁সম্ভাৱ	-10.0044
▁ফ্ল	-10.0048
▁Co	-10.0054
তু	-10.0063
▁Cra	-10.007
ate	-10.0071
▁Mo	-10.0076
▁পৰিৱেশ	-10.0087
▁উপভোক্তা	-10.0092
▁সাত	-10.0094
DY	-10.0098
zie	-10.0103
▁Da	-10.0107
▁Kan	-10.0121
ভগ	-10.0124
ইন	-10.0125
াইজ	-10.0133
▁বছৰত	-10.0141
সে	-10.0164
▁হিচাপ	-10.0168
▁Frame	-10.0174
▁পূৰ্বে	-10.0177
▁নৱ	-10.0182
▁পাঠ্যক্ৰম	-10.019
▁বৈশিষ্ট	-10.0212
▁বিকলাংগতা	-10.0212
মুক্ত	-10.0214
ya	-10.0218
+)	-10.0221
▁আগবঢ়াব	-10.0239
▁Ch	-10.0247
▁দায়বদ্ধ	-10.0255
▁অনুপাত	-10.0256
চাঁচা	-10.0259
▁উত্পাটন	-10.0262
▁চিকিত্সা	-10.0262
▁টেছলা	-10.0262
▁ফেষ্টিভেল	-10.0262
▁বহিষ্কৰণ	-10.0262
▁বাধ্যতামূলক	-10.0262
recentchanges	-10.0262
▁ক্ৰিকেট	-10.0262
▁শিক্ষনবীশ	-10.0262
▁সঁচায়ক	-10.0262
▁পেকেজ	-10.0262
▁সন্দেহ	-10.0262
talk	-10.0262
▁সংশয়	-10.0262
contributions	-10.0262
▁যত্ন	-10.0262
▁ইন্টাৰনেট	-10.0262
▁অনুসৰণ	-10.0262
▁উপসমষ্টি	-10.0262
▁চেনেল	-10.0263
▁More	-10.0263
▁Nav	-10.0263
▁নাছিল	-10.0263
টকিয়	-10.0264
▁আনুষ্ঠানিক	-10.0264
▁পৰিকল্পনাকাৰী	-10.0264
▁কাৰীম	-10.0265
▁ব্যাস	-10.0265
▁ডিস্ক	-10.0266
▁বিচাৰিছে	-10.0266
▁পৰিষদ	-10.0266
▁পদবী	-10.0268
▁সন্মতি	-10.0269
▁অনেক	-10.0273
▁ইলেকট্ৰনিক	-10.0282
▁জৈৱ	-10.0286
▁মহানগৰী	-10.0286
▁কাৰ্টুন	-10.0286
▁পুঁজি	-10.0286
▁Science	-10.0286
▁অস্ত্ৰোপচাৰ	-10.0286
url	-10.0286
সম্পাদনা	-10.0287
▁আহিলা	-10.0287
ঞ্চ	-10.0288
▁সংগীত	-10.0291
▁পৰ	-10.0294
▁কাষত	-10.0295
▁নষ্ট	-10.0298
▁সুজু	-10.0299
াধীন	-10.0301
▁যুৱক	-10.0302
▁কলিতা	-10.0303
▁নিউজ	-10.0304
▁দাম	-10.0309
nav	-10.0311
▁অস্থায়ী	-10.0314
▁কোঁৱৰ	-10.0315
▁২০১৮	-10.0315
▁পৃষ্ঠাৰ	-10.0319
নো	-10.0321
hide	-10.0322
▁প্ৰডাক্টসমূহ	-10.0323
▁BO	-10.0332
▁গ্লেজ	-10.0341
য়ী	-10.035
https	-10.0366
▁আইডি	-10.0367
▁নহওক	-10.0375
▁English	-10.0376
▁windows	-10.0376
able	-10.0385
ive	-10.0387
▁পৰীক্ষাৰ	-10.0392
াইল	-10.04
হা	-10.0402
▁সতে	-10.0403
createacc	-10.0403
▁সন্তান	-10.0415
ুম্	-10.0444
▁পিচি	-10.0451
সকলো	-10.0464
োৱাৰ	-10.0468
ৰূপে	-10.0471
w	-10.0473
ুৱা	-10.0476
ীমা	-10.0476
):	-10.048
▁পৰিৱৰ্তন	-10.0487
▁এজ	-10.0489
▁Rec	-10.0496
িব	-10.05
▁,	-10.0511
▁চকু	-10.0519
▁নার	-10.052
মে	-10.0526
▁একো	-10.0531
হেতু	-10.0533
▁সকলে	-10.0535
list	-10.0537
চিল্কচ	-10.054
ঢ	-10.054
আতৰ	-10.0541
▁১৫	-10.0543
বিশ্বাস	-10.0548
▁হলে	-10.0548
www	-10.0548
ৰেচম	-10.0553
▁পঞ্জী	-10.0572
▁চিকিৎসাৰ	-10.0578
▁সম্	-10.0582
▁Post	-10.0593
ভূমি	-10.0597
da	-10.0614
▁কেডব্লিউ	-10.062
▁Sa	-10.062
ৰিক	-10.0634
▁ধনৰ	-10.0652
নাৰ	-10.0686
তেই	-10.0695
▁কৃষ্ণ	-10.0697
▁হোম	-10.07
▁তুলিব	-10.071
▁সংস্থাৰ	-10.0724
▁প্ৰজাতি	-10.0739
▁জাপান	-10.0749
▁বিলোপ	-10.0756
▁শীৰ্ষ	-10.076
▁মাধ্যম	-10.077
▁আগত	-10.0801
▁হাই	-10.0807
ame	-10.0843
▁ন্যায়	-10.0843
ভুক্ত	-10.0844
▁ৱে	-10.0849
ঁ	-10.0849
▁GA	-10.0853
বৰ	-10.0858
▁দুখন	-10.0864
▁২১	-10.0866
▁শ্রেণী	-10.087
▁ব্যৱহাৰকাৰী	-10.0879
▁কঠিন	-10.0879
▁প্রো	-10.088
কি	-10.0881
▁খা	-10.0883
▁বৰুৱা	-10.0883
▁সকলক	-10.0888
▁শিৰোনাম	-10.0906
▁অৱদান	-10.0913
▁মন্দিৰ	-10.0916
▁নিক	-10.092
▁ডেটাবেছ	-10.0924
▁মানুহে	-10.0925
▁sex	-10.0927
ধিকাৰ	-10.0937
▁চৰ্ত	-10.0947
▁মহান	-10.0952
▁দেশত	-10.0964
▁মানসিক	-10.0966
সকলক	-10.0971
▁চৰিত্ৰ	-10.0971
▁দৃশ্য	-10.0974
☠︎	-10.0975
▁আৰোপ	-10.0976
html	-10.0976
^{	-10.0976
▁MIUI	-10.0976
▁Ubuntu	-10.0976
▁pronunciation	-10.0976
▁আইআৰডিএ	-10.0976
▁আহ্বান	-10.0976
▁চিৰিয়াখানা	-10.0976
▁থিয়েটাৰ	-10.0976
▁নিষিদ্ধ	-10.0976
▁নৱেম্বৰ	-10.0976
▁ফাউণ্ডেশ্যন	-10.0976
▁ভগিনীসংঘ	-10.0976
▁সাফল্য	-10.0976
▁অঁ্যা	-10.0976
▁ইংলেণ্ড	-10.0976
▁August	-10.0976
▁ধনাদায়	-10.0976
▁হস্তান্তৰ	-10.0976
▁পূৰ্বাঞ্চল	-10.0976
▁কাৰ্য্যকলাপ	-10.0976
▁প্ৰতিযোগিতা	-10.0976
▁disk	-10.0976
▁ব্ৰেণ্ড	-10.0976
ONE	-10.0976
▁লিঙ্ক	-10.0977
info	-10.0977
▁হাউছ	-10.0977
▁July	-10.0977
▁REC	-10.0977
▁পৰিবৰ্তন	-10.0978
▁EUR	-10.0978
form	-10.0978
from	-10.0978
▁সফলতাৰ	-10.0979
with	-10.0979
▁বাতিলকৰণ	-10.098
▁সীমান্ত	-10.0981
▁স্বাধীনতা	-10.0981
▁জীৱিকা	-10.0982
▁সমিতি	-10.0982
▁সংসাধন	-10.0983
▁দিৱস	-10.0984
লচুদাচুদি	-10.0989
▁শক্ত	-10.0989
▁ঘোষ	-10.0992
▁ধান	-10.0992
▁সীমাবদ্ধতা	-10.0993
▁প্ৰতিষ্ঠাপক	-10.0993
▁পুনঃস্থাপন	-10.0996
▁Free	-10.0998
▁আন্তৰ্	-10.0998
▁কাহিনী	-10.1
▁or	-10.1001
▁অবৈধ	-10.1001
▁জ্যামিতি	-10.1001
▁গৱেষক	-10.1002
▁যাওক	-10.1002
▁উৎসৱ	-10.1008
▁গরম	-10.1009
▁কাৰ্ড	-10.1011
▁মূখ্য	-10.1012
▁আলফা	-10.1013
▁গেছ	-10.1014
▁ৰাখে	-10.1027
▁ৰেঞ্জ	-10.103
▁সোমবাৰ	-10.1034
▁এবাৰ	-10.1041
▁আহিব	-10.1046
▁দ্বা	-10.1051
▁পদত	-10.1062
▁মোবাইল	-10.1066
▁সাগৰ	-10.1067
▁পাঠ্য	-10.1069
▁বাবেই	-10.1074
▁আগবাঢ়ি	-10.1078
▁আধুনিক	-10.1082
ation	-10.1088
পূৰ্ব	-10.1095
▁বৈজ্ঞানিক	-10.1098
▁দিনত	-10.1101
▁মো	-10.1101
প্তাহ	-10.1101
▁সহায়ত	-10.1109
সূচী	-10.113
পৰাকৈ	-10.1131
িঅ	-10.1134
▁হু	-10.1134
IV	-10.1135
সমূহত	-10.1135
▁মোৰে	-10.1138
▁শাস্ত্ৰ	-10.1141
▁ছপ	-10.1146
▁প্ৰশ্নৰ	-10.115
▁গোস্বামীৰ	-10.1158
আ	-10.1161
▁পৱিত্ৰ	-10.1167
▁বুদ্ধি	-10.1169
▁বিষয়ত	-10.1182
other	-10.1182
ad	-10.1187
▁লো	-10.1195
▁দিছে	-10.1196
▁জনাব	-10.1197
▁দিনটোৰ	-10.1201
এল	-10.121
ty	-10.1211
গা	-10.1211
▁বজা	-10.122
▁যিসকল	-10.1224
▁ভিতৰতে	-10.1235
য়ঃ	-10.1249
ঙ্গ	-10.1251
login	-10.1259
▁সমস্যাটো	-10.1265
োন	-10.1269
ম্প	-10.1275
ইষ্ট	-10.1275
▁ৰাজ	-10.1278
▁যাক	-10.1278
জু	-10.1278
▁কাৰ্য্যক	-10.1282
জ্যোতি	-10.1301
লণ্ড	-10.1302
▁চৰকাৰৰ	-10.131
#	-10.1315
াক	-10.1318
পথ	-10.1319
III	-10.1322
এইটো	-10.1341
deleted	-10.135
বান	-10.1365
▁সভা	-10.138
যোগে	-10.1385
য্	-10.1407
▁পঞ্চম	-10.1408
▁m	-10.1422
ন্চিঅ	-10.1423
জনে	-10.1443
াইট	-10.1445
▁মেয়ে	-10.1468
▁পূৰ্ব	-10.1476
বিধ	-10.1494
\"	-10.151
time	-10.151
▁g	-10.1522
▁আঁতৰ	-10.1545
▁হেল	-10.1552
▁১০০	-10.1552
▁লি	-10.1562
▁পূৰ্ণ	-10.1582
সম্প	-10.1592
ওম	-10.1601
কু	-10.1604
ies	-10.1613
চ্চ	-10.1615
ীবর	-10.1632
▁ঘণ্টাত	-10.1644
to	-10.1646
ns	-10.1656
িয়াম	-10.1656
▁বিপৰ্য্যয়সমূহ	-10.1657
▁পৰিস্থিতিৰ	-10.1661
▁শুদ্ধ	-10.1689
কেই	-10.1703
▁মানক	-10.1715
▁ওপে	-10.1721
▁পূৰ্বৰ	-10.1728
▁তাৰিখৰ	-10.1737
▁আগ্ৰহ	-10.1739
▁ৰাছুল	-10.1741
reason	-10.1745
▁উলিওৱা	-10.1745
▁ঘূৰ্ণীবতাহ	-10.1745
▁মোৎজাৰ্ট	-10.1745
▁দেখুওৱা	-10.1745
Islam	-10.1745
▁পাঁচমিশাল	-10.1745
▁ভাইৰেল	-10.1745
submit	-10.1746
▁Zhong	-10.1746
▁জুবিন	-10.1746
নৱমুছলিম	-10.1746
▁জাকাত	-10.1746
▁বিশ্লেষণ	-10.1746
▁Mission	-10.1746
▁হিমন্ত	-10.1746
▁মাৰ্কেটিং	-10.1746
▁অৰ্থনীতি	-10.1746
▁সৰ্বাত্মক	-10.1746
▁শিকাৰু	-10.1746
▁Ka	-10.1746
▁সঘন	-10.1746
▁Hard	-10.1747
▁অৰুণাচল	-10.1747
▁স্বাগতম	-10.1747
▁অধ্যক্ষ	-10.1747
▁নাথাকে	-10.1747
▁ব্লগ	-10.1747
▁Films	-10.1748
▁তুমি	-10.1748
▁শতিকা	-10.1749
▁ইচ্ছাকৃত	-10.1749
চূড়	-10.175
▁নোৱাৰে	-10.1752
▁পৰিচালিত	-10.1753
▁নতুনতম	-10.1754
▁তাৰপিছত	-10.1759
▁Bur	-10.1759
স্তুতি	-10.176
▁সেয়ে	-10.1763
▁আচ	-10.1763
arp	-10.1764
▁সাংখ্যিক	-10.1768
▁নৰ্থ	-10.177
▁গভীৰ	-10.1771
▁খচৰা	-10.1772
▁বিষাক্ত	-10.1772
▁বিমানবন্দৰ	-10.1772
▁নিৰাপদ	-10.1774
▁b	-10.1777
▁উন্নতি	-10.1782
▁নামস্থান	-10.1782
▁পুৰস্কাৰ	-10.1786
জাতিক	-10.1786
▁এনেদৰে	-10.1787
▁জামা	-10.1794
▁ক্ষেত্ৰসমূহ	-10.1797
▁সাধাৰণতে	-10.1797
na	-10.1801
▁বিনামূলীয়া	-10.1802
৯	-10.1806
▁পেশী	-10.1808
▁বিশেষকৈ	-10.1812
জে	-10.1814
▁তাপ	-10.1824
▁বহি	-10.1827
▁অসাম	-10.1831
ৰো	-10.1832
▁তকৈ	-10.1835
▁কামৰূপ	-10.1836
েণ্ট	-10.1836
▁আখৰ	-10.1838
▁গোচৰ	-10.1842
ঙগ	-10.1845
ক্	-10.1849
SI	-10.185
sp	-10.1856
▁একেলগ	-10.1856
ord	-10.1861
▁ভৰি	-10.1869
▁ব্যক্তিক	-10.1878
▁চালক	-10.1895
▁ভিন্ন	-10.1901
watch	-10.1906
ৰোনা	-10.1916
sub	-10.192
▁মাছ	-10.1922
ফালে	-10.1925
▁বৃত্তি	-10.1927
▁ব্য	-10.1931
▁লা	-10.1932
চিয়েল	-10.1938
▁২২	-10.1942
▁বন্ধু	-10.1946
ness	-10.196
এক	-10.1961
▁ডাই	-10.1964
ika	-10.1967
▁ডাক	-10.1969
ৰ্ট	-10.1982
▁ব্ৰাউজাৰ	-10.1988
yan	-10.1992
বী	-10.1995
▁২০০	-10.2009
Class	-10.2011
▁বাস	-10.202
one	-10.2022
▁Dev	-10.2031
ভাগ	-10.2043
▁অকল	-10.205
▁বিপদাশংকাৰ	-10.2067
ধৰণৰ	-10.208
ব্ল	-10.2085
▁নানা	-10.2091
▁চুক্তিৰ	-10.2101
ভাৰতীয়	-10.2105
চন	-10.2115
bies	-10.2122
▁প্ৰতিবাদ	-10.2123
▁ষ্টক	-10.2136
দেন	-10.2142
▁স্তৰ	-10.2142
▁দান	-10.2146
কেডব্লিউ	-10.215
▁অগ্নি	-10.2151
▁পৰিমাণৰ	-10.2186
চে	-10.219
net	-10.2201
ly	-10.2202
▁ছুন্না	-10.2213
ুজু	-10.2232
▁Bhar	-10.2245
▁Dec	-10.2247
সম্পাদনাৰ	-10.2254
▁চলাই	-10.2254
el	-10.2277
েনেদৰে	-10.2284
AP	-10.2294
পাত	-10.2294
▁গু	-10.2306
▁চিত্ৰ	-10.231
="	-10.2311
▁স্থিতি	-10.2318
কেইটা	-10.2322
▁স্থানত	-10.2324
▁বাট	-10.2325
ছবি	-10.2332
এছ	-10.2347
▁Me	-10.2365
▁চে	-10.2371
▁গোস্বামী	-10.2379
Man	-10.2386
▁ষ	-10.2395
েলিং	-10.2413
▁ছাইট	-10.2416
বাহী	-10.2418
▁সাধন	-10.2421
▁বুজ	-10.2424
▁আকাৰ	-10.2426
ীকৰণ	-10.2427
ৰু	-10.2429
ার	-10.2438
▁প্ৰকৃত	-10.2441
জয়	-10.2463
ৰ্ড	-10.2468
▁কমিটি	-10.2474
▁কুশল	-10.2479
▁La	-10.2483
৪৯	-10.2493
▁ডেকা	-10.2505
▁কালি	-10.251
ধান্য	-10.2512
▁নাৰী	-10.2513
nd	-10.2518
ue	-10.2536
▁জগত	-10.2538
▁New	-10.2546
anta	-10.2546
new	-10.2559
▁সন্ত্ৰাসবাদ	-10.2568
লাৰ	-10.2572
▁শত্ৰু	-10.2574
▁HD	-10.2574
upload	-10.2577
▁দৃঢ়	-10.2578
▁বিনিয়োগ	-10.2578
▁স্ট্যান্ড	-10.2579
▁দূৰ্ঘটনা	-10.2579
invalid	-10.2579
▁বাহুসন্ধিমূল	-10.2579
▁অৱলোকন	-10.2579
▁গ্ৰেপ্তাৰ	-10.2579
▁তিলাৱাত	-10.2579
▁দম্পতি	-10.2579
▁সংযোজিত	-10.2579
resetpass	-10.2579
▁ৰহস্য	-10.2579
э	-10.2579
▁ইটালিয়ান	-10.2579
▁বুঢ়া	-10.2579
▁নিষ্পত্তি	-10.2579
▁কাৰখানা	-10.2579
▁নালাগে	-10.2579
▁বৃত্তিধাৰী	-10.2579
display	-10.2579
▁বাগিচা	-10.2579
▁প্ৰশ্নোত্তৰ	-10.2579
▁সাক্ষৰতা	-10.2579
▁আকৌ	-10.2579
▁CIN	-10.2579
▁২০১৭	-10.2579
▁গ্ৰন্থপঞ্জী	-10.2579
▁নিৰ্ভৰশীল	-10.2579
▁ৰুকন	-10.258
▁ট্ৰেডিং	-10.258
External	-10.258
▁লোগো	-10.2581
▁নিৰ্ধাৰণ	-10.2581
▁ৱারি	-10.2581
▁জিতেন্দ্	-10.2581
▁ঈশ্বৰ	-10.2582
▁প্ৰমাণপত্ৰ	-10.2582
▁ইনফিল	-10.2582
▁বিশদ	-10.2582
▁:-	-10.2583
▁ভগ্নী	-10.2583
▁ৰাছুলুল্লা	-10.2584
angle	-10.2584
▁বিনামূলীয়াকৈ	-10.2584
▁মানুহজন	-10.2584
▁কাৰ্যালয়	-10.2585
hain	-10.2585
▁Ma	-10.2588
যোৱা	-10.2588
▁গুদ	-10.259
▁পৰীক্ষাৰ্থীৰ	-10.259
▁শেহতীয়াকৈ	-10.2593
▁চেল	-10.2594
▁পোষ্ট	-10.2595
▁হাজাৰ	-10.2596
▁আগুৱাই	-10.2598
▁কুকিজ	-10.26
▁ভূমিকা	-10.2601
▁শৰ্মাই	-10.2602
▁দশক	-10.2604
▁পিছতে	-10.2604
▁খুলি	-10.2605
▁কীলক	-10.2607
্তী	-10.2607
▁অভিলেখ	-10.2607
▁বিষ্ণু	-10.2607
▁নিগম	-10.2607
▁মছজিদ	-10.2607
▁কপিৰাইট	-10.2607
▁বেঙ্ক	-10.2607
▁সদস্যপদ	-10.2608
▁গৰ্ভাৱস্থা	-10.2608
▁পচন্দ	-10.2608
▁সম্প্ৰসাৰণ	-10.2608
▁কৰোনা	-10.2613
▁খোলা	-10.2614
▁বিহু	-10.2617
▁আকৃতি	-10.2622
:[	-10.2626
▁ৰাতি	-10.2627
▁আন্তঃৰাষ্ট্	-10.2629
তঃ	-10.2633
▁স্তম্ভ	-10.2633
▁স্বীকাৰ	-10.2635
ANI	-10.2635
specialpages	-10.2635
▁চিকিৎসালয়ত	-10.2636
▁Corr	-10.2639
▁কালো	-10.2641
▁চুলি	-10.2642
▁মুনাজ্জিদ	-10.2645
▁মিডিয়াৱিকি	-10.2647
।"	-10.2647
▁বাক্য	-10.2648
▁খাই	-10.2656
▁পুৰুষ	-10.2667
▁লেন	-10.2676
▁গঠিত	-10.268
পৃষ্ঠাৰ	-10.2682
▁পৌৰ	-10.2683
▁খালী	-10.2683
▁পঢ়ি	-10.2685
▁চৰ্চা	-10.2685
কাম	-10.2696
ra	-10.2698
▁উল্লেখযোগ্য	-10.2701
▁প্ৰচেষ্টা	-10.2703
▁নামটো	-10.2703
▁পেতিতে	-10.2708
▁হয়৷	-10.2708
▁চহৰ	-10.2709
▁দুয়োটা	-10.2711
শীল	-10.2718
জা	-10.2725
”।	-10.2737
লী	-10.2741
z	-10.2752
▁p	-10.2761
▁যুক্ত	-10.2761
he	-10.278
▁বজাত	-10.2784
▁প্ৰতিষ্ঠানৰ	-10.2809
▁যুগ	-10.2815
▁ডে	-10.283
ium	-10.2831
ধ	-10.2832
ুড়া	-10.2835
্স	-10.2838
▁কৌশল	-10.2844
▁Fun	-10.2847
সমূহক	-10.2852
▁ৰা	-10.2875
ng	-10.288
দাৰী	-10.2889
আমাৰ	-10.2904
▁Sco	-10.2921
ভিড	-10.2928
SH	-10.2931
ঘ	-10.2942
āra	-10.2948
শিষ্ট	-10.2956
▁হিল	-10.296
স্থ	-10.2964
ক্ত	-10.2972
▁w	-10.2974
▁প্ৰতিনিধি	-10.2981
▁ID	-10.2998
▁তিল	-10.3005
গ্ৰহণ	-10.3006
যেনে	-10.3008
▁All	-10.3009
▁৷	-10.3017
মেন	-10.3017
পক্ষ	-10.3023
▁ধৰিব	-10.3046
উন্নয়ন	-10.3052
Assam	-10.3054
▁প্রয়োজন	-10.3077
ent	-10.3077
ছো	-10.308
ছাত্ৰী	-10.3083
AB	-10.3084
▁ৰি	-10.3096
▁চলিব	-10.3099
ৱাৰ্ড	-10.31
▁কোম্পানীসমূহ	-10.3102
▁টাও	-10.3117
▁সুখ	-10.3119
▁অধি	-10.315
▁আজ	-10.3159
েনা	-10.316
ক্ষ	-10.3175
▁মুন	-10.3177
ry	-10.32
▁অল	-10.3206
▁অভাৱ	-10.3215
▁তালিকাত	-10.3215
▁FI	-10.3216
ঙৰ	-10.3217
ফু	-10.3217
িট	-10.3219
িম	-10.3226
▁চনলৈ	-10.324
িডা	-10.3244
▁Com	-10.325
▁অৱগ	-10.3262
েজ	-10.3274
▁সহযোগিতা	-10.3286
▁ডিজিট	-10.3301
▁র	-10.3302
create	-10.3321
ai	-10.3323
এন	-10.335
▁বিভাগত	-10.336
ma	-10.3365
▁সেনা	-10.3396
বিডব্লিউ	-10.3401
▁মংগল	-10.3405
▁অংশগ্ৰহণ	-10.3409
▁বিচাৰক	-10.3414
▁মাত্ৰ	-10.3444
▁ইন্	-10.3454
▁অপ	-10.3455
iv	-10.3458
টাৰ	-10.3459
ড্ৰ	-10.3461
গ্রহ	-10.3464
▁অপৰাধ	-10.3464
▁ৰিচ	-10.3467
view	-10.3467
তেল	-10.3471
▁দহ	-10.3471
▁সীমাবদ্ধ	-10.3473
▁কাটি	-10.3475
ানি	-10.3476
▁পৰোক্ষ	-10.3482
▁পৃথিবী	-10.3482
▁গগৈ	-10.3484
▁বিৰোধ	-10.3487
count	-10.3487
▁ধ্বংস	-10.3488
default	-10.3488
▁ভূঁইকপ	-10.3488
▁অপ্ৰত্যাশ	-10.3488
▁আখিৰাত	-10.3488
▁ছিমছাম	-10.3488
▁টেন্র্ফ	-10.3488
▁নাৰ্লিকাৰ	-10.3488
▁নিষেধ	-10.3488
▁ফ্রেমৱৰ্কটো	-10.3488
▁মন্ত্ৰালয়	-10.3488
▁শংকৰদেৱ	-10.3488
▁সময়ছোৱাত	-10.3488
▁স্কাইপ	-10.3488
▁Change	-10.3488
▁আলোকচিত্ৰবিদ্যা	-10.3488
▁বাৰেমহীয়া	-10.3488
▁মিৰ্জাখানী	-10.3488
merge	-10.3488
▁মেকানিক	-10.3488
▁ৰমজান	-10.3488
▁কাৰ্যকলাপ	-10.3488
▁নিৰ্দ্দিষ্ট	-10.3488
▁Savera	-10.3488
▁অগ্ৰাধিকাৰ	-10.3488
▁অবৰোধ	-10.3488
▁জব্দ	-10.3488
▁উন্নীতকৰণ	-10.3488
▁নাছিৰ	-10.3488
▁গেৰেজ	-10.3488
▁স্বাৰ্থ	-10.3488
▁সদস্যভুক্তি	-10.3488
▁শ্ৰীমন্ত	-10.3488
▁কাইলৈ	-10.3488
▁লুণ্ঠন	-10.3488
▁প্রকল্প	-10.3488
▁ৰেডিঅ	-10.3488
Social	-10.3488
▁সিহঁত	-10.3488
▁লুঠ	-10.3488
▁ইসলাম	-10.3489
▁টেবুল	-10.3489
▁প্ৰতিক্ৰিয়া	-10.3489
▁জাহাজ	-10.3489
▁পৰ্যালোচনা	-10.3489
▁পৰিবহণ	-10.3489
▁ভাষণ	-10.349
▁সপোন	-10.349
▁আগবঢ়াইছে	-10.349
▁দোষ	-10.349
▁চিনাক্তকৰণ	-10.349
▁সভ্যতা	-10.349
pcs	-10.349
▁মাইক্ৰ	-10.349
▁এইচকি	-10.349
short	-10.3491
▁পাৰোঁ	-10.3491
▁Chen	-10.3493
▁May	-10.3493
▁সময়সীমা	-10.3493
▁টীম	-10.3495
▁ডাঃ	-10.3496
▁নিৰ্মান	-10.3497
▁দৰ্শনাৰ্থী	-10.3498
▁নোট	-10.3501
▁ব্যৱস্থাপনাঃ	-10.3502
▁মানসিকতা	-10.3502
▁ৰাষ্ট্ৰ	-10.3504
▁উদ্ভাৱন	-10.3506
jt	-10.3507
▁পৃথিৱীখন	-10.3513
োৱা	-10.3513
▁ৰাইজ	-10.3514
pt	-10.3514
ালী	-10.3518
▁যোৰহাট	-10.3518
▁পৰিসৰ	-10.3519
▁শ্ৰীগুণম	-10.3519
▁আছো	-10.352
▁Award	-10.352
ায়ান	-10.3521
▁বোজা	-10.3521
▁বাধ্য	-10.3522
▁মাথোন	-10.3523
▁অন্তত	-10.3523
▁দূৰত্ব	-10.3523
▁শাৰী	-10.3525
▁ন্যাস	-10.3525
▁আয়োজন	-10.3526
▁সীমাৰ	-10.3527
▁Al	-10.3529
▁টক	-10.3532
▁পঢ়া	-10.354
▁Tweet	-10.3544
▁Part	-10.3545
▁সম্পাদক	-10.3547
▁সংবাদ	-10.3557
▁ধাতু	-10.3557
▁আংশিক	-10.356
▁শৈক্ষিক	-10.356
▁২০১৫	-10.356
▁Cha	-10.356
▁সংৰক্ষণ	-10.3561
▁Tuber	-10.3562
▁চলোৱা	-10.3566
▁থাকিবলৈ	-10.3566
▁প্ৰেম	-10.3568
ind	-10.357
▁ঊ	-10.3571
▁গোপন	-10.3576
▁স্বাভাৱিক	-10.3576
all	-10.3589
▁কৃষক	-10.3591
▁উৎসাহ	-10.3592
▁long	-10.3597
্ৰমে	-10.3598
ধা	-10.3602
your	-10.3605
▁ফালি	-10.3608
▁নিৰ্দ্ধাৰ	-10.3609
▁জুই	-10.361
▁কথাটো	-10.3611
▁শিৰোনামা	-10.3618
়্	-10.3621
▁খোজে	-10.3632
▁কন্দ	-10.3637
অসীমিত	-10.364
▁প্ৰকৃতিৰ	-10.3649
মানৰ	-10.3651
▁সফলতা	-10.3663
ব্যৱহাৰ	-10.3663
▁গীত	-10.3665
▁আধাৰত	-10.3666
▁বল	-10.3672
ুম	-10.3676
ষ্ঠ	-10.3677
▁পুন	-10.3678
শ্যন	-10.3679
▁উদ্যোগী	-10.368
▁সূত্ৰ	-10.3684
▁এপ	-10.3686
arba	-10.3693
▁Mans	-10.3699
▁প্ৰতিভা	-10.3701
েক্স	-10.3702
▁Ne	-10.3704
▁বিবৃতি	-10.3708
if	-10.3709
▁পায়ু	-10.3727
ভা	-10.3739
me	-10.3746
?]	-10.3752
us	-10.3757
▁বুজি	-10.3763
$	-10.3775
▁পৰিব	-10.3779
টাও	-10.3796
▁হিউম	-10.3806
▁বছৰে	-10.3807
▁কঢ়িয়া	-10.3808
▁উদ্দেশ্যত	-10.381
ab	-10.3811
▁লুট	-10.3815
নেক	-10.3839
U	-10.3857
▁ৰোজা	-10.3864
▁বিন্দু	-10.3865
▁চাইন	-10.3868
▁পৃষ্ঠাখন	-10.3877
▁দায়বদ্ধতাৰ	-10.3883
▁কী	-10.3885
আমি	-10.3885
একাকী	-10.3886
যি	-10.3901
lbar	-10.3904
ওক	-10.3916
পাল	-10.3918
▁তুলি	-10.3924
▁মুল্য	-10.3929
ck	-10.3929
:-	-10.3931
নাং	-10.3932
▁ডাল	-10.3935
▁সৌন্দৰ্যৰ	-10.3939
DL	-10.3952
সেৱা	-10.3958
▁ব্যৱস্থাৰ	-10.3964
ual	-10.3982
ীপ	-10.3994
পো	-10.3996
১০	-10.4011
▁Li	-10.4017
▁ক্ষতিক	-10.4021
যুদ্ধ	-10.4027
▁বৰ্গ	-10.4035
প্ৰৱেশ	-10.4036
সিদ্ধ	-10.4041
▁ফোনটো	-10.4045
ঞ্চলি	-10.4047
User	-10.4049
গোহাঁই	-10.4049
▁মূল্যত	-10.4056
▁সদস্যক	-10.406
or	-10.4061
▁আগবঢ়াই	-10.4062
▁ফুল	-10.4063
সাধাৰণ	-10.4071
http	-10.4071
াৱী	-10.4079
▁For	-10.4081
▁ঘটা	-10.4082
▁জিন	-10.4085
অপেশাদার	-10.4086
েশ্বৰ	-10.4093
▁আগ	-10.4102
▁ফালৰ	-10.4107
▁ছাৰ	-10.4111
▁কাকত	-10.4129
িতা	-10.4137
%)	-10.416
কৌশল	-10.418
▁দিনে	-10.4182
বাদী	-10.4186
পূব	-10.4187
▁ৱাই	-10.4204
SE	-10.4206
▁Des	-10.4218
ফা	-10.422
▁ফল	-10.4223
▁ৰাজ্যত	-10.4227
gar	-10.4228
টোৱেই	-10.4231
▁ওচৰ	-10.4241
▁থাই	-10.4241
▁Con	-10.4249
▁শুক	-10.4258
▁Dhar	-10.429
ুদ	-10.4294
▁ভাই	-10.43
▁যাত্ৰী	-10.4302
ৰণ	-10.4305
aze	-10.4308
িয়	-10.4308
েচ	-10.4313
▁চুম্বক	-10.4313
.....	-10.4314
▁বিষ	-10.4315
ney	-10.4332
▁ঐ	-10.4337
ft	-10.4342
▁সিং	-10.4349
▁স্মাৰক	-10.4351
▁ব্ৰাউজ	-10.4355
▁টো	-10.4359
▁[[	-10.4368
▁ভাড়া	-10.437
▁অপাৰেটৰ	-10.4376
হী	-10.4377
ুন	-10.4383
পিএ	-10.4386
লোক	-10.4392
ুক	-10.4406
▁শুভ	-10.4417
▁স্বাধীন	-10.4418
ছি	-10.4419
▁অধীন	-10.4428
▁ধৰণ	-10.4432
নাম	-10.4442
▁ৰূপে	-10.4444
▁ভৰণি	-10.445
▁ভিতৰ	-10.4452
▁উল	-10.4467
শ্ব	-10.4469
▁পৰিবেশ	-10.4478
▁আৱশ্যক	-10.4479
▁যথাযথ	-10.4483
▁ন্যায়াধীশ	-10.4484
▁বৰ্ণ	-10.4484
▁যন্ত্র	-10.4487
Ø	-10.4488
·	-10.4488
ی	-10.4488
▁Khabar	-10.4488
▁অস্তিত্ব	-10.4488
▁আকস্মিক	-10.4488
▁ইঞ্চিউৰেন্স	-10.4488
▁উষ্ণতা	-10.4488
▁এলপিভিডি	-10.4488
▁কেম্ব্ৰিজ	-10.4488
▁তফছীৰ	-10.4488
▁ধুমুহা	-10.4488
▁বক্তৃতা	-10.4488
▁মৃতদেহ	-10.4488
৞	-10.4488
▁December	-10.4488
▁এপ্লিকেশ্বন	-10.4488
▁চশমা	-10.4488
▁লাইব্ৰেৰী	-10.4488
▁অগ্রাধিকাৰ	-10.4488
▁উথ্থাপ	-10.4488
▁পাকিছ	-10.4488
▁বালসমেত	-10.4488
▁হিন্দি	-10.4488
▁প্রস্তুত	-10.4488
▁নগদধন	-10.4488
▁অসুবিধেও	-10.4488
header	-10.4488
▁পৰামৰ্শদাতা	-10.4488
▁কাপোৰ	-10.4488
▁হত্যা	-10.4488
▁আক্ৰমণ	-10.4489
▁শিতান	-10.4489
▁চাঁওক	-10.4489
▁কৈছিল	-10.4489
redirect	-10.4489
▁বসন্ত	-10.4489
▁Mini	-10.4489
▁গৱেষনা	-10.449
▁যাকাত	-10.449
▁কীচেন	-10.4491
Email	-10.4491
▁অবাঞ্চ	-10.4491
▁পঠাব	-10.4491
▁পাম্প	-10.4491
▁মূল্যবান	-10.4492
▁পঠিত	-10.4493
▁ইত্যাদিৰ	-10.4493
ts	-10.4494
দিনীয়া	-10.4494
মাহেকীয়া	-10.4494
▁সতেজ	-10.4496
েণ্ডাৰ	-10.4496
▁ওমৰা	-10.4499
▁সহযোগত	-10.4499
▁পদাৰ্থ	-10.4499
▁গাড়ীৰ	-10.45
▁পোহৰ	-10.45
▁উপৰি	-10.4501
▁কাৰনে	-10.4501
▁পুচ	-10.4502
▁সম্পর্কে	-10.4503
iaomi	-10.4503
options	-10.4505
▁পৰিৱৰ্ত্তন	-10.4508
PF	-10.4509
▁Posts	-10.4511
▁Trad	-10.4513
▁নোৱাৰা	-10.4521
▁মাদ্ৰাজ	-10.4521
▁সংক্ৰান্ত	-10.4522
▁পৰিচালক	-10.4524
বনে	-10.4525
▁সুচী	-10.4526
▁আগবঢ়ায়	-10.4528
▁ব্যৱহ	-10.4531
▁চাবলৈ	-10.4538
▁থিয়	-10.455
▁সম্বন্ধে	-10.4557
▁শ্ৰেণীসমূহ	-10.4565
▁উদযাপন	-10.4567
▁অভিধান	-10.4567
▁টিপিএ	-10.4569
▁"$	-10.4572
▁ভংগ	-10.4585
▁VA	-10.4589
▁আহে	-10.4592
▁ইতি	-10.4593
..	-10.4594
▁সদায়	-10.4594
▁বেয়া	-10.4602
▁প্রৱেশ	-10.4614
▁সাম্প্ৰতিক	-10.4615
▁আহাৰ	-10.4615
▁শে	-10.463
tiya	-10.4631
▁আহ	-10.4632
চিয়ান	-10.4648
days	-10.4652
stry	-10.4652
▁কাৰ্য্যৰ	-10.4652
▁জটিল	-10.4653
▁অসমখন	-10.4654
age	-10.466
▁নো	-10.4662
▁ভাৰতবৰ্ষৰ	-10.4668
▁গ্	-10.4673
▁ডকাইতি	-10.4677
▁ঘন্টা	-10.4681
▁কোম্পানীবোৰ	-10.4683
▁বৰ্ষৰ	-10.4689
িশিষ্ট	-10.4691
পৰ	-10.4693
▁.	-10.4694
'''$	-10.4698
do	-10.4701
ীয়াই	-10.4706
▁নিৰ্ধাৰ	-10.471
▁সামগ্ৰীবোৰ	-10.4711
▁বৃহস্পতিবাৰ	-10.4722
▁তেনেহল	-10.4722
কী	-10.4735
▁খোৱা	-10.4737
▁দফা	-10.4739
শীৰ্ষক	-10.474
BD	-10.4753
▁ইমাম	-10.4757
ফাৰ	-10.4758
▁কমিট	-10.4759
প্ৰতি	-10.4764
মাতৃ	-10.4767
▁বিভাগে	-10.4771
ডিং	-10.4774
li	-10.4778
▁কেব	-10.4784
}}_	-10.4792
িৰ	-10.4795
বস্তু	-10.4814
লেট	-10.4823
▁প্	-10.4846
ত্ৰী	-10.4852
▁নিয়মিত	-10.4853
ir	-10.4853
▁মুহ	-10.4857
OS	-10.4858
)="	-10.486
CD	-10.4861
মেন্ট	-10.4873
▁প্ৰতিষ্ঠানসমূহ	-10.4874
বে	-10.4888
▁আয়	-10.4889
▁Sex	-10.4895
চিত্ৰ	-10.4895
▁সামগ্ৰীসমূহ	-10.4896
▁চিৰ	-10.4897
▁যু	-10.4897
ড়	-10.4905
মাই	-10.4913
▁Bio	-10.4914
and	-10.492
▁কটা	-10.4925
▁কাৰ্যসূচী	-10.4929
iks	-10.4938
▁মেধি	-10.4941
ওৱা	-10.4944
য়াম	-10.4945
▁টেব	-10.4966
▁বড়	-10.4979
েক	-10.4982
▁পৰিস্থিতিত	-10.4987
▁জা	-10.499
▁ভালে	-10.4991
▁দুৰ্ভাগ্য	-10.4993
▁ক্ল	-10.4996
PG	-10.4997
▁ML	-10.5002
লিচিত	-10.5004
▁অভিজ্ঞতাৰ	-10.5005
প্র	-10.5014
▁ব্যক্তিজন	-10.5016
mi	-10.5031
োচ্চ	-10.5031
ৰ্ণ	-10.5048
্লাহ	-10.5062
▁mov	-10.5066
ite	-10.5084
▁আনিব	-10.5095
▁ৰাব	-10.5099
▁সদ্	-10.5101
▁পৰ্যায়	-10.5102
সামগ্ৰী	-10.5107
▁II	-10.5116
▁জনতা	-10.5116
Share	-10.5124
অন্য	-10.5125
নিকা	-10.5125
নিষ্পাপ	-10.5127
Porn	-10.5131
▁নামত	-10.5141
▁প্ৰদানকাৰীসকল	-10.5142
চাই	-10.5142
চলতে	-10.5143
সম্পূৰ্ণ	-10.515
▁নাট	-10.5153
গুপ্তশব্দ	-10.5158
োগ	-10.5161
নিৰ্দেশনা	-10.5161
উৎস	-10.5172
দিয়া	-10.518
পুৰুষ	-10.518
sha	-10.5186
হস্তমৈথুন	-10.5186
বাত	-10.5195
াৱলী	-10.5199
▁ব্যাকল	-10.5205
▁d	-10.5236
ার্	-10.5239
ীৰেন্দ্ৰ	-10.5244
▁Ho	-10.5275
পাৰ	-10.5277
ah	-10.528
িয়েল	-10.529
৯০	-10.5307
▁ফো	-10.5307
▁চাল	-10.531
▁ঢ	-10.5313
ary	-10.5318
article	-10.533
{{	-10.5337
ার্ড	-10.5342
▁সৈকত	-10.5345
ইলাৰ	-10.5353
ৱিকি	-10.5357
আন	-10.536
▁শিক্ষাৰ্থী	-10.5379
বস্তুৰ	-10.5382
▁গৱেষণাৰ	-10.5389
ecent	-10.5394
ৱিক	-10.5398
দালি	-10.5403
ees	-10.5406
যুগ	-10.5406
ml	-10.5409
ৰিয়াম	-10.5412
▁ৰু	-10.5423
▁পৰ্টেল	-10.5426
ইছলাম	-10.5429
▁যুৱ	-10.5429
দিন	-10.5449
▁দত্ত	-10.5471
▁বাৰ	-10.5489
৭৫	-10.5498
ie	-10.55
reset	-10.5502
▁ইউৰো	-10.5503
▁As	-10.5508
▁ৱেবছাইটত	-10.5508
▁দলত	-10.5524
বিদ	-10.5531
▁দোকান	-10.5538
ৰিয়েল	-10.5539
াঃ	-10.5547
১৫	-10.5548
▁জয়ন্ত	-10.5561
▁পৰিপূৰ্ণ	-10.5561
ানো	-10.5562
▁কবি	-10.5576
▁ৰো	-10.5576
াৎ	-10.5578
▁উদ্ভ	-10.5582
PM	-10.5584
মূল্য	-10.5585
▁স্ক	-10.5587
▁নথিপত্ৰ	-10.5593
▁হেকাৰ	-10.5593
و	-10.5599
▁Tumblr	-10.5599
nbsp	-10.5599
ن	-10.5599
▁Affairs	-10.5599
▁Education	-10.5599
▁language	-10.5599
▁উৰ্দু	-10.5599
▁চফ্টৱেৰ	-10.5599
▁ছফ্টৱেৰ	-10.5599
▁ছেপ্তেম্বৰ	-10.5599
▁ঢোকানো	-10.5599
▁ত্ৰিভূজ	-10.5599
▁পঠিওয়া	-10.5599
▁ভূমিস্খলন	-10.5599
▁সন্মিলন	-10.5599
▁ৰাহিমাহুল্লাহ	-10.5599
▁অমুছলিমসকল	-10.5599
▁এপ্রিল	-10.5599
▁জলসেচন	-10.5599
▁সঁফুৰা	-10.5599
▁সোনকালে	-10.5599
▁স্যাঁতসেঁতে	-10.5599
গভৰ্নেন্স	-10.5599
micro	-10.5599
▁ৰাজনিতী	-10.5599
▁Puneet	-10.5599
▁দ্ৰুত	-10.5599
▁গোলকীয়	-10.5599
▁হাইস্কুল	-10.5599
▁কেমেৰা	-10.5599
▁সংযোজন	-10.5599
▁উত্তেজনা	-10.5599
▁কুইজ	-10.5599
Hindi	-10.5599
▁আক্বীদা	-10.5599
▁দুচকীয়া	-10.5599
▁ডিগ্ৰী	-10.5599
▁পৰ্যটন	-10.5599
▁আশ্বুৰা	-10.5599
house	-10.5599
▁স্বাদহীন	-10.5599
▁মছলা	-10.5599
▁ফুকন	-10.5599
▁ছোৱাব	-10.5599
▁ইসিজি	-10.5599
▁চেংদু	-10.5599
preview	-10.5599
▁সঙ্গে	-10.5599
▁আকীদা	-10.5599
vani	-10.56
▁এলেকা	-10.56
▁common	-10.56
▁ইউনিট	-10.56
▁অপব্যৱহাৰ	-10.56
▁দুগুণ	-10.56
▁অনুজ্ঞাপত্ৰ	-10.56
▁ৰূম	-10.56
▁প্ৰসাশন	-10.56
▁প্ৰতিবন্ধকতা	-10.56
ফাতহ	-10.56
▁পিকিউ	-10.56
▁গুনাহ	-10.56
▁অতীত	-10.56
▁নমুনা	-10.5601
blocked	-10.5601
▁বয়লাৰ	-10.5601
▁সংকেত	-10.5601
▁সেয়েহে	-10.5601
▁আৱিষ্কাৰ	-10.5602
▁দাঁত	-10.5602
▁শক্তিশালী	-10.5602
▁চেতন	-10.5603
ৰজি	-10.5604
▁এবেল	-10.5604
▁সংবিধান	-10.5604
▁বাগান	-10.5605
▁জাপািন	-10.5605
▁Day	-10.5606
▁জাতি	-10.5606
▁উপাৰ্জন	-10.5606
▁তিনিমাহ	-10.5607
▁কৰ্তৃপক্ষই	-10.5607
▁ইস্লংদ্	-10.5608
▁ইঞ্জিন	-10.5608
▁ঘাই	-10.5608
رد	-10.5609
▁সাজু	-10.561
▁বীমাধীন	-10.5611
ards	-10.5611
জীৱন	-10.5612
▁আত্মীয়	-10.5612
▁পঢ়ক	-10.5612
▁সঞ্চয়	-10.5613
▁পশু	-10.5613
পেলিন	-10.5613
▁ৰেকৰ্ড	-10.5616
▁অক্ষমতা	-10.5617
▁আকৰ্ষণ	-10.5618
িয়াল	-10.5619
▁ধৰনৰ	-10.5619
▁বিয়পি	-10.562
▁শাক	-10.5621
▁প্ৰবেশ	-10.5621
▁মাউন্ট	-10.5622
▁বেমাৰ	-10.5623
▁EP	-10.5623
]]"	-10.5624
▁মেচিন	-10.5624
▁হি	-10.5625
▁দুজন	-10.5627
caption	-10.5627
▁কোং	-10.5629
▁ব্যবহাৰ	-10.5631
পূৱ	-10.5633
▁শৈলী	-10.5635
▁গাখীৰ	-10.5636
▁চিঠি	-10.5636
▁ফাতাৱা	-10.5636
▁কৰ্পোৰে	-10.5636
▁virgins	-10.5636
িয়্যাহ	-10.5636
▁Number	-10.5636
▁পেমেন্ট	-10.5636
▁পৰিসীমা	-10.5637
▁সুৰক্ষতা	-10.5638
▁প্ৰণালী	-10.5638
▁বিতং	-10.5642
▁কোড	-10.5645
ক্ষেপণ	-10.5648
▁ব্যবসা	-10.565
▁মঞ্চ	-10.565
out	-10.5653
নু	-10.5653
রী	-10.5653
▁প্ৰদৰ্শনী	-10.5662
▁পৰ্যায়ত	-10.5662
▁পিছে	-10.5663
চমকানো	-10.5669
▁থানা	-10.567
▁এমএল	-10.5675
▁কিতাপখন	-10.5675
▁ঝ	-10.5676
▁সচিব	-10.5679
ph	-10.5681
▁teen	-10.5684
▁সংশ্ল	-10.5686
কৰন	-10.5687
▁সৰঞ্জাম	-10.5688
▁একেট	-10.5688
▁প্ৰতিৰোধ	-10.5689
▁প্ৰদেশ	-10.5694
▁ইউনিক	-10.5695
▁মূল্যায়ন	-10.5696
▁এইবোৰৰ	-10.5697
▁ভূ	-10.5697
▁আলোচনী	-10.5702
▁Book	-10.5707
▁স্থাপিত	-10.5707
▁উপস্থিতি	-10.5713
ja	-10.5718
▁হাছা	-10.572
▁Home	-10.5726
▁স্নাতক	-10.5731
▁নিশা	-10.5735
▁সাপেক্ষে	-10.5737
৩১	-10.5737
▁তিনিচুকীয়া	-10.574
▁App	-10.5742
▁শৰীৰ	-10.5743
▁দক্ষ	-10.5746
▁v	-10.5747
▁কেবল	-10.575
▁প্ৰকাশন	-10.5751
▁হাজি	-10.5751
st	-10.5754
ােে	-10.5761
▁উঠি	-10.5767
▁ন্যায়ালয়ৰ	-10.5767
▁অসুস্থতাৰ	-10.577
পতি	-10.577
▁খুব	-10.5771
▁বাবেহে	-10.5775
চ্ছ	-10.5784
বিশুদ্ধ	-10.5785
প্ৰযুক্তিগত	-10.5786
▁মুম্বাই	-10.579
ত্ত	-10.5791
▁মাংস	-10.5791
▁একেই	-10.5805
▁প্ৰফেচ	-10.581
ol	-10.5814
লীয়া	-10.5815
SS	-10.5816
▁প্ৰসাৰ	-10.5822
AR	-10.5822
সু	-10.5824
▁বিদ্যা	-10.5825
য়ত	-10.5827
▁দিক	-10.5835
বীজ	-10.5836
▁প্ৰাসংগিক	-10.5844
▁ন্যূনতম	-10.5845
asha	-10.5847
ET	-10.5866
৫০	-10.5868
▁সম্পৰ্কত	-10.587
▁t	-10.5888
obs	-10.5892
exis	-10.59
▁অধিকাৰসমূহ	-10.5905
▁’’	-10.5909
ru	-10.5912
▁জানে	-10.5913
▁ৰং	-10.5913
RA	-10.5919
▁কাৰক	-10.5926
▁কেনে	-10.5927
োদ	-10.593
▁ক্ষমা	-10.5935
▁SunPorno	-10.5941
ণ্ণে	-10.5942
▁এশ	-10.5945
▁মাজে	-10.5945
▁স্থল	-10.5948
▁নিয়াৰ	-10.595
▁পলিচি	-10.5951
▁Ab	-10.5959
▁চাহ	-10.5966
য়ন	-10.5968
▁একাউণ্টৰ	-10.5974
ম্প্ৰদায়	-10.5997
▁জীৱনত	-10.6001
▁পাই	-10.6015
আৰু	-10.6027
▁যাৱ	-10.6029
ীত	-10.6034
ome	-10.6035
oz	-10.6038
বাৰী	-10.604
মিক	-10.604
as	-10.6042
টোক	-10.6048
AT	-10.6054
▁উভত	-10.6055
bit	-10.6065
োঁ	-10.607
▁উপা	-10.6074
▁নীতিসমূহ	-10.6093
eaut	-10.6093
▁গ্ল	-10.6106
▁বৈ	-10.6108
▁Ta	-10.6109
▁আগে	-10.6111
▁সেক্স	-10.6111
▁নিৰ্	-10.6116
▁কেইটা	-10.6122
▁কৰ্মী	-10.6125
▁পাচ	-10.613
ক্ষতি	-10.613
▁মধ্য	-10.6134
▁কাৰিকৰ	-10.6141
সী	-10.6143
জ্ঞাত	-10.6143
খনত	-10.6145
ুষ্ঠি	-10.6153
▁অনুদ	-10.6165
▁CT	-10.6165
▁ক্লা	-10.6168
▁সন্মুখ	-10.6179
▁De	-10.6181
ortal	-10.6184
▁Ha	-10.6191
▁ঠিকনাৰ	-10.6195
▁Can	-10.6196
ishvas	-10.62
ৱৰ	-10.6205
q	-10.6213
লয়	-10.6215
কোমল	-10.6219
বাহ	-10.6236
ইউ	-10.6245
▁AC	-10.6248
▁বহল	-10.6265
াবলৈ	-10.6266
সা	-10.628
েন্স	-10.6289
ro	-10.6302
▁ৱা	-10.6302
বোৰে	-10.6304
▁উইলি	-10.6304
▁আহম	-10.6308
▁মেনু	-10.6314
ংত্	-10.6328
Ma	-10.6333
hyme	-10.6344
শ্ৰেণী	-10.6363
উত্তৰ	-10.6364
াইন	-10.6368
▁($	-10.6373
খবৰ	-10.6389
এইচকিউ	-10.6389
▁অক্	-10.6393
একাউন্ট	-10.6399
েখে	-10.6405
পুস্ত	-10.6407
ext	-10.6408
GB	-10.6409
▁ঠিকনাত	-10.6412
Mathematic	-10.6414
▁৩৫	-10.642
॥	-10.6422
এইচসি	-10.6427
শ্ৰেষ্ঠ	-10.6431
টিভি	-10.6433
▁খিনি	-10.644
▁wiki	-10.644
ৱাহ	-10.6463
তলত	-10.6472
▁ভৰিব	-10.6484
াং	-10.6492
▁সপ্তাহৰ	-10.6495
▁নব	-10.6495
ছৌদ	-10.6509
▁আনন্দ	-10.6544
▁তো	-10.6545
য়তে	-10.6565
সমূহে	-10.6575
▁থাকি	-10.6585
▁ব্ৰ	-10.6592
▁স্কো	-10.6599
▁পৱিত্	-10.6604
েড	-10.6608
▁শুনিব	-10.6611
▁সোণোৱাল	-10.6612
▁Dr	-10.6617
▁সংঘটন	-10.6621
▁বিজেপি	-10.6632
be	-10.6642
ীম	-10.6645
স্ট	-10.6647
▁as	-10.6649
মন	-10.6668
ছা	-10.6677
নিক	-10.6679
▁ছাত্ৰী	-10.6683
▁জীৱবিজ্ঞান	-10.6687
▁ৰৈ	-10.6697
ঘৰ	-10.6716
▁স্বামী	-10.6717
ফাৰেন্স	-10.6762
ine	-10.6766
▁ঠাই	-10.6769
▁কুচ	-10.677
ষ্টিক	-10.6775
▁তীব্ৰ	-10.6776
▁কমি	-10.6779
nad	-10.6781
খোজ	-10.6784
ুদ্দিন	-10.6784
▁লক্ষণ	-10.6799
▁মেচ	-10.6818
োদন	-10.682
▁ৰিয়া	-10.682
ডব্লিউ	-10.6821
▁টেংক	-10.6823
▁প্লে	-10.6826
ৱর্	-10.683
andi	-10.6832
▁Ad	-10.6837
▁পৰৱৰ্ত	-10.684
▁দৰকাৰ	-10.684
নীত	-10.6841
ver	-10.6849
ಸ	-10.6849
Ā	-10.6849
▁গবেষনা	-10.6849
▁চফঘব	-10.6849
publisher	-10.6849
পাচলি	-10.6849
▁Black	-10.6849
▁January	-10.6849
▁machine	-10.6849
▁অৰিহণা	-10.6849
▁অৰ্হতা	-10.6849
▁ঋতুস্ৰাৱ	-10.6849
▁ওৱাহ্হাব	-10.6849
▁কংগ্ৰেছ	-10.6849
▁চৰ্তাবলী	-10.6849
▁পাকিস্তান	-10.6849
▁বার্ষিক	-10.6849
▁স্পেনিচ	-10.6849
▁হেল্পলাইন	-10.6849
▁ৰেস্তোৰা	-10.6849
▁অনুশীলন	-10.6849
▁অন্বেষণ	-10.6849
▁বঢ়োৱা	-10.6849
▁বহিৰাক্ৰমণ	-10.6849
▁উদ্বেগ	-10.6849
▁চাহিদা	-10.6849
▁জাৰ্মান	-10.6849
г	-10.6849
▁জৰিমনা	-10.6849
ы	-10.6849
▁লক্ষ্মী	-10.6849
width	-10.6849
▁উপভোগ	-10.6849
▁বাজেয়াপ্তকৰণ	-10.6849
▁সৰ্বোত্তম	-10.6849
▁দুৰ্যোগ	-10.6849
▁Prett	-10.6849
▁অভ্যাস	-10.6849
▁আচবাব	-10.6849
▁ফিল্মফেয়াৰ	-10.6849
▁ফিনিটি	-10.6849
align	-10.6849
createaccount	-10.6849
▁সংবাদমেল	-10.6849
ফুল্ল	-10.6849
▁Kids	-10.6849
▁মাচুল	-10.6849
▁ভৰালী	-10.6849
▁পদত্যাগ	-10.6849
▁স্পেইন	-10.6849
▁মূল্যহ্ৰাস	-10.6849
userrights	-10.6849
▁অন্তৰ্গত	-10.6849
▁Telef	-10.6849
▁বেডমি	-10.6849
▁Life	-10.685
▁পৰম্পৰাগত	-10.685
▁মংত্র	-10.685
left	-10.685
▁২০১৬	-10.685
▁স্বৰ্ণ	-10.685
▁ত্ৰুটিপূৰ্ণ	-10.685
▁ৰাজনৈতিক	-10.685
▁মনোনীত	-10.685
▁Feb	-10.685
▁ইহঁত	-10.685
Website	-10.685
first	-10.685
▁Apr	-10.6851
▁পঠিয়াব	-10.6851
▁দখল	-10.6851
▁আৱিস্কাৰ	-10.6851
▁hard	-10.6851
▁গৃহযুদ্ধ	-10.6851
▁বিকিউ	-10.6851
▁বিৰোধিতা	-10.6851
▁মহন্ত	-10.6851
▁মণিপুৰ	-10.6851
▁ৰাজস্থান	-10.6851
▁উপযোগী	-10.6851
▁Election	-10.6852
▁আচৰণ	-10.6852
▁সঙ্গীত	-10.6852
hiv	-10.6852
▁ৰাইটিং	-10.6852
▁লগইন	-10.6852
▁গ্ৰুপ	-10.6852
▁বাইৰন	-10.6853
▁Si	-10.6853
▁একত্ৰিত	-10.6853
▁মূলনীতিসমূহ	-10.6853
চাদী	-10.6853
exists	-10.6853
▁$$\	-10.6853
▁পঠনীয়	-10.6853
▁আহিছিল	-10.6854
▁পৰিচিতি	-10.6855
▁গুগল	-10.6855
▁খুলিবলৈ	-10.6855
▁Ac	-10.6855
▁আপোনালোকে	-10.6855
▁ফ্ৰী	-10.6855
ভ্যন্তৰীণ	-10.6856
dated	-10.6856
▁ফিটাৰ	-10.6857
▁মাজেৰে	-10.6857
▁পঠোৱা	-10.6857
▁ৰাখিছে	-10.6858
▁বিচনা	-10.6858
▁বিদআত	-10.6858
▁প্ৰতিস্থাপন	-10.6859
▁ৰন্ধা	-10.6859
লীনা	-10.686
▁সীমালৈকে	-10.686
▁ছাহাবী	-10.686
▁ধৰিছে	-10.686
শালী	-10.6861
▁জনাওক	-10.6861
▁নাথাকিব	-10.6861
▁প্ৰকৃতি	-10.6861
▁আদৰ্শ	-10.6862
▁দুৰ্বলতা	-10.6862
hidden	-10.6862
▁নিযুক্তি	-10.6863
▁নীলা	-10.6863
▁নেদেখুৱাব	-10.6866
▁হওঁক	-10.6866
▁প্ৰসংগ	-10.6867
▁লৈছে	-10.6868
▁চিনাক	-10.6869
েকজ	-10.687
▁তুলিবলৈ	-10.687
৩০	-10.6872
▁টাইপ	-10.6872
▁কুকিসমূহ	-10.6873
▁স্কেল	-10.6873
▁ৰাখক	-10.6875
▁Author	-10.6877
▁পত্ৰিকা	-10.6877
েঙনী	-10.6878
▁নেশ্য	-10.688
ipb	-10.6881
সামান্য	-10.6881
▁ভাট্টা	-10.6882
▁চিহ্নিত	-10.6885
▁লিঙ্গ	-10.6887
▁মৌখিক	-10.689
▁গৌৰৱ	-10.689
▁শানতুং	-10.689
▁বজ্ৰপাত	-10.689
▁ভিটামিন	-10.689
▁উপদেষ্টা	-10.689
▁প্ৰথমবাৰ	-10.6891
▁উলংঘন	-10.6891
▁কামকাজ	-10.6891
▁বাস্তৱ	-10.6891
▁সঁচা	-10.6892
try	-10.6893
▁জনসাধাৰণ	-10.6893
▁প্ৰচলিত	-10.6896
োৰ্চ	-10.6899
▁নেতা	-10.6901
▁প্ৰমান	-10.6903
/$	-10.6904
▁উপর	-10.6906
rights	-10.6906
▁কৰোনাত	-10.6908
▁মন্তব্যসমূহ	-10.691
▁প্ৰশাসক	-10.6911
▁ইনচ	-10.6912
iya	-10.6913
▁ব্যতিক্ৰমতা	-10.6916
▁মহিলাসকল	-10.6917
▁ঘো	-10.6917
CCI	-10.6919
▁আয়োজ	-10.6922
test	-10.6922
▁বাইবেলে	-10.6926
▁টেপ	-10.693
too	-10.693
tip	-10.693
০০	-10.6931
▁পাৰিম	-10.6935
anson	-10.6936
▁কৰ্মৰত	-10.6939
▁যৌনতা	-10.694
▁নিৰ্ম	-10.694
▁বিপণন	-10.6943
mar	-10.6945
▁টকাকৈ	-10.6945
▁ইনষ্টল	-10.6946
categories	-10.6946
▁সাংবাদিক	-10.6946
▁শিৱসাগৰ	-10.6949
▁আধাৰিত	-10.6951
▁NX	-10.6954
▁নিৰীক্ষণ	-10.6954
▁সেইবাবে	-10.6963
▁ক্যাড	-10.6966
▁ছেট	-10.6967
▁ৰজ	-10.6967
▁কৰাতো	-10.6969
▁কোনোবাই	-10.6971
▁আহত	-10.6974
nologin	-10.6975
▁মেধা	-10.6975
পিং	-10.6982
▁শাৰিৰ	-10.6985
▁কৰে৷	-10.6987
▁CR	-10.699
গুলি	-10.6991
▁২৮	-10.6997
াট	-10.6997
ীচ্	-10.7001
▁একেবাৰ	-10.7003
▁চুষা	-10.7009
ন্গ্	-10.7015
▁বিদ্যুত	-10.7016
▁পৰীক্ষাসমূহ	-10.7018
মুখ	-10.7024
▁সত	-10.7025
de	-10.7026
▁স্বীকৃতি	-10.7027
▁অধিকাৰী	-10.7033
amil	-10.7035
▁শেষৰ	-10.7035
্য়	-10.7039
▁নেন	-10.7048
▁Swa	-10.7057
▁গ্ৰাফিক	-10.7064
▁দীৰ্ঘ	-10.7065
▁প্লাৱন	-10.7069
▁দৃষ্টিকোণ	-10.707
▁সৈ	-10.7071
ER	-10.7072
▁কোঠা	-10.7073
▁উম	-10.7076
iology	-10.7085
▁অপাৰেট	-10.7089
▁বহুল	-10.7091
▁কোনে	-10.7092
Hug	-10.7098
চো	-10.7099
gers	-10.7099
▁মেইল	-10.7101
বাদ	-10.7109
section	-10.7114
▁Che	-10.7117
▁একাউন্টত	-10.7119
ঁক	-10.712
▁হাৰত	-10.7122
▁পল	-10.7125
▁আডা	-10.7126
েট	-10.7131
▁সদ	-10.7136
▁খেলা	-10.7139
han	-10.7143
_{{	-10.7146
গণ্য	-10.7153
▁ভৱিষ্যত	-10.7157
্বিত	-10.7164
বাস	-10.7168
[{{	-10.7172
▁কন	-10.7172
লো	-10.7181
▁ঈদ	-10.7186
▁দৰ	-10.7186
▁ব্যৱসায়ী	-10.7188
ঙ	-10.7192
▁months	-10.7197
ুৰু	-10.7198
tani	-10.7201
▁চিয়াম	-10.7206
hol	-10.7216
AD	-10.7223
▁প্ৰাচী	-10.7225
▁৬০	-10.7226
▁ৰাশি	-10.7227
▁দণ্ড	-10.723
লৰ	-10.7243
tional	-10.7249
▁সোণ	-10.7252
▁প্ৰসা	-10.7253
▁অছি	-10.7253
▁পুনৰগঠ	-10.7257
▁পদক	-10.7263
FT	-10.7272
▁কুৰি	-10.7279
টে	-10.7281
▁দৈত্য	-10.7295
প্রনোদ	-10.73
▁শ্ৰেণীৰ	-10.7306
বক	-10.7309
ৱিষ্ট	-10.731
▁তেও	-10.7312
▁সৰ্বা	-10.7314
▁ধাৰ	-10.7318
▁গজা	-10.7328
▁পৰীক্ষাত	-10.7335
রা	-10.7335
▁আনক	-10.734
গু	-10.7344
▁জড	-10.7351
▁মত	-10.7357
ঞ	-10.7359
জ্ঞান	-10.737
দীপ	-10.7372
▁শিল্পী	-10.739
৮৭	-10.7398
▁শইকীয়াৰ	-10.7411
ৰেন্স	-10.7412
▁আগতীয়া	-10.7412
rate	-10.7414
▁লেখ	-10.7418
▁Man	-10.7429
▁s	-10.743
▁বাই	-10.7433
per	-10.7449
▁ছল	-10.7449
▁পিছৰ	-10.7472
Ta	-10.7495
news	-10.75
▁বাছ	-10.7505
[[:$	-10.7518
ণ্ট	-10.7521
LA	-10.7523
ঈক্ষণকামী	-10.7528
ঁজ	-10.7529
▁মনি	-10.7532
▁মাধ্যমে	-10.7534
িকেল	-10.7547
▁ইথি	-10.7554
▁লাল	-10.7555
comment	-10.7556
বিক	-10.7556
ডেল	-10.7557
িছে	-10.7567
▁co	-10.7571
োকৈ	-10.7571
মৰ	-10.7575
▁Ca	-10.7576
▁কোনোবা	-10.7585
আব্	-10.7589
▁ঠা	-10.7592
▁তত্ব	-10.7593
▁ডায়	-10.7597
▁আবু	-10.7598
৫৫	-10.76
প্ৰ	-10.762
স্ব	-10.762
শে	-10.7622
ন্তি	-10.7623
তিৰ	-10.7628
▁নী	-10.7638
আল	-10.764
▁সাজ	-10.7646
পুথিসমূহ	-10.765
মধ্যে	-10.765
ব্যক্তিগত	-10.7651
▁আও	-10.768
▁ma	-10.7689
সৈকত	-10.7692
ity	-10.7699
▁TS	-10.7707
ক্ষ্ম	-10.7712
য়নে	-10.7713
▁কিস্তি	-10.7714
্য়ং	-10.7719
চন্দন	-10.7721
আপ	-10.7722
▁সংখ্য়	-10.7749
▁ঘটাব	-10.7753
{	-10.7754
▁দেখি	-10.7755
▁দেৱ	-10.7756
দ্য	-10.776
ড়ি	-10.7763
মিলি	-10.7782
mathematics	-10.7783
▁ভাৰততে	-10.7783
মুখগত	-10.7783
▁ja	-10.7786
number	-10.7792
চৌ	-10.7796
মাত্ৰ	-10.7798
গো	-10.7799
▁স্	-10.7807
▁পংচ	-10.7809
কেৱল	-10.7812
অগ্নিকাণ্ড	-10.782
কৃষি	-10.7823
ঈশান	-10.7827
চন্দ্ৰ	-10.7834
ci	-10.7836
Dr	-10.7837
ا	-10.7838
গুণ	-10.7838
“	-10.7842
পাঁচ	-10.7842
অৰুণ	-10.7843
▁১৭	-10.7843
পৃষ্ঠাসমূহ	-10.7849
▁ভাবি	-10.7859
অন	-10.7861
▁শব্দটো	-10.7862
▁সমন্বয়	-10.7865
▁ঘোষণাৰ	-10.7866
সজ্জা	-10.7867
সন্মত	-10.7869
TR	-10.7869
▁Y	-10.7877
অধিক	-10.7881
মুখো	-10.7881
ops	-10.7882
শিক্ষক	-10.7883
ভাগ্য	-10.7883
েমিং	-10.7886
▁লৈকে	-10.7889
▁খাদ্যৰ	-10.7894
রো	-10.7895
তালিকাত	-10.7909
▁টিপ	-10.7913
টিকেল	-10.7922
▁দেখুৱাব	-10.7922
▁পথৰ	-10.7949
SU	-10.7964
বাৰণ	-10.7973
িটি	-10.7974
লক্ষ্য	-10.7975
▁নোলোৱা	-10.7988
AC	-10.7991
rome	-10.7998
ব্যথা	-10.8
ish	-10.8002
mes	-10.8008
থা	-10.8018
িমাস্	-10.802
▁আচল	-10.8022
▁সন্নি	-10.8023
▁পঢ়িব	-10.8027
▁ওৱা	-10.8028
▁ন্যায়ালয়	-10.8031
▁কোৰ	-10.8032
az	-10.804
ভাষিক	-10.8041
▁নাগৰিকত	-10.8045
links	-10.806
▁Coun	-10.8062
▁বাছি	-10.8074
্ঘ	-10.8081
▁প্রকাশ	-10.8083
ুলভ	-10.8087
িও	-10.8087
▁প্ৰতিষ্ঠা	-10.8092
▁সংস্থাপন	-10.8094
▁বস	-10.8096
িচ	-10.8097
▁শত	-10.8101
াতীত	-10.8102
▁উপলক্ষ	-10.8108
নিয়া	-10.8113
েগ	-10.812
mission	-10.8122
▁ছয়	-10.8128
লু	-10.8137
▁এস	-10.8148
di	-10.8149
▁বৃত্ত	-10.8151
খৰ	-10.8158
▁এড	-10.8163
দৰ্শন	-10.8164
শিত	-10.817
▁ৱিকিপিডিয়া	-10.8171
▁Cer	-10.8176
ত্বৰ	-10.8178
▁দুয়ো	-10.8183
▁Lo	-10.8184
▁বু	-10.8184
▁কামত	-10.8195
▁সাক্ষ	-10.8208
টাইট	-10.821
▁৪০	-10.8212
মেল	-10.8213
সীমা	-10.8222
▁খোল	-10.8222
hen	-10.8228
big	-10.8232
১৬	-10.8238
▁টিকট	-10.8239
have	-10.8243
▁ঈ	-10.825
▁Sri	-10.825
পীঠ	-10.8252
নক	-10.8261
▁হাজৰিকা	-10.8264
cer	-10.8265
সুং	-10.8268
ভিযান্ত্ৰিক	-10.8269
▁বাংলাদেশ	-10.827
▁ইঞ্জিনিয়াৰ	-10.8276
ilms	-10.8277
atsu	-10.8277
global	-10.8277
ঁতসেঁতে	-10.8278
▁যুক্তৰাষ্ট্ৰ	-10.8278
з	-10.8278
ски	-10.8278
▁OneNote	-10.8278
▁System	-10.8278
▁vscoop	-10.8278
▁আত্মহত্যা	-10.8278
▁আৰোগ্য	-10.8278
▁ইনষ্টিটিউট	-10.8278
▁কঢ়িওৱা	-10.8278
▁কৰ্ত্তৃপক্ষ	-10.8278
▁জালিয়াতি	-10.8278
▁দহনকারী	-10.8278
▁ধঁপাত	-10.8278
▁পৰামর্শ	-10.8278
▁বিকিৰণ	-10.8278
▁ব্যাটারি	-10.8278
▁ভৌগোলিক	-10.8278
▁সঞ্জীৱ	-10.8278
▁সৱিশেষ	-10.8278
▁ৰংগনাথন	-10.8278
▁week	-10.8278
▁দৈতসম্ভোগী	-10.8278
▁যুক্তিসংগত	-10.8278
▁সেঁতু	-10.8278
মাদাগাচকাৰ	-10.8278
▁Style	-10.8278
▁অনুজ্ঞা	-10.8278
▁আইনষ্টাইন	-10.8278
▁জিম্মা	-10.8278
▁ডাটাবেছ	-10.8278
▁বৰদলৈ	-10.8278
▁ষান্মাসিক	-10.8278
▁সমাপ্ত	-10.8278
ww	-10.8278
▁পুনৰীক্ষণ	-10.8278
▁প্ৰাৰম্ভ	-10.8278
▁বিত্তমন্ত্ৰী	-10.8278
▁প্লাষ্টিক	-10.8278
▁যৌৱন	-10.8278
summary	-10.8278
▁নিবিচাৰে	-10.8278
revision	-10.8278
▁ইনফোকম	-10.8278
▁বুটাম	-10.8278
▁আৱশ্যকীয়	-10.8278
▁Radio	-10.8278
▁ৱিকিমিডিয়া	-10.8278
▁অপাৰেছন	-10.8278
▁বেংগাল	-10.8278
▁texas	-10.8278
▁ফেচবুক	-10.8278
পঞ্চাশ	-10.8278
▁বছৰেকীয়া	-10.8278
▁ৰাজ্যসভা	-10.8278
▁April	-10.8278
▁ইভেন্ট	-10.8278
▁কার্যসূচীঃ	-10.8278
▁তৎক্ষণা	-10.8278
▁দধুমপান	-10.8278
▁ভোটদান	-10.8278
▁ঘটনাৱলী	-10.8278
support	-10.8278
gress	-10.8278
▁সাংস্কৃতিক	-10.8278
▁সোণালী	-10.8278
▁স্মৃতি	-10.8278
▁এডব্লিউজি	-10.8278
▁কাৰ্যক্ষমতা	-10.8278
▁পৰীক্ষণ	-10.8278
▁গণেশ	-10.8279
▁নিয়মাৱলী	-10.8279
▁পাউণ্ড	-10.8279
▁Google	-10.8279
▁আনন্দজনক	-10.8279
full	-10.8279
দ্যোগ	-10.8279
feed	-10.8279
project	-10.8279
Pragya	-10.8279
▁সংক্ৰমণ	-10.8279
▁গৈছিল	-10.8279
গামী	-10.8279
▁উজবেকীয়	-10.8279
▁যন্ত্ৰপাতি	-10.8279
▁ল্যাটিনা	-10.8279
▁অক্টো	-10.8279
▁ঘটিছে	-10.828
▁মুদ্ৰণ	-10.828
▁বাৰ্তালাপ	-10.828
▁মেডিয়া	-10.828
▁গ্ৰীক	-10.8281
▁অসৎকাম	-10.8281
▁আৰকান	-10.8281
▁ফৰাচি	-10.8281
next	-10.8281
সাৰাংশ	-10.8281
▁ফৰ্ম	-10.8281
▁Of	-10.8281
▁নিদিব	-10.8282
▁অতিক্ৰম	-10.8282
What	-10.8282
▁কিয়নো	-10.8282
▁সম্পাদিত	-10.8282
▁থাকোতে	-10.8283
▁তথাপিও	-10.8284
▁Facts	-10.8284
▁স্যাম	-10.8284
▁কৰিছোঁ	-10.8285
ন্ট	-10.8286
▁পুষ্পম	-10.8287
▁অৱস্থিত	-10.8287
▁বিৰতি	-10.8288
▁আনিছে	-10.8288
}$$	-10.8289
▁ভোট	-10.829
কৃষ্	-10.829
চীনদেশীয়	-10.8291
nai	-10.8291
▁তেনেহ	-10.8292
▁সমীক্ষা	-10.8293
▁পোনপটীয়া	-10.8293
▁আপোনালোকৰ	-10.8293
▁পঢ়িবলৈ	-10.8293
▁কাছাৰ	-10.8295
▁আগ্ৰহী	-10.8295
▁সন্থা	-10.8295
▁কৈছে	-10.8295
▁চিবিআ	-10.8295
▁তথাপি	-10.8296
▁গাড়ীখন	-10.8296
▁কবিতা	-10.8296
▁বন্য	-10.8297
▁নাটনিৰ	-10.8297
লিচিধাৰী	-10.83
পিপি	-10.83
▁অংশীদাৰী	-10.8301
▁আঠ	-10.8301
▁পৰিকল্পনাঃ	-10.8302
▁ভোজন	-10.8305
▁পাৰ্ছ	-10.8305
IME	-10.8307
▁গেল্ওৱা	-10.8307
নত	-10.8308
▁দৃ	-10.8308
▁Sur	-10.8308
▁সিংহ	-10.8309
▁জী	-10.8309
▁লওঁক	-10.8312
▁চৰ্তসমূহ	-10.8317
▁অনুমোদনসমূহ	-10.8318
হণ	-10.8318
▁এৰি	-10.832
Ber	-10.832
▁থলুৱা	-10.8324
▁গৰ্ভধাৰণ	-10.8325
▁কিলোমিটাৰ	-10.8325
▁উদাহৰণস্বৰূপে	-10.8325
▁শনিবাৰ	-10.8326
▁ফুটবল	-10.8327
add	-10.8327
▁আৰম্ভণি	-10.8328
▁চমুকৈ	-10.833
▁ভগ্ন	-10.833
কালত	-10.8331
▁খাম	-10.8335
াদা	-10.8336
edits	-10.834
▁সীমিত	-10.8341
▁এজেন্টৰ	-10.8341
▁উত্তৰণ	-10.8342
PE	-10.8342
▁ভাষাসমূহত	-10.8343
খেতি	-10.8348
▁হিম	-10.8348
▁cam	-10.8348
▁আজিৰ	-10.8349
ba	-10.835
নামৰ	-10.8353
▁Ba	-10.8354
▁আহক	-10.8361
▁নকৰিলে	-10.8366
ners	-10.8369
ুলিন	-10.837
OT	-10.8371
▁Sum	-10.8371
▁সাহিত্যিক	-10.8371
▁নিধি	-10.8372
েদি	-10.8376
▁হৃদয়	-10.8383
▁হেৰাই	-10.8383
▁প্ৰকৃততে	-10.8391
▁কিলো	-10.8391
লং	-10.8392
▁শূন্য	-10.8393
auto	-10.8393
▁মেঘালয়	-10.8393
▁বিদ্যুৎ	-10.8393
মূল	-10.8395
▁প্ৰযুক্তিবিদ্যা	-10.8396
▁এপ্ৰিল	-10.84
▁মাদা	-10.84
years	-10.8402
▁শণ	-10.8404
▁প্রথম	-10.8404
▁হিচাবে	-10.8408
minor	-10.8412
▁অংগ	-10.8412
ice	-10.8414
▁ওৱাক্	-10.8414
ob	-10.8422
▁বেগ	-10.8423
▁চীনা	-10.8426
পন্ন	-10.843
টেব	-10.8433
match	-10.8433
▁পেলোৱা	-10.8435
▁হয়নে	-10.8435
▁You	-10.8436
▁পূজা	-10.8437
▁।'''	-10.844
▁গৰু	-10.8443
্ক	-10.8443
▁উপায়সমূহ	-10.8446
▁মহিলাই	-10.8452
▁ফাইলসমূহ	-10.8453
▁ট্ৰেই	-10.8459
কৰা	-10.8462
▁সদৃশ	-10.8462
ক্ৰম	-10.8463
ছেলে	-10.8466
▁কুকিটো	-10.8468
▁vid	-10.8468
▁বেজ	-10.8472
▁বন	-10.8473
Movies	-10.8474
▁স্মৰণ	-10.8474
dis	-10.8475
সঁচ	-10.8478
line	-10.848
বয়	-10.8482
▁উপলব্ধি	-10.8487
▁দুৰ্ভাৱনা	-10.8489
▁দলটো	-10.849
▁অইল	-10.8491
▁পিছ	-10.8495
গিন	-10.8498
▁দিম	-10.85
▁তত্ত্ব	-10.8504
দৰ	-10.8508
▁শুনি	-10.8508
পোৱা	-10.8511
▁খণ্ডত	-10.8513
▁ডিষ্ট্ৰিবিউটৰ	-10.8515
▁বালি	-10.8515
জাত	-10.8516
ন্ধ	-10.8525
কীয়	-10.853
▁MPa	-10.8531
▁গৃহিণী	-10.8533
▁বিনামূল্যে	-10.8534
▁Ja	-10.8537
াবে	-10.854
▁সদস্যজন	-10.8544
▁US	-10.8545
▁অংশীদাৰসকল	-10.8551
▁প্ৰেৰ	-10.8551
▁কৰ্মচাৰীসকল	-10.8553
ইট	-10.8554
রি	-10.8576
ctor	-10.8577
ilak	-10.8582
ুলিৰ	-10.8591
▁Bong	-10.8593
got	-10.8597
কন্যা	-10.8598
▁ব্যৱসায়ক	-10.86
▁কুল	-10.8601
▁সুৰ	-10.8602
▁লোকক	-10.8605
qb	-10.8607
েহে	-10.8617
CM	-10.8618
▁হেৰুৱা	-10.8624
াত্	-10.8625
ৰাই	-10.8638
een	-10.864
RO	-10.864
▁ক্	-10.8643
▁উলকি	-10.8645
:{{	-10.8648
▁আয়াৰ	-10.865
াৰ্ছ	-10.8654
্তি	-10.8657
▁গেঁ	-10.8659
▁Us	-10.8663
▁দেখ	-10.8666
পীড়	-10.8667
se	-10.8669
▁ছিষ্টেম	-10.8673
▁PV	-10.8677
▁তাল	-10.8688
িয়ে	-10.8688
ঠ	-10.8692
▁বাদে	-10.8695
▁সন্মত	-10.87
▁এপ্প	-10.87
োনো	-10.8704
▁দী	-10.8708
েস	-10.8727
ৰাত	-10.8728
▁১৬	-10.8732
pov	-10.8735
***	-10.8736
:'''	-10.8746
▁ঘৰলৈ	-10.8748
▁k	-10.8748
▁links	-10.8754
▁i	-10.8765
var	-10.8768
াৰে	-10.877
পুৰ	-10.8771
▁নিষ্পাপ	-10.8772
সহ	-10.8776
ow	-10.8782
▁ড্ৰ	-10.8789
▁ৰায়	-10.8792
জিবলৈ	-10.8795
▁পৰাগ	-10.8796
▁তাতে	-10.8798
▁ইন্ধন	-10.8799
কুল	-10.8801
▁Cou	-10.8808
▁সমুখ	-10.8831
▁পান	-10.8831
▁বিপৰ্য্যয়ৰ	-10.8841
তাং	-10.8841
▁fa	-10.8843
শক্তি	-10.8845
ong	-10.8848
▁ভাবিব	-10.885
ada	-10.8854
▁হস্তমৈথুন	-10.8855
gl	-10.8858
id	-10.8858
▁অভি	-10.8862
▁দিল	-10.8865
▁যিখন	-10.8873
▁বিহাৰ	-10.8874
▁পৰ্যায়ৰ	-10.8881
▁ভগভগ	-10.8896
sis	-10.8898
▁সর্ব	-10.8909
▁ছাল	-10.891
▁একাকী	-10.8912
চিতা	-10.8913
কাৰৰ	-10.892
▁দৃষ্টিভংগী	-10.8934
মোজা	-10.8941
▁মজ	-10.8948
সেক্স	-10.8953
▁সাব	-10.8963
বাসী	-10.897
▁প্ৰস্তুতি	-10.8977
▁পাপ	-10.8987
nt	-10.8993
ৰেখা	-10.9001
ষ্টৰ	-10.9007
্বোধন	-10.9009
▁Ar	-10.9022
▁অলী	-10.9023
quest	-10.9027
lix	-10.9041
hub	-10.9052
ভগভিজা	-10.9054
[	-10.9055
তৰোৱা	-10.9062
েশ	-10.9068
▁CA	-10.9082
▁দীপ	-10.9088
sig	-10.9096
▁ভাষাসমূহ	-10.9106
লিং	-10.9108
র়	-10.9108
▁ভূমি	-10.911
▁বিগ	-10.9113
▁অর্থ	-10.9124
▁j	-10.9133
▁আন্তৰ	-10.9137
তালিকা	-10.9158
▁আত্মা	-10.9164
uli	-10.9164
ৈঃ	-10.9167
▁Sta	-10.9168
কার	-10.9178
▁লিথ	-10.9183
য়ু	-10.9197
িল্	-10.9201
▁কম্প	-10.9203
▁অঙ্গুলিসঁচালন	-10.9211
close	-10.9212
▁আপুন	-10.9214
▁অসতৰ্ক	-10.9217
▁পৰিল	-10.9222
্র	-10.9222
▁ago	-10.9223
▁লোৱাৰ	-10.9224
▁বিয়পা	-10.9227
▁প্রতিটো	-10.9235
হয়	-10.9238
▁all	-10.9243
▁পূৰ	-10.9244
ক্ষিত	-10.9247
▁কর	-10.9248
▁অধ্যয়নৰ	-10.9248
সং	-10.9249
স্থাপন	-10.9257
pro	-10.9257
osted	-10.9267
▁বছ	-10.9272
▁বুক	-10.9274
নীতি	-10.9275
▁পঠ	-10.9288
▁বিপৰ্য্যয়	-10.9291
▁সাজি	-10.9303
ut	-10.9304
▁গুৰু	-10.9309
ৰামত	-10.9312
চলিত	-10.9318
াসিক	-10.9322
জান	-10.9326
ga	-10.9326
ster	-10.9338
▁সদস্যসকল	-10.9346
▁২৩	-10.9351
▁তাহা	-10.9353
▁n	-10.9361
লেও	-10.9365
▁উদ্দেশ্যৰ	-10.9376
ক্ষমতা	-10.9384
▁ঔৣ	-10.9385
▁সুবিধাৰ	-10.939
▁অহ	-10.9391
ম্ভ	-10.9392
তীয়	-10.9396
▁ফট	-10.9399
▁যুক্তি	-10.9403
দাতা	-10.9404
িনে	-10.941
সন্ধান	-10.9411
কোঠা	-10.9412
▁উইন্	-10.9413
যোগ	-10.9415
▁অগ্ৰগ	-10.942
তাৰে	-10.9427
ss	-10.9429
গোপনীয়তা	-10.9429
ৰীয়	-10.9436
সাৱধান	-10.9439
▁অং	-10.9447
িক্স	-10.945
যদিহে	-10.945
মৌলিক	-10.9452
এক্স	-10.9454
▁!	-10.9456
WF	-10.9457
ভুল	-10.9459
অনুগ্ৰহ	-10.9464
Autodesk	-10.9469
ডেস্ক	-10.947
▁\"	-10.9471
lus	-10.9471
েমে	-10.9471
power	-10.9472
rench	-10.9475
ুং	-10.9478
আমীন	-10.9479
কাৰণ	-10.9479
৩৪	-10.9485
MediaWiki	-10.9489
ট্ৰেডমাৰ্ক	-10.9489
▁Love	-10.9489
অনুচ্ছেদ	-10.9492
এইচভি	-10.9496
ছিষ্টেম	-10.9497
সাময়িক	-10.9499
months	-10.9499
▁পিন	-10.9503
ইমাম	-10.9504
হাই	-10.9519
চিন্তা	-10.9521
il	-10.9524
Pal	-10.9526
পৰিৱৰ্তন	-10.9528
রন্	-10.953
কাজ	-10.9531
▁জুল	-10.9531
▁সহজে	-10.9542
▁ডা	-10.9551
▁অসমতা	-10.9551
ল্ট	-10.9554
CU	-10.9555
▁চেণ্টাৰ	-10.9575
are	-10.9576
▁বাক্স	-10.9587
▁দিয়াটো	-10.9593
ic	-10.9597
ms	-10.9601
কাৰ্য্য	-10.9601
▁পাছতে	-10.9607
mail	-10.9608
cket	-10.961
▁হাৰ্ডি	-10.9617
▁অন্ত	-10.962
▁১৯৮	-10.9621
▁সাম	-10.9621
▁কুং	-10.9633
▁শিকা	-10.9636
থাই	-10.964
▁ভাৰচুৱেল	-10.9647
▁পার্ট	-10.9647
ওঁ	-10.9648
জ্বল	-10.9648
▁এতিয়ালৈ	-10.9656
নীয়া	-10.9659
ettings	-10.9664
র়ু	-10.9673
ৰ্ত্তি	-10.9678
lone	-10.9695
▁নিৰীক্ষ	-10.9703
▁চৌধুৰী	-10.9709
জীৱ	-10.971
man	-10.9716
▁লওঁ	-10.9722
েউজীয়া	-10.9728
▁জানি	-10.9737
▁খোজ	-10.9745
▁কৃত	-10.9747
▁ৰোমান	-10.9755
base	-10.9768
▁KO	-10.9778
গৈ	-10.9778
ডু	-10.978
▁ac	-10.9783
ত্মক	-10.979
▁পাইকাৰ	-10.9795
সৎকাম	-10.9809
ধীন	-10.9817
চিটি	-10.9822
▁দুখ	-10.9822
▁গেট	-10.9826
পথৰ	-10.9828
▁Pi	-10.983
▁প্ৰেছ	-10.9837
স্তৰ	-10.9838
▁সমক	-10.9845
ful	-10.9845
▁পৃষ্ঠ	-10.9849
ৰাষ্ট্র	-10.9851
▁ex	-10.9852
▁যো	-10.9854
▁চিক	-10.9855
talkpage	-10.9857
▁অর়িৱ	-10.9857
স্পাই	-10.9858
িজ	-10.986
ক্ষী	-10.9862
▁উত্তৰাধিকাৰ	-10.9863
▁নিব	-10.9873
▁ব্যক্ত	-10.9875
SM	-10.9878
▁পুষ্প	-10.9887
ntry	-10.9888
নিয়মিত	-10.989
ক্ষম	-10.9895
ন্স	-10.9905
row	-10.9905
▁LT	-10.9907
▁উদ্ধ	-10.9908
ected	-10.9914
ঈ	-10.9914
template	-10.9917
▁Lin	-10.9918
ions	-10.9918
change	-10.9918
▁মুহূৰ্ত	-10.9919
প্প	-10.9923
▁নোটবুক	-10.9924
▁গোপনীয়	-10.9927
▁কৰ্তৃপক্ষ	-10.9931
ve	-10.9938
▁পাঞ্জা	-10.9938
chool	-10.9938
▁গাণিত	-10.9938
▁অপৰিহাৰ্য	-10.9939
▁দশম	-10.9939
▁অক্ষম	-10.9942
▁সাক্ষাৎ	-10.9942
block	-10.9942
▁সহনীয়	-10.9943
ي	-10.9944
▁নিশ্চয়	-10.9944
পন্থী	-10.9944
ward	-10.9944
▁দীঘল	-10.9944
₦	-10.9944
Å	-10.9944
ك	-10.9944
▁HTML	-10.9944
▁খেলুৱৈ	-10.9944
JavaScript	-10.9944
RWBCIS	-10.9944
underline	-10.9944
unknown	-10.9944
whatlinkshere	-10.9944
į	-10.9944
ł	-10.9944
б	-10.9944
ج	-10.9944
س	-10.9944
মেথামফেটাম	-10.9944
▁Kidney	-10.9944
▁virtual	-10.9944
▁অংগীকাৰবদ্ধ	-10.9944
▁ইনফিনিট	-10.9944
▁ছেপ্টেম্বৰ	-10.9944
▁তদুপৰি	-10.9944
▁দিছপুৰ	-10.9944
▁দূষিতকৰণ	-10.9944
▁নইথাৰ	-10.9944
▁প্ৰতিশ্ৰুতি	-10.9944
▁বিস্তৃত	-10.9944
▁বৰষুণ	-10.9944
▁ভেনিজুৱেলা	-10.9944
▁যাকাৰিয়্যাহ	-10.9944
▁লকডাউন	-10.9944
▁সংৰক্ষনাগাৰ	-10.9944
▁সমালোচক	-10.9944
▁স্টেথোস্কোপ	-10.9944
▁হোৱাটছএপ্প	-10.9944
►	-10.9944
❯	-10.9944
▁পদ্মশ্ৰী	-10.9944
▁প্ৰৱণতা	-10.9944
▁বৈৰিতা	-10.9944
▁ব্যৱধান	-10.9944
▁Interview	-10.9944
▁Online	-10.9944
▁Quiz	-10.9944
▁অক্সফ	-10.9944
▁অপেক্ষা	-10.9944
▁আণ্ডাৰৰাইট	-10.9944
▁এনআৰচি	-10.9944
▁ভাস্কৰ	-10.9944
▁ৰক্তপৰীক্ষা	-10.9944
▁আমহাৰিক	-10.9944
▁চেহেৰা	-10.9944
▁Music	-10.9944
▁ফাগুন	-10.9944
▁শিক্ষানুষ্ঠান	-10.9944
rollback	-10.9944
▁নৃত্য	-10.9944
▁সাঙুৰ	-10.9944
▁খ্ৰীষ্টপূৰ্ব	-10.9944
▁নিষ্ক্ৰিয়	-10.9944
Ⱡ	-10.9944
জ্যেষ্ঠ	-10.9944
А	-10.9944
д	-10.9944
▁ক্ৰমবিকাশ	-10.9944
▁ال	-10.9944
▁কিলোগ্ৰাম	-10.9944
▁মাধৱদেৱ	-10.9944
▁মেনেজমেন্ট	-10.9944
্ভপাত	-10.9944
▁অভিসূচনা	-10.9944
▁নাযাব	-10.9944
▁কাৰ্গো	-10.9944
▁মুৰব্বী	-10.9944
▁Hottie	-10.9944
▁বৌদ্ধ	-10.9944
▁পিক্সেল	-10.9944
▁সোৱাদ	-10.9944
▁দক্ষিণ	-10.9944
▁বৰনামঘৰ	-10.9944
▁মাজুলী	-10.9944
level	-10.9944
▁ক্লাউড	-10.9944
ল্লিশ	-10.9944
▁ঠকাই	-10.9944
▁পৰিণাম	-10.9944
▁উদ্বোধন	-10.9944
▁বিস্তাৰ	-10.9944
▁নৱবৰ্ষ	-10.9944
▁ঘনত্ব	-10.9944
থেৰাপ	-10.9944
▁মহাকাশ	-10.9945
▁গনুহ	-10.9945
▁টেলিভিছন	-10.9945
▁পুথিভঁৰাল	-10.9945
mediawiki	-10.9945
▁মানৱাধিকাৰ	-10.9945
▁শব্দকোষ	-10.9945
নিৰপেক্ষ	-10.9945
▁March	-10.9945
▁will	-10.9945
▁হিমালয়	-10.9945
badtitle	-10.9945
▁পৰ্য্যন্ত	-10.9945
▁ৱায়াৰ	-10.9945
▁অধিনিয়ম	-10.9945
▁সংকলিত	-10.9945
▁API	-10.9945
▁২০১১	-10.9945
▁প্ৰৱেশাধিকাৰ	-10.9945
▁ষ্ট্ৰং	-10.9945
▁হাঙ্গেৰী	-10.9945
▁২০১২	-10.9945
▁অভাৱনীয়	-10.9945
▁লাগিছে	-10.9945
▁অধিহাৰ	-10.9945
▁কেন্সাৰ	-10.9946
▁চৰ্ত্ত	-10.9946
স্বীকাৰ্য্য	-10.9946
▁সম্ভাব্য	-10.9946
▁তৈয়ব	-10.9946
▁পৰিসংখ্যাবিদ	-10.9946
▁প্ৰাধিকৰণ	-10.9946
▁৮০০	-10.9946
▁অনুবন্ধ	-10.9946
circ	-10.9946
▁ক্ৰীম	-10.9946
click	-10.9947
JJ	-10.9947
Download	-10.9947
▁লিখিছিল	-10.9947
menu	-10.9947
নিখুঁত	-10.9947
▁Kz	-10.9947
▁শতবৰ্ষ	-10.9947
▁Sach	-10.9947
???	-10.9948
ance	-10.9948
▁শিকিবলৈ	-10.9948
noun	-10.9948
▁Jun	-10.9948
▁ফীজ	-10.9948
▁অতুল	-10.9948
▁সত্যাপন	-10.9948
▁ইৰাণী	-10.9949
্ত	-10.9949
▁বাজাজ	-10.9949
▁সুকীয়া	-10.995
▁সত্তা	-10.995
▁সঁচাকৈ	-10.9951
▁কাউচ	-10.9951
▁ঐতিহ্য	-10.9951
▁আৱশ্যকতা	-10.9952
▁ইঞ্চি	-10.9952
ভাৰিষ্ট	-10.9952
▁জটিলতা	-10.9952
আশ্চৰ্যজনক	-10.9952
▁VM	-10.9953
▁শিক্ষাগ্ৰহণ	-10.9953
▁কাযা	-10.9953
স্টিক	-10.9953
▁ব্যৰ্থতা	-10.9953
▁মাগী	-10.9954
▁সম্পাদন	-10.9954
▁শিক্ষাদান	-10.9954
▁Rev	-10.9954
▁জোতা	-10.9954
▁লিম্ফোমা	-10.9955
▁ঘটোৱা	-10.9955
▁উপকাৰী	-10.9955
▁দলীয়	-10.9956
prev	-10.9956
▁সোমাই	-10.9957
gend	-10.9957
▁দেখুৱাই	-10.9957
▁বাংলাদেশী	-10.9958
ফাতিহ	-10.9958
▁সীতাৰমণে	-10.9959
▁ফলস্বৰূপে	-10.9959
▁কালছোৱাত	-10.9961
▁পাইপ	-10.9962
▁ৰেটিং	-10.9962
▁কাঠ	-10.9962
AA	-10.9962
▁কমিছন	-10.9963
▁Cord	-10.9963
▁কেন্দ্ৰসমূহত	-10.9965
▁দুষ্ট	-10.9966
▁নিয়া	-10.9966
▁শিশুটি	-10.9971
▁দুবাৰ	-10.9972
▁আফাৰ	-10.9973
yo	-10.9975
▁সমৃদ্ধি	-10.9977
▁পতন	-10.9978
হনা	-10.9979
ৰোনাতংক	-10.9981
▁ঋ	-10.9983
াঘর	-10.9983
▁বিতৰ্ক	-10.9984
পে	-10.9984
▁টকালৈকে	-10.9984
▁সম্ভাৰ	-10.9985
▁ছুন্নত	-10.9986
▁অৱহেলা	-10.9987
▁উভয়	-10.9988
প্লাছ	-10.9988
▁আদান	-10.9989
▁৪২	-10.999
▁সৰ্বস্বত্	-10.999
▁সৌ	-10.9993
মুকুট	-10.9993
▁East	-10.9994
▁তত্বাৱধানত	-10.9995
▁কভিড	-10.9995
▁We	-10.9995
▁প্ৰাপ্য	-10.9996
▁বেশ্যা	-10.9996
▁Media	-10.9996
▁SB	-10.9996
▁মঘাই	-10.9998
▁কল্কিম	-10.9999
▁বুধবাৰ	-10.9999
ুৰ	-10.9999
▁যোগোৱা	-10.9999
▁গুণাগুণ	-10.9999
▁ফুসসিলাত	-10.9999
▁ভ্ৰান্তি	-10.9999
▁ইউনিয়ন	-11
▁নাৰায়ণ	-11
▁স্বয়ংক্ৰিয়	-11
▁USD	-11
ī	-11
▁মেট্ৰিক	-11
▁২০১০	-11.0001
কথাবতৰা	-11.0002
▁অনন্যা	-11.0003
▁অন্তৰ্বস্তু	-11.0004
▁সদস্যনাম	-11.0004
ample	-11.0004
▁উপপত্নী	-11.0004
▁অন্যথা	-11.0005
ৰেন্দ্ৰ	-11.0005
▁বীমাধাৰীৰ	-11.0007
▁শিখ	-11.0007
ংগা	-11.0007
গাথা	-11.0008
:\$	-11.0009
▁নগ্নতা	-11.0009
▁contact	-11.001
▁ততো	-11.001
diff	-11.0011
োক্ত	-11.0011
▁প্ৰস্তাৱকাৰী	-11.0011
▁মোটা	-11.0015
▁ফিট	-11.0018
▁ভাষ্য	-11.0019
▁সুৰজি	-11.0019
▁ব্যাপকতা	-11.0019
▁Ele	-11.002
▁জ্যোতিৰ্	-11.0021
▁টাবু	-11.0024
▁খাপ	-11.0025
▁চিকি	-11.0025
▁সম্পদসমূহ	-11.0026
▁উত্তৰাধিকাৰী	-11.0028
exp	-11.0028
▁কথাখিনি	-11.0029
▁নদী	-11.003
▁পছন্দসমূহ	-11.0033
▁দেয়	-11.0034
▁দোকানত	-11.0039
▁কাণ্ড	-11.0039
▁পৰিৱেশন	-11.0044
▁একচ	-11.0046
▁সিবিলাক	-11.0046
▁বতাহ	-11.0047
ial	-11.0048
▁বিজ্ঞানীৰ	-11.0049
চক্ৰ	-11.0051
FE	-11.0052
ক্ষেপ	-11.0053
▁স্ক্ৰী	-11.0055
ervers	-11.0063
▁Health	-11.0063
▁ভিঢি	-11.0064
▁বিফলতা	-11.0064
▁কর্ম	-11.0066
▁পাত	-11.0067
▁বিকলাংগতাৰ	-11.0076
পত্র	-11.0077
▁এম্বুলে	-11.008
ছিন	-11.008
▁হিন্দী	-11.0081
▁Group	-11.0081
▁দেওবাৰ	-11.0082
বন	-11.0084
▁আপলোড	-11.0086
ম্ব	-11.0089
▁স্নান	-11.009
Hz	-11.0091
▁ওলমি	-11.0091
▁id	-11.0092
▁ইব	-11.0092
▁মুক্তি	-11.0096
▁পুৰণ	-11.0096
▁এইচটি	-11.0098
▁টেক্সট	-11.0099
▁নিৰ্মিত	-11.0099
▁অনুপাতত	-11.0101
ীকৃত	-11.0105
ডিজিটীয়	-11.0107
▁বিচ	-11.011
▁বিধ	-11.0114
the	-11.0119
▁বাহিৰত	-11.0124
গ্ৰাফ	-11.0127
াক্ষি	-11.0127
রুহ	-11.0127
▁মানদণ্ডৰ	-11.0128
▁বিদ্বেষপ	-11.0128
▁ফাইলটো	-11.0129
▁ভো	-11.0132
▁লিখন	-11.0136
▁দ্বীপ	-11.0138
CK	-11.0138
্যা	-11.0141
▁পিয়া	-11.0155
ডাল	-11.0158
▁বোধ	-11.0161
ৰীতা	-11.0164
▁ইনকো	-11.0164
▁গ্ৰাম	-11.017
▁প্ৰাপ্তি	-11.0172
মায়া	-11.0172
▁ইজ	-11.0174
▁চিকিৎসীয়	-11.0176
▁অবস্থা	-11.0176
▁জন্তু	-11.0177
▁পলিচীয়	-11.0178
▁প্ৰতক্ষ	-11.0183
▁বিদ্যালয়সমূহ	-11.0184
▁মাতি	-11.0191
▁কৃষকসকল	-11.0191
▁বীজটো	-11.0192
▁এইবিলাক	-11.02
সলনী	-11.0201
কীয়া	-11.0202
▁ইহ	-11.0206
▁প্ৰকাশকৰ	-11.0206
▁মুল	-11.021
▁ৱিকিপিডিয়াৰ	-11.0211
▁বস্তুৰ	-11.0212
▁Sah	-11.0214
▁ছি	-11.0218
lly	-11.022
▁দহন	-11.0225
▁তোমা	-11.0225
▁তলা	-11.0228
▁উলিয়া	-11.0231
▁হস্ত	-11.0234
▁"[[	-11.0235
▁জিল	-11.0235
▁বিক	-11.0236
▁বাৰ্মা	-11.0243
▁Q	-11.0247
▁HRC	-11.0248
▁MR	-11.0249
▁Statistics	-11.0251
চিঅ	-11.0253
ীয়ে	-11.0259
▁নাগৰিকৰ	-11.0262
LO	-11.0266
বেক	-11.0269
▁কোট	-11.0271
মোচন	-11.0278
▁একাউণ্টত	-11.0281
স্ক	-11.0282
▁সামৰণ	-11.0284
দং	-11.0285
▁যাত্ৰীসকল	-11.0288
▁al	-11.0298
▁খৃ	-11.0305
েৰা	-11.0306
▁ৰেখা	-11.0307
▁বীমাকৰ্তা	-11.0314
▁ভোগ	-11.0319
▁ভাড়াৰ	-11.0325
বাবে	-11.0327
▁দৈত্যকৃষ্ণকায়	-11.0328
▁প্ৰথমে	-11.0328
▁নিহিত	-11.0334
▁Ki	-11.0334
media	-11.0347
▁বান্ধবী	-11.0347
হু	-11.0347
হৈ	-11.0349
▁anal	-11.0351
▁Mun	-11.0358
মুখী	-11.0375
পেথ	-11.0382
ীখন	-11.0382
▁Dai	-11.0395
▁ছাৰ্জ	-11.0397
tree	-11.0405
▁উপভোক্তাসকল	-11.0406
::	-11.041
▁মাৰ	-11.0412
▁সুৰা	-11.0417
▁হবে	-11.0418
▁ভাৰতবৰ্ষত	-11.042
ীশ	-11.042
▁ki	-11.042
▁এইচভি	-11.0425
▁'"	-11.043
▁Pal	-11.0442
ā	-11.0442
▁মাৰ্ক	-11.0443
▁জ্ঞাত	-11.0444
্দ্ধিত	-11.0445
▁সাই	-11.0445
▁ডেলিভাৰী	-11.0447
▁গান	-11.0458
্য়া	-11.046
ast	-11.0462
ant	-11.0464
▁লং	-11.0464
ina	-11.0465
▁বিদ	-11.047
পু	-11.0472
তিোন	-11.0476
ভিজা	-11.0484
বেদন	-11.0485
▁অৰুণ	-11.0486
▁প্ৰব	-11.0489
▁মাক	-11.0492
rs	-11.0495
▁মাৰি	-11.0504
টার	-11.0506
swa	-11.0506
▁বাঢ়ি	-11.0509
সম	-11.0518
▁part	-11.0521
াগত	-11.0524
AME	-11.0525
সময়ৰ	-11.0537
▁সেউজ	-11.054
▁পঠন	-11.0543
যা	-11.0545
▁ইক	-11.0549
্চ	-11.055
NG	-11.0552
হাৰি	-11.0553
MS	-11.0565
লসন	-11.0565
▁সুস্থ	-11.0567
▁অগ্ৰ	-11.0569
াৰ্থ	-11.0571
▁আনি	-11.0572
cle	-11.0573
▁শেষত	-11.0581
▁বাঢ়িব	-11.059
▁চু	-11.0591
তান	-11.0593
▁উপাস	-11.0598
▁অপচন	-11.0599
ip	-11.061
▁আৰ্থ	-11.0617
ীণ	-11.062
uts	-11.0633
▁Ber	-11.0637
confirm	-11.0645
▁বিশ্বত	-11.0652
ble	-11.0654
▁প্ৰকাশক	-11.0658
োতে	-11.0659
বো	-11.0664
KI	-11.0664
hil	-11.0669
দো	-11.0676
শু	-11.068
▁ৰাধিকা	-11.0681
ars	-11.0683
কর	-11.0694
▁দূ	-11.0695
▁আৰক্ষীৰ	-11.0702
▁ধাৰণ	-11.0708
▁চাৰ্	-11.0716
পুনি	-11.0717
▁আদিত	-11.0721
জয়ী	-11.0741
ঞ্চিত	-11.0745
▁ভাবা	-11.0746
চাৰ	-11.0748
▁গোহাঁই	-11.0749
দুধ	-11.075
গ্	-11.0751
IS	-11.0759
চনেল	-11.0768
িদ	-11.0776
▁শৰ্মাৰ	-11.0779
▁শ্ৰেণীত	-11.0782
▁দৈন	-11.0784
▁নীতিত	-11.0789
▁ট্ৰে	-11.0795
বদৰ	-11.0799
▁কওঁ	-11.0808
▁কার্য	-11.0817
মোক	-11.0819
ুৱেল	-11.082
ave	-11.0826
ফুট	-11.0831
▁১৯৪	-11.0835
ard	-11.0837
মালৈ	-11.0844
াপ্ত	-11.0846
▁দুৰ্ঘটনাত	-11.0846
ight	-11.085
▁কক্ষ	-11.0854
▁Tok	-11.087
);	-11.0876
েশ্বন	-11.0891
▁San	-11.0892
▁ধীৰে	-11.0912
▁কাৰণসমূহ	-11.0921
ায়ূদ	-11.0927
▁নকৰিব	-11.0929
ুড	-11.0934
▁ওপ	-11.0938
▁মিল	-11.0947
▁উপস্থাপন	-11.0956
▁জাতীয়	-11.096
▁উদ্	-11.0961
খেলনা	-11.0968
জী	-11.097
AN	-11.0978
selected	-11.0984
ks	-11.0997
▁মনোন	-11.1006
ano	-11.1008
ঁৰা	-11.1044
▁এয়াৰ	-11.1054
ED	-11.1055
ের্	-11.106
ক্ল	-11.1075
▁পুৱা	-11.1076
▁চকুৰ	-11.1076
ৈল	-11.1079
▁শতাংশৰ	-11.108
ls	-11.1085
▁খান	-11.1086
্ৰ	-11.1087
▁মীড	-11.1093
▁III	-11.1095
ছনি	-11.1095
->	-11.1102
▁শশ	-11.1103
ক্ষৰ	-11.1111
▁ডিচ	-11.1125
▁বাহ	-11.1128
ূদ	-11.1133
▁শি	-11.114
▁পৰিণত	-11.1152
এফ	-11.1159
bad	-11.1164
der	-11.1168
ce	-11.1173
▁করা	-11.1173
▁পাতি	-11.1178
▁ছলচ	-11.1179
▁চমক	-11.118
nja	-11.1182
▁কোনটো	-11.1183
▁সতৰ্ক	-11.1192
UR	-11.1193
প্ৰদান	-11.1199
et	-11.1202
▁পৰিকল্পনাৰ	-11.1205
ম্মুখ	-11.1211
বৰ্দ্ধ	-11.1223
ৰ্দ্ধ	-11.1225
ral	-11.1229
▁মানুহক	-11.1236
ফাই	-11.1237
▁কিনিব	-11.1241
▁Ro	-11.1243
pa	-11.1247
▁St	-11.1248
▁নম্বৰত	-11.1249
স্থিত	-11.1254
▁বীমাকৃতজন	-11.1262
▁বাব	-11.1263
ky	-11.1264
▁বান	-11.1269
▁হো	-11.1279
আয়ন	-11.1284
য়োগ	-11.129
▁অসীম	-11.1303
িমা	-11.1313
▁কাৰ্যত	-11.1315
AM	-11.1326
era	-11.1327
মোহন	-11.1327
▁প্ৰক্ৰিয়াত	-11.1338
dra	-11.1338
মণি	-11.1338
কাৰীৰ	-11.134
▁Christ	-11.1348
▁টোকা	-11.135
▁নিয়মীয়া	-11.1354
ঔ	-11.1354
ংজু	-11.136
স্প	-11.1361
▁কাৰণতে	-11.1362
য়োগি	-11.1363
বিষয়ে	-11.1364
ণ্ডা	-11.1366
প্ৰথম	-11.1368
num	-11.1375
account	-11.1381
মখোমুখী	-11.1385
অকপট	-11.1385
ৱাৰী	-11.1386
Lee	-11.1387
▁আয়ত	-11.1405
▁ধাৰণাৰ	-11.1408
ৰ্ন	-11.142
ৰ‍্	-11.1421
খণ্ড	-11.1421
Nam	-11.1422
বছৰতকৈ	-11.1425
স্বত্ব	-11.1427
আলোচনা	-11.1428
▁১০০০	-11.1428
ঈদ	-11.1429
কোৰআন	-11.143
বেই	-11.1436
ode	-11.1438
▁বৰ্	-11.1438
▁উপস	-11.1439
বও	-11.144
উলকি	-11.144
▁দাসে	-11.1443
▁show	-11.1443
অতিৰিক্	-11.1446
সংগ্ৰহ	-11.1448
`	-11.1451
ৰুল	-11.1452
iga	-11.1454
মেথ	-11.1457
সংস্কৰণ	-11.1458
বিজ্ঞাপন	-11.1459
এয়া	-11.1459
▁বুজা	-11.1459
গ্ৰন্থ	-11.1462
মাধ্যম	-11.1467
প্ৰেৰণা	-11.1473
বাতিল	-11.1474
©	-11.1474
সংকলন	-11.1476
༒	-11.1478
▁জু	-11.1479
নিৰ্বাচিত	-11.1479
সাগৰ	-11.148
তুং	-11.1489
CTN	-11.149
▁ঙ	-11.149
▁ওন	-11.149
স্ক্ৰীণ	-11.1491
গেলৱে	-11.1492
ডিব্ৰুগড়	-11.1492
CAD	-11.1492
পাঠ	-11.1493
নিহিত	-11.1495
▁পথত	-11.1496
ন্যূনতম	-11.1497
যাত্ৰা	-11.1497
ক্ষেত্ৰ	-11.1497
প্ৰাসংগিক	-11.1498
েন্দ্ৰ	-11.15
‘‘	-11.1501
▁কষ্ট	-11.1504
▁সাপ	-11.1523
দূৰ	-11.1526
লাখ	-11.1527
▁বিভ	-11.1534
box	-11.1537
ar	-11.154
তিনি	-11.1541
▁পলিচীসমূহ	-11.1544
পায়ু	-11.1547
কাণ	-11.1547
ৰুৱা	-11.1548
▁জীৱ	-11.1548
▁অভিন	-11.1552
▁মঙ	-11.1553
ẏa	-11.1555
▁প্ৰৱন্ধটো	-11.1561
▁উদ	-11.1567
ভেদ	-11.1571
্যস্ত	-11.1576
ৱাল	-11.1581
CG	-11.1593
ESE	-11.1596
▁কব	-11.1598
▁র়	-11.1604
▁ডিশ	-11.1604
▁খেলো	-11.1606
ৰ‍্ৰ	-11.1611
this	-11.1612
nment	-11.1621
▁মিশ্ৰ	-11.1636
editor	-11.164
্যাগ	-11.1646
▁নিয়ন্ত্ৰ	-11.1648
▁অগ	-11.1649
▁কৰ্তব্য	-11.1651
▁সমস্	-11.1654
াইছ	-11.1658
▁Ji	-11.1659
ড্ৰাইভাৰ	-11.1671
লানি	-11.1671
ঙা	-11.1678
▁ব্যৱস্থাপন	-11.1694
তিথি	-11.1695
nga	-11.1696
সাল	-11.17
▁হৈছো	-11.1706
▁বিমানখন	-11.172
▁স্বীকৃত	-11.1721
▁মানদণ্ড	-11.1725
▁সন্ত্ৰাসবাদী	-11.1732
ধ্য়	-11.1732
াৰী	-11.175
▁আসন	-11.1752
াধীশ	-11.1752
Di	-11.1758
দশ	-11.1761
ুত	-11.177
কাৰ্য্যৰ	-11.1775
২২	-11.1782
নিত	-11.1783
ē	-11.1783
বেল	-11.1786
কালি	-11.1786
▁বিয়া	-11.179
▁আক	-11.179
▁cm	-11.1801
ym	-11.1802
▁অক	-11.1803
result	-11.1805
▁এলান	-11.1813
য্য	-11.1815
▁মাৰ্কেট	-11.1819
ন্ডা	-11.1831
udha	-11.184
settings	-11.1846
yu	-11.1854
ুডু	-11.1857
লাই	-11.1867
▁মহানগৰ	-11.187
▁যিক	-11.1877
▁সন্তুষ্ট	-11.1879
▁বৈঠক	-11.188
্বা	-11.1881
▁আল্লা	-11.1888
ers	-11.1898
জাৰ	-11.1902
সংক্রান্ত	-11.1902
প্ত	-11.1904
}}]]	-11.191
▁দলং	-11.191
KD	-11.1911
▁বিধেয়ক	-11.1913
▁সম্পর্ক	-11.1914
▁গেল্	-11.1916
▁প্ৰাইভে	-11.1917
১৭	-11.1919
▁ৰূপাভ	-11.1926
▁উন্মুক্ত	-11.1927
▁উদ্ধৃত	-11.1929
▁ছেটিং	-11.193
▁Time	-11.1934
িতে	-11.1935
▁প্ৰদূষ	-11.1937
▁ঊন	-11.1938
▁অভিজ্ঞ	-11.1938
▁Tim	-11.1941
▁Jul	-11.1942
হলে	-11.1942
site	-11.1943
▁কৰ্তৃত্ব	-11.1943
type	-11.1944
source	-11.1944
missing	-11.1944
▁ব্ৰহ্ম	-11.1944
р	-11.1944
с	-11.1944
sysop	-11.1944
▁গৰ্ভ	-11.1944
adjective	-11.1944
loginreq	-11.1944
Ř	-11.1944
̷	-11.1944
у	-11.1944
سامي	-11.1944
ۆ	-11.1944
ইলেক্ট্ৰনিক	-11.1944
ঌ	-11.1944
জুমুআ	-11.1944
⁠	-11.1944
←	-11.1944
▁FAQ	-11.1944
▁NEWS	-11.1944
▁October	-11.1944
▁carbide	-11.1944
▁অধ্যাপিকা	-11.1944
▁অস্বীকৃতিজ্ঞাপণ	-11.1944
▁আচঁনি	-11.1944
▁ইউনিভাৰ্চিট	-11.1944
▁উছাইমীন	-11.1944
▁উৰাজাহাজ	-11.1944
▁কল্যাণ	-11.1944
▁কাহতানী	-11.1944
▁ক্রোৱেচিয়া	-11.1944
▁চেপ্তেম্বৰ	-11.1944
▁ছেমিফাইনেল	-11.1944
▁ণিৰ্ণয়	-11.1944
▁তাসখন্দ	-11.1944
▁দুগ্ধপান	-11.1944
▁নগদধনৰহিত	-11.1944
▁নিউজিলেণ্ড	-11.1944
▁পার্থক্য	-11.1944
▁পিঁয়াজ	-11.1944
▁প্ৰত্যাহ্বান	-11.1944
▁ফিৰ্কা	-11.1944
▁ফেব্ৰিক	-11.1944
▁ফ্ুলপাছ	-11.1944
▁বুলগেৰিয়া	-11.1944
▁ব্যৱ্হাৰ	-11.1944
▁মহাৰাষ্ট্ৰ	-11.1944
▁মেকুৰী	-11.1944
▁লোটোখেলা	-11.1944
▁শীঘ্ৰে	-11.1944
▁সংৰোপণ	-11.1944
▁ৰিনিউ	-11.1944
▁ৱিক্সনেৰী	-11.1944
▁▶	-11.1944
activeusers	-11.1944
▁Click	-11.1944
▁xHamster	-11.1944
▁অক্সিজেন	-11.1944
▁আমোদজনক	-11.1944
▁উভকামী	-11.1944
▁জান্নাত	-11.1944
▁টুকুৰা	-11.1944
▁পুনৰুদ্ধাৰ	-11.1944
▁বিসংগতি	-11.1944
▁সুন্দর	-11.1944
▁স্বেচ্ছাসেৱী	-11.1944
namespace	-11.1944
▁টিকাকৰণ	-11.1944
▁ঢেঁক	-11.1944
▁তাৰোপৰি	-11.1944
▁নিউট্ৰিফ্ল	-11.1944
▁বাদ্যযন্ত্ৰ	-11.1944
বাঁওফাল	-11.1944
▁narrow	-11.1944
▁ৰক্তচাপ	-11.1944
▁ৰছিদ	-11.1944
▁মগজু	-11.1944
▁সম্প্ৰচাৰ	-11.1944
▁ৰবীন্দ্ৰনাথ	-11.1944
মংগলাষ্টকম	-11.1944
▁খতিয়ান	-11.1944
▁বক্তব্য	-11.1944
▁ষ্টেডিয়াম	-11.1944
▁চুমানো	-11.1944
▁ট্ৰেক্টৰ	-11.1944
▁ভাবুকি	-11.1944
▁শ্ৰদ্ধা	-11.1944
▁পোষণ	-11.1944
▁ধৰ্ষণ	-11.1944
ή	-11.1944
▁চফটৱেৰ	-11.1944
▁চেন্টাৰ	-11.1944
▁বিধায়ক	-11.1944
livepreview	-11.1944
▁ইংলণ্ড	-11.1944
▁বলিভাৰ	-11.1944
▁মিটিঙ	-11.1944
▁মোডী	-11.1944
কর্ষণ	-11.1944
▁অৱলম্বন	-11.1944
▁পৰিপ্ৰেক্ষিতত	-11.1944
▁নিউক্লিয়েৰ	-11.1944
▁বেচৰকাৰী	-11.1944
▁Applica	-11.1944
filehist	-11.1944
▁শুভক্ষণ	-11.1944
▁টিউট	-11.1944
▁হিংসাত্মক	-11.1944
▁অপহৰণ	-11.1944
▁আতংক	-11.1944
▁শ্ৰব্য	-11.1944
▁টোনার	-11.1944
▁ভূখণ্ড	-11.1944
remember	-11.1944
viewsource	-11.1944
▁নবৱী	-11.1944
▁পাৰ্কিং	-11.1944
▁চতুৰ্থ	-11.1945
▁Pitik	-11.1945
▁Contact	-11.1945
▁সোমালী	-11.1945
▁স্কুলগার্	-11.1945
▁আহমেদ	-11.1945
▁ৰূপাঙ্ক	-11.1945
▁মাধৱ	-11.1945
▁ডক্টৰেট	-11.1945
▁৪ৰ্থ	-11.1945
▁জিৰণি	-11.1945
▁পেকেট	-11.1945
export	-11.1945
▁নাবালক	-11.1945
▁মনোভাৱ	-11.1945
▁স্থলপথ	-11.1945
▁উকলি	-11.1945
▁যীচু	-11.1945
▁ূান	-11.1945
▁৩৬০	-11.1945
▁গাঞ্জাখিনি	-11.1945
warning	-11.1945
▁উত্সাহ	-11.1945
▁মুকেশ	-11.1945
▁গেইম	-11.1945
ত্ৰিছ	-11.1945
লফাইড	-11.1945
▁উত্তীৰ্ণ	-11.1945
▁সাঁথৰ	-11.1945
nocookies	-11.1945
▁নিৰ্ণয়	-11.1945
▁শীতল	-11.1946
▁ISO	-11.1946
▁গেরো	-11.1946
▁নিদিয়ে	-11.1946
ঠাঁচ	-11.1946
▁কেৰেলা	-11.1946
▁ফচল	-11.1946
▁কেচুৱাটি	-11.1946
▁সৰ্বসাধাৰণ	-11.1946
স্বতন্ত্ৰ	-11.1946
▁অভিযুক্ত	-11.1946
▁শ্লোভাকীয়া	-11.1946
▁Pho	-11.1946
▁বুজোৱা	-11.1946
▁তুলিছে	-11.1947
▁উজ্জ্বলতা	-11.1947
▁অৱনতি	-11.1947
▁ট্ৰেড	-11.1947
▁মালিকানা	-11.1947
ntm	-11.1947
preg	-11.1947
এছটি	-11.1947
▁আনুবংশ	-11.1947
Internet	-11.1947
▁পাইছিল	-11.1947
▁মালিতা	-11.1947
▁বহুমুখী	-11.1948
▁সূচকীয়	-11.1948
▁সংকটজনক	-11.1948
▁অনুচিত	-11.1948
▁লণ্ডন	-11.1948
▁মন্ত্ৰীগৰাকীয়ে	-11.1948
▁কানভা	-11.1948
▁চলমান	-11.1948
▁মুসল	-11.1948
▁তত্বাৱধান	-11.1948
ending	-11.1949
▁স্বয়ং	-11.1949
▁সজাগতা	-11.1949
▁ছয়টা	-11.1949
▁কাপুৰ	-11.1949
▁অশুদ্ধ	-11.1949
▁কাৰ্য্যসূচী	-11.195
▁উত্তোলন	-11.195
▁টায়াৰ	-11.195
▁ম্যাপ	-11.195
▁ৰাধা	-11.195
▁দুগৰাকী	-11.195
▁হাণ্ডা	-11.195
ments	-11.195
▁উইণ্ডো	-11.195
▁চুক্তিপত্ৰ	-11.1951
▁প্ৰসংস্কৰণ	-11.1951
moved	-11.1951
▁স্বশ	-11.1951
▁গেলাৰী	-11.1951
▁শব্দাৱলী	-11.1952
UBE	-11.1952
▁চোদা	-11.1952
meta	-11.1952
▁পাঞ্জাৱ	-11.1952
▁পৰিদৰ্শন	-11.1952
EMA	-11.1952
▁বেংকটেশ	-11.1953
▁'''\$	-11.1953
▁সহকাৰী	-11.1953
▁বিজ্ঞানীগৰাকী	-11.1953
নিষ্ঠ	-11.1953
verb	-11.1953
▁পঠিয়াই	-11.1953
▁কাৰ্য্যব্যৱস্থা	-11.1954
indian	-11.1954
▁সময়খিনিত	-11.1954
▁হভার	-11.1954
▁Sc	-11.1954
▁পইণ্ট	-11.1954
▁নিদান	-11.1954
▁চনদ	-11.1955
▁XP	-11.1955
▁কিছুদিন	-11.1955
▁সমৃদ্ধ	-11.1956
▁ফন্ট	-11.1956
▁এদিন	-11.1956
▁মীনা	-11.1956
▁ল্যাব	-11.1956
▁অন্ততঃ	-11.1956
▁উত্স	-11.1956
▁লওঁতে	-11.1956
পুতুল	-11.1957
more	-11.1957
▁নামভৰ্তি	-11.1957
বঢ়াই	-11.1958
▁শুই	-11.1958
▁আভ্যন্তৰীণ	-11.1961
▁সংসদ	-11.1961
▁পাও	-11.1962
িলী	-11.1962
▁ৰূপায়ন	-11.1963
▁জাৰী	-11.1964
▁সাক্ষ্য	-11.1964
লোৱাটো	-11.1965
▁সাতটা	-11.1966
▁যিতো	-11.1966
▁কৌ	-11.1967
xxxtrasmall	-11.1968
editing	-11.1969
Yox	-11.1969
▁তেনেদৰে	-11.1969
▁আগলৈ	-11.197
▁কৰ্মচাৰীয়ে	-11.1971
▁চাং	-11.1971
▁প্ৰশংসা	-11.1971
▁cum	-11.1972
উইং	-11.1972
▁ৰীতি	-11.1973
▁বন্ধনী	-11.1973
ন্নিধ	-11.1974
▁পুনৰা	-11.1974
▁ফরাসি	-11.1975
▁আয়াত	-11.1975
▁উপচাৰ	-11.1976
বুক	-11.1976
KW	-11.1976
leate	-11.1976
অশ্বচালনা	-11.1976
▁উঠিব	-11.1977
▁Mar	-11.1977
▁খালি	-11.1977
see	-11.1978
▁উলিয়াব	-11.1978
পত	-11.1979
▁বাকচ	-11.1979
▁অইলাৰ	-11.198
▁পদ্ধতিবোৰ	-11.198
▁থাকক	-11.1981
▁উদ্যম	-11.1982
কামোত্তেজকতত্ত্ব	-11.1983
▁সাম্প্ৰ	-11.1983
roject	-11.1983
▁সুৱ	-11.1984
▁ব্যবহাৰকাৰী	-11.1985
▁আঁৰত	-11.1986
▁ওমৰ	-11.1988
▁ইউনাইটেড	-11.1989
▁Director	-11.199
edia	-11.199
▁তেনেকৈ	-11.1992
▁নিউট্ৰি	-11.1993
▁Har	-11.1993
▁ডিঙি	-11.1993
▁সংগ্ৰহণ	-11.1995
▁ইনফো	-11.1995
▁ছলমান	-11.1995
▁প্ৰাপকসকল	-11.1996
▁চেমি	-11.1998
▁ফাইন	-11.1999
জিয়ে	-11.2001
▁প্ৰয়াস	-11.2001
▁ক্ষেত্ৰখনত	-11.2004
▁দৃশ্যমান	-11.2006
PD	-11.2006
▁বোতল	-11.2008
▁নগ্ন	-11.2009
▁সাহস	-11.2009
▁বিধিসন্মত	-11.2009
▁নিটোল	-11.201
▁boobs	-11.2011
▁ভাইৰাচ	-11.2011
▁caught	-11.2011
▁কৰিমগঞ্জ	-11.2011
▁Android	-11.2011
▁ইনষ্টলেচন	-11.2012
▁হেমাহি	-11.2012
▁গৃহশৌৰ্যম	-11.2013
▁শ্লোভাকিয়া	-11.2013
▁৮০	-11.2013
▁ভাঙি	-11.2013
▁স্বচ্ছতা	-11.2015
▁আলোচনীখন	-11.2015
▁অস্থিৰ	-11.2016
▁ভেজা	-11.2017
▁মিলিলি	-11.2017
▁আপত্তি	-11.2017
longpage	-11.2017
▁ধৰণেৰে	-11.2018
▁অতিথি	-11.2018
পৰিকল্পিত	-11.2019
▁ফাংচন	-11.2019
▁পেলায়	-11.202
ঞ্জ	-11.2021
▁নামঘৰ	-11.2022
▁হেড	-11.2023
▁ট্যাগ	-11.2025
▁অস্ত্ৰ	-11.2025
▁অভিযান্ত্ৰিক	-11.2026
▁গুণমান	-11.2027
▁অযোগ্য	-11.2029
▁চতুর্	-11.203
▁Sat	-11.2031
বুব	-11.2032
▁প্ৰতিবাৰ	-11.2032
েছেন	-11.2032
▁Hot	-11.2032
দ্	-11.2032
▁প্ৰতিষ্ঠাত	-11.2035
সমষ্টি	-11.204
▁বৃহত্ত	-11.2041
▁অৰ্থো	-11.2041
▁বেদ	-11.2042
ata	-11.2043
▁ওঁম	-11.2048
িন্ন	-11.205
ump	-11.205
▁ছাবস্ক্ৰ	-11.2051
▁লেখাটো	-11.2052
▁পিপ	-11.2055
▁সমস্যাসমূহ	-11.2057
▁Office	-11.2057
▁পক্ষসমূহে	-11.2059
ালো	-11.2062
▁লোটো	-11.2065
▁বিশ্বাসী	-11.2068
▁অর্ডাৰটো	-11.2068
HAN	-11.2071
▁পৰিসৰত	-11.2072
▁ভৱন	-11.2075
▁ফলসমূহ	-11.2076
বাদাম	-11.2081
▁উলিয়াইছে	-11.2081
▁প্রকাৰ	-11.2081
লাব	-11.2084
▁ধৰে	-11.2084
▁টেৰ	-11.2086
▁কাপ	-11.2091
োক	-11.2091
▁বিষয়বোৰ	-11.2092
▁ছাত্ৰীগৰাকী	-11.2092
▁ভৌ	-11.2093
reb	-11.2093
▁সংস্থাসমূহ	-11.2097
▁আমল	-11.2097
▁ভক্তি	-11.2098
▁নেহ	-11.21
ংচি	-11.2101
ds	-11.2106
্ছ	-11.211
প্ৰেছাৰ	-11.2111
▁১৯৯৮	-11.2112
▁গোবিন্দ	-11.2112
▁বৰপেটা	-11.2113
োৰ	-11.2113
▁হাৰ্ডৱেৰ	-11.2113
▁স্বচ্ছতানপুংসক	-11.2114
▁Virtual	-11.2115
ওঁক	-11.2115
বাস্তব	-11.2116
▁ঔষধি	-11.2118
▁নিয়োগকৰ্তাৰ	-11.2119
▁প্রদান	-11.2121
▁ফ্ৰি	-11.2121
পাৰস্প	-11.2125
▁কেচুৱাৰ	-11.2125
▁উচ্চতা	-11.2127
wo	-11.2128
ৰ্ছ	-11.2128
ৰৱ	-11.2131
ized	-11.2131
▁অভিমুখ	-11.2134
▁বৰঙণিসমূহ	-11.2139
▁সৃষ্ট	-11.2142
▁বিকাৰ	-11.2145
▁Sing	-11.2146
ৰ্ম	-11.2148
▁ঠিকাদাৰ	-11.2149
▁clos	-11.2156
▁চান	-11.2157
▁নিয়াম	-11.216
শাসন	-11.2163
▁নু	-11.2166
যে	-11.2166
▁পদ্ধতিৰ	-11.217
ংহা	-11.2174
লোৱা	-11.2174
HS	-11.2177
anna	-11.2186
▁ক্ষেত্ৰখন	-11.2189
▁বিলম্ব	-11.2189
ddy	-11.219
ব্যাপ	-11.2194
▁গাঁও	-11.2195
বার	-11.2196
▁তাঁৰ	-11.2196
ামৰ	-11.2197
▁চেইন	-11.2197
সদস্যৰ	-11.22
টিক	-11.22
str	-11.2202
▁নাম্বাৰ	-11.2205
▁পিটিক	-11.2205
▁দৃঢ়তা	-11.2207
▁আৰ্কাইভ	-11.2217
▁অভ্যুত্থান	-11.2218
▁স্ম	-11.2218
▁নাৰীসকল	-11.2223
▁পেজ	-11.2223
acker	-11.2224
ল্ডাৰ	-11.2226
▁ভয়	-11.2228
▁ঠিকনাটো	-11.2229
▁আউট	-11.223
▁ষ্টেট	-11.2232
▁সামগ্ৰ	-11.2236
▁আগবঢ়া	-11.2237
িঞ্চি	-11.2239
▁দিও	-11.2245
▁য়ো	-11.2247
পৰীক্ষামূলক	-11.225
্ট	-11.225
▁ব্ল	-11.2252
গৰাকীক	-11.2254
বস্তুবোৰ	-11.2258
nu	-11.226
▁ৰাশ্ব	-11.2262
▁Sep	-11.2263
▁Sudha	-11.2266
▁অধিকাৰক্ষেত্ৰ	-11.2271
▁ক্ৰিয়া	-11.2275
ঢ়	-11.2275
post	-11.2278
ke	-11.2278
োল	-11.2282
হাব	-11.2283
▁ভঙা	-11.2287
ING	-11.2288
▁o	-11.2289
▁ব্যাক	-11.2291
▁মোদী	-11.2293
জেন্ট	-11.2296
▁দায়ী	-11.2302
৭৮	-11.2304
▁উলিয়াই	-11.231
▁থা	-11.2314
iji	-11.2315
▁চমত্কার	-11.232
াগ	-11.232
go	-11.2321
▁চুম্বকীয়	-11.2321
▁VirtualBox	-11.2322
▁উই	-11.2322
▁তথ্যকোষ	-11.2327
▁tits	-11.2327
hamp	-11.2338
▁চাবি	-11.234
▁ফতোৱাটো	-11.2341
লস	-11.2341
কম	-11.2341
▁ঢোল	-11.2345
মূহ	-11.2347
▁লক্ষ	-11.235
▁সোণোৱালে	-11.2351
ভাল	-11.236
▁Ass	-11.2362
▁লিফ	-11.2365
▁সহযোগীসকল	-11.2366
টী	-11.2366
▁ফে	-11.2366
}=	-11.2368
use	-11.2376
▁editor	-11.238
▁সংস্থান	-11.238
▁নম্ব	-11.2382
টোৱা	-11.2388
▁গ্ৰাহকজন	-11.2389
াহী	-11.2403
▁কেন	-11.2407
েন্দ্ৰনাথ	-11.241
▁can	-11.2411
▁গৰাকীয়ে	-11.2415
▁চেণ্টাৰৰ	-11.2415
▁শ্বা	-11.242
▁CTN	-11.2422
▁গ্ৰন্থসমূহ	-11.2424
ভিল	-11.2425
▁সিংৰ	-11.2426
ীদ	-11.2432
৩২	-11.2435
▁স্বত্ব	-11.2437
▁দেউতাক	-11.2443
ৰিত	-11.2446
▁আকাৰৰ	-11.2449
▁ভাগত	-11.2449
▁পিচ	-11.2454
rved	-11.2455
▁‘‘	-11.2456
নিয়ত	-11.2458
মান্য	-11.2459
▁প্ৰকল্পসমূহ	-11.2464
▁নকল	-11.2465
US	-11.2474
েহ	-11.2474
াকাৰ	-11.2475
UP	-11.2476
▁Mac	-11.2479
▁বাজে	-11.2479
▁বেল	-11.2479
▁টান	-11.248
লেহ	-11.2482
duplicatesearch	-11.2505
ফাফ	-11.2508
▁সাময়িক	-11.2516
OM	-11.2516
ramework	-11.2516
কানি	-11.2517
চিত	-11.2519
▁http	-11.2523
▁ঘটিল	-11.2523
ৰ্	-11.2526
লগ্	-11.2528
▁MediaWiki	-11.253
▁ট্ৰেডমাৰ্ক	-11.253
বোৰত	-11.253
▁গেল	-11.253
্যান	-11.253
মানি	-11.253
ন্দী	-11.2531
▁হৈছেঃ	-11.2533
▁উৎ	-11.2534
ran	-11.2534
বৃত্ত	-11.2539
▁Pa	-11.2549
াণ	-11.2554
ুৰা	-11.2554
▁মেথান	-11.2558
men	-11.256
▁খেলি	-11.2566
▁সমন্বয়ৰ	-11.257
োটা	-11.2571
্ৰিম	-11.2573
▁Tur	-11.2584
dn	-11.2586
বিয়ান	-11.2586
▁সব	-11.2588
▁ধা	-11.259
▁ঘৰটো	-11.2596
EC	-11.2598
্ৰম	-11.2606
▁pro	-11.2607
▁মজু	-11.261
▁শিকো	-11.2619
স্থায়ীভাৱে	-11.2619
য়নৰ	-11.262
EO	-11.2624
সময়	-11.2627
ৰঙা	-11.2631
িঙ	-11.2632
▁ا	-11.2633
▁প্ৰাণ	-11.2636
পোহ	-11.2636
▁প্ৰতিষ্ঠানত	-11.264
িয়াই	-11.266
▁সুবিধাজনক	-11.2664
কর্ম	-11.267
াংক	-11.2674
ুন্দ	-11.2675
▁ইব্ৰ	-11.2681
▁VP	-11.2686
ist	-11.2686
▁জুউ	-11.2691
▁থি	-11.2691
▁যথা	-11.2693
ার্ট	-11.2694
▁সেইখন	-11.2698
ৰীড	-11.2698
mit	-11.2712
▁প্ৰতিবছৰ	-11.2712
োৰে	-11.2713
প্	-11.2718
দেৱ	-11.2725
গনি	-11.2729
বচন	-11.2733
▁পৃষ্ঠালৈ	-11.2733
▁পঞ্জীভু	-11.2736
ted	-11.274
▁শতকৰ	-11.2743
▁টাই	-11.2749
▁OS	-11.2766
sa	-11.2767
মেটিক	-11.2772
ব্য	-11.2774
ল্পন	-11.2778
দামত	-11.2786
গাৰ	-11.2789
▁পাঠক	-11.2793
▁নিম	-11.28
৫৬	-11.2803
▁লুকা	-11.2812
io	-11.2813
▁চকী	-11.2822
▁এগ্ৰ	-11.2827
সময়ত	-11.2828
▁আৰ্ট	-11.2841
ৱী	-11.2843
▁তেতিয়াৰ	-11.2854
পাৰ্চ	-11.2862
▁পাহৰি	-11.2868
▁আলু	-11.2869
▁শাখাৰ	-11.287
▁e	-11.2873
opyright	-11.2874
ডমিন	-11.2878
ল্লৈ	-11.2882
etta	-11.2885
হুৰ	-11.2886
াচ	-11.2891
ত্র	-11.2895
ALA	-11.2907
▁বেট	-11.2917
মেলা	-11.2919
▁বিমানৰ	-11.2929
▁Porn	-11.2931
▁User	-11.2939
$$।	-11.294
▁অনব	-11.2941
▁কাটিব	-11.2943
▁কনটে	-11.2944
▁কাৰন	-11.2946
ষা	-11.2946
াংগ	-11.2947
▁ভবা	-11.2948
মুন	-11.2953
ontent	-11.2957
▁ট্ৰ	-11.2962
ology	-11.2963
হাম্ম	-11.2965
▁সেইসকল	-11.2968
বিলোপন	-11.2978
ট্ৰ	-11.2978
্যাপ্ত	-11.2991
ৰোৱান	-11.2993
়ে	-11.2995
▁সকলোবোৰ	-11.2996
▁সংগঠ	-11.2997
পূর্ণ	-11.2997
লিয়া	-11.2999
▁সাঁচ	-11.3003
▁মাত	-11.3006
▁সিঙ	-11.3008
▁sa	-11.3011
পযুক্ত	-11.3015
ৰূপ	-11.3016
▁লাইন	-11.3017
ABC	-11.3018
ধী	-11.3021
IVE	-11.3023
▁কাম্য	-11.3034
▁CG	-11.3042
ম্বার	-11.3048
▁সাহিত্যৰ	-11.3053
▁Ex	-11.3057
▁Ku	-11.3061
কল	-11.3066
কেয়াৰ	-11.3069
রুম	-11.3069
ture	-11.3075
▁h	-11.3079
মিন	-11.308
▁উৎসৰ	-11.3081
াইভেট	-11.3082
প্ৰকাশিত	-11.3086
▁চম	-11.3087
জাতিয়ে	-11.3091
▁ৰাও	-11.3092
তিক	-11.3093
▁লু	-11.3096
িছোঁ	-11.3109
▁ইষ্টা	-11.311
বোধ	-11.3111
ache	-11.3113
ুতি	-11.3116
১২	-11.3122
icated	-11.3138
ালি	-11.3142
াইছে	-11.3144
▁য়ে	-11.3149
েশ্যন	-11.3157
▁do	-11.3159
থে	-11.3159
tific	-11.3166
▁কীম	-11.3173
৭১	-11.3178
়া	-11.3178
▁লিমিটেডৰ	-11.3184
AX	-11.3187
MO	-11.3192
ES	-11.3197
▁ডায়ে	-11.3217
▁পঞ্চ	-11.3217
আপুনা	-11.3231
লেজ	-11.3241
লত	-11.3242
contribs	-11.3243
▁ফেল	-11.3244
▁গৃহীত	-11.3246
▁বিছ	-11.3246
▁অষ্ট	-11.3261
la	-11.3261
▁প্ৰতিনিধিৰ	-11.3264
▁পলি	-11.3265
কাল	-11.3266
▁Alli	-11.3268
▁Te	-11.3271
▁কার্ড	-11.3272
দ্যা	-11.3272
বেশ	-11.3273
ন্যায়	-11.3275
bra	-11.3276
ক্ক	-11.3276
▁মূ	-11.3287
▁হেল্	-11.3291
▁FS	-11.3296
মন্ত্ৰী	-11.3301
▁ধাৰাসমূহ	-11.3303
that	-11.3309
▁এনা	-11.3317
▁মনল	-11.3318
কেটৰ	-11.332
নীৰ	-11.3326
▁Ci	-11.3336
▁ঘুৰ	-11.3342
কালৰ	-11.3345
▁লক	-11.3347
দ্দ	-11.3353
ii	-11.3354
▁এর	-11.3355
pul	-11.3357
চিয়ে	-11.3363
OX	-11.3369
বলিত	-11.3369
ংক	-11.3373
▁অভ	-11.338
রুৰ‍্	-11.3395
‍	-11.3396
দেশী	-11.3408
টীয়া	-11.3413
োপো	-11.3416
বাহু	-11.342
▁কণ্ড	-11.342
Ba	-11.3428
চাইটি	-11.3432
চাব	-11.3445
ধাৰী	-11.3449
ead	-11.3451
বেচি	-11.3452
িদ্ৰ	-11.3462
মাম	-11.3466
অফ	-11.3479
স্য়	-11.3481
▁খৰ	-11.3492
ling	-11.3494
▁ন়	-11.3497
পাছা	-11.3498
CO	-11.3505
রৌ	-11.3511
ণী	-11.3512
ায়ণ	-11.3512
▁অত	-11.3532
উপ	-11.3532
ita	-11.3535
▁বড	-11.3542
কাৰীক	-11.3548
gi	-11.3555
▁চাইকেল	-11.356
্ৰাহী	-11.3562
পবিষয়শ্রেণীসমূহ	-11.3566
▁তেখেতক	-11.3588
▁আঁট	-11.3604
dg	-11.3616
▁উদ্দ	-11.3623
▁আকাশ	-11.3643
সেই	-11.3643
▁শৌচ	-11.3644
পায়	-11.3645
০৭	-11.3651
াৰ্থে	-11.3655
ভৰি	-11.3659
▁(‘	-11.3661
▁কদ	-11.3667
▁কাঁচ	-11.3674
▁প্রধান	-11.3678
টেড	-11.368
বিষয়	-11.3683
ানাং	-11.3684
ৰত	-11.3687
tri	-11.3702
ama	-11.3706
চী	-11.3707
ছাইট	-11.371
নম	-11.3711
ীয়াকৈ	-11.3716
▁Gu	-11.3717
কেপি	-11.3721
▁পং	-11.3732
▁আপোনা	-11.3735
থানল	-11.3744
▁পৰিস্থিত	-11.3746
ক্বাৰ	-11.3747
বাড়ি	-11.3764
ৱৰ্তী	-11.3768
▁pu	-11.377
সহায়	-11.3772
খোকামনি	-11.3775
▁প্ৰকল্পত	-11.3777
fil	-11.3782
ative	-11.3787
[[	-11.379
ডিঅ	-11.3797
মুদ্ৰ	-11.3801
els	-11.3813
▁চিত	-11.3813
ুদ্ধ	-11.3814
▁বিলাকত	-11.382
raā	-11.3823
abha	-11.3823
▁বুজিব	-11.3826
anda	-11.3827
স্তু	-11.3827
পেন	-11.383
ti	-11.3836
সাদা	-11.3838
▁লিপি	-11.3843
ণ্ডিত	-11.3844
xxx	-11.3846
▁প্ৰডাক্টৰ	-11.3848
▁নির্দেশ	-11.3849
শ্চ	-11.3851
ln	-11.3852
িলে	-11.3852
চুৰ	-11.3859
টকিঅ	-11.386
▁ফ্ৰে	-11.3862
▁Ve	-11.3866
qbs	-11.387
জেল	-11.3871
কৰণীয়	-11.3874
মাৰ	-11.3875
ত্ত্ব	-11.3876
ছু	-11.3883
▁প্ৰেৰণা	-11.3885
গৃহ	-11.389
িয়াদ	-11.3895
ণ্টন	-11.3897
ashi	-11.3897
প্যাড	-11.3897
বিভাগ	-11.3899
এখন	-11.39
লাইন	-11.3904
ধৰ্ম	-11.3907
স্থায়ী	-11.391
২৯	-11.391
যুৱতী	-11.3915
সোঁফাল	-11.3915
▁ৰন্ধ	-11.392
এজন	-11.392
সম্পৰ্কীয়	-11.392
অষ্ট্রেলিয়া	-11.3921
math	-11.3923
ore	-11.3925
ৱাৰ	-11.3925
ণ্ডু	-11.3925
নুমান	-11.3928
আইডি	-11.3929
▁হাউচ	-11.3929
৫৪৯৯	-11.3932
সংস্কাৰ	-11.3938
ভিডিঅ	-11.394
লোকৰ	-11.3942
তাৰিখ	-11.3945
ভাণ্ডাৰ	-11.3945
আলাইহি	-11.3949
ত্তা	-11.3952
শিশু	-11.3952
▁অনুৰাগ	-11.3957
▁Rea	-11.3958
শিল্পী	-11.3959
মুঠ	-11.3961
egion	-11.3961
শাস্ত্ৰ	-11.3963
শিৰোণামা	-11.3964
Mpa	-11.3964
ঢোল	-11.3964
sty	-11.3965
আগৰ	-11.3965
জন্তু	-11.3965
অৰ্থাৎ	-11.3967
▁আৰ্	-11.3969
উদ্যোগ	-11.397
প্ৰজাতি	-11.3971
চমত্কার	-11.3972
key	-11.3973
শান্তি	-11.3973
tits	-11.3974
ফলাফল	-11.3974
গড়	-11.3975
দেউতাক	-11.3977
VirtualBox	-11.398
▁লাগি	-11.398
তথ্যকোষ	-11.3983
ভাড়া	-11.3983
Windows	-11.3984
ছেটিংছ	-11.3984
HRC	-11.3986
বিনামূল্যে	-11.3986
হাট	-11.3987
ত্ৰুটী	-11.3987
Tube	-11.3987
দক্ষতা	-11.3987
English	-11.3988
বৈজ্ঞানিক	-11.3989
গৃহিণী	-11.3989
বিশাল	-11.399
দৃষ্টিকোণ	-11.399
জন্ম	-11.399
প্লাৱন	-11.3991
windows	-11.3991
পৃষ্ঠাটো	-11.3992
যিটো	-11.3993
Statistics	-11.3993
MPa	-11.3993
মুম্বাই	-11.3997
মাৰ্চ	-11.3998
দীৰ্ঘ	-11.4
নহওক	-11.4002
জেন	-11.4005
নিৰ্দিষ্ট	-11.4008
সংখ্য	-11.4012
ীচ	-11.4013
পালন	-11.4014
Install	-11.4018
সৰল	-11.4023
জটিল	-11.4024
মিটে	-11.4024
▁ছেলি	-11.4024
ব্যাক	-11.4029
▁পৰিকল্পনাত	-11.4031
ংগন	-11.4032
মিমি	-11.4036
▁ৰূপৰ	-11.4041
▁বিপ	-11.4042
▁জুম	-11.4044
দায়	-11.4045
চেনি	-11.4048
--	-11.4049
▁বাহু	-11.4056
জাল	-11.4057
▁Sud	-11.4058
▁কাজিৰঙা	-11.4062
DE	-11.4062
pf	-11.4063
পুৰী	-11.4064
▁ত্ৰ	-11.4069
▁গ্ৰন্থকেইখন	-11.407
য়ৰ	-11.4072
for	-11.4072
টোলৈ	-11.4074
মোদী	-11.4074
---	-11.4082
▁বিজয়ী	-11.4087
ইন্	-11.4087
াক্ট	-11.4088
files	-11.409
গৰাকীয়ে	-11.4091
▁নকৰো	-11.4092
মটৰ	-11.4098
Inde	-11.4102
টেক	-11.4107
ছী	-11.4108
LC	-11.4108
উদ	-11.4109
tal	-11.4114
দাৰ	-11.4115
বিধি	-11.4116
▁ফ্ৰ	-11.4126
খালী	-11.4128
PA	-11.4138
▁কেন্দ্ৰৰ	-11.4138
ডব্লু	-11.4143
হম	-11.4145
োল্	-11.4146
সম্ভৱ	-11.4151
সাত	-11.4162
▁বিদ্বেষপৰায	-11.4162
▁হীৰেন	-11.4164
সৰ্ব	-11.4167
পথত	-11.4176
পৰিচিত	-11.4177
়তা	-11.4187
▁ৰিজ	-11.4187
og	-11.4188
সম্মুখ	-11.4191
▁ৰেল	-11.4193
date	-11.4193
mode	-11.4194
কেন্দ্ৰত	-11.4205
▁কেচুৱা	-11.4216
▁গাৰ্গ	-11.4217
read	-11.4217
মো	-11.4221
▁সহজত	-11.4223
ছ্	-11.4228
কথা	-11.4234
নোযোগ	-11.4236
ইড	-11.4243
▁এখ	-11.4244
▁নিয়োগকৰ্তা	-11.4245
জ্ঞা	-11.4247
ৱতী	-11.4248
▁নেত	-11.4249
▁আঁতৰা	-11.4249
▁আতৰ	-11.4252
েইন	-11.426
ট্র	-11.4269
userpage	-11.427
ever	-11.4273
▁ওজা	-11.4274
খোকামনিহ	-11.4275
nskar	-11.4276
ni	-11.4277
নাশ	-11.4279
মেস	-11.4285
index	-11.4289
হেজাৰ	-11.4291
▁Or	-11.4295
ting	-11.4298
্দমা	-11.4301
▁Win	-11.4314
▁কেই	-11.432
ō	-11.4331
নেছ	-11.4332
▁কভাৰ	-11.4334
পৰি	-11.4336
▁প্ৰদৰ্শ	-11.4336
াওৱা	-11.4337
▁আশ	-11.4344
▁যাদু	-11.4346
\$	-11.4346
▁কাষ	-11.4348
িজ্জা	-11.4349
ese	-11.4352
▁সৎ	-11.4352
▁ms	-11.4355
িডি	-11.4357
▁বিফল	-11.4359
স্পেচ	-11.4371
▁এতিয়াৰ	-11.4374
▁সৃজন	-11.4381
ফত	-11.4383
ল্ড	-11.4387
▁আন্তঃ	-11.439
▁পৰিৱৰ্ত্ত	-11.4391
▁পছন্দ	-11.4394
▁প্ৰতিদ্বন্দ	-11.4397
▁৫০০	-11.4399
কলেজ	-11.44
▁আকৰ্ষ	-11.4402
▁উইপ্ৰ	-11.4407
▁পৰিয়ালে	-11.4409
ডাইজ	-11.441
raw	-11.4414
হো	-11.4416
▁দুৰ্বল	-11.4418
د	-11.4419
▁বিচাৰিব	-11.4423
play	-11.4425
▁month	-11.4429
আঙুল	-11.4429
ূৰ্ণ	-11.4429
▁মাথো	-11.4431
▁জাপাি	-11.4431
▁ঐতিহ	-11.4433
সাংবিধানিক	-11.4435
uru	-11.4435
ক্ৰান্ত	-11.4436
▁অসুস্থ	-11.4438
wed	-11.4439
▁সহনশীল	-11.444
▁কেলেণ্ডাৰ	-11.444
▁শ্লোভাক	-11.444
নুষ্ঠানিক	-11.4441
▁অপসাৰ	-11.4441
▁ক্ষতিপূৰ	-11.4441
লংঘন	-11.4442
▁মধু	-11.4442
▁পৰম্পৰা	-11.4443
▁প্রশ্ন	-11.4443
look	-11.4443
▁ভুগি	-11.4443
success	-11.4444
▁কাস্টম	-11.4444
timezone	-11.4444
FULLPAGENAME	-11.4444
argument	-11.4444
feedback	-11.4444
Ä	-11.4444
Ŕ	-11.4444
ɛ	-11.4444
▁এন্টিবায়	-11.4444
প্ৰস্ৰাৱ	-11.4444
databaseerror	-11.4444
wrong	-11.4444
▁φ	-11.4444
▁শিৱেন্দ্ৰ	-11.4444
Experi	-11.4444
Firefox	-11.4444
PMFBY	-11.4444
description	-11.4444
ñ	-11.4444
ι	-11.4444
λ	-11.4444
π	-11.4444
শ্বানক্বীতি	-11.4444
িকিউৰিটি	-11.4444
▁Digital	-11.4444
▁Events	-11.4444
▁Kushuberu	-11.4444
▁Machine	-11.4444
▁Marathi	-11.4444
▁Perfect	-11.4444
▁Sibora	-11.4444
▁blondes	-11.4444
▁linares	-11.4444
▁অট্টালিকা	-11.4444
▁অত্যাৱশ্যকীয়	-11.4444
▁অধিষ্ঠিত	-11.4444
▁অন্তৰ্ভূক্ত	-11.4444
▁আন্দোলন	-11.4444
▁আয়ুৰ্বেদ	-11.4444
▁ইনভইচ	-11.4444
▁এক্সচেঞ্জ	-11.4444
▁এজেন্সী	-11.4444
▁কিলাকুটিটো	-11.4444
▁কুম্বাকোনম	-11.4444
▁কেলকুলেট্যৰ	-11.4444
▁কেলেংকাৰী	-11.4444
▁গাফিলতি	-11.4444
▁গাভৰু	-11.4444
▁গ্রীষ্ম	-11.4444
▁চন্দুক	-11.4444
▁চাইবেৰিয়া	-11.4444
▁চিকিত্‍সা	-11.4444
▁চিষ্টেম	-11.4444
▁ট্রান্সফাৰ	-11.4444
▁ডায়েবেটি	-11.4444
▁ড্ৰাগছ	-11.4444
▁ঢেকীয়াখোৱা	-11.4444
▁তৰমুজ	-11.4444
▁থোমস্	-11.4444
▁দান্তাওৰাম	-11.4444
▁নিজামুদ্দিন	-11.4444
▁পলিমেইড	-11.4444
▁পুঁচকে	-11.4444
▁প্যান্টিহস	-11.4444
▁বন্দবস্তি	-11.4444
▁বসুমতাৰী	-11.4444
▁বায়োডাটা	-11.4444
▁বেমেজালি	-11.4444
▁ভূমিকম্প	-11.4444
▁শিলাবৃষ্টি	-11.4444
▁সমাদৃত	-11.4444
▁স্নাতকোত্তৰ	-11.4444
▁স্পাউট	-11.4444
▁হাইলাকান্দি	-11.4444
▁হেৰুওৱা	-11.4444
▁ৰপ্তানী	-11.4444
▁ৱাপচাপ	-11.4444
প্রেৰণা	-11.4444
▁GOLD	-11.4444
▁Ltd	-11.4444
▁অচলাৱস্থা	-11.4444
▁এন্টাৰ	-11.4444
▁কোহলী	-11.4444
▁দেখোৱাওঁক	-11.4444
▁নৱজাতক	-11.4444
▁ফেটিশ	-11.4444
▁বিজ্ঞানমনস্কতা	-11.4444
▁মনস্তত্ব	-11.4444
▁লাভালাভ	-11.4444
▁স্বপ্ন	-11.4444
▁হৃদযন্ত্ৰ	-11.4444
IRDA	-11.4444
MMMM	-11.4444
Ē	-11.4444
পীনস্তনী	-11.4444
▁world	-11.4444
▁চাইকেড	-11.4444
▁চিকিৎসালয়ধিন	-11.4444
▁পুখুৰী	-11.4444
▁Promot	-11.4444
▁গোপীনাথ	-11.4444
▁চেম্পিয়নশ্বিপ	-11.4444
sql	-11.4444
▁মধুকৈটভ	-11.4444
ά	-11.4444
▁Scott	-11.4444
▁ক্ষীপ্ৰ	-11.4444
▁খিতাপ	-11.4444
▁গণেশগুৰি	-11.4444
▁সৃজনীশীল	-11.4444
▁ইঙ্গিত	-11.4444
▁ছয়মাইল	-11.4444
▁বুদ্ধিমত্তা	-11.4444
▁ৰাসায়নিক	-11.4444
ä	-11.4444
▁জৰ্জ	-11.4444
▁বোটানিক্স	-11.4444
▁শিক্ষায়তন	-11.4444
allmessages	-11.4444
▁জগৰীয়া	-11.4444
failure	-11.4444
▁Recipe	-11.4444
▁আদৰণি	-11.4444
▁পূর্ব	-11.4444
শ্যকীয়	-11.4444
▁খুন্দা	-11.4444
▁ষ্ট্যাম্প	-11.4444
▁স্থপতিবিদ	-11.4444
▁ৰাচিয়া	-11.4444
▁বন্দুক	-11.4444
▁শষ্য	-11.4444
▁সৎকৰ্ম	-11.4444
▁হাৰিয়ানা	-11.4444
Power	-11.4444
▁পায়খানা	-11.4444
Questions	-11.4444
blockip	-11.4444
▁ধ্বংসাৱশেষ	-11.4444
▁সঞ্জয়	-11.4444
▁গাডকাৰী	-11.4444
▁Kalita	-11.4444
label	-11.4444
▁KUN	-11.4444
▁অকপটভাবে	-11.4444
▁Pension	-11.4444
▁বছেৰেক	-11.4444
▁গান্ধী	-11.4444
▁যথোচিত	-11.4444
▁ইসোগ	-11.4444
▁স্কেলডাল	-11.4444
externally	-11.4444
▁নিদিয়াকৈ	-11.4444
▁ইঞ্জিনীয়াৰ	-11.4444
▁ইতিবৃত্ত	-11.4445
▁পশ্চিমীয়া	-11.4445
▁খুতবা	-11.4445
ōra	-11.4445
▁Euro	-11.4445
▁আভাস	-11.4445
floating	-11.4445
▁কাকীমা	-11.4445
▁নাট্যকাৰ	-11.4445
islam	-11.4445
▁পৰিচৰ্য্যা	-11.4445
fail	-11.4445
▁উচ্ছলা	-11.4445
▁সূচায়	-11.4445
watchthis	-11.4445
newuserlog	-11.4445
▁নিৰ্ভয়া	-11.4445
▁পঠাওক	-11.4445
▁নেলাগে	-11.4445
▁icon	-11.4445
▁আশ্ৰয়	-11.4445
▁লোকসংগীত	-11.4445
▁Barkotoki	-11.4445
server	-11.4445
▁Standard	-11.4445
▁বিজুলী	-11.4445
▁মাপদণ্ড	-11.4445
▁অস্কাৰ	-11.4445
movedto	-11.4445
▁ইনপুট	-11.4445
▁আৰ্হি	-11.4445
▁বেৱছাইট	-11.4445
▁স্বাভা	-11.4445
▁দৃষ্টান্ত	-11.4445
▁Support	-11.4445
removed	-11.4445
▁আশংকা	-11.4445
▁যুটীয়া	-11.4445
Excel	-11.4445
▁ফেক্ট	-11.4445
require	-11.4445
ছফ্ট	-11.4445
োৱনল	-11.4445
berg	-11.4445
fixed	-11.4445
ফাইলিঙ	-11.4445
▁তাৰবীয়	-11.4445
▁বিৱৰ্তন	-11.4445
▁প্লাণ্ট	-11.4445
▁আপলাইন	-11.4445
ৱ্ৱা	-11.4445
▁আঁতৰাওক	-11.4445
পাছৱৰ্ড	-11.4445
▁মূৰ্তি	-11.4445
▁GBP	-11.4445
▁অৱগাঁঠনি	-11.4445
copyright	-11.4445
▁ক্লাছিক	-11.4445
▁Libr	-11.4446
about	-11.4446
blr	-11.4446
▁মৰ্যদা	-11.4446
▁মিথেন	-11.4446
▁পূৰ্বাহ্ণ	-11.4446
টেগসমূহ	-11.4446
▁ফটোগ্ৰাফ	-11.4446
▁অপবাদ	-11.4446
▁Aug	-11.4446
context	-11.4446
রুৰা	-11.4446
▁আলোকপাত	-11.4446
▁দ্বাৰস্থ	-11.4446
▁space	-11.4446
▁খৰাং	-11.4446
▁ভট্ট	-11.4446
▁Oct	-11.4446
▁মাতৃভাষা	-11.4446
▁খোজেঁ	-11.4446
▁সন্ত্	-11.4446
তিনিশ	-11.4446
▁সমূখ	-11.4446
▁সমৰ্পিত	-11.4446
দ্ৰব্য	-11.4446
▁তুলনাত	-11.4446
▁উত্তেজিত	-11.4446
Under	-11.4446
▁মূল্যবোধ	-11.4446
ঝাৰ	-11.4446
▁GGN	-11.4446
▁বৰ্ত্তমান	-11.4447
▁ইটছ	-11.4447
▁প্ৰাধ্যাপক	-11.4447
সংস্থাপন	-11.4447
capt	-11.4447
▁সভাপতিত্ব	-11.4447
▁done	-11.4447
▁বহুভাষিক	-11.4447
▁ইঞ্জিনিয়াৰিং	-11.4447
▁আঙুলি	-11.4447
▁সংমিশ্ৰণ	-11.4447
▁আৰ্জন	-11.4447
▁২৫০০	-11.4448
▁জনাইছে	-11.4448
তীৰ্ণ	-11.4448
▁চৰ্ত্তাৱলী	-11.4448
▁বোনাচ	-11.4448
▁কৃতকার্যতা	-11.4448
nocreate	-11.4448
▁য়ৌ	-11.4448
▁পাতনি	-11.4448
▁পৰিসীমিত	-11.4448
ছেটেলাইট	-11.4449
▁দেখিছো	-11.4449
দেশনা	-11.4449
ৈশ	-11.4449
▁লেন্সসমূহ	-11.4449
▁উপকৰন	-11.4449
বৃন্দ	-11.4449
▁MRO	-11.4449
▁ওপৰিও	-11.4449
▁খুটা	-11.4449
▁শ্বাফাআত	-11.4449
▁চিকিৎসালয়ধীন	-11.4449
▁অ্যাপ	-11.4449
▁Team	-11.4449
▁কাৰ্য্যলয়	-11.445
▁অৰ্থবিজ্ঞান	-11.445
▁SMS	-11.4451
cookies	-11.4451
▁কোৰান	-11.4451
▁আগবঢ়াওক	-11.4451
▁নিৰৱ	-11.4451
▁শিকণ	-11.4451
লোডিং	-11.4451
▁টুইটাৰ	-11.4451
▁বিষয়াদি	-11.4451
watching	-11.4451
VU	-11.4451
▁শিক্ষাবিদ	-11.4451
▁দলটোৱে	-11.4452
▁অক্ষয়	-11.4452
▁মোদীয়ে	-11.4452
িডিও	-11.4452
▁পাৱাৰ	-11.4452
▁ব্ৰাউজিং	-11.4452
▁ফেক্স	-11.4452
▁হয়েছে	-11.4452
▁মাস্ক	-11.4452
▁১২০	-11.4452
ষধ	-11.4452
▁Art	-11.4453
▁অচল	-11.4453
▁দীক্ষিত	-11.4453
▁বিষ্ফোৰন	-11.4453
data	-11.4453
▁কোৱালিট	-11.4453
▁ঘটনাস্থলী	-11.4453
▁বাচনি	-11.4454
১৯১৪	-11.4454
▁অসমীয়	-11.4454
NKC	-11.4454
▁লিখিছে	-11.4454
▁দুর্	-11.4455
উনানী	-11.4455
▁এনডি	-11.4455
▁Care	-11.4455
▁নবীকৰণ	-11.4455
▁ফ্ৰেঞ্চাইজী	-11.4455
শোধ	-11.4455
▁তুলনামূলক	-11.4455
ঢ়ী	-11.4455
▁আগেয়ে	-11.4456
দুঃখিত	-11.4457
▁কৰ্মসংস্থান	-11.4457
▁হেৰোৱা	-11.4457
ণ্ডার	-11.4457
১৯১৮	-11.4458
▁আবেগ	-11.4458
▁বীচ	-11.4458
▁ফিল্ড	-11.4458
▁Set	-11.4459
ৰূপবম	-11.4459
▁একোখন	-11.4459
▁চিংক	-11.4459
▁চাৰ্ভিচ	-11.4459
▁সময়সূচী	-11.4459
PCS	-11.446
▁দুৱাৰ	-11.446
▁পৃথিবীতে	-11.4461
▁পূণ	-11.4461
▁ৱন্দ	-11.4461
▁বীচি	-11.4461
গ্ৰস্ত	-11.4462
▁পাঠ্যপুথি	-11.4462
▁ভালুক	-11.4462
pager	-11.4463
▁প্রত্য	-11.4463
▁ভণ্ড	-11.4463
▁ছীল	-11.4464
▁উদ্ধৃতি	-11.4465
▁Bar	-11.4465
blank	-11.4465
▁স্কিন	-11.4465
জাভা	-11.4466
▁পৰিয়ালবৰ্গ	-11.4466
▁চল	-11.4467
▁বিত্ত	-11.4467
!'''	-11.4467
সজুলি	-11.4467
▁বিতৰক	-11.4468
▁Bre	-11.4468
▁মুৰী	-11.4468
▁দুৰ্গা	-11.4469
দণ্ডিকা	-11.4469
▁উত্ত	-11.4469
▁নোড	-11.4469
▁শ্ৰেষ্ঠত্ব	-11.447
▁নথকাকৈ	-11.447
▁হাজৰিকাই	-11.447
▁বিবাদ	-11.447
ights	-11.447
▁ফায়াৰ	-11.447
▁পিছলৈ	-11.4471
▁ভুমিক	-11.4472
▁আগমন	-11.4472
চাৰি	-11.4472
▁কণ্ঠ	-11.4472
মন্ত্রণ	-11.4472
▁দেৰি	-11.4472
ষাইট	-11.4472
▁ফোৰ্ম	-11.4474
▁আখ্যা	-11.4475
▁মাধ্যমিক	-11.4475
▁কলাক্ষেত্ৰ	-11.4475
ৰাণী	-11.4476
▁নিহত	-11.4476
▁পৰিহাৰ	-11.4478
▁পোৱালি	-11.4479
▁চয়ন	-11.448
▁মিছন	-11.448
asket	-11.4481
▁ছিম	-11.4481
function	-11.4481
▁সামগ্ৰীখিনি	-11.4482
▁চলায়	-11.4482
▁পৰুৱা	-11.4483
▁কাৰোবা	-11.4483
alway	-11.4483
▁AQ	-11.4484
গাঢ়	-11.4484
▁বিধেয়কখন	-11.4484
▁AO	-11.4484
▁উলংঘা	-11.4484
▁প্ৰাগ	-11.4485
▁হেৰুৱাব	-11.4486
▁প্ৰশ্নবিলাক	-11.4486
▁বীমাকাৰী	-11.4486
েৰকে	-11.4486
ছয়	-11.4486
▁তোলে	-11.4487
▁৫২	-11.4487
▁ভোগে	-11.4488
ssa	-11.4488
▁আনুষংগ	-11.4488
redirects	-11.449
▁জানো	-11.4491
▁সাক্ষাৎকাৰটি	-11.4491
শক্তিপীঠ	-11.4492
▁উঠে	-11.4492
[/	-11.4493
ay	-11.4494
▁হিতাধিকাৰসমূহ	-11.4494
▁গ্রহন	-11.4494
গাধা	-11.4494
▁spy	-11.4494
ছিছ	-11.4495
bot	-11.4495
▁অনুমান	-11.4495
▁শুনক	-11.4496
▁দেৱী	-11.4496
তাবাদ	-11.4497
▁আহিলে	-11.4497
▁চলচ্চিত্ৰ	-11.4498
▁স্বচ্ছ	-11.4499
চিনে	-11.4501
▁দিওতা	-11.4501
hair	-11.4502
story	-11.4502
▁সঁ	-11.4503
▁বুজায়	-11.4504
এফবি	-11.4506
summ	-11.4506
▁জলপো	-11.4508
▁ছাইন	-11.4508
ুষ্মা	-11.4508
▁সঠিকতা	-11.4509
▁সৃষ্টিশীল	-11.4509
েডে	-11.451
▁বেংকাৰ	-11.4511
ঙি	-11.4512
▁হাৰাম	-11.4512
ধি	-11.4512
ছাইটি	-11.4512
▁ঘনিষ্ঠত	-11.4514
▁দলংখন	-11.4514
▁চাৰিও	-11.4515
▁অপৰাধী	-11.4517
▁খ্যাতি	-11.4518
▁নমনীয়	-11.4518
▁দায়িত্বৰপৰা	-11.4519
▁যাওঁতে	-11.4519
▁ফিটিং	-11.4519
▁সুব্ৰ	-11.452
শ্বৰ	-11.4524
ভেদন	-11.4525
▁বন্দী	-11.4525
▁বৈঠকত	-11.4527
ধাৰিত	-11.4529
▁ছোৱালী	-11.4529
▁সেইখিনি	-11.4529
▁পাওক	-11.4529
▁ভূঞা	-11.4529
▁জামিন	-11.4529
▁গুঁতা	-11.453
▁Search	-11.453
▁নগল	-11.453
contri	-11.453
▁পৰিপক্ক	-11.453
▁ইউক্লিড	-11.453
▁CHF	-11.453
▁Quality	-11.4531
▁হতাশা	-11.4531
▁Theory	-11.4531
▁সতৰ্কবাণী	-11.4531
▁February	-11.4531
▁TED	-11.4532
▁পৰিস্কাৰ	-11.4532
▁১৮০০	-11.4532
▁উদ্যান	-11.4532
▁কৰিলো	-11.4533
▁ৰাভা	-11.4533
FN	-11.4533
▁অৰ্ধ	-11.4534
▁হিমা	-11.4534
▁Word	-11.4534
ৱলী	-11.4534
▁এনডব্লিউ	-11.4535
▁কাৰ্য্যবাহী	-11.4535
▁গ্ৰাম্য	-11.4536
▁সাধু	-11.4537
▁প্ৰবন্ধটি	-11.4538
▁৩০০	-11.4538
লুপ্ত	-11.4538
▁বেংকসমূহ	-11.4538
▁কুমাৰী	-11.4539
▁বেনাম	-11.4539
▁আঁতৰোৱা	-11.454
▁কৰ্ণ	-11.454
ভাৰেজ	-11.4541
▁যাওঁক	-11.4541
LAN	-11.4542
▁নিচি	-11.4542
▁পৰিপূৰ্ণতা	-11.4542
tai	-11.4544
▁আয়তন	-11.4546
▁উগ্ৰ	-11.4548
exas	-11.4548
▁Kil	-11.455
▁RE	-11.455
েলেন্ট	-11.4555
কাৰাত্মক	-11.4555
led	-11.4557
▁কৃষম	-11.4557
▁এলাহ	-11.4558
▁নীল	-11.4558
▁ৰাছেল	-11.4559
last	-11.4559
art	-11.456
ম্য	-11.456
▁ফেচ	-11.4561
▁বাদ্য	-11.4562
▁নম্ৰ	-11.4563
▁Flash	-11.4564
eca	-11.4565
_{	-11.4565
ালাই	-11.4565
াছিক	-11.4565
▁রাজা	-11.4566
▁Table	-11.4566
▁শেহ	-11.4568
nam	-11.4568
▁জিহ	-11.4568
▁প্ৰত্য	-11.4569
▁পুনঃস্থাপ	-11.4569
গহনা	-11.4571
FX	-11.4572
▁সত্যতা	-11.4572
▁সম্পুৰ্	-11.4575
ontributions	-11.4576
▁সমৰ্থ	-11.4581
▁Coat	-11.4581
▁ক্ৰেতা	-11.4582
▁মাৰক	-11.4583
মূল্যৰ	-11.4583
▁জনাম	-11.4588
▁বিনিয়ম	-11.4589
▁পালনাম	-11.4591
▁কাৰ্ট	-11.4591
▁KH	-11.4592
js	-11.4592
▁NO	-11.4593
মাথা	-11.4593
্বিশ	-11.4594
▁বৰ্জন	-11.4599
▁বিশ্বতে	-11.46
▁ভঙ্গ	-11.4602
cal	-11.4605
▁বৈশিষ্টসমূহ	-11.4607
esty	-11.4608
▁গেলা	-11.461
▁গাওঁ	-11.4613
▁sl	-11.4614
▁জনাই	-11.4615
পেতিতে	-11.4618
▁কেন্দ্ৰই	-11.462
▁কামৰ	-11.462
▁নায়ক	-11.4621
▁ৰয়েলছ	-11.4621
ৰোনাত	-11.4622
▁খানা	-11.4622
েৰী	-11.4623
▁মহলা	-11.4625
▁ইউৰোত	-11.4625
▁পেছা	-11.4626
ৱাচ	-11.4627
▁লোকচানক	-11.4627
▁অৱসৰ	-11.4629
▁বিচাৰিলে	-11.4631
▁বস্তুটো	-11.4631
▁আঁৰ	-11.4634
▁পিতা	-11.4634
▁ইতিহাসৰ	-11.4634
▁ৰোড	-11.4641
▁man	-11.4643
ank	-11.4643
▁৪৮	-11.4651
▁অনুষ্ঠানটো	-11.4652
▁জাহা	-11.4653
ইটি	-11.4653
▁সূচক	-11.4655
ric	-11.4657
ছিঅ	-11.4657
▁টাউন	-11.4658
▁ক্ষুদ্ৰ	-11.4659
($	-11.4659
▁মিলন	-11.4662
▁গতিশীল	-11.4663
▁Full	-11.4664
▁dildo	-11.4664
▁দুৱ	-11.4664
▁উপদ্ৰৱ	-11.4664
▁বৈকল্পিক	-11.4665
▁অতিমানৱ	-11.4667
▁পানীয়	-11.467
▁বাহিনী	-11.4672
িত্	-11.4675
সান	-11.4677
▁গাৰ্গৰ	-11.4678
মালা	-11.468
▁সেট	-11.468
▁সহায়তা	-11.468
▁Tag	-11.4681
পেতে	-11.4682
▁([[	-11.4682
▁ব্যৱহাৰকৰ্তা	-11.4682
▁মৃতক	-11.4682
ain	-11.4682
▁প্ৰ্তি	-11.4685
মন্ছ	-11.4685
▁ত্যাগ	-11.4687
▁নির়	-11.469
▁গণিতজ্ঞা	-11.4691
ির	-11.4691
▁Ava	-11.4692
নিঅ	-11.4693
▁বার্তা	-11.4693
▁কুৰ্	-11.4694
দায়ী	-11.4695
Ori	-11.4698
▁চকুত	-11.4699
▁ক্ষতিঃ	-11.47
Do	-11.4702
েৎসু	-11.4702
▁শিক্ষকতা	-11.4704
▁অব্	-11.4706
▁কুঠ	-11.4707
▁মণ্ডল	-11.4709
pan	-11.4709
▁মিটাৰ	-11.4713
ana	-11.4715
▁খলপ	-11.4715
লেহে	-11.4717
ফে	-11.4718
▁Writ	-11.4718
পত্ৰসমূহ	-11.4722
▁যতনটো	-11.4726
▁ga	-11.4726
▁কৰক৷	-11.4727
গল	-11.4728
▁লিঅ	-11.4728
▁ছিয়াম	-11.4731
▁ঘৰতে	-11.4735
বশত	-11.4738
▁হেনৰি	-11.474
▁ধৰনে	-11.4741
▁Boy	-11.4745
ৎস	-11.4749
▁মাল্টি	-11.4751
হৰণ	-11.4752
▁প্লেন	-11.4753
ন্তু	-11.4758
▁পোক	-11.4758
▁ৰাণী	-11.4759
▁ভাৰা	-11.4759
াতকৈ	-11.4761
ুখী	-11.4764
sho	-11.4765
প্ল	-11.4767
▁নন্	-11.4771
▁চিত্র	-11.4773
োনে	-11.4778
ুটেন	-11.478
Tool	-11.478
▁day	-11.4781
MR	-11.4785
▁বৰ্ড	-11.4786
▁হৈছে৷	-11.4788
▁৩৬	-11.4793
▁গ্যা	-11.4797
▁আকাংক্ষাৰ	-11.4801
▁words	-11.4801
▁ফজ	-11.4806
▁ভাৰ্	-11.4806
RY	-11.4814
▁ৰচি	-11.4827
সদস্যজনলৈ	-11.4827
▁টপ	-11.4828
▁কিপ	-11.4835
▁las	-11.4846
▁শিক	-11.4847
ছালত	-11.4849
ানা	-11.4849
শেষ	-11.485
▁ব্যক্তিসকল	-11.4856
▁গ্ৰাহকে	-11.4863
▁ধনী	-11.4864
▁মিথ	-11.487
শিল	-11.4871
▁দিনটোত	-11.4875
ze	-11.4876
▁বৰুৱাই	-11.4877
বৈ	-11.4879
িনী	-11.4887
▁আমন্ত্ৰ	-11.4889
▁তালিকাখন	-11.4891
▁ST	-11.4892
বেশাধিকাৰ	-11.4893
▁উৎসসমূহ	-11.4895
▁TE	-11.4899
নিয়ন্ত্ৰিত	-11.4906
ডা	-11.491
▁লাগিলে	-11.491
▁ৰাখিলে	-11.4911
▁har	-11.4913
▁Am	-11.4916
nta	-11.4924
।.	-11.4932
তুভ	-11.4932
tatus	-11.4934
লোম	-11.4938
kin	-11.4939
▁ভেদ	-11.4941
▁জুমা	-11.4951
ৰায়ণ	-11.4957
▁বহ	-11.4962
কৰ্ত্তা	-11.4962
দালিৰ	-11.4964
▁প্ৰতিদিনে	-11.4966
jeev	-11.497
▁ছিল	-11.497
ARS	-11.4974
▁পৰ্টেলৰ	-11.4975
▁ছবিখন	-11.4975
▁ছলাহ	-11.4977
▁পুর	-11.4978
▁ট্ৰেইন	-11.498
▁পৰ্টে	-11.498
▁হোৱাটো	-11.4981
▁চুদা	-11.4981
▁অসমৰ্থ	-11.4986
▁অসং	-11.4987
▁ৰাজ্যখন	-11.4987
▁মঙল	-11.4995
▁ভিন্নতা	-11.4999
ণাৰ	-11.5003
শাহ	-11.5007
ত্তৈ	-11.5009
দাগ	-11.501
বাড	-11.5013
জিত	-11.5015
ST	-11.5018
ner	-11.5022
প্রতি	-11.5024
▁মোহা	-11.5026
▁পৰিমান	-11.5027
াস	-11.5029
যুত	-11.5033
▁কিউ	-11.5033
বীমা	-11.5034
▁ফস	-11.5036
▁উদ্দেশ্যসমূহ	-11.5039
▁settings	-11.5039
▁Lan	-11.5043
▁এক্সপ্	-11.5043
খলা	-11.5046
UC	-11.5048
▁সংস্থাপনা	-11.5055
Aw	-11.5059
▁স্ক্ৰীণ	-11.5064
▁এইবোৰত	-11.5064
সন	-11.5069
উচ	-11.5071
▁CAD	-11.5073
▁নির্দেশি	-11.5074
rn	-11.5077
▁বতৰা	-11.5083
▁স্ট	-11.5089
েংজু	-11.5089
ৰ্ল্ড	-11.5093
ল্ল	-11.5093
▁ঘন	-11.51
▁উৎপাদসমূহ	-11.5101
ঢ়ি	-11.5103
ject	-11.5104
▁Paras	-11.5106
nata	-11.5108
▁FR	-11.5108
▁পৰ্য	-11.5109
▁পেশা	-11.5113
▁”	-11.5114
▁চন	-11.5115
hd	-11.5117
য়েল	-11.5124
▁শুক্	-11.5126
ri	-11.5128
▁চেচ	-11.5155
স্য	-11.5156
দৰং	-11.5161
▁পেন	-11.5164
▁উৰণ	-11.5167
▁এছিয়া	-11.5174
aj	-11.5179
শেষত	-11.5181
শ্	-11.5186
ld	-11.5187
ক্সক্সক্সক্স	-11.5188
▁চিৰি	-11.5194
▁বিবেক	-11.5196
জিৎ	-11.5198
ষ্টীয়	-11.5205
aksh	-11.5205
▁৯৯	-11.5205
▁এবছৰ	-11.5211
পর্	-11.5216
▁'"[[	-11.5217
্ড	-11.5217
Hom	-11.5219
▁আমীন	-11.5231
aker	-11.5237
red	-11.5237
িধা	-11.524
stic	-11.5247
NR	-11.5247
PR	-11.5249
modified	-11.5252
quire	-11.527
জমা	-11.5274
▁চাকৰিত	-11.5283
▁কেবা	-11.5299
ত্তে	-11.5306
সেনা	-11.5307
মিং	-11.5307
▁ভব	-11.5309
াইব	-11.531
্ণ	-11.5311
▁বার	-11.5313
▁সজ্জা	-11.5322
▁আকাশে	-11.5323
UI	-11.5324
খ্যা	-11.5333
▁সংখ্যাবোৰ	-11.5339
▁যিহে	-11.5341
লিন	-11.5343
▁বিভা	-11.5349
▁অক্ষ	-11.5352
▁গল	-11.5352
গাল	-11.5355
tab	-11.5356
▁দিনপঞ্জ	-11.536
▁শুনা	-11.5362
প্ৰকাৰে	-11.5362
▁হেৰা	-11.5367
▁হাস	-11.5368
ছোঁ	-11.5374
পোহন	-11.5376
▁কাৰ্যক	-11.5381
▁ইছ	-11.5394
▁মার্ক	-11.54
▁গ্ৰ্	-11.5402
▁নামে	-11.5418
cl	-11.5419
ীমৰ	-11.542
▁১৮৯	-11.542
দ্দিষ্ট	-11.5422
াল্ট	-11.5423
▁ঠিকা	-11.5426
alle	-11.5442
ক্ট	-11.5445
Rese	-11.5445
ge	-11.5454
নাইলন	-11.5455
cks	-11.5457
▁বিজু	-11.5466
৪৩	-11.5468
▁হিস	-11.547
▁দেশখন	-11.5471
▁dia	-11.5471
/-	-11.5474
মার	-11.5483
গোটৰ	-11.5483
শব্দসমূহ	-11.5486
col	-11.5488
▁HI	-11.5506
্যাধি	-11.5513
দায়ি	-11.5515
ত্য	-11.5521
▁২৯	-11.5527
র্ফ	-11.5533
০৩	-11.5536
davi	-11.5537
est	-11.5538
ভাষা	-11.5547
সঙ্গ	-11.5547
▁মুছল	-11.5553
েকিং	-11.5558
▁থে	-11.5559
চিৰ	-11.557
াৰ্ড	-11.5577
ৱচ	-11.5577
।...	-11.5578
▁আজী	-11.5581
ton	-11.5584
ati	-11.5586
VA	-11.5589
▁লম্ব	-11.559
_”	-11.5593
মাদ	-11.5597
")	-11.5598
▁অমিত	-11.56
▁Ra	-11.5601
No	-11.5609
মাহ	-11.561
চেচ	-11.5611
▁আঁতৰাব	-11.5615
▁কোম্পানীটো	-11.5616
▁Kno	-11.5618
▁Deca	-11.562
ঞ্চল	-11.5622
▁সঞ্চাৰ	-11.5628
২৫	-11.5633
▁শিৰোণামাত	-11.5641
োপ	-11.5643
তাত	-11.5643
জাক	-11.5645
▁ফিল	-11.566
িবেশন	-11.566
▁Su	-11.5661
▁আলোচনাত	-11.5665
adn	-11.5673
▁ট্রে	-11.5674
▁নিস	-11.5676
▁সমূহত	-11.5679
হাৰী	-11.5681
টিপা	-11.5687
▁পৰ্য্য	-11.5691
▁পট	-11.5693
েলৰ	-11.5693
ছাইটত	-11.5695
eed	-11.5698
ত্তৰ	-11.5711
দিক	-11.5718
▁থৈ	-11.5723
▁নীতিতো	-11.5727
▁একাডেম	-11.5728
▁নিপ	-11.5731
মনৰ	-11.5738
▁সূ	-11.5741
tha	-11.5745
্যু	-11.5747
নাথ	-11.5754
▁ধৰিলে	-11.5756
▁রু	-11.5758
াগাৰ	-11.576
ree	-11.5763
▁মুছলিমসকল	-11.5767
▁খু	-11.5785
১১	-11.579
▁প্ৰথ	-11.5792
মেট	-11.5793
▁বিজনে	-11.5794
▁dr	-11.58
্বাদ	-11.5802
▁প্ৰদানকাৰীসকলে	-11.5827
▁su	-11.5829
ষষ্ঠ	-11.583
▁ৰোগসমূহ	-11.5831
দণ্ড	-11.5834
▁Stor	-11.5835
char	-11.5836
you	-11.5836
লিপ	-11.5836
াতী	-11.5837
ার্চ	-11.5839
বৰ্ধ	-11.584
ডিয়া	-11.5844
BT	-11.5856
কাৰক	-11.5858
▁নিৰ্বাচনৰ	-11.5859
নফো	-11.5864
▁চুৰিৰ	-11.5882
▁প্ৰথা	-11.5882
amster	-11.5883
▁শইকীয়াই	-11.5883
▁জায়	-11.5886
▁time	-11.5887
▁Form	-11.5893
▁অপৰি	-11.5898
েয	-11.5899
atta	-11.5901
▁Has	-11.5904
▁সোন	-11.592
ান্তৰ	-11.5923
ল৷	-11.5926
▁Hi	-11.5928
▁লাগ	-11.5928
দৃষ্টি	-11.5932
কেট	-11.5935
▁অনি	-11.5938
▁ভগা	-11.5949
BA	-11.5955
▁টকাত	-11.5957
ুকি	-11.5958
PRO	-11.5962
ami	-11.5965
ঙ্ক	-11.5966
▁সর্বা	-11.5966
bl	-11.5969
পক	-11.5969
িণ	-11.5973
table	-11.5974
▁সঞ্চালকসকল	-11.5975
পঞ্জী	-11.5976
▁পাল	-11.5979
▁গাম	-11.5984
▁আলোচ	-11.5986
▁আন্ত	-11.5989
lle	-11.5993
▁আদিক	-11.5998
chi	-11.6004
ণ্ড্র	-11.6005
বানান	-11.6006
▁একাডেমি	-11.6006
▁ধাৰক	-11.601
▁যোগে	-11.6014
▁guy	-11.6025
ncolo	-11.6037
▁শ্ৰীনি	-11.604
▁গুড	-11.6041
▁ৰক্ত	-11.6061
▁vi	-11.6067
মেয়	-11.6072
▁বজ	-11.6076
userlog	-11.608
▁সূৰ	-11.608
ানী	-11.6081
▁বুজাব	-11.6094
দ্ধিত	-11.6095
▁মন্ত্ৰীৰ	-11.6097
▁কেপি	-11.6099
চৰিত	-11.6103
▁আস	-11.6113
▁মিলা	-11.6116
rtific	-11.613
lay	-11.6133
▁জনায়	-11.6134
▁মুল্যৰ	-11.6137
inal	-11.6138
▁পুৰ	-11.6146
লেণ্ড	-11.6151
▁লানি	-11.6152
▁তাদে	-11.6152
ব্	-11.6161
coo	-11.6163
▁page	-11.6165
৫১	-11.6165
permission	-11.6169
টেন্ট	-11.6172
▁জৰ	-11.6173
▁দেব	-11.6177
▁প্ৰৱ	-11.6184
▁যিটোৱে	-11.6184
wi	-11.6195
্যাকৰণ	-11.6195
নুশাসন	-11.6197
▁ইণ্ডিয়	-11.6198
▁পৰিৱেশৰ	-11.62
▁ছবিৰ	-11.6203
তালিক	-11.6203
ীলৈ	-11.621
বাৰে	-11.6214
খান	-11.6218
▁ক্ৰমা	-11.6222
▁ভাৰতবৰ্ষ	-11.6223
▁তথ্যসমূহক	-11.6229
▁সক	-11.6229
ইণ্ট	-11.6237
▁ৱি	-11.6244
ৰ্পণ	-11.6244
চৰ	-11.6257
সমস্	-11.6261
রামি	-11.6268
tting	-11.6288
▁Get	-11.6289
bs	-11.6291
▁মায	-11.6307
hari	-11.6308
▁Em	-11.6311
খী	-11.6311
ন্দি	-11.6317
কোষ	-11.6319
চীন	-11.6321
েদ	-11.6325
▁সুচ	-11.6326
োমিঅ	-11.6329
বুত	-11.6347
▁ক্ৰে	-11.635
বীণ	-11.6351
▁মোহ	-11.6368
আচল	-11.6373
▁মহ	-11.6377
▁বৃ	-11.6389
bel	-11.6395
নুম	-11.6396
WA	-11.6398
▁সিদ্ধ	-11.6401
াল্	-11.6402
VI	-11.641
▁শ্র	-11.641
লিচ	-11.641
লপতি	-11.6411
▁পূ	-11.6414
▁ত্া	-11.6424
▁কিনা	-11.6431
▁আবাস	-11.6432
ass	-11.6436
চুদি	-11.6438
চুন	-11.6439
▁ৰীম	-11.644
ৰীয়া	-11.6446
ছিল৷	-11.6446
▁Nu	-11.6448
▁বিব	-11.6449
▁নাম্বা	-11.6454
aga	-11.6456
ীজ	-11.6458
ME	-11.6474
ধিক্য	-11.6484
গৰী	-11.6486
াভ	-11.6487
েশ্যে	-11.6489
▁কিয়া	-11.649
▁ভু	-11.6492
▁password	-11.6494
▁মংদা	-11.6495
্রো	-11.6503
লভ	-11.6505
▁ধাৰ্য	-11.6505
ভিয়া	-11.6508
ho	-11.6509
▁সম্পা	-11.6519
▁নিৰ	-11.6523
Me	-11.6531
াদ্দা	-11.6532
▁গুণগ	-11.6541
▁বৈচিত্ৰ	-11.6542
োৱাত	-11.6548
▁চাপি	-11.6549
▁হীৰ	-11.6552
যতি	-11.6555
▁তাতো	-11.6561
sing	-11.6568
▁বেই	-11.6586
ক্কা	-11.6592
াষ্ট্	-11.6592
▁কথ	-11.6598
▁Ama	-11.6615
িস	-11.6616
জো	-11.6622
্ম	-11.6632
ডিজিট	-11.6632
▁ল্যা	-11.6641
▁প্ল	-11.6646
▁পঁ	-11.6646
ez	-11.6647
▁So	-11.665
con	-11.665
পূজ	-11.6651
af	-11.6656
ঁহ	-11.6657
▁ইন্ধনৰ	-11.6662
দিত	-11.6669
▁ৰাজ্	-11.667
ন্য	-11.6674
▁Ze	-11.6675
লোঁ	-11.6676
পুঞ্জ	-11.6682
tion	-11.6694
spa	-11.6701
▁কাক	-11.6702
▁l	-11.6704
ন্টেন	-11.6705
্টৰ	-11.6712
▁Inte	-11.6721
প্ৰদৰ্শন	-11.6723
▁ভাব	-11.6725
বিদ্যা	-11.673
dic	-11.6736
কেশ	-11.6745
ত্ৰিক	-11.6749
য়ূ	-11.6751
তহে	-11.6755
Ki	-11.6757
▁com	-11.6759
রু	-11.6761
ডেলিভাৰীৰ	-11.6762
▁")	-11.6778
▁At	-11.6778
িপ	-11.6781
চুষা	-11.6782
বাই	-11.6783
▁ৰোজ	-11.6785
স্ত্	-11.6796
যৌনাংগ	-11.6798
ন্নত	-11.6809
▁ভাৰ	-11.681
▁Ag	-11.6812
irst	-11.6815
▁জীপ	-11.6815
▁সম্ভ	-11.6817
ica	-11.6819
pi	-11.6824
▁পরি	-11.6824
▁পূব	-11.683
uit	-11.6838
০৪	-11.684
সুৰক্ষা	-11.6843
ৰোদ	-11.6843
Tr	-11.6845
ini	-11.6846
াম্	-11.6847
অভাৰ	-11.6848
groups	-11.6855
▁দিনটো	-11.686
▁মার্	-11.686
ুর	-11.6861
স্তা	-11.6866
ণ্ড্রি	-11.6868
ীড়	-11.6871
রাম	-11.6873
প্লিকেচন	-11.6879
াওক	-11.689
▁জৱ	-11.6894
পদ্ধতি	-11.6897
▁Alex	-11.6898
▁Pun	-11.6901
▁সুবিধাসমূহ	-11.6902
িৎ	-11.6903
▁আইচি	-11.6908
িলং	-11.6913
কোণ	-11.6919
ধৰণে	-11.6919
জাপানি	-11.6921
ঠাই	-11.6923
▁সুধি	-11.6924
জেলা	-11.6927
থি	-11.693
▁দ্য	-11.6936
▁বিষ্	-11.6946
fit	-11.6948
▁বাৰে	-11.6949
গ্ন	-11.6955
aks	-11.6957
েৰ	-11.6959
চত	-11.696
কজ	-11.6961
েচা	-11.6969
জ্জ	-11.6971
▁ট্ৰেন	-11.6972
ফর্ম	-11.698
াজু	-11.6985
কম্পক	-11.6997
India	-11.7
েছি	-11.7007
▁bu	-11.7008
াপ	-11.7009
▁দিশটো	-11.701
irc	-11.7012
ora	-11.7025
▁প্লা	-11.7031
ইয়াৰ	-11.7033
▁শব্দৰ	-11.7036
ডিট	-11.7038
সুবিধা	-11.7042
▁Car	-11.7058
▁CB	-11.706
▁যোন	-11.7062
পিছৰ	-11.7063
প্ৰিয়	-11.7065
মৃত্যু	-11.707
তাল	-11.7075
▁১৯১	-11.7075
দক্ষ	-11.7075
MN	-11.7077
gen	-11.709
স্বাস্থ্য	-11.7092
পুত্ৰ	-11.7097
ন়	-11.7099
▁Bi	-11.711
ৰাষ্ট্ৰীয়	-11.711
▁WF	-11.7111
oy	-11.7112
pre	-11.7115
▁Asia	-11.7117
▁গজ	-11.7118
দর্শ	-11.7121
ৰিটা	-11.7121
ফী	-11.7121
সৃষ্টি	-11.7122
ধানী	-11.7124
▁বায়	-11.7125
▁কৃ	-11.7126
িবর্তন	-11.7127
rite	-11.7129
esh	-11.7132
জিপ্লাছ	-11.7134
ধান	-11.7137
▁আনু	-11.7141
স্বৰূপ	-11.7147
ature	-11.7149
দ্ব	-11.7152
ON	-11.7152
mo	-11.7152
ৰাইড	-11.7154
xh	-11.7156
লেই	-11.716
ector	-11.7162
সূচনা	-11.7162
▁উপত্য	-11.7165
high	-11.7165
মাংস	-11.7166
ামে	-11.7178
▁আইছ	-11.7179
ধৰ	-11.718
▁পৰিমা	-11.7187
কল্প	-11.7188
▁প্ৰতিদিন	-11.719
্হ	-11.7194
েণ্ড	-11.7216
long	-11.7218
পুৱা	-11.7221
NT	-11.7223
▁Got	-11.7228
সৰ্বো	-11.723
যান	-11.7231
উড	-11.7233
▁ডকাইতিৰ	-11.7235
বিজ্ঞানী	-11.7235
বৰ্তমান	-11.7237
সংস্কৃতি	-11.7238
ভঙা	-11.7239
বিলোপ	-11.7241
দেশ	-11.7242
day	-11.7246
▁বছৰলৈ	-11.7249
দ্বিতীয়	-11.7249
পৰবৰ্তী	-11.7249
▁Ko	-11.7253
প্ৰকল্প	-11.7257
মৰ্মে	-11.7258
স্থানান্তৰ	-11.7259
php	-11.726
hold	-11.7264
্কে	-11.7266
জুউ	-11.727
KR	-11.7271
গ্লে	-11.7272
গাঁঠনি	-11.7272
যৌন	-11.728
▁Vir	-11.7283
▁হনুম	-11.7284
সংঘ	-11.7285
CS	-11.7291
প্ৰফেচ	-11.7292
প্ৰাণ	-11.7293
দৈত্য	-11.7293
বর্তমান	-11.7294
২০১৪	-11.7294
ছাত্ৰীসকল	-11.7294
▁খ্	-11.7295
বৃক্ষ	-11.7296
CI	-11.7297
Enter	-11.7299
অটোক্যাড	-11.7301
বিছানা	-11.7301
সঁজুলি	-11.7303
াষ্টৰ	-11.7304
▁নিৰ্মাণত	-11.7305
▁উক্তি	-11.7306
স্বাক্ষৰ	-11.7307
অভ্যুত্থান	-11.7307
২০১৯	-11.7308
আৰ্কাইভ	-11.7308
চৰ্চা	-11.7309
year	-11.7309
দুয়োটা	-11.7309
চিকিৎসীয়	-11.731
্চা	-11.7312
বৰ্ষৰ	-11.7313
সস্নেহ	-11.7315
HA	-11.7315
স্মৰণ	-11.7315
সাম্প্ৰতিক	-11.7315
words	-11.7315
মোবাইল	-11.7316
তিনিচুকীয়া	-11.7317
গোচৰ	-11.7317
প্রৱেশ	-11.7317
▁DA	-11.7317
শৰীৰ	-11.7318
~	-11.7318
বালিকা	-11.732
রিণ	-11.7322
ডিফ	-11.7324
বন্ধু	-11.7325
তত্ত্ব	-11.7326
টেল	-11.7326
▁সেৱ	-11.7327
Office	-11.7327
লাইফ	-11.7329
বিবেচনা	-11.7329
কৰ্তাৰ	-11.733
দৃঢ়	-11.733
ভোজ	-11.733
সদৃশ	-11.7331
≥	-11.7333
জিকা	-11.7333
সাপেক্ষে	-11.7335
▁আফ	-11.7336
ফ়	-11.7337
আলোচনী	-11.7338
ইফক	-11.7341
কৰিবলগীয়া	-11.7343
স্নাতক	-11.7347
▁বই	-11.7347
াৰ্ট	-11.7348
তাঁৰ	-11.7348
▁Movie	-11.7349
বিন্দু	-11.735
ang	-11.7353
সংৰক্ষিত	-11.7354
haima	-11.7356
কচ	-11.7357
রাইছ	-11.7361
তেতিয়া	-11.7362
চিত্র	-11.7364
▁Bea	-11.7364
▁বাং	-11.7368
উলিয়া	-11.7371
সৃষ্ট	-11.7371
০৬	-11.7374
VP	-11.7375
▁স্বকামী	-11.7376
ফোন	-11.7377
লাম	-11.7377
স্বীকাৰ	-11.7379
প্ৰবন্ধক	-11.7382
ংকৰ	-11.7383
মী	-11.7383
বিলম্ব	-11.7384
▁বেন	-11.7384
গ্ৰাম	-11.7391
বহুল	-11.7392
বুদ	-11.7396
িংচি	-11.7397
▁প্ৰগতি	-11.7398
▁ছাৰ্	-11.74
ello	-11.7404
নার	-11.7407
জুই	-11.7409
োস্	-11.7421
গুৰুত্বপূৰ্ণ	-11.7423
even	-11.7424
বড়	-11.7424
নিৰ্দ্ধাৰ	-11.7425
▁থাকিল	-11.7427
ব্যৱস্থাৰ	-11.7429
▁মুকু	-11.7434
্রবা	-11.7439
এইখন	-11.7442
Hu	-11.7442
▁ঋতু	-11.7443
বোৰ্ড	-11.7448
দৈব	-11.7448
▁প্ৰদ	-11.7456
video	-11.7461
বড়ো	-11.7462
হিত	-11.7463
োপচা	-11.7464
ব্যক্তিসকল	-11.7467
স্বাভাৱিক	-11.7467
ITP	-11.7471
কোটি	-11.7471
▁৬০০	-11.7473
rki	-11.748
Ro	-11.7489
্ল	-11.749
OR	-11.7491
ীতি	-11.7495
▁di	-11.7496
▁গ্ৰাহকসকল	-11.7499
▁গোটসমূহ	-11.75
▁পৌ	-11.7504
অনুবাদক	-11.7506
▁কিশোৰ	-11.7509
কাশ	-11.7515
ভির	-11.7516
ne	-11.752
MA	-11.752
প্ৰতিষ্ঠা	-11.7526
মাছ	-11.7535
▁১৯৬	-11.7544
▁চিন	-11.7546
▁দিছো	-11.7549
▁video	-11.7554
ওপৰ	-11.7554
▁Admi	-11.7558
▁Av	-11.7559
yl	-11.7559
শিক্ষাৰ	-11.756
খনক	-11.758
esha	-11.7584
erf	-11.7585
▁Ser	-11.7588
স্ক্ৰিপ	-11.759
হাত	-11.7594
াতি	-11.7595
নাল	-11.7602
োঁহা	-11.7604
সম্পাদন	-11.761
▁গাল	-11.761
লিয়াম	-11.7611
▁কিডন	-11.7612
▁অভিনেতা	-11.762
ৈত	-11.7623
ইছ	-11.7628
ুদা	-11.7635
▁অধ্য	-11.7637
▁গোলাপ	-11.7637
LE	-11.7638
য়স	-11.764
jump	-11.7642
kar	-11.7644
ীষ্ট	-11.7646
▁CD	-11.7649
সিল	-11.765
ৱন	-11.7652
ষুধ	-11.766
▁আয়ুক্ত	-11.7667
কূল	-11.767
আমেৰিকা	-11.7671
gin	-11.7672
▁পির	-11.7673
▁ৰচনাৰ	-11.7673
▁পোৱাটো	-11.7677
▁ৰামে	-11.768
▁ৰেংক	-11.768
ters	-11.7682
▁প্ৰাৰ্থ	-11.7684
বুলি	-11.7685
স্তের্	-11.7686
css	-11.7687
▁প্ৰচ	-11.7687
▁প্ৰাপক	-11.7687
▁পৰিশ	-11.7691
নল	-11.7693
▁Pass	-11.7697
▁বিদ্যাৰ্থী	-11.7698
▁আশী	-11.7698
হস্ত	-11.7699
fan	-11.7702
▁সদায়ে	-11.7702
ুপথ	-11.7702
▁আনা	-11.7707
াচী	-11.7707
▁আপন	-11.7708
max	-11.7709
á	-11.7718
▁ভৰ	-11.7722
gical	-11.7725
ৃষ্ণ	-11.7725
▁উদ্যো	-11.7726
াকা	-11.773
iff	-11.773
ারি	-11.7734
চু	-11.7741
▁Do	-11.7742
▁আছা	-11.7745
▁সীতাৰমণ	-11.7746
▁ফলস্বৰূপ	-11.7746
▁হিংস	-11.7746
হদি	-11.7746
▁বিপৰীত	-11.7747
elect	-11.7749
▁সৈকতসৈকত	-11.7752
লোট	-11.7754
▁গ্ৰহণযোগ্য	-11.7755
▁আশ্চৰ্য	-11.776
▁ব্যৰ্থ	-11.7761
গীবিল	-11.7762
▁নিশ্চ	-11.7762
▁Fact	-11.7763
bi	-11.7763
specialpage	-11.7764
▁বিষ্ফোৰ	-11.7765
জল	-11.7765
টৰ	-11.7766
্ষে	-11.7766
▁Comment	-11.7766
▁প্ৰতীক	-11.7766
KE	-11.7767
▁নাল	-11.7767
িষ্কা	-11.7767
চ্ছাকৃত	-11.7767
▁উত্থাপ	-11.7768
▁এক্সক্সক্স	-11.7769
াংলা	-11.7769
ন্ধু	-11.777
▁মুখ্যমন্ত্	-11.777
গমন	-11.777
₹	-11.777
▁উইণ্ড	-11.7771
▁শ্ব	-11.7771
tatistics	-11.7772
ZE	-11.7773
▁Pranam	-11.7773
▁উজবেক	-11.7773
▁ৰাজ্যবাসী	-11.7774
ৰ্বজন	-11.7774
DV	-11.7774
চুদাচ	-11.7774
▁কমে	-11.7775
ø	-11.7776
▁গাঞ্জা	-11.7776
▁বদলি	-11.7776
▁তৎক্ষ	-11.7777
preferences	-11.7777
েচ্ছা	-11.7777
pipe	-11.7777
ভঁৰাল	-11.7777
▁সান্ত্	-11.7777
▁install	-11.7777
▁exhibition	-11.7777
ل	-11.7777
▁০০৯১	-11.7777
সামঞ্জস্য	-11.7777
টাৰনেশ্	-11.7777
ভিজুৱেল	-11.7777
▁বঙাইগা	-11.7777
realname	-11.7777
▁চেম্পিয়ন	-11.7777
Custom	-11.7778
Purauṣa	-11.7778
softcore	-11.7778
thumb	-11.7778
মেথোক্সেথ	-11.7778
▁তেলুগু	-11.7778
▁মহকুমা	-11.7778
Exceptions	-11.7778
Girlfriend	-11.7778
Pradhan	-11.7778
Preferences	-11.7778
Sankaradeva	-11.7778
booksources	-11.7778
currentevents	-11.7778
noarticletext	-11.7778
pantyhose	-11.7778
pornstars	-11.7778
অভিযন্তা	-11.7778
ইন্দোনেচি	-11.7778
কাৰখানাত	-11.7778
কেৱাইচি	-11.7778
চমৎকার	-11.7778
ঢেউতোলা	-11.7778
দ্যাগতগতিবিজ্ঞান	-11.7778
পৰিবৰ্তিত	-11.7778
শিশ্ন	-11.7778
▁BIOS	-11.7778
▁Festival	-11.7778
▁Hazarika	-11.7778
▁Keychain	-11.7778
▁Kshit	-11.7778
▁Lindberg	-11.7778
▁QTP	-11.7778
▁challenge	-11.7778
▁little	-11.7778
▁monspessulanu	-11.7778
▁practice	-11.7778
▁scene	-11.7778
▁schoolgirl	-11.7778
▁অভিভাবকসংবঁধীয়	-11.7778
▁অষ্ট্ৰেলিয়া	-11.7778
▁আনুগত্য	-11.7778
▁ইউক্ৰেনিয়ান	-11.7778
▁ইউনিভাৰ্ছিটী	-11.7778
▁ঔগুইয়া	-11.7778
▁গুরুত্বপূর্ণ	-11.7778
▁গৃহনির্মীত	-11.7778
▁ঘভঘভগভঝ	-11.7778
▁ছত্ারী	-11.7778
▁ছারত্ী	-11.7778
▁জীওলাইট	-11.7778
▁ট্রাম্পৰ	-11.7778
▁তাফছীৰ	-11.7778
▁তুৰ্কি	-11.7778
▁দুপৰীয়া	-11.7778
▁দুশ্চিন্তা	-11.7778
▁নিয়মনিষ্ঠা	-11.7778
▁নৃতাত্বিক	-11.7778
▁পঢ়ুৱৈ	-11.7778
▁প্লেটফৰ্ম	-11.7778
▁প্ৰত্যাহবান	-11.7778
▁বন্ধ্যাত্ব	-11.7778
▁বিক্ৰেতা	-11.7778
▁বিদ্যায়তনিক	-11.7778
▁বেটুপাত	-11.7778
▁ব্যতিৰকে	-11.7778
▁বৰঙ্গনি	-11.7778
▁ভট্টাচাৰ্য্য	-11.7778
▁ভূমিষ্খলন	-11.7778
▁ভেকচিন	-11.7778
▁ভেকুলী	-11.7778
▁মংানিজ	-11.7778
▁মাৰ্টিয়ান	-11.7778
▁মোটামুটি	-11.7778
▁ল্যাটভিয়ান	-11.7778
▁শিৱাঙ্গী	-11.7778
▁শ্লৈষ্মিক	-11.7778
▁শ্লোগান	-11.7778
▁সজুঁলি	-11.7778
▁সন্দর্ভ	-11.7778
▁সন্নিধৌ	-11.7778
▁সমদ্বিবাহু	-11.7778
▁সমানুপাতিকভাৱে	-11.7778
▁সমান্তৰাল	-11.7778
▁সেনাপ্ৰধানজনে	-11.7778
▁হাফিজাহুল্লাহ	-11.7778
▁হায়দৰাবাদ	-11.7778
▁হায়েনাটো	-11.7778
▁হুছেইন	-11.7778
▁ৰিটেইল	-11.7778
▁ৰেষ্টুৰেণ্ট	-11.7778
babes	-11.7778
gothic	-11.7778
readonly	-11.7778
বিঘিনি	-11.7778
▁Diploma	-11.7778
▁উপকাৰিতা	-11.7778
▁গুজৰাট	-11.7778
▁জীৱনসংগী	-11.7778
▁নৰখাকৈ	-11.7778
▁পঠিওৱা	-11.7778
▁ফাউণ্ডেছন	-11.7778
▁বেজবৰুৱা	-11.7778
▁মাদ্ৰাছা	-11.7778
▁সামৰ্থ্য	-11.7778
South	-11.7778
ografia	-11.7778
দ্ব্যৰ্থতা	-11.7778
প্রশাসক	-11.7778
▁CNH	-11.7778
▁November	-11.7778
▁animal	-11.7778
▁shemales	-11.7778
▁অক্সফোৰ্ড	-11.7778
▁ইমিউন	-11.7778
▁উত্পাদন	-11.7778
▁এন্ড্ৰ	-11.7778
▁কেবিনেট	-11.7778
▁ক্ষতিশংকা	-11.7778
▁ক্ষিপ্ৰ	-11.7778
▁কৰ্ত্তৃত্ব	-11.7778
▁পেঞ্চন	-11.7778
▁বলীউড	-11.7778
▁সন্তোষ	-11.7778
▁সাঁকো	-11.7778
▁Disease	-11.7778
▁SDK	-11.7778
▁আমদানি	-11.7778
▁কাচমণি	-11.7778
▁ডব্ল্যু	-11.7778
▁ডায়েলাইছিছ	-11.7778
▁দৈব্যঘটনা	-11.7778
▁সমকামীচুম্বন	-11.7778
▁হ্ৰস্ব	-11.7778
accmailt	-11.7778
girlfriend	-11.7778
physic	-11.7778
third	-11.7778
যৌনসঙ্গম	-11.7778
▁beach	-11.7778
▁অন্তৰ্দেশীয়	-11.7778
▁ইমালসন	-11.7778
▁জানাযা	-11.7778
▁ব্যবস্থাপনা	-11.7778
▁ভৱিষ্যদ্বাণী	-11.7778
▁শিকিলেহেঁতেন	-11.7778
▁ষণ্মুখ	-11.7778
▁ৰাজকুমাৰ	-11.7778
ipblocklist	-11.7778
thumbnail	-11.7778
ureaucra	-11.7778
vials	-11.7778
▁GKP	-11.7778
▁Version	-11.7778
▁অসামঞ্জস্যতা	-11.7778
▁কিছূ	-11.7778
▁চটকান	-11.7778
▁মেৰীকম	-11.7778
active	-11.7778
ক্ষোভ	-11.7778
ৰ়িন্দ	-11.7778
▁ইস্পাত	-11.7778
▁উণর্ৱ	-11.7778
▁উলকিমোটা	-11.7778
▁উৎকৰ্ষ	-11.7778
▁নেওগ	-11.7778
▁পঞ্চায়ত	-11.7778
▁রাস্তা	-11.7778
▁সুস্বা	-11.7778
popular	-11.7778
কাযী	-11.7778
মচত্র	-11.7778
শ্বিদ্দী	-11.7778
▁vocabulary	-11.7778
▁উম্মাহ	-11.7778
▁এন্টাৰপ্ৰাইজ	-11.7778
▁চিচিটিভি	-11.7778
▁ফ্ৰান্স	-11.7778
Period	-11.7778
▁অগ্রগতি	-11.7778
▁পূর্বাঞ্চল	-11.7778
▁পৃষ্ঠপোষকতা	-11.7778
facebook	-11.7778
hojto	-11.7778
▁লোকালয়প	-11.7778
Poly	-11.7778
ডাটাবেচ	-11.7778
▁নির্ধাৰণ	-11.7778
▁অধিবক্তা	-11.7778
ৱিক্স্যনেৰী	-11.7778
avigation	-11.7778
▁পোছাক	-11.7778
সংলগ্ন	-11.7778
▁ইংগিত	-11.7778
▁নৰওৱে	-11.7778
▁পুৱতি	-11.7778
EMEN	-11.7778
▁আইপিএল	-11.7778
▁পাণ্ডিত্য	-11.7778
▁সমালোচনা	-11.7778
board	-11.7778
▁তলাভঙা	-11.7778
▁পৃষ্ঠাহমুহ	-11.7778
ichōm̐	-11.7778
▁exhibitionist	-11.7778
▁অধিশাখা	-11.7778
▁ভেড়া	-11.7778
▁অভিলেখাগাৰ	-11.7778
▁ষ্ট্ৰীট	-11.7778
▁ৰাহুল	-11.7778
ērai	-11.7778
▁প্ৰ্শ্ন	-11.7778
HTTP	-11.7778
TDIL	-11.7778
▁CXZ	-11.7778
newimages	-11.7778
▁মুশ্বৰিক	-11.7778
▁পেপার	-11.7778
▁বিশ্বকাপ	-11.7778
▁Cross	-11.7778
member	-11.7778
▁দপ্তৰ	-11.7778
▁ঊৰ্ধ	-11.7778
▁বৈধতাকৰণ	-11.7778
▁ব্যাঘাত	-11.7778
▁দাতব্য	-11.7778
টেলিফোন	-11.7778
▁দূৰভাষ	-11.7778
▁দৃষ্ঠি	-11.7778
▁সহস্ৰ	-11.7778
অখিল	-11.7778
▁অৰণ্য	-11.7778
▁থাৰুৰ	-11.7778
▁Groove	-11.7778
▁উৰ্বৰ	-11.7778
▁খন্ডন	-11.7778
licate	-11.7778
missingcomment	-11.7778
▁Tense	-11.7778
▁With	-11.7778
▁ট্ৰেফিক	-11.7778
▁তদন্ত	-11.7778
▁উহুদ	-11.7778
wikipedia	-11.7778
াইদেউ	-11.7778
▁Foot	-11.7778
▁button	-11.7778
ষ্মিক	-11.7778
▁চিগাৰেট	-11.7778
desc	-11.7778
▁দুচকু	-11.7778
▁উপন্যাস	-11.7778
▁গাঁথনি	-11.7778
▁সুৰাসক্ত	-11.7778
▁বিল্ডিং	-11.7778
expand	-11.7778
local	-11.7778
শঙ্কৰ	-11.7778
▁পল্লৱ	-11.7778
query	-11.7778
▁উদ্ভাসি	-11.7778
▁ভূৱন	-11.7778
▁লোকগীত	-11.7778
ppm	-11.7778
▁শুকুৰব	-11.7778
frac	-11.7778
▁Chlo	-11.7778
▁pronounce	-11.7778
policies	-11.7778
▁গুছল	-11.7778
▁সহজলভ্য	-11.7778
▁UNS	-11.7778
▁পেলাইছে	-11.7778
▁হিলবাৰ্ট	-11.7778
▁Translat	-11.7778
▁IDSA	-11.7778
▁টেকস্ত	-11.7778
▁ডমেইন	-11.7778
▁পশুধন	-11.7778
▁পৰিপূৰ	-11.7778
▁সচেতনতা	-11.7778
loginsuccess	-11.7778
▁কাস্টমাইজ	-11.7778
▁Stick	-11.7778
▁asian	-11.7778
▁খ্ৰীষ্টাব্দ	-11.7778
▁স্লট	-11.7778
▁কপাট	-11.7778
▁পাৰ্টনাৰ	-11.7778
▁পৰ্দা	-11.7778
▁ঘনশ্য	-11.7778
▁প্ৰজনন	-11.7778
উছী	-11.7778
▁ব্যায়াম	-11.7778
▁সংশ্লেষণ	-11.7778
্রাস	-11.7778
▁অবদানে	-11.7778
▁কুফৰ	-11.7778
▁যুগ্ম	-11.7778
ডেটিং	-11.7778
▁Artisan	-11.7778
▁নোটবুককেইটা	-11.7778
▁ধৰ্ণা	-11.7778
ocarp	-11.7778
▁কলিকতা	-11.7778
জাগৰণ	-11.7778
▁উদৃ	-11.7778
▁১৯৭৯	-11.7778
▁উপযোগিতা	-11.7778
▁পাইথাগোৰাচ	-11.7778
▁নালাগিব	-11.7778
▁সাংহাই	-11.7778
▁mature	-11.7779
▁ধাৱান	-11.7779
import	-11.7779
▁উদ্বিগ্নতা	-11.7779
▁মানৱীয়তা	-11.7779
▁অলিম্পি	-11.7779
▁ঠেং	-11.7779
▁সুৰক্ষাকবচ	-11.7779
ukh	-11.7779
▁Sports	-11.7779
▁আয়ুস	-11.7779
join	-11.7779
▁ভোটগ্ৰহণ	-11.7779
▁ভারতীয়	-11.7779
▁ভাড়াঘৰ	-11.7779
▁তেজষ্ক্ৰিয়তাৰ	-11.7779
▁মিত্ৰতা	-11.7779
▁ভাওনা	-11.7779
▁চোষা	-11.7779
toolbar	-11.7779
message	-11.7779
▁পতংগ	-11.7779
▁ঈক্ষণকামীজাপানি	-11.7779
zech	-11.7779
broken	-11.7779
▁ৰেলপথ	-11.7779
▁তৈরি	-11.7779
▁ভইচ	-11.7779
ক্লেইম	-11.7779
▁জাহেৰ	-11.7779
▁গাল্ফ	-11.7779
▁তৌহীদপন্থী	-11.7779
▁Account	-11.7779
newbies	-11.7779
▁স্বশাসন	-11.7779
update	-11.7779
▁Anup	-11.7779
▁আহোম	-11.7779
▁চৰ্তাৱলী	-11.7779
▁বৃষ্টিপাত	-11.7779
throttled	-11.7779
āla	-11.7779
▁যন্ত্রাংশ	-11.7779
▁ভুগিছে	-11.7779
▁মেয়েরা	-11.7779
▁পুনৰ্নিৰ্দেশন	-11.7779
▁নাযায়	-11.7779
▁যৌনদণ্ড	-11.7779
▁কমেডি	-11.7779
▁সংকল্প	-11.7779
▁সংক্ৰম	-11.7779
▁প্রত্যেক	-11.7779
▁কাষ্টম	-11.7779
▁কৰ্তৃত্বহীন	-11.7779
EEA	-11.7779
াসক্ত	-11.7779
▁নবীকৰন	-11.7779
march	-11.7779
▁সৰ্বত্ৰ	-11.778
▁অন্তর্	-11.778
হতীয়া	-11.778
allpages	-11.778
▁আগবঢ়াইছিল	-11.778
assam	-11.778
▁পৰিচৰ্য	-11.778
তুষাৰ	-11.778
polic	-11.778
▁প্ৰত্যাহাৰ	-11.778
▁আগ্রহী	-11.778
▁উপাসনা	-11.778
▁ষাট	-11.778
▁বিশ্বকোষ	-11.778
▁ষোল	-11.778
rosi	-11.778
▁পোনপটিয়া	-11.778
▁ফীড	-11.778
▁দিফল্ট	-11.778
▁জগতখনত	-11.778
▁Portugu	-11.778
▁চৰ্তসাপেক্ষ	-11.778
▁পূবাইল	-11.778
recreate	-11.778
access	-11.778
▁আচাৰ্য্য	-11.778
prefsnologin	-11.778
▁মতবাদ	-11.778
▁ফ্লেভাৰ	-11.778
▁অকীক	-11.778
▁লাইভ	-11.778
১৫৫	-11.778
▁রঙ	-11.778
setu	-11.778
▁উচ্চশিক্ষা	-11.778
▁কাৰ্যাৱলী	-11.7781
▁বনোৱা	-11.7781
▁জীৱনকালত	-11.7781
▁জিঙ্ক	-11.7781
▁প্ৰতিষ্ঠিত	-11.7781
▁দেখুৱায়	-11.7781
▁ৰহমত	-11.7781
present	-11.7781
▁উপাধি	-11.7781
ম্বন	-11.7781
▁ৰূপালী	-11.7781
▁২০০৬	-11.7781
▁ভভেদন	-11.7781
শ্ৰীমতী	-11.7781
▁face	-11.7781
found	-11.7781
▁উত্‍স	-11.7781
▁ঠিকানা	-11.7781
▁পৃথিৱীজুৰি	-11.7781
emp	-11.7781
unre	-11.7781
▁নাপায়	-11.7781
▁খুজিলে	-11.7782
▁ক্লিনিক	-11.7782
▁সম্ভৱতঃ	-11.7782
▁নিচিনা	-11.7782
▁সম্ভাৱনাপূৰ্ণ	-11.7782
▁সাৰণী	-11.7782
▁অসৎ	-11.7782
▁প্ৰতিকৃতি	-11.7782
▁আবিষ্কাৰ	-11.7782
▁নামঘৰটি	-11.7782
▁মদব	-11.7782
▁লিওন	-11.7782
phone	-11.7782
▁কালোউদ্ভট	-11.7782
▁ভায়েক	-11.7782
▁ওলাইছে	-11.7782
▁অসুবিধাবিহীন	-11.7782
onica	-11.7782
▁[//	-11.7782
Press	-11.7782
▁নিউটন	-11.7782
▁blog	-11.7782
▁মাউন্টযোগ্য	-11.7782
▁apt	-11.7782
▁মূর্তি	-11.7782
▁হাইপাৰলিংক	-11.7783
▁জেউ	-11.7783
ngli	-11.7783
▁মক্কা	-11.7783
press	-11.7783
▁Big	-11.7783
▁বৰঙ	-11.7783
▁কেতবোৰ	-11.7783
auth	-11.7783
▁প্রয়োগ	-11.7783
▁মাছুল	-11.7783
▁মৰ্ণিং	-11.7783
details	-11.7783
edge	-11.7783
▁প্ৰগ্ৰাম	-11.7783
▁জোখ	-11.7783
app	-11.7784
▁স্কুলগা	-11.7784
▁শ্লাই	-11.7784
▁আলবানী	-11.7784
▁নিবাৰণ	-11.7784
▁কলিমা	-11.7784
▁বালতি	-11.7784
▁দৈৰ্ঘ্য	-11.7784
▁ফাঁচী	-11.7784
▁প্ৰতিহত	-11.7784
▁car	-11.7784
▁দলবদ্ধ	-11.7784
▁Desk	-11.7784
▁Nov	-11.7785
ুঙ্	-11.7785
▁ডায়েৰিয়া	-11.7785
▁স্বাস্থ্যখণ্ড	-11.7785
▁পুণ্য়	-11.7785
▁বিেয়	-11.7785
address	-11.7785
▁বিক্ৰিয়া	-11.7785
▁মুমিন	-11.7785
লিঅ	-11.7785
ure	-11.7785
▁লিংগ	-11.7786
▁পেনেল	-11.7786
▁Long	-11.7786
▁general	-11.7786
▁সক্ৰিয়কৰণ	-11.7786
১০৩	-11.7786
▁চাৰ্জ	-11.7786
প্ৰচেছ	-11.7786
▁Model	-11.7786
▁সংগতি	-11.7786
▁অণু	-11.7786
▁ৰূপান্তৰিত	-11.7786
ৰ্জনা	-11.7786
▁তথ্যসূত্ৰ	-11.7786
▁বৰ্হি	-11.7786
▁পুতেক	-11.7787
▁খাইছে	-11.7787
মতা	-11.7787
movepage	-11.7787
▁কেটেল	-11.7787
আইভি	-11.7787
হুদি	-11.7787
▁ক্ষুধ	-11.7787
▁শুক্ৰবাৰ	-11.7787
পনা	-11.7787
ত্ৰাস	-11.7787
HUB	-11.7787
▁উন্মোচন	-11.7787
▁ফৰৱাৰ্ডাৰ	-11.7788
ভোজী	-11.7788
▁নহওঁক	-11.7788
▁Rupa	-11.7788
▁স্ততে	-11.7788
▁পৰিঘটনা	-11.7788
মিথাইল	-11.7788
get	-11.7788
▁টাইড	-11.7788
▁গুপ্ত	-11.7788
▁লৈছিল	-11.7789
▁স্কীম	-11.7789
সোন	-11.7789
Mark	-11.7789
▁Mathematics	-11.7789
▁Ram	-11.7789
▁বিভক্তি	-11.7789
▁দিমঃ	-11.779
াননং	-11.779
entry	-11.779
▁সূৰ্য	-11.779
▁ঘাইপথ	-11.779
▁চেফ	-11.779
lable	-11.779
ify	-11.779
▁সংখ্যাতত্ত্ব	-11.779
Bible	-11.7791
▁ঠিকণা	-11.7791
▁Era	-11.7791
▁সাহাৰ্য্য	-11.7791
▁ব্ৰণ	-11.7791
▁ভে	-11.7791
▁কোংড	-11.7791
▁hour	-11.7791
▁অৱশ্য	-11.7791
ship	-11.7791
}+	-11.7791
▁জিআই	-11.7791
▁টাৱাৰ	-11.7791
▁শ্ৰম	-11.7791
tags	-11.7791
এমএজি	-11.7791
বালিগাঁৱ	-11.7791
▁জুচ	-11.7792
▁লগোৱা	-11.7792
চুদী	-11.7792
▁চলাইছে	-11.7792
োণাল	-11.7792
মুহূৰ্ত্ত	-11.7792
linktext	-11.7792
▁যৌ	-11.7792
জলকীয়া	-11.7793
▁ঠাইখিনি	-11.7793
GH	-11.7794
▁সহনীয়তা	-11.7794
▁Date	-11.7794
শৰণ	-11.7794
▁বিকল	-11.7794
CHT	-11.7794
▁সত্য়	-11.7794
▁চর্ত	-11.7794
▁বীমাদায়ী	-11.7794
▁কৰ্মজীৱন	-11.7795
anv	-11.7795
▁প্ৰক্ৰিয়াকৰণ	-11.7795
cant	-11.7795
▁মিশ্ৰণ	-11.7795
▁ডিলাৰ	-11.7795
none	-11.7796
▁ইয়োও	-11.7796
▁বিজেপিয়ে	-11.7796
▁মাইকেল	-11.7797
▁গার্ডেনীয়ার্চ	-11.7797
▁দশমিক	-11.7797
▁লীজ	-11.7797
▁২৫০	-11.7797
scre	-11.7798
▁পিজ্জা	-11.7798
script	-11.7798
▁Gaura	-11.7799
▁প্ৰণাম	-11.7799
▁ভুৱা	-11.7799
▁পৰিছিল	-11.78
অদ্ভুত	-11.78
▁সম্পদনা	-11.78
স্চো	-11.78
▁চাইছে	-11.78
বর্তী	-11.7801
raē	-11.7801
▁আগলৈকে	-11.7801
োগ্ৰাম	-11.7801
ম্পেৰ	-11.7801
▁অভিন্ন	-11.7801
▁মার্চ	-11.7801
▁মল্ল	-11.7801
▁বিয়োগ	-11.7802
▁সৰ্বজন	-11.7802
ভিতৰুৱা	-11.7802
▁BRA	-11.7803
গ্ৰাঃ	-11.7803
emis	-11.7803
▁কন্চি	-11.7803
▁ছেলিঙ	-11.7804
▁পৰ্য্যবেক্ষ	-11.7804
▁মূৰক	-11.7804
তাৎপৰ্যপূৰ্ণভাৱে	-11.7804
▁কেম	-11.7805
nbur	-11.7805
most	-11.7805
▁ৰাষ্ট্ৰীয়কৰণ	-11.7805
▁পোৰ্টেল	-11.7806
▁আৱেদনকাৰী	-11.7806
▁এফচি	-11.7806
এক্টিভ	-11.7806
▁অংশগ্ৰহণকাৰী	-11.7806
does	-11.7807
▁অভিগমন	-11.7807
▁কেনেকুৱা	-11.7807
irang	-11.7807
▁নথিপত্ৰসমূহ	-11.7807
▁প্ৰহাৰ	-11.7808
▁সেইকেইটা	-11.7808
▁উন্মুক্তি	-11.7808
ফেয়াৰ	-11.7808
▁য়োু	-11.7808
▁বিজুব	-11.7809
▁গোল্ড	-11.7809
▁অনুষ্ঠানটি	-11.7809
▁উঠিবলৈ	-11.781
▁কেডাৰ	-11.781
▁সংৰক্ষক	-11.781
muk	-11.781
▁প্ৰবাহ	-11.7811
▁লিখিলে	-11.7811
▁ফাটি	-11.7811
▁কেউ	-11.7811
▁বাঁহ	-11.7812
▁উল্লেখনীয়	-11.7812
▁লাহে	-11.7813
▁বর্তমানে	-11.7813
▁কাবীৰ	-11.7814
লতা	-11.7814
▁তাৰকাসকল	-11.7814
▁স্বাদ	-11.7814
▁জন্মদিন	-11.7814
▁দৰকাৰী	-11.7815
▁জনসংখ্যা	-11.7815
▁গুলীয়া	-11.7815
balsa	-11.7816
ব্যাংক	-11.7816
▁সহায়িকা	-11.7816
▁নলয়	-11.7817
▁কুকী	-11.7817
নুসংগিক	-11.7817
র্তি	-11.7818
▁৫জন	-11.7819
▁Common	-11.782
▁অস্থায়ীভাৱে	-11.782
▁দুৰ্গ	-11.7821
▁নোটবুকখন	-11.7821
▁নোপোৱা	-11.7822
hta	-11.7822
ide	-11.7822
▁বিবিধ	-11.7822
▁অন্তৰ্	-11.7823
▁পশ্	-11.7823
lines	-11.7823
▁লিখনি	-11.7823
▁কীট	-11.7824
বক্সটোত	-11.7824
IDS	-11.7824
▁ধৈ	-11.7824
▁ক্রিয়া	-11.7824
ামিনী	-11.7824
দাচুদি	-11.7826
SO	-11.7826
articles	-11.7827
▁চুৱে	-11.7827
suppress	-11.7828
▁সুৰুঙ	-11.7828
▁তেঁ	-11.7828
LI	-11.7829
▁ডাক্তৰ	-11.7829
lary	-11.7829
kara	-11.783
▁নিষ্ঠা	-11.783
▁উইপ্ৰো	-11.783
ূলীয়	-11.7831
▁TN	-11.7831
▁কোৰ্চ	-11.7831
▁লোগ	-11.7832
▁আসক্ত	-11.7832
▁প্ৰী	-11.7833
বিচল	-11.7834
▁বিকলতা	-11.7834
▁সমলসমূহ	-11.7834
▁নতু	-11.7835
র্তী	-11.7835
▁শিপা	-11.7836
লবাৰ্ট	-11.7836
▁ফিন	-11.7836
▁সম্ভাব	-11.7837
জ্বলি	-11.7837
ár	-11.7837
▁আলিম	-11.7837
ষ্টবোৰ	-11.7838
্যাঁ	-11.7839
ৱাস	-11.7839
▁যোগাব	-11.7839
haus	-11.784
গোসল	-11.7841
▁পৰিবেশন	-11.7842
bug	-11.7842
▁উপশ্রেণী	-11.7843
যাপন	-11.7844
▁চৰ্তবোৰ	-11.7844
▁যথো	-11.7845
▁পিকি	-11.7845
শাইয়	-11.7846
▁Spea	-11.7847
▁ডুবা	-11.7848
পৰ্য্যৱেক্ষনকাৰী	-11.7848
▁নেদেখ	-11.7848
utorial	-11.785
স্তোত্রম	-11.785
āma	-11.7851
অৱদানকাৰী	-11.7851
▁প্ৰকাশকৰণ	-11.7853
▁ফাট	-11.7854
iṭō	-11.7854
কেইখনত	-11.7854
র্ড	-11.7854
LV	-11.7856
▁হঠা	-11.786
▁ভ্ৰমন	-11.7862
▁শিক্ষিত	-11.7863
▁হাৰ্	-11.7863
▁সৃজনশীল	-11.7866
▁afa	-11.7866
▁বিবেচ	-11.7866
yam	-11.7868
▁যোগাই	-11.7869
দিনা	-11.787
▁ঢাকা	-11.787
▁ন্যায়ালয়ে	-11.787
▁ঢকা	-11.7871
লাল	-11.7871
াকৃতি	-11.7872
লছ	-11.7874
▁মাজতে	-11.7875
সেকচ	-11.7876
▁লোকজন	-11.7876
▁বিকিনি	-11.7878
▁আঁচনিয়ে	-11.7878
▁দর্শন	-11.7879
▁ঘটে	-11.7879
▁Language	-11.7879
ালয়ৰ	-11.7879
বস্তুক	-11.7879
ৰোগ	-11.788
lls	-11.788
▁কষা	-11.7881
▁বৰকটকীয়ে	-11.7881
সম্মত	-11.7881
বং	-11.7882
▁পুষ্টি	-11.7883
▁সৰ্	-11.7884
▁সংস্কৰণসমূহ	-11.7884
আলা	-11.7885
▁দুটি	-11.7885
▁সকলোবিলাক	-11.7885
▁সিটি	-11.7886
১২৪	-11.7887
rse	-11.7889
▁বৌ	-11.7889
▁মন়্	-11.7889
পিডিয়া	-11.789
▁সময়কাল	-11.789
▁প্রাশিঅ	-11.7891
চুূ	-11.7892
▁IBA	-11.7893
ন্ঠন	-11.7894
▁এপল	-11.7894
▁উজ্জ্বল	-11.7894
▁কাৰো	-11.7896
চোদাচ	-11.7896
▁চদা	-11.7896
▁ফেব্ৰু	-11.7896
▁জনজাতি	-11.7896
▁ষ্টাইল	-11.7897
▁দূৰদৰ্শ	-11.7897
▁skl	-11.7898
▁বিলিয়ন	-11.7898
SC	-11.7899
bigass	-11.7899
▁Stud	-11.7899
▁জিৰাফ	-11.79
▁North	-11.79
▁নলবাৰী	-11.79
▁symbol	-11.79
▁Network	-11.7901
▁শ্বেয়াৰ	-11.7901
▁হেমিল্টন	-11.7901
▁চফট	-11.7901
▁প্ৰেক্ষাগৃহ	-11.7901
▁username	-11.7901
▁Computer	-11.7901
ease	-11.7901
▁পেটেন্ট	-11.7901
▁গ্ৰহন	-11.7901
▁চলচিত্ৰ	-11.7902
▁স্বত্বাধিকাৰ	-11.7902
▁দুডাল	-11.7902
▁অস্বাস্থ্যকৰ	-11.7902
▁৬৩	-11.7903
▁Ah	-11.7903
শা	-11.7903
letter	-11.7903
▁AVE	-11.7904
COM	-11.7906
োঁৱা	-11.7907
োক্সি	-11.7907
মিয়াম	-11.7907
▁ৰ্নি	-11.791
▁Unit	-11.7912
অত্য	-11.7912
lex	-11.7912
▁পেৰা	-11.7914
▁করে	-11.7914
▁জয়ন্তী	-11.7914
▁সাহসী	-11.7915
▁পুনৰু	-11.7915
যুম্	-11.7915
▁একেদৰে	-11.7916
jumpto	-11.7916
▁খিল	-11.7919
াজী	-11.7919
▁TRAD	-11.792
rss	-11.792
▁অৱৰোধ	-11.792
▁CII	-11.7922
▁ভৰণিসমূহ	-11.7922
▁ধৰোঁতা	-11.7922
▁Park	-11.7923
external	-11.7924
▁সহন	-11.7924
▁বেদনা	-11.7924
▁ৰচিত	-11.7925
ফ়ো	-11.7925
▁নথিভুক্ত	-11.7926
customcss	-11.7927
den	-11.7928
▁Vid	-11.7929
শুভতা	-11.7929
▁সবল	-11.793
্মকাণ্ড	-11.7931
▁িো	-11.7932
lim	-11.7932
▁top	-11.7933
▁here	-11.7934
▁মন্ত্ৰীগৰাকী	-11.7937
াৱশেষ	-11.7938
ংচন	-11.7938
▁বুলু	-11.7939
▁কেগ	-11.7939
ionate	-11.7939
▁দ্বাৰ	-11.794
▁File	-11.7941
▁গ্রাম	-11.7941
প্পো	-11.7942
▁নোম	-11.7943
২০৫	-11.7943
▁মুহূৰ্তত	-11.7944
▁year	-11.7944
▁Gay	-11.7945
asswordremindert	-11.7945
▁কৰিছেনে	-11.7945
▁বিচাৰো	-11.7945
নাত	-11.7945
জিং	-11.795
▁PT	-11.7952
জোন	-11.7953
hua	-11.7955
মুদ্র	-11.7956
▁কেশ্ব	-11.7958
▁প্ৰপত্ৰখন	-11.7962
▁কৰিবলগা	-11.7963
lv	-11.7966
may	-11.7967
▁পত্নী	-11.7967
ড়াল	-11.7969
কং	-11.7969
▁মাত্র	-11.7971
▁অনুপাতটো	-11.7972
াহ্ন	-11.7973
নাও	-11.7974
মণ্ডল	-11.7975
▁ইউৰোপীয়	-11.7976
anontalk	-11.7977
BE	-11.7979
▁দাবি	-11.7979
বাওঁফালে	-11.7981
বনা	-11.7984
৭২	-11.7986
▁ৱেবচাইটবোৰ	-11.7987
ধেমালি	-11.7987
size	-11.7988
▁how	-11.7988
▁mad	-11.7989
পাখি	-11.7989
চুক	-11.7989
Ess	-11.7991
▁মহি	-11.7991
ল্প	-11.7991
FB	-11.7992
har	-11.7992
▁দানা	-11.7992
▁কঠোৰ	-11.7995
মাণ	-11.7995
▁কেও	-11.7998
▁লীলা	-11.7998
▁পুথিখন	-11.7999
▁শব্দবোৰ	-11.8
চনল	-11.8002
▁প্ৰতীক্ষ	-11.8003
দ্ৰোহ	-11.8003
▁কৰ্মক্ষম	-11.8004
েতক	-11.8004
াংসাৰ	-11.8004
্রায়	-11.8005
বৱা	-11.8011
▁শীৰ্ষস্থান	-11.8012
▁দুয়োজন	-11.8013
▁ৰোগীক	-11.8016
▁পিন্ধ	-11.8018
▁বাণী	-11.8018
▁ওরি	-11.8019
▁এতে	-11.802
UL	-11.802
জিব	-11.8022
same	-11.8023
▁মিলিলা	-11.8024
ন্নতা	-11.8025
▁কোম	-11.8027
▁সুস্বাস্থ্য	-11.8027
▁আশীৰ	-11.8031
শীলতা	-11.8031
▁কন্	-11.8032
▁gal	-11.8032
▁১১০	-11.8032
হাৰৰ	-11.8032
্ধাৰ	-11.8033
্তব্য	-11.8035
▁ভিতৰতেই	-11.8036
▁বিন্দুত	-11.8036
বৰ্তী	-11.804
▁মূঠ	-11.8041
▁Officer	-11.8042
▁তীব্ৰতা	-11.8048
▁প্ৰতিষ্ঠাপ	-11.8048
▁ট্ৰাষ্টৰ	-11.8049
লকিম	-11.805
▁নিলে	-11.805
ৌজ	-11.8055
্টিফিকেট	-11.8055
নিটি	-11.8056
▁লেখিকা	-11.8057
▁স্কেন	-11.8059
▁Fi	-11.8059
▁কমলা	-11.806
▁অভাৱত	-11.8061
nger	-11.8064
পৰিচ্ছ	-11.8065
refixindex	-11.8068
▁ওহ	-11.8068
▁গোটে	-11.8068
▁ইঞ্জি	-11.8069
▁দাবীবোৰ	-11.8072
নিধিত্ব	-11.8072
▁Confe	-11.8074
▁পৰম	-11.8074
▁ধাৰাবাহিকখন	-11.8074
জহু	-11.8075
}/	-11.8076
বাহিৰ	-11.8077
▁জমেটোৱ	-11.8087
▁মন্ত্র	-11.8091
trand	-11.8092
▁নির্বাচ	-11.8092
Kē	-11.8093
▁লোমশ	-11.8093
▁Key	-11.8094
▁২০১৩	-11.8096
লফি	-11.8096
▁জিয়া	-11.8096
▁Options	-11.8096
▁অভিভাৱক	-11.8096
▁পূৰ্ববৎ	-11.8096
pr	-11.8096
▁ডিম্বাশয়	-11.8096
tivity	-11.8097
▁Wee	-11.8099
▁ছাইটসমূহ	-11.8102
▁মন্দিৰটো	-11.8104
▁ইলম	-11.8105
rie	-11.8105
েঁত	-11.8106
State	-11.8111
▁প্যা	-11.8112
▁তফ	-11.8112
গম্য	-11.8112
▁ভ্ৰ	-11.8114
২৮	-11.8116
▁পোল	-11.8116
িত্‍	-11.8118
▁চটি	-11.8119
▁af	-11.812
▁নেতাসকল	-11.8123
▁উৎপাদনকাৰী	-11.8124
▁বন্দৰ	-11.8124
low	-11.8125
▁Pe	-11.8125
▁দ্ব	-11.8126
▁সংঘটনসমূহ	-11.8127
▁দেশলৈ	-11.8127
▁গ্ৰন্থখন	-11.8132
▁ব্ৰাউজি	-11.8134
ওৱাই	-11.8134
BL	-11.8135
▁মুড	-11.8136
hā	-11.8138
রএইচ	-11.814
▁সমস্যাই	-11.8142
বাক	-11.8142
বোল্	-11.8142
▁টাইম	-11.8146
▁ওজাৰ	-11.8149
PS	-11.8149
ingo	-11.8152
▁কৰেনে	-11.8154
ৰুম	-11.8155
▁ret	-11.8155
PUR	-11.8155
পূৰ্ববৰ্ত	-11.8156
▁ফাক	-11.8161
▁বেক্টেৰিয়া	-11.8165
▁নমস্	-11.8171
।)	-11.8177
▁আণ	-11.818
িড	-11.818
▁কৰ্মক্ষেত্ৰ	-11.8183
▁Bora	-11.8184
▁জগাই	-11.8185
interr	-11.8188
▁ৰোমানিয়া	-11.819
ডবল	-11.8192
▁মুখা	-11.8194
▁আপো	-11.8196
▁ফতোৱাত	-11.8197
▁মিক্স	-11.82
শোণ	-11.8201
▁"'''[[	-11.8201
sed	-11.8206
িনি	-11.8207
▁জোন	-11.8207
কৰ‍্	-11.8218
▁উচ্চমান	-11.8218
ori	-11.8219
জ়	-11.8219
▁সন্ত্ৰাসবাদীৰ	-11.8221
▁পৰমান	-11.8221
▁বৰাই	-11.8222
▁আইডিয়া	-11.8225
▁ধোৱা	-11.8228
alk	-11.8228
এডি	-11.8229
ণত	-11.8232
▁মিঃ	-11.8233
▁এলা	-11.8233
ুটি	-11.8238
▁শিকি	-11.8239
শয়	-11.8242
▁কুমাৰে	-11.8244
▁size	-11.8244
কুশলী	-11.8244
▁নকৰি	-11.8247
▁বর্তমান	-11.8249
▁হানি	-11.825
সংখ্যা	-11.8253
▁ব্লু	-11.8254
▁মেডি	-11.8254
▁গেচ	-11.8257
asu	-11.8258
▁প্ৰক্ৰিয়াক	-11.8258
ুঁৱৰ	-11.8259
▁প্ৰাৰ্থীজন	-11.8261
▁সস্নেহ	-11.8262
▁বৈশিষ্ট্যসমূহ	-11.8266
▁লোচন	-11.8266
▁Intern	-11.8266
▁নংদ	-11.8269
▁পংচব	-11.827
▁tr	-11.827
মাহৰ	-11.8272
▁ব্যবহা	-11.8272
ফালৰ	-11.8272
য়ং	-11.8273
গ্ৰাহী	-11.8274
▁বেলা	-11.8274
▁শ্বে	-11.8277
গতিক	-11.8278
েন়্	-11.828
▁সিল	-11.828
েইল	-11.8282
▁পৃষ্ঠাবোৰ	-11.8282
ucks	-11.8283
▁চেণ্	-11.8284
▁বিছানা	-11.8285
াৱি	-11.8285
▁বৃক্ষ	-11.8286
াড	-11.8291
▁দো	-11.8291
মেং	-11.8294
▁read	-11.8296
▁na	-11.8297
▁কিঃ	-11.83
▁দত্তই	-11.8304
▁কৈবল্য়ম	-11.8305
▁শিখৰ	-11.8305
াউদাৰ	-11.8307
▁চাকৰিটো	-11.8307
▁নহব	-11.8307
▁গাঁঠনি	-11.8308
rel	-11.8309
▁চৌধুৰীৰ	-11.831
▁খুজি	-11.8311
ভঙ্গী	-11.8313
▁দিনবোৰ	-11.8318
▁বাগৰ	-11.8318
নাবা	-11.832
large	-11.8321
▁সংশোধনসমূহ	-11.8324
▁ব্ৰিটি	-11.8324
োটে	-11.8327
▁হাঁহি	-11.8328
নাই	-11.833
▁কৰ্তব্যৰ	-11.8336
ুপার	-11.8337
মন্ত	-11.8337
▁পৰ্ট	-11.8339
নুব	-11.8339
ইচা	-11.8339
▁IM	-11.834
▁শ্ৰেণীটো	-11.834
▁ক্লীক	-11.8344
▁স্তন	-11.8345
Cho	-11.8347
tru	-11.8347
rator	-11.8348
tool	-11.8348
স্থা	-11.8349
tana	-11.8352
▁কঠিনত	-11.8356
▁রন	-11.8366
▁ঘটনাবোৰ	-11.8372
▁gu	-11.8377
▁অঞ্চলটো	-11.8378
খা	-11.8379
hook	-11.838
▁বিভাগটো	-11.8381
্রাজ	-11.8382
▁Port	-11.8387
▁গোটা	-11.8389
েনিয়ান	-11.839
ীনিবাস	-11.8391
▁খাতি	-11.8392
▁মহত্ব	-11.8394
▁কৃতি	-11.8394
▁হেজাৰ	-11.8396
_'''	-11.8397
চুদাচুদি	-11.8406
▁Pv	-11.8411
ীলত	-11.8413
▁নাজানো	-11.8418
ওখ	-11.8419
▁লেন্স	-11.8421
▁'[[	-11.8423
▁SI	-11.8429
print	-11.8436
GD	-11.8442
দায়ক	-11.8443
চনৰ	-11.8447
▁পাহাৰ	-11.8447
itle	-11.8448
েচন	-11.8451
▁শিল	-11.8451
সের	-11.8452
শালম	-11.8455
লিগাম	-11.8458
gu	-11.8459
▁Thi	-11.8462
As	-11.8464
▁মেছ	-11.8467
টেবল	-11.8469
stin	-11.8479
▁প্ৰযুক্তিসমূহ	-11.848
ret	-11.8481
▁ৱেবছাইটো	-11.8483
exi	-11.8489
nosuch	-11.8489
▁বাৰ্তাটো	-11.8489
▁আঁচনিসমূহ	-11.8489
▁ৰমন	-11.849
▁মুখগুদ	-11.8491
▁চাইনা	-11.8491
▁মহাবাহ	-11.8494
▁Mpa	-11.8496
▁অনুৰাগী	-11.8497
▁খোজা	-11.8499
পৰ্ট	-11.8501
বাতি	-11.8503
সাবধান	-11.8504
▁পাৰ্ট	-11.8505
ক্ষণ	-11.8505
াৱলীৰ	-11.8507
ল্ফ	-11.8509
▁মিতা	-11.8509
hai	-11.8511
▁অজ	-11.8514
্যৰ	-11.8519
▁স্থিত	-11.852
লৈস্ত	-11.852
TPA	-11.852
▁সূচি	-11.8524
▁CAS	-11.8524
▁সংস্কাৰ	-11.8527
ram	-11.8527
SR	-11.8535
▁বিয়	-11.8536
▁এচি	-11.8537
▁ইণ্ডি	-11.854
porn	-11.8546
▁কৰেঃ	-11.8547
চোন	-11.8547
▁পাৰ্	-11.8548
ঘাট	-11.855
▁DE	-11.8552
▁box	-11.8552
▁শুভাৰ	-11.8552
▁পাথ	-11.8553
ize	-11.8554
▁মিছ	-11.8556
ৱহ	-11.8558
▁চিনি	-11.8563
▁চিত্ত	-11.8566
▁মাহে	-11.8567
ালিগাঁও	-11.8568
হূ	-11.8574
ber	-11.8576
▁গন	-11.858
ডুম্	-11.8584
কেফে	-11.8584
▁ৱেবচাইটটো	-11.8586
▁বিনাশ	-11.8589
▁অধিসূচ	-11.8591
▁nud	-11.8593
▁৫৬	-11.8599
▁ফর্ম	-11.86
▁তদা	-11.8616
▁this	-11.8622
সাৱধানতা	-11.8625
াউচিং	-11.8626
\'	-11.8629
্রফ	-11.8635
গাঁও	-11.8635
▁তালিকাৰ	-11.8635
▁এইয়া	-11.8637
শি	-11.8642
▁ৰাইড	-11.8645
▁ইলে	-11.8645
▁বিৰক্তি	-11.8649
▁ডিভাইচসমূহ	-11.8651
ায্য	-11.8654
overed	-11.8654
বীৰ	-11.8655
োবেল	-11.8658
কিমাস্	-11.8661
ontinue	-11.8664
▁༒	-11.8667
▁পৰিচালনাৰ	-11.8667
হলি	-11.8668
পরি	-11.8669
রুন্দ	-11.8671
▁১৯০	-11.8674
ec	-11.8675
▁জ্বল	-11.8675
চ্যুত	-11.8677
কাক	-11.8678
▁শিক্ষাৰ্থীসকল	-11.8678
▁অপাৰেটৰসকল	-11.8681
▁চক্ৰ	-11.8687
▁অক্সিড	-11.8688
TI	-11.8691
▁তুলা	-11.8691
▁বাটন	-11.8695
▁মৈ	-11.8698
মেরি	-11.87
▁Ya	-11.8707
▁পৃষ্ঠাটোত	-11.871
▁শৃঙ্	-11.871
াৱ	-11.8711
ভাৰ্ছ	-11.8714
▁ছালা	-11.8715
আটাই	-11.8722
িকাত	-11.8724
▁ইয়োম	-11.8734
অক্ষৰ	-11.8734
ঙ্	-11.8738
UTO	-11.8739
late	-11.8741
ষাৰ	-11.8744
▁সাৱধান	-11.8744
▁যন	-11.8755
ান়্	-11.8757
▁গুৰ	-11.8757
▁গাত	-11.8758
‍ষ	-11.8759
▁নিষ্	-11.8761
ুখ	-11.8764
Kin	-11.8768
▁বশ	-11.8769
িকাৰ	-11.8775
তামত	-11.8776
ডাৰ	-11.8778
ION	-11.8779
▁পেলাব	-11.8779
▁ভাৱ	-11.8785
▁কেশ	-11.8791
item	-11.8801
▁ডিষ্ট্ৰিবিউ	-11.8803
▁হাদি	-11.8809
tu	-11.8812
ৰোক্ত	-11.8812
SK	-11.8813
▁ভগভিজা	-11.8814
বজ	-11.8818
▁কৃতকাৰ্য	-11.8822
াসে	-11.8824
ক্ষা	-11.8825
LN	-11.8827
urs	-11.8832
▁অন্তৰ্ভুক্তি	-11.8833
Pri	-11.8833
োউ	-11.8833
▁যী	-11.8838
inf	-11.8838
ফিডিয়াছ	-11.8844
মুনা	-11.8846
ean	-11.8854
চক্ষ	-11.8855
▁বাল্	-11.8862
▁সাধনা	-11.8864
▁উঠিল	-11.8868
্ওৱ	-11.8873
▁য়ু	-11.8878
iver	-11.8884
প্ৰেমী	-11.8885
▁ঘট	-11.8889
▁৩৪	-11.8889
▁power	-11.889
লুক	-11.8892
▁হয়ঃ	-11.8893
▁Autodesk	-11.8896
▁ডেস্ক	-11.8899
▁it	-11.8912
ঘড়	-11.8915
মনসা	-11.8916
▁তাৰকা	-11.8917
শ্বা	-11.8919
▁cas	-11.8921
▁স্হা	-11.8921
▁ক্র	-11.8923
বায়	-11.8927
▁Pro	-11.8932
িুম	-11.8934
▁অৱতৰ	-11.8945
▁Tren	-11.8948
▁স্পষ্টৰূপ	-11.8955
ea	-11.8956
ৃ	-11.896
▁শিক্ষাক	-11.8962
▁সংহত	-11.8963
ṭ	-11.8965
জৰী	-11.8965
নটাই	-11.8966
▁মট	-11.8967
চুটি	-11.8967
দন	-11.8971
উম্	-11.8974
▁ফেৰ	-11.8974
NAME	-11.8975
ix	-11.8981
▁গণ্ড	-11.8983
sian	-11.8985
]]-	-11.8986
্যতা	-11.8988
▁cal	-11.8992
গৰ	-11.8993
ould	-11.8994
নাৱ	-11.8995
▁পুৰুষসকল	-11.8997
▁সৰ্বো	-11.8999
ণু	-11.9001
▁অসহ	-11.9001
▁কাণ	-11.9002
র্ম	-11.9007
▁লিপিৰ	-11.9008
ack	-11.9025
▁অব্যৱ	-11.9029
্পত্তি	-11.9035
▁বাক্সা	-11.904
▁লিম	-11.9044
ান্	-11.9044
▁Net	-11.9044
ফি	-11.9047
▁জাত	-11.9049
▁number	-11.9053
ণ্ডি	-11.9056
অপ্ৰকাশ	-11.9056
াৰীৰ	-11.9057
াৱাহ	-11.9065
▁ke	-11.907
▁অনুকৰণ	-11.9075
াউচ	-11.9083
opa	-11.9083
্র্	-11.9085
গী	-11.9086
▁নমন	-11.9098
▁দুৰ্বৃত্তটো	-11.9101
ভিন	-11.9105
্যম	-11.911
▁দিয়	-11.9115
urus	-11.9117
▁যান়	-11.9118
িকি	-11.9121
MW	-11.9123
CC	-11.9133
▁উদ্যোগটো	-11.9134
omain	-11.9138
▁PA	-11.9138
▁Astro	-11.9138
ুরৈ	-11.914
ংস্	-11.9141
▁Simp	-11.9146
wa	-11.9147
lop	-11.9152
▁কোণ	-11.9156
তিক্রম	-11.9159
▁সুত	-11.9159
aur	-11.9161
লগত	-11.9161
tic	-11.9162
ৌদি	-11.9165
▁প্ৰত্যা	-11.9175
compa	-11.9182
▁Coc	-11.9183
ইনা	-11.9188
য়াৰ	-11.9194
▁গলপ	-11.9197
ৰণী	-11.9198
▁বিশ্বাসযোগ্য	-11.9222
ছেট	-11.9222
Cu	-11.9225
▁বিছাৰ	-11.9226
ick	-11.9235
ৈক	-11.9236
পক্ষই	-11.9237
াজ	-11.9238
▁ক্লিন	-11.9248
হৃত	-11.925
tah	-11.9251
াক্ত	-11.9254
▁খি	-11.9254
ষ্টফ	-11.9258
জড়ি	-11.9259
▁নয়	-11.9263
াঁজ	-11.9265
হিছে	-11.9268
্যাসি	-11.9269
▁চোৱাৰ	-11.9273
▁দেখিছ	-11.9279
লেশ্যন	-11.9279
▁[[:$	-11.9281
াংছা	-11.9284
ছচি	-11.9286
নকি	-11.9287
▁হৰণ	-11.9287
▁ইটো	-11.9297
▁নাটক	-11.9299
▁যাদুকৰ	-11.9304
▁Kar	-11.9305
▁Be	-11.9307
াপ্তিস্	-11.9311
ম্মু	-11.9314
অধ	-11.9314
নব্ব	-11.9315
কথন	-11.9315
াউথ	-11.9316
▁up	-11.932
রং	-11.9322
প্লে	-11.9322
চিন	-11.9322
আলিয়া	-11.9323
▁সিলি	-11.9326
clos	-11.9328
port	-11.9328
zir	-11.9332
পাপন	-11.9342
মেলি	-11.9345
▁বিনা	-11.9354
পোৰ্ট	-11.9355
দিব	-11.9358
sor	-11.9362
স্মিত	-11.9363
কেল	-11.937
আব	-11.9376
▁কথাক	-11.9381
মেষ	-11.9382
▁সমানে	-11.9387
বৃত্তি	-11.9389
▁কিস্তিত	-11.9393
ংশ	-11.9395
],	-11.94
NS	-11.9402
sext	-11.9407
▁Cor	-11.9408
▁উপদ	-11.9408
▁এট	-11.9414
জড	-11.9415
▁উপপাদ্য	-11.9416
ps	-11.9416
cre	-11.9419
ৰিট	-11.9419
মজ্জ	-11.942
▁ম্যা	-11.9429
▁চেভ	-11.9435
▁বচন	-11.9438
ট্ট	-11.9438
▁ৰোগত	-11.9441
▁৫৪	-11.9443
▁প্যাক	-11.9444
vali	-11.9445
▁PM	-11.9446
দিয়াৰ	-11.9448
াঙ্	-11.9453
▁মী	-11.9454
▁প্ৰি	-11.9455
▁ৰস	-11.946
▁কালাম	-11.9467
stri	-11.9471
্থ	-11.9482
ৰম	-11.9483
াৰু	-11.9483
▁Fe	-11.9484
hree	-11.9485
▁ৱেবছাইটসমূহ	-11.9496
▁৩৭	-11.9497
ভেল	-11.9498
▁ডাইৰেক্টৰ	-11.9503
▁Di	-11.951
থলী	-11.9513
▁হৈম	-11.9513
ৰ‍্ৰা	-11.9521
▁০	-11.9527
▁ক্যাম	-11.9528
কোণী	-11.9529
মুদ	-11.9529
তেও	-11.9536
▁vin	-11.9537
দ্ধ	-11.9541
ংদ্	-11.9547
▁গর্ভ	-11.9547
▁ঘটিব	-11.955
▁se	-11.9553
্যজনক	-11.9565
ুলকৈ	-11.957
▁।]	-11.9571
▁সধাৰণ	-11.9577
ঠিয়া	-11.9581
hr	-11.9582
ery	-11.9593
▁চোৰ	-11.9596
▁হোৱাত	-11.9599
graphic	-11.96
▁দৈত্	-11.96
্বনক	-11.9601
▁তাই	-11.9605
▁হিৰা	-11.9612
dj	-11.9614
োও	-11.9621
aved	-11.9622
ros	-11.9629
rish	-11.9632
ching	-11.9633
▁অবিৰত	-11.9637
▁আটাইব	-11.9641
▁Sh	-11.9645
▁Instruct	-11.9651
rm	-11.9653
▁Del	-11.966
▁ইলেকট্ৰ	-11.9661
▁ভগদ	-11.9663
পাতলা	-11.9664
▁পলিচীবোৰ	-11.9664
sky	-11.9671
ুৎ	-11.9671
▁শক	-11.9678
▁বাবাটো	-11.9686
DA	-11.9697
▁ছে	-11.97
▁কং	-11.9701
শন	-11.9703
িয়াকৈ	-11.9707
▁মৌচ	-11.9712
▁পর্	-11.9713
▁কিন	-11.9713
pe	-11.9713
▁সুমি	-11.9714
blocklog	-11.9714
ীসকলে	-11.9715
▁আইজ	-11.972
▁আপেল	-11.9721
বেৰ	-11.9724
▁কৰ্মৰ	-11.9727
নিবেশ	-11.9729
BN	-11.9742
▁jol	-11.9745
▁দুৰ্	-11.975
টিটি	-11.9754
কুচ	-11.9754
▁খানকি	-11.9759
▁তম	-11.9766
▁চোল	-11.9767
itre	-11.9767
▁প্রতিষ্ঠ	-11.9772
▁দুৰ	-11.9777
▁ৱাৰ্ড	-11.9781
▁ড্যা	-11.9785
কাংক্ষিত	-11.9785
▁মোহন	-11.9789
ITE	-11.9789
Ind	-11.9791
ঠি	-11.9793
পৃ	-11.9795
▁কাৰখন	-11.9798
কিন	-11.9803
সত	-11.9804
নুপাত	-11.9806
তিভাধৰ	-11.9816
▁r	-11.9822
▁পিছলা	-11.9825
save	-11.9828
ওঁতে	-11.9829
▁হাদ	-11.983
মণ	-11.9837
ey	-11.9839
বত	-11.9839
িংচ	-11.9875
▁ৰাখ	-11.9883
▁সঞ্চ	-11.9886
▁ঘুৰি	-11.9893
টু	-11.9893
বাঘ	-11.9903
▁শিক্ষকসকল	-11.9907
▁সৰব	-11.9909
কলন	-11.9912
িকেন	-11.992
দেৱতা	-11.992
িটো	-11.9922
ষে	-11.9922
স্কট	-11.9931
ড়া	-11.9934
কানাডা	-11.9937
just	-11.9941
ক্ষেত্ৰত	-11.9952
বিদা	-11.9959
▁۝	-11.9961
▁শিক্ষাত	-11.9965
পলি	-11.9968
▁যত	-11.9969
▁আট	-11.9972
জিঅ	-11.9978
▁Fl	-11.9985
▁জাপানি	-11.9987
▁মংদ	-11.9987
shvas	-11.9991
gun	-11.9994
মাত	-12.0009
াদী	-12.0009
CA	-12.0015
য়তি	-12.0021
▁মাতৃসকল	-12.0033
▁ফ্লে	-12.0041
একছ	-12.0052
▁শ্ৰ	-12.0056
▁মুনি	-12.0062
ুকা	-12.0062
▁স্মৰ	-12.0064
▁Aca	-12.0072
▁ডলাৰ	-12.0074
▁পাট	-12.0081
raj	-12.0087
▁কোমল	-12.0089
▁Ce	-12.0093
নাইট	-12.0098
para	-12.0099
▁Lee	-12.0101
পগ	-12.0101
▁নির্মা	-12.0107
ঁচ	-12.0109
ag	-12.0112
চাৰ্ভাৰ	-12.012
mag	-12.0122
ara	-12.0125
পেক্ষি	-12.0127
▁সঞ্চালি	-12.0128
▁মূৰ	-12.0131
ানুপাত	-12.0132
্যাল	-12.0138
▁he	-12.0144
▁প্ৰাচ্য	-12.0145
ষি	-12.0145
▁ইলেকট্ৰি	-12.0149
nis	-12.0153
āh	-12.0154
▁Gov	-12.0156
েটৰ	-12.016
ৈসে	-12.0166
ocation	-12.0167
াওনা	-12.0169
▁অভিজ	-12.0169
িবা	-12.0172
▁Fa	-12.0179
ৰৰ	-12.018
ovies	-12.0182
চত্	-12.0186
▁প্ৰতিবাদত	-12.0189
▁con	-12.0195
select	-12.0196
টিল	-12.0197
েচনেল	-12.0202
হ্য	-12.0205
▁বাচন	-12.0207
▁কার্	-12.0209
▁দৈত্য়	-12.0211
▁ধাৰাত	-12.0214
▁মহিলাগৰাকী	-12.0218
মুখে	-12.022
range	-12.0222
▁অৰ্প	-12.0222
ndro	-12.0227
জস্ব	-12.0239
▁ইও	-12.024
▁ডিফ	-12.0253
▁সতী	-12.0258
▁ছুট	-12.0262
▁নিয়	-12.0279
ায্	-12.028
ক্ব	-12.0282
▁বনা	-12.0289
▁হকি	-12.029
ছান	-12.0291
ঁওক	-12.03
কানাডাৰ	-12.0302
▁কট	-12.0302
▁ফিতৰ	-12.0308
▁পানীয়ে	-12.031
▁অসাধ	-12.0311
▁সমা	-12.0322
ঘাত	-12.0328
েদার	-12.0332
ক্র	-12.0335
▁প্যান	-12.0336
বুল	-12.0342
াৰাত্মক	-12.0342
▁এন্টি	-12.0348
নিণ্ড্র	-12.0348
tach	-12.0351
িলা	-12.0352
▁অগ্	-12.0353
xz	-12.0361
unblock	-12.0366
Ś	-12.0368
▁কঠি	-12.0371
য়াং	-12.0371
▁ৰিপ	-12.0376
▁গুডম	-12.0395
Ra	-12.0405
লিল	-12.0405
াশ্বৰ	-12.0407
য়াও	-12.0417
ৰাৰ	-12.0422
▁কাৰ্যসূচীৰ	-12.0429
▁বিৱৰি	-12.0434
▁গোটবোৰ	-12.0435
বাজী	-12.0439
Watch	-12.044
lu	-12.0443
▁কৰাব	-12.0445
▁অঞ্চলত	-12.0459
ৰেশ্বন	-12.0459
▁cr	-12.0472
▁অৱ্	-12.0473
▁গুৰুজনা	-12.0486
▁চিল্কচ	-12.0486
ক্রিয়	-12.0487
ৰুট	-12.0491
টম	-12.0493
▁Se	-12.0494
Pran	-12.0494
ুঃ	-12.0494
ṭā	-12.0498
▁ষড	-12.0501
▁পাৰা	-12.0506
বৃ	-12.0506
▁পিট	-12.0507
হৈছে	-12.0512
▁আতৰা	-12.0515
থিত	-12.0518
▁অর্থা	-12.052
▁Nam	-12.0523
▁TO	-12.0532
ৱি	-12.0538
ails	-12.0542
হুয়া	-12.0547
gs	-12.0548
▁কন্ন	-12.0549
ç	-12.0551
...’	-12.0556
star	-12.0563
্ডিং	-12.0564
thre	-12.0568
▁বী	-12.0568
ছুফ	-12.0571
▁ডেভি	-12.0572
লূক	-12.0574
মুদ্	-12.0578
ত্‍	-12.0581
ইৰ	-12.0583
mer	-12.0587
ন্ধি	-12.0592
তাৰা	-12.0592
▁কৰ্তন	-12.0595
▁ফাৰ্মা	-12.0595
ens	-12.0595
্যাট	-12.0596
shk	-12.0603
ect	-12.061
াওঁতে	-12.0614
▁নিহ	-12.0617
▁ফিড	-12.0617
▁এইদৰে	-12.0626
admi	-12.0626
stu	-12.0626
াদিনীয়া	-12.0627
inter	-12.0629
হসি	-12.0629
▁Cr	-12.0631
▁গুৰুৰ	-12.0636
▁হন্ত	-12.0644
▁wh	-12.0647
▁পৰিৱেশত	-12.0648
্ৰাণ	-12.0649
FIC	-12.0657
yr	-12.0658
▁কোম্পানীসমূহে	-12.0659
মাচ	-12.066
স্তিত	-12.0662
▁MB	-12.0669
ীপক	-12.0678
্যামে	-12.0679
sy	-12.0683
shu	-12.0686
নিমা	-12.0687
▁আলি	-12.0687
▁ডু	-12.0688
ূত	-12.0691
▁BA	-12.0693
থ্য	-12.0696
▁লিন	-12.0698
let	-12.0698
[[$	-12.0699
▁AP	-12.0706
▁কৃত্	-12.0714
র্থ	-12.0714
older	-12.0716
shar	-12.0728
abb	-12.073
▁নিষ্প	-12.0732
▁তাৰে	-12.0739
ৰ্গ	-12.0739
▁উপাদানসমূহ	-12.0743
▁অস	-12.0744
সভা	-12.0744
▁ৱাৰ	-12.0751
য়াই	-12.0753
▁মাহলৈ	-12.0753
▁hy	-12.0765
ছত	-12.0781
িয়াৰ	-12.0784
স্থাপিত	-12.0784
confirmed	-12.0793
▁জনালো	-12.0798
ust	-12.0801
tch	-12.0806
▁un	-12.081
▁Im	-12.0812
▁Cat	-12.0821
ija	-12.0821
▁অকলে	-12.0822
yth	-12.0825
▁Lea	-12.083
▁টোট	-12.083
▁ষ্টেচন	-12.0836
ুলীয়া	-12.0841
▁জন্মা	-12.0846
▁নন	-12.0849
▁AT	-12.0849
▁কঢ়িয়াব	-12.0855
▁অঙ্ক	-12.0858
▁swi	-12.0862
়ু	-12.0865
▁wi	-12.0865
eli	-12.0869
িন্গ্	-12.087
িভ	-12.0884
▁দায়	-12.0891
▁Astr	-12.0896
▁খাও	-12.0899
▁প্ৰিয়া	-12.09
োতি	-12.0904
ল্লা	-12.0904
যঙ্	-12.0915
▁An	-12.0915
যদি	-12.0922
iversity	-12.0926
তথ্য	-12.0926
ডবো	-12.0926
্লা	-12.093
শুদ্ধ	-12.0941
▁sp	-12.0943
▁ঘণ্ট	-12.0946
দ্বা	-12.0965
তাক	-12.0965
▁পৰিচা	-12.0965
াদৰ্শ	-12.0968
HK	-12.0979
▁এডি	-12.0979
গোট	-12.0983
পুন	-12.0989
য়োও	-12.099
▁Pu	-12.0994
্যাংচ	-12.1001
্জিন	-12.1004
ib	-12.1013
▁মৃত্যুত	-12.1019
▁অপৰ	-12.1019
ৱাত	-12.1024
kh	-12.1026
হার	-12.1027
নিৰ্দেশক	-12.1031
▁চৌ	-12.1032
▁ব্যৱহাৰে	-12.1038
tan	-12.1045
▁বীমাত	-12.1049
ীয়াৰ	-12.1049
▁বিশ	-12.1053
pg	-12.1055
▁মাননী	-12.1057
▁ড্য	-12.1059
▁ডী	-12.106
ison	-12.1061
▁সোণা	-12.1069
▁পাবল	-12.1084
▁নৈতিক	-12.1089
▁বিজয়	-12.109
▁তোলাত	-12.109
▁ঠাইতে	-12.1097
ক্লা	-12.1099
que	-12.1103
জিও	-12.1106
ভাৱ	-12.1111
▁কাৰিক	-12.1114
▁বর্	-12.112
ান্ব	-12.1121
্তুগ	-12.1125
▁উৎপ	-12.1127
▁মাৰ্	-12.1134
awing	-12.1143
▁স্থিতিৰ	-12.1148
্কিন	-12.1153
মাৰ্ক	-12.1153
▁সদা	-12.1154
ৰুণ	-12.1169
brow	-12.117
ঁটা	-12.1172
nē	-12.1174
▁পাচত	-12.1178
▁প্ৰত	-12.1178
lur	-12.1182
ND	-12.1182
▁পথাৰ	-12.1186
ৰক	-12.1186
nal	-12.1189
▁দ্	-12.1197
▁পিক	-12.1197
ger	-12.1198
কেন	-12.1202
▁নল	-12.1206
সাদ	-12.1213
▁টিম	-12.1218
ov	-12.1236
▁য়োগ	-12.1236
দৰ্শ	-12.1237
ost	-12.1238
allow	-12.125
নাত্মক	-12.1255
▁কাজ	-12.1256
▁শ্রী	-12.127
▁Sar	-12.1271
চাক	-12.1278
গছে	-12.1287
UT	-12.129
SG	-12.1299
েলি	-12.1311
▁Ban	-12.1319
বন্ধ	-12.132
রতা	-12.1322
স্বয়ংক্ৰীয়	-12.1323
▁চেন	-12.1325
▁শ্ৰৱ	-12.1333
টিয়া	-12.1336
ষ্ট্ৰ	-12.1337
▁Kri	-12.1344
থো	-12.1345
৯২	-12.1348
ইয়া	-12.135
▁দেখিব	-12.1354
▁am	-12.1355
▁শা	-12.1362
চালিত	-12.1362
▁যোগা	-12.1368
▁পৰ্যা	-12.1368
কাৰীয়ে	-12.1371
বিল	-12.1372
নাগ	-12.1375
তাব	-12.1389
▁চিত্	-12.1396
▁তৰিব	-12.1405
▁পেচ	-12.1406
▁my	-12.1407
ৰিব	-12.1411
ৰ্চ	-12.1412
ুমা	-12.1416
bha	-12.1417
▁শৃ	-12.1419
ইথ	-12.1421
জিয়াং	-12.1425
▁fo	-12.1426
ধন	-12.1428
াকৰণ	-12.1432
ged	-12.1432
শ্বাস	-12.1433
ker	-12.1437
▁সোমা	-12.144
ensi	-12.1461
VC	-12.1464
TA	-12.1469
ডত	-12.1472
শ্বী	-12.1474
ভিন্ন	-12.1478
arab	-12.148
▁কাকো	-12.1488
চবুক	-12.1492
ৰণীয়া	-12.1495
bject	-12.1501
ৃষ্ট	-12.1504
তোৱে	-12.1507
বেদ	-12.1507
▁সংক্ষেপ	-12.1508
লকু	-12.1515
ব্যক্তি	-12.1517
▁কোনোধৰণ	-12.1523
ছাত্ৰ	-12.1528
নান্দ	-12.1534
ক্রম	-12.1535
acct	-12.154
জাপান	-12.1543
দিল	-12.1545
▁Rh	-12.1546
ংপ	-12.1547
ল্ক	-12.1551
োবৰ	-12.1557
নিয়ৰ	-12.156
▁য়ন	-12.156
লন	-12.156
▁হোৱ	-12.156
যাত	-12.1561
▁পদ্ম	-12.1564
ুধ	-12.1567
সেউজ	-12.1569
৯৭৮	-12.1574
অধি	-12.1575
rba	-12.1578
▁ভৱিষ্য	-12.158
সমূহৰপৰা	-12.1583
াদে	-12.1587
▁চালি	-12.159
▁গৌ	-12.159
▁>	-12.1592
িছিল	-12.1593
দাবী	-12.1594
ksh	-12.1595
ear	-12.1602
Pir	-12.1606
nev	-12.1607
মূৰ	-12.1613
▁বিষহ	-12.1616
ৱন়	-12.1617
্তত	-12.1617
বিশ	-12.1626
ণ্ণ	-12.1636
▁শিব	-12.1637
েংকিং	-12.1638
hi	-12.1639
achi	-12.1642
logo	-12.1643
িডিং	-12.1647
শিক্ষা	-12.1648
ুকুম	-12.1648
াহি	-12.165
▁নায়	-12.1651
ন্ময়	-12.1654
nish	-12.1655
▁ব্ৰাউজাৰটো	-12.1655
▁দ্ৰ	-12.1665
ৰটো	-12.1665
▁খেলপথাৰ	-12.1666
▁যিজন	-12.1668
▁ইয়ো	-12.1676
▁Bon	-12.1679
▁চৰ	-12.1687
pal	-12.1693
৩৯	-12.1696
্ৰশ্নবোৰ	-12.1697
▁কামটো	-12.17
েনেকুৱা	-12.1701
টিং	-12.1706
▁Creat	-12.1706
াইটি	-12.1707
ৱেল	-12.1708
arn	-12.171
▁হুক	-12.1711
মেজ	-12.1714
ায়ক	-12.1714
FW	-12.1714
জপ	-12.1716
৬৭	-12.175
িন্	-12.175
ায়ন	-12.1761
word	-12.1764
sta	-12.1767
turi	-12.1768
নিৰ্দেশ	-12.1769
অনু	-12.1769
াণক	-12.1773
ড্	-12.1773
রফ	-12.178
ংদা	-12.1783
nap	-12.1786
▁In	-12.1791
ste	-12.1795
▁Innocent	-12.1795
নকল	-12.1797
ৰ্ষিক	-12.1798
▁ইত্যাদিক	-12.1798
াধিকাৰ	-12.1801
▁la	-12.1806
▁সার	-12.181
মিশ্ৰিত	-12.181
মিজু	-12.1812
১৮	-12.1814
আঘাত	-12.1818
▁পৰ্য্যা	-12.1822
▁ওপৰলৈ	-12.1822
স্থিতি	-12.1825
ইয়	-12.1826
্ত্	-12.1827
ক্ৰিয়া	-12.1828
▁ধাৰণাটো	-12.1829
শিব	-12.183
▁সঁজুলিৰ	-12.1831
তেন্তে	-12.1835
▁জগ	-12.1838
ering	-12.1843
যশ	-12.1843
িশুদ্ধ	-12.1843
SING	-12.1845
বেংক	-12.1848
দুৰ্ঘটনা	-12.1852
gr	-12.1858
▁বৃহস্পতিবা	-12.1858
ifica	-12.1865
vu	-12.1866
টেন	-12.1867
ঞ্চি	-12.1871
ণালী	-12.1872
▁১৯৩	-12.1877
rum	-12.1878
ef	-12.1879
জানে	-12.188
uth	-12.1886
্যুতি	-12.1892
SA	-12.1892
্বক	-12.1898
অবিৰত	-12.1898
▁একা	-12.1899
▁প্যাট	-12.1899
ষিক	-12.1903
ভিডিও	-12.1912
যোগাযোগ	-12.1915
▁কুৰ	-12.1918
স্মাৰক	-12.1919
বাসীয়	-12.1919
ইচ্ছা	-12.192
▁সন্তানটো	-12.1922
কাম্য	-12.1923
▁লেট	-12.1925
▁উপায়ে	-12.1931
ৰক্ষা	-12.1933
▁আগবাঢ়	-12.1934
hit	-12.1934
হেন	-12.1939
ভে	-12.194
তৃতীয়	-12.194
▁Th	-12.1941
ইছিল	-12.1944
▁জিকি	-12.1947
tat	-12.195
ইতিহাস	-12.1952
atiya	-12.1953
লগতে	-12.1954
▁পিছল	-12.1954
ণিৰ	-12.1955
TU	-12.1957
েল্	-12.1958
api	-12.1959
▁Sanj	-12.1959
তেওঁলোক	-12.1961
চিকিৎসা	-12.1962
inc	-12.1967
হেম	-12.1969
চালিকা	-12.198
▁ডব্	-12.1984
েতু	-12.1987
▁শো	-12.1989
ত্ৰৰ	-12.1991
ষী	-12.1994
▁উঠ	-12.2004
dgu	-12.2007
▁উলিয়াইছ	-12.2011
বৃদ্ধি	-12.2013
ধৰি	-12.2016
▁ওফ	-12.2021
▁এঅস্ত	-12.2022
▁কাললৈ	-12.2023
▁অম	-12.2023
▁গীতা	-12.2024
▁ইতিহাসত	-12.2027
▁কথাৰ	-12.2031
▁শুন	-12.2038
▁পেল	-12.204
অন্যান্য	-12.2045
উল	-12.2052
ণ্	-12.2053
র়ি	-12.2055
ছৰা	-12.2056
ূপ	-12.2058
ৱাই	-12.2062
▁উত্	-12.2065
ার্ফ	-12.2066
ব্যৱসায়	-12.2066
▁চেতি	-12.207
চিকিৎসক	-12.207
▁আকাংক্ষা	-12.2072
হল	-12.2073
স্ত্র	-12.2074
ঞ্জলি	-12.2076
াক্ব	-12.2082
ৰামানুজন	-12.2083
ডিয	-12.2087
cent	-12.2087
▁অৱস্	-12.2088
াবেশ	-12.2089
ৈযি	-12.2092
ইতালি	-12.2092
লান	-12.2094
জব	-12.2096
াঙ্গ	-12.2097
hara	-12.2098
dend	-12.2099
tag	-12.2101
াসী	-12.2101
cess	-12.2103
▁একতা	-12.2106
াৰৰ	-12.2108
সিদ্ধা	-12.211
যেতিয়া	-12.2111
ভেজ	-12.2113
বেছি	-12.2113
▁মাল্টিমি	-12.2113
enab	-12.2114
পৰিয়াল	-12.2116
টাইকেইটা	-12.2117
পশ্চিম	-12.2118
আদ	-12.2122
ক্ষত	-12.2123
The	-12.2125
▁বঁটাত	-12.2126
ফ্	-12.2127
ফ়্	-12.2127
FF	-12.2132
mber	-12.2132
▁হাতী	-12.2133
ঢু	-12.2136
োৱাকৈ	-12.2136
প্তি	-12.2136
asa	-12.215
ব্যাগ	-12.2152
rvi	-12.2152
ধাৰণ	-12.2154
mem	-12.2155
দ্বীপ	-12.2155
কৰী	-12.2158
ৰীক	-12.216
Jan	-12.2162
▁শেষলৈ	-12.2164
২৪	-12.2164
লিমাজীন	-12.2164
বিক্ৰী	-12.2166
mas	-12.2173
সংযোগ	-12.2174
অনুসন্ধান	-12.2177
ঘনিষ্ঠ	-12.2179
শিল্প	-12.2179
্ৰু	-12.2182
ization	-12.2189
জুৱা	-12.219
্বাৰা	-12.2191
own	-12.2192
প্ৰয়োজনীয়	-12.2193
ach	-12.2193
গর্ভ	-12.2195
প্ৰভাৱ	-12.2196
দেখা	-12.2196
লিম	-12.2196
▁স্টো	-12.2199
▁ধৰ্মৰ	-12.2201
Ad	-12.2202
শিখ	-12.2204
নীড়পাতা	-12.2205
ৰিম	-12.2207
শেহতীয়া	-12.2209
ডিচেম্বৰ	-12.2211
খাদ্য	-12.2211
ৈব	-12.2212
অভিযান	-12.2213
চার্ভাৰ	-12.2213
▁pri	-12.2214
ৎসু	-12.2214
nder	-12.2218
কেনেকৈ	-12.2219
উদাহৰণ	-12.2222
একাউণ্ট	-12.2222
ামা	-12.2226
▁Kh	-12.2227
utta	-12.2227
়ণ	-12.2227
জাননী	-12.2228
▁সমুদ	-12.2229
নপুংসক	-12.2229
অধ্যাপক	-12.2233
লাগ	-12.2233
ভেট	-12.2233
বিজয়	-12.2235
বুদ্ধিজীৱী	-12.2236
▁কাৰ্	-12.2238
▁ana	-12.2238
ৰিছে	-12.2238
কেঁচা	-12.224
method	-12.224
place	-12.2242
নিয়ন্ত্ৰণ	-12.2242
ession	-12.2242
লোভ	-12.2243
ক্লিক	-12.2243
বিশেষজ্ঞ	-12.2244
blue	-12.2245
মংদা	-12.2246
সাঁচ	-12.2246
DP	-12.2247
বাৰ্তা	-12.2248
সাংবাদিক	-12.2248
অৰ্থ	-12.225
▁চহ	-12.225
মোহা	-12.2252
ভাইৰাছ	-12.2254
ংগিক	-12.2255
মেডিকেল	-12.2256
াঢ়ি	-12.2256
assamese	-12.2256
ঈক্ষণকামীসৈকত	-12.2259
অংশ	-12.226
জার্মান	-12.226
▁Red	-12.2261
ডাঙৰ	-12.2261
▁আম্ম	-12.2261
চল	-12.2261
চেল	-12.2265
its	-12.2269
বৃক্ক	-12.2271
সন্তান	-12.2271
ব্ৰাউজাৰ	-12.2272
উৎপাদন	-12.2273
বৈদ্যুতি	-12.2276
উদ্ধাৰ	-12.2277
পুথি	-12.2277
ডিম্বাশয়	-12.2277
লেখা	-12.2278
শ্বন	-12.2278
অভিভাৱক	-12.2278
পূৰ্ববৎ	-12.2278
আৰক্ষী	-12.2278
dea	-12.2278
Options	-12.2279
বাহিনী	-12.228
মংগল	-12.228
ডিঙ	-12.228
স্নান	-12.228
ivity	-12.2281
২০১৩	-12.2282
ute	-12.2283
প্ৰতিলিপি	-12.2284
লোমশ	-12.2284
বেমাৰ	-12.2284
▁ইয়	-12.2286
TE	-12.2287
বার্তা	-12.2287
চাইকেল	-12.2287
আউটৰ	-12.2287
পৰ্যন্ত	-12.2287
্লু	-12.2288
ঠিক	-12.2288
আপলোড	-12.2288
সহযোগিতা	-12.2291
নির্বাচ	-12.2293
মূল্যায়ন	-12.2293
▁জমেটো	-12.2293
বৈকল্পিক	-12.2293
▁'(	-12.2293
অতিমানৱ	-12.2294
our	-12.2294
ত্ৰুটি	-12.2294
উপদ্ৰৱ	-12.2294
অস্থায়ী	-12.2295
Virtual	-12.2296
dildo	-12.2296
সোমবাৰ	-12.2296
২০১৮	-12.2296
মিডিয়াৱিকি	-12.2297
ৰ্শ	-12.2297
বিনামূলীয়া	-12.2297
াস্ট	-12.2297
মুনাজ্জিদ	-12.2297
Full	-12.2297
সংৰক্ষণ	-12.2298
প্ৰমাণ	-12.2298
এপ্ৰিল	-12.2299
গান	-12.2299
স্বচ্ছতানপুংসক	-12.2299
গোপন	-12.23
শৈক্ষিক	-12.2301
হাৰ্ডৱেৰ	-12.2301
কোঁৱৰ	-12.2301
ঠিকাদাৰ	-12.2302
বৰপেটা	-12.2302
প্ৰতিৰোধ	-12.2302
দিনবোৰ	-12.2302
আংশিক	-12.2303
প্রদান	-12.2303
একেলগ	-12.2303
অভিধান	-12.2304
আনন্দ	-12.2304
উদযাপন	-12.2304
ৱিকিপিডিয়া	-12.2304
হয়তো	-12.2304
সৰঞ্জাম	-12.2304
১৯৯৮	-12.2305
গোবিন্দ	-12.2306
শিৱসাগৰ	-12.2306
বিদ্যুৎ	-12.2306
সংসাধ	-12.2306
ক্ষুদ্ৰ	-12.2306
২০১৫	-12.2306
নিৰীক্ষণ	-12.2306
সন্তুষ্টি	-12.2307
Group	-12.2307
মেঘালয়	-12.2307
প্রথম	-12.2307
দিনটোৰ	-12.2307
দেওবাৰ	-12.2308
Tuber	-12.2308
হিন্দী	-12.2308
শূন্য	-12.2308
বিষয়বস্তু	-12.2308
সমাপ্তি	-12.2308
প্ৰবেশ	-12.2309
এম্বুলে	-12.2309
প্ৰযুক্তিবিদ্যা	-12.2309
বৰঙণিসমূহ	-12.2309
সংশ্ল	-12.231
ফিড	-12.2311
অধিকাৰসমূহ	-12.2311
টাউন	-12.2312
পেশী	-12.2312
নিৰ্মিত	-12.2313
ইউনিক	-12.2313
ইনষ্টল	-12.2315
সূত্ৰ	-12.2316
টিপিএ	-12.2316
▁পৰিৱৰ্ত	-12.2316
পলিচীখন	-12.2317
ীকৰন	-12.2318
ঙে	-12.2318
আট	-12.2319
মুল্য	-12.232
কোনোবাই	-12.232
<	-12.2321
সবিশেষ	-12.2323
টাইম	-12.2324
নিৰ্বাচন	-12.2324
▁অধ	-12.2325
িচিয়ে	-12.2326
পৰমান	-12.2326
কাৰণসমূহ	-12.2327
প্ৰকৃত	-12.2328
ৱিন়ৈ	-12.2328
ধাতু	-12.2328
এশ	-12.2328
থী	-12.2329
এইচটি	-12.2329
্ৰেডি	-12.233
বৃহস্পতিবাৰ	-12.2333
২০	-12.2334
টেক্সট	-12.2335
FR	-12.2339
পৱিত্ৰ	-12.2339
pars	-12.2342
ুহ	-12.2342
লোচনা	-12.2343
Key	-12.2343
জাৰি	-12.2344
সকলোবোৰ	-12.2344
NX	-12.2345
ঞ্জে	-12.2345
▁উঠিছ	-12.2347
ধনৰ	-12.2347
লেখিকা	-12.235
কৃষ্ণ	-12.2352
ডালে	-12.2352
বিপণন	-12.2354
শনি	-12.2358
নেচ	-12.2358
▁Shi	-12.2359
এজেন্টৰ	-12.2361
সূচক	-12.2362
স্বৰূপে	-12.2362
Health	-12.2367
কেজি	-12.2367
পিট	-12.2369
▁চেত	-12.2378
অভিজ্ঞতাৰ	-12.238
▁উপেন্দ্ৰ	-12.2382
পেছা	-12.2386
▁বাচ	-12.2386
সাধন	-12.239
চিতি	-12.2391
স্তম্ভ	-12.2391
▁পূৰা	-12.2396
ফুল	-12.2397
সিন	-12.2399
▁সকলোবোৰে	-12.2399
িচিয়ান	-12.2401
মিক্স	-12.2405
ভৱন	-12.2406
পদ্ম	-12.2411
ক্ষমা	-12.2416
numbers	-12.2417
king	-12.2418
াৰোপ	-12.2418
অনা	-12.2419
ফিট	-12.2419
দুৱ	-12.2419
ুক্কু	-12.242
ইণ্ড	-12.2421
চডিঅঙ্গুলিসঁচালন	-12.2422
ুংড	-12.2423
চ্যু	-12.2428
িযা	-12.243
প্ৰথমে	-12.2432
ব্যক্তিত্ব	-12.2433
ব্র	-12.2433
▁চিপ	-12.2435
subcat	-12.2436
▁ৰয়েল	-12.244
িদু	-12.244
Vu	-12.244
টোৰে	-12.2441
কাছা	-12.2443
উল্	-12.2445
বাক্য	-12.2446
াঞ্জল	-12.2447
ুজ	-12.245
উচ্চত	-12.245
nse	-12.2451
LP	-12.2451
▁কোপ	-12.2452
▁ৰূপস	-12.2453
চহৰ	-12.2454
ctr	-12.2454
oni	-12.2455
ৰেঞ্জ	-12.2457
ব্যৱহাৰকাৰী	-12.2458
গোটা	-12.2459
BO	-12.246
ণ্টা	-12.2461
▁গোল	-12.2463
বই	-12.2463
▁ফাৰ্ম	-12.2464
▁Lust	-12.2473
য়জ্ঞ	-12.2473
▁বিশ্লেষ	-12.2475
শ্বিপ	-12.2475
বাহক	-12.2477
,...	-12.2479
Da	-12.2481
াতে	-12.2481
প্রবেশ	-12.2482
একো	-12.2483
▁বিচ্ছ	-12.2486
খিনিত	-12.2494
ৰ়ু	-12.2495
▁আইড	-12.2496
▁ত্ৰি	-12.2496
▁ডেট	-12.2497
লিয়ে	-12.2498
হজ	-12.2499
ভাড়	-12.2499
সফলতাৰ	-12.2499
emale	-12.2501
▁ডেভেল	-12.2503
ound	-12.2506
oba	-12.2507
ging	-12.2508
▁োড	-12.2512
lon	-12.2513
si	-12.2514
dress	-12.2515
▁এম্বুলেন্স	-12.2517
এইয়া	-12.2518
▁আধা	-12.2519
পূৰ্বে	-12.2522
৮১	-12.2522
লিত	-12.2526
mea	-12.2528
াহাৰ	-12.2528
▁অপাৰে	-12.253
খলপ	-12.253
tra	-12.2531
ern	-12.2532
লনী	-12.2537
onate	-12.2538
oti	-12.2539
▁ট্ৰাষ্ট	-12.2541
▁সংয	-12.2544
্যানে	-12.2548
প্পি	-12.2549
চব	-12.2552
▁বেচ	-12.2552
▁অভিনেত্ৰী	-12.2553
সচিব	-12.2555
son	-12.2555
▁সুজ	-12.2555
থিয়	-12.2558
▁জার্	-12.2559
স্ত্রি	-12.256
▁প্ৰফেছ	-12.2562
াৰ্ভিছ	-12.257
শুনা	-12.2571
▁অধ্যয়	-12.2573
ৰঙ্গ	-12.2579
▁হতাশ	-12.2584
Kat	-12.2586
ঙর	-12.2586
dhar	-12.2588
▁বীমাধাৰী	-12.2593
▁ইষ্ট	-12.2597
ube	-12.2597
টপ	-12.2599
ঝে	-12.2599
▁তস্ম	-12.2599
shor	-12.2599
উপক	-12.2603
▁নজ	-12.2608
▁পূৰ্বনিৰ্	-12.2609
▁Raj	-12.2609
বেগ	-12.2611
▁ট্ৰান্স	-12.2611
▁১৯৫	-12.2612
ida	-12.2614
eu	-12.2616
ুবেই	-12.2616
▁বৰ্ষ	-12.2624
▁আক্	-12.2626
vil	-12.2626
▁কলিত	-12.2627
▁ধ্ৰ	-12.2632
ফন	-12.2632
sar	-12.2634
কৰ্মী	-12.2638
▁গিয়ার	-12.264
▁অচিন	-12.264
সংবাদ	-12.2645
িনা	-12.2647
JP	-12.2649
DF	-12.265
আঘাতৰ	-12.265
পত্ৰখন	-12.2652
ই৷	-12.2657
লাভ	-12.266
▁স্তোত্র	-12.266
▁ভেনচিত্ৰ	-12.266
▁ডিজিটা	-12.2666
redir	-12.2669
iṭ	-12.2669
AH	-12.2679
▁গ্ৰাহ	-12.268
▁আনুষ	-12.268
Gr	-12.2682
ধাৰ	-12.2683
তিশীল	-12.2683
▁পোলা	-12.2684
ডাক	-12.2685
▁চোৱ	-12.2685
▁মামক	-12.2685
নীশ	-12.2688
▁Coll	-12.2689
ভার	-12.2693
▁প্ৰতিনিধিক	-12.2693
ura	-12.2693
ফৰ্মূলে	-12.2693
ধৰ্মী	-12.2697
▁প্ৰশংস	-12.2702
ala	-12.2704
গনে	-12.2707
lexi	-12.2708
▁Relat	-12.2711
▁আমে	-12.2711
▁ততা	-12.2713
hiddencat	-12.2714
লীলা	-12.2715
▁সমীক্ষ	-12.2716
গুৰু	-12.2717
ইণ্ডিয়া	-12.2718
▁ডাউন	-12.2719
▁সংগ	-12.2719
Sa	-12.2721
TD	-12.2722
▁যাম	-12.2724
ডাৰটো	-12.2726
ashing	-12.2729
▁নাথাকি	-12.2731
ff	-12.2731
ref	-12.2731
▁আৱেদন	-12.2731
হাতত	-12.2732
▁বৰ্তনী	-12.2732
ৰিয়েলটো	-12.2732
লংদ্স্	-12.2733
ন়ৈ	-12.2734
rof	-12.2737
▁পোৰ্টে	-12.2737
নামা	-12.2737
LD	-12.2737
▁কালছোৱা	-12.2738
▁Per	-12.2739
▁সমীপ	-12.2741
িষদে	-12.2741
্লংদ্	-12.2743
চেইন	-12.2744
▁বিহীন	-12.2744
োসল	-12.2747
▁ধৰোঁ	-12.2747
▁শিক্ষয়িত্	-12.275
▁দ্বি	-12.275
থম	-12.2751
head	-12.2751
▁প্ৰতিবন্ধ	-12.2751
োমাস	-12.2751
ইমেইল	-12.2752
▁ফ্ৰেঞ্চাইজ	-12.2753
▁তুম্হার	-12.2753
ula	-12.2754
▁অছ	-12.2755
▁Super	-12.2756
ঈশ্ব	-12.2756
মহাবিদ্যালয়ত	-12.2757
্ভ	-12.2757
িষ্ঠ	-12.276
টাৰী	-12.276
Statistic	-12.276
▁উন্মোচ	-12.2761
ouble	-12.2762
▁ফৰৱাৰ্ড	-12.2762
▁Film	-12.2762
▁কেটেগ	-12.2762
▁Sha	-12.2763
অনিৰ্দি	-12.2763
hort	-12.2764
▁উত্তোল	-12.2764
্ৰিজ	-12.2764
▁আৱিষ্ক	-12.2765
▁ছিব্ব	-12.2766
▁ৰূপান্তৰ	-12.2766
ied	-12.2767
ৰ্য্যকৰ	-12.2767
▁দৈৰ্ঘ	-12.2767
▁স্বাগত	-12.2768
▁শ্বাফা	-12.2768
ভিনেতা	-12.2768
em	-12.2768
olic	-12.2768
ām	-12.2769
াসবাদ	-12.2769
▁আৱিস্ক	-12.2769
টিভ	-12.2769
▁ভয়া	-12.2771
▁Produ	-12.2771
▁বিজ্ঞ	-12.2771
▁হাৰ্ড	-12.2772
ঘটন	-12.2772
্যবান	-12.2772
▁ডায়েৰি	-12.2772
dded	-12.2772
▁ভয়াবহ	-12.2773
dvanced	-12.2773
ংচিতি	-12.2773
oogle	-12.2774
▁প্ৰশ্নবো	-12.2774
hannel	-12.2774
কামৰূপ	-12.2775
▁ট্ৰিবিউন	-12.2775
throttle	-12.2775
▁লঘ	-12.2775
বেজ	-12.2775
locked	-12.2775
▁spac	-12.2775
ebruary	-12.2775
্ষণীয়	-12.2776
icense	-12.2776
icrosoft	-12.2776
▁তাৎপৰ্য	-12.2776
বাসন	-12.2776
edirects	-12.2776
custom	-12.2777
▁নৱবৰ্	-12.2777
▁উত্‍	-12.2777
লব্ধ	-12.2777
▁নাপাহৰ	-12.2777
ategory	-12.2777
▁সন্ত্ৰাস	-12.2777
return	-12.2777
ৣ	-12.2777
▁Operat	-12.2777
▁উন্নীত	-12.2777
ত্তীৰ্ণ	-12.2777
▁পৰিপ্ৰেক্ষ	-12.2777
▁ৰকষ্টাৰ	-12.2777
▁বিনামূল্	-12.2777
ribut	-12.2777
^	-12.2777
tsiplanm	-12.2777
▁ৰবীন্দ্ৰ	-12.2777
pawg	-12.2777
к	-12.2777
removegroup	-12.2777
ডিষ্ট্ৰি	-12.2777
▁কনফিগাৰিং	-12.2777
▁ৱিরৱি	-12.2777
multi	-12.2777
▁Refer	-12.2777
Transgender	-12.2777
accountcreated	-12.2777
april	-12.2777
bureaucrat	-12.2777
figur	-12.2777
mainpage	-12.2777
restrict	-12.2777
wfQuery	-12.2777
wiktionary	-12.2777
চুষাধোন	-12.2777
য্গণ্ড	-12.2777
▁Kutir	-12.2777
▁Rainy	-12.2777
▁চতুর্দয়ীচু	-12.2777
▁দধীচিজপ	-12.2777
▁ৱিরৈয	-12.2777
ignorewarning	-12.2778
▁Kovalevsky	-12.2778
▁নেটৰ্ৱক	-12.2778
▁পশ্চাদ	-12.2778
▁পাচৱৰ্দ	-12.2778
▁বিশৃংখলতা	-12.2778
▁ভক্তানাম	-12.2778
▁সংন্য়াসস্	-12.2778
▁সন্মিলিত	-12.2778
▁ৰাজবংশী	-12.2778
▁ৰান্ধনি	-12.2778
America	-12.2778
Healthcare	-12.2778
KeezMovies	-12.2778
\'\'\'	-12.2778
bigbutt	-12.2778
brush	-12.2778
buttfuck	-12.2778
cannotdelete	-12.2778
editmyuser	-12.2778
interface	-12.2778
iẏā	-12.2778
length	-12.2778
minutes	-12.2778
movenotallowed	-12.2778
noexactmatch	-12.2778
ophyll	-12.2778
preposition	-12.2778
previous	-12.2778
registration	-12.2778
schaaTscheiTs	-12.2778
secure	-12.2778
software	-12.2778
ংধুনকু	-12.2778
অংগীকারঝলকানি	-12.2778
অসতীপতিঅ	-12.2778
আনকাবুত	-12.2778
ইনফেক্ট	-12.2778
উলকিচশমা	-12.2778
কনফার্ম	-12.2778
ক্রমণিকা	-12.2778
গবেষণা	-12.2778
গ্রন্থ	-12.2778
ঙ্গিযৱা	-12.2778
জাযায়িৰী	-12.2778
জাৰ্মানী	-12.2778
দাচূদ	-12.2778
নায়েহী	-12.2778
প্রজাতন্ত্র	-12.2778
ফণিরাজ	-12.2778
ফ্ৰেনচাইজ	-12.2778
বানজাৰমেচিন	-12.2778
ব্যুৰোক্ৰেট	-12.2778
মাতেউস	-12.2778
মেডিয়াৱিকি	-12.2778
লাইচেঞ্চ	-12.2778
শয়নকক্ষ	-12.2778
হুজাইফী	-12.2778
িংহোমত	-12.2778
ুলপল্ল	-12.2778
১৯৯১	-12.2778
ৱাৰেন্টি	-12.2778
ṣa	-12.2778
▁Adjective	-12.2778
▁Catalogue	-12.2778
▁Digholbak	-12.2778
▁Feedback	-12.2778
▁GBPJPY	-12.2778
▁Galvanizing	-12.2778
▁Indonesia	-12.2778
▁Iwasawa	-12.2778
▁Miscellany	-12.2778
▁Prepositions	-12.2778
▁Ramanujan	-12.2778
▁Sheburu	-12.2778
▁Sinatra	-12.2778
▁Spokesman	-12.2778
▁Türk	-12.2778
▁Update	-12.2778
▁WFDSA	-12.2778
▁Waiter	-12.2778
▁android	-12.2778
▁autoscroll	-12.2778
▁deviations	-12.2778
▁epidermis	-12.2778
▁jerking	-12.2778
▁masculine	-12.2778
▁nautica	-12.2778
▁phrānsa	-12.2778
▁system	-12.2778
▁অধীক্ষক	-12.2778
▁অম্মৈযপ্পর্	-12.2778
▁অশেষলোকৈক	-12.2778
▁আফগানিস্তান	-12.2778
▁আসাতেল	-12.2778
▁আৰ্দ্ৰতা	-12.2778
▁ইউআৰএল	-12.2778
▁ইন্টাৰফে	-12.2778
▁ইন্টাৰেক্টি	-12.2778
▁উইৰুবা	-12.2778
▁উৎক্ষেপন	-12.2778
▁এচএমএচ	-12.2778
▁এচটোনিয়া	-12.2778
▁ওদালগুৰি	-12.2778
▁কালেকচন	-12.2778
▁কুঙ্কুম	-12.2778
▁কেম্পাছ	-12.2778
▁কেলেকুলেট্যৰ	-12.2778
▁কোন্নাল্ল	-12.2778
▁খননকারক	-12.2778
▁খহনীয়া	-12.2778
▁খাটনিয়াৰ	-12.2778
▁খানাপাৰা	-12.2778
▁খোৎবা	-12.2778
▁গবেষণাগাৰ	-12.2778
▁গাম্ভীৰ্য্য	-12.2778
▁গেহলট	-12.2778
▁গোপানীথ	-12.2778
▁গোবিন্দগিৰী	-12.2778
▁গ্ৰিফিথ	-12.2778
▁ঘাহঁ	-12.2778
▁চম্বন্দা	-12.2778
▁ছফটৱেৰ	-12.2778
▁ছিংগাপুৰ	-12.2778
▁জনগোষ্ঠী	-12.2778
▁জন্মভুমি	-12.2778
▁জাপনাি	-12.2778
▁জাৰ্ণেল	-12.2778
▁জুৱাখেলা	-12.2778
▁জেষ্টেষ্যন	-12.2778
▁ঝিল্লী	-12.2778
▁টুথপেষ্ট	-12.2778
▁ট্ৰেংকুলাইজ	-12.2778
▁ডায়েবিটিজ	-12.2778
▁ড্ৰাগচ্	-12.2778
▁তম্মিল্	-12.2778
▁তামিলনাডু	-12.2778
▁তাৎক্ষণিক	-12.2778
▁দায়লুপ্তি	-12.2778
▁দৃঢ়ীকরণ	-12.2778
▁দ্বায়িত্ব	-12.2778
▁ধাৰ্মিক	-12.2778
▁ধুবুৰী	-12.2778
▁ধুম্ৰপান	-12.2778
▁নাৰাখে	-12.2778
▁নিউয়ৰ্ক	-12.2778
▁নিমিত্তে	-12.2778
▁নিয়ন্ত্রণ	-12.2778
▁নেগেৰা	-12.2778
▁নেপেলায়	-12.2778
▁পঁচকোণ	-12.2778
▁পলিথিন	-12.2778
▁পাচৱৰ্ড	-12.2778
▁পাটীগণিত	-12.2778
▁পাডকাষ্ট	-12.2778
▁পাণ্ডুলিপি	-12.2778
▁পাৰিতোষিক	-12.2778
▁পিএইচপি	-12.2778
▁পিছুৱালে	-12.2778
▁পিৰিয়ডিকেল	-12.2778
▁পুংখানুপুংখ	-12.2778
▁পুংসাং	-12.2778
▁পুতনগুহা	-12.2778
▁পুনঃভোটগ্ৰহণ	-12.2778
▁প্ৰভৃতি	-12.2778
▁প্ৰিকঞ্চেপষ্যন	-12.2778
▁প্ৰ্তিস্তান	-12.2778
▁ফণীমনসা	-12.2778
▁ফলপ্ৰসূ	-12.2778
▁ফলশৃতি	-12.2778
▁ফলশ্ৰুতি	-12.2778
▁ফেডাৰেশ্যন	-12.2778
▁বঢ়ায়	-12.2778
▁বয়োজ্যেষ্ঠ	-12.2778
▁বলৱৎ	-12.2778
▁বিচ্ছুৰণ	-12.2778
▁বিদ্যাবাগীশ	-12.2778
▁বীণাবাদক	-12.2778
▁বোকাখাত	-12.2778
▁বোনাসসমূহ	-12.2778
▁ভেংকটচালা	-12.2778
▁মঙ্গোলিয়া	-12.2778
▁মটোগুজিজ	-12.2778
▁মহাকাশচাৰী	-12.2778
▁মহিন্দ্ৰা	-12.2778
▁মহোত্সৱ	-12.2778
▁মাধুৰী	-12.2778
▁মূৰ্গী	-12.2778
▁মৰণপন	-12.2778
▁লেপটপ	-12.2778
▁শতাব্দী	-12.2778
▁শিলস্খলন	-12.2778
▁শুভাকাংক্ষী	-12.2778
▁শুশ্ৰুষাকাৰীৰ	-12.2778
▁শ্বহীদ	-12.2778
▁সম্বৰ্ধনা	-12.2778
▁সহানুভূতি	-12.2778
▁সৃজনীমূলক	-12.2778
▁স্তব্ধ	-12.2778
▁স্পিৰুলিনা	-12.2778
▁স্পুনলাস	-12.2778
▁স্প্যানডেক্স	-12.2778
▁সৰুসজাই	-12.2778
▁হেণ্ডিমেন	-12.2778
▁েনবটিন	-12.2778
▁্ৰিথিং	-12.2778
▁৮০০০৮৪০০	-12.2778
▁ৰাজাপাৰা	-12.2778
▁ৰিমঝিমঅন্যান্য	-12.2778
▁ৰেচপনচিবিলিটী	-12.2778
দেখোৱাওক	-12.2778
▁pronoun	-12.2778
▁পোলিচয়	-12.2778
dellogpage	-12.2778
rievance	-12.2778
অনভিপ্	-12.2778
গাঠনিক	-12.2778
নবেম্বৰ	-12.2778
মৰিগাওঁ	-12.2778
▁CADJPY	-12.2778
▁CHFJPY	-12.2778
▁EURNOK	-12.2778
▁EURPLN	-12.2778
▁EURZAR	-12.2778
▁Kitten	-12.2778
▁sniff	-12.2778
▁theory	-12.2778
▁আইআইটি	-12.2778
▁আয়েংগাৰ	-12.2778
▁উৎপৰিৱৰ্ত্ত	-12.2778
▁এজেন্সি	-12.2778
▁কডুপু	-12.2778
▁কাৰাদণ্ড	-12.2778
▁চস্তিল্ল	-12.2778
▁তগিলি	-12.2778
▁দধীচিকুলসম্ভূ	-12.2778
▁দুয়োকাষ	-12.2778
▁নাঙল	-12.2778
▁নিবনুৱা	-12.2778
▁পেছমেকাৰ	-12.2778
▁প্ৰসূতিজনিত	-12.2778
▁প্ৰামাণ্য	-12.2778
▁পৰিষেবা	-12.2778
▁ফাউণ্ডেচন	-12.2778
▁বাংপলা	-12.2778
▁বাস্কেট	-12.2778
▁বিষয়সূচি	-12.2778
▁বৃদ্াধ	-12.2778
▁বোলছবি	-12.2778
▁ভগজুতাহস্তমৈথুন	-12.2778
▁মিস্ত্ৰীসকল	-12.2778
▁মুৰুলীধৰ	-12.2778
▁শাওকুছি	-12.2778
▁সংবেদনশীল	-12.2778
▁হিটাচি	-12.2778
▁ৰেষ্টোৰা	-12.2778
▁ৱিৰক্ক	-12.2778
Neighbo	-12.2778
addcat	-12.2778
aturday	-12.2778
ophie	-12.2778
raājī	-12.2778
wanted	-12.2778
লেচ	-12.2778
▁GBPDKK	-12.2778
▁insert	-12.2778
▁অর্ডার	-12.2778
▁উৎসৰ্গা	-12.2778
▁এনাচথেচি	-12.2778
▁কাউন্সিল	-12.2778
▁কায্যৰ্	-12.2778
▁চানমাৰি	-12.2778
▁চুইজাৰলেন্ড	-12.2778
▁দিগন্ত	-12.2778
▁নিষ্কাশন	-12.2778
▁নেভিগেশ্বন	-12.2778
▁পান্নু	-12.2778
▁পৰিত্ৰাণ	-12.2778
▁স্থগিত	-12.2778
Follow	-12.2778
Months	-12.2778
templatesused	-12.2778
▁HUNT	-12.2778
▁Superlative	-12.2778
▁নিৰামিষ	-12.2778
মদইতালিয়ান	-12.2778
▁আৱৰ্জনা	-12.2778
▁প্ৰতিকিলোগ্ৰাম	-12.2778
▁ফ্রান্স	-12.2778
▁বাইবলগী	-12.2778
▁মানহানি	-12.2778
duct	-12.2778
entrypoint	-12.2778
extension	-12.2778
therlan	-12.2778
toggle	-12.2778
ক্কালুম্	-12.2778
ভূষণায়	-12.2778
য়ুসংক্রান্তগাধা	-12.2778
▁______	-12.2778
▁আগৰৱালা	-12.2778
▁এক্সটেনচ	-12.2778
▁জৰিমণা	-12.2778
▁পৰ্যবেক্ষণ	-12.2778
▁মালিগাওঁ	-12.2778
▁ৰাগবী	-12.2778
▁ঐচ্ছিক	-12.2778
▁ষাড়	-12.2778
NECTOR	-12.2778
esterday	-12.2778
nomic	-12.2778
মঁজিয়া	-12.2778
হভ্দ	-12.2778
▁কোপদৃষ্টি	-12.2778
▁গোৱালা	-12.2778
▁চমত্কারফালা	-12.2778
▁ডাম্পাৰ	-12.2778
▁দহনকক্ষ	-12.2778
▁নিৰ্নয়	-12.2778
▁বন্ধুবৰ্গ	-12.2778
▁লখিমপুৰ	-12.2778
মূকলৈ	-12.2778
▁braces	-12.2778
▁নিষ্ঠুৰ	-12.2778
▁শাহুয়া	-12.2778
▁স্প্ৰেড	-12.2778
patrol	-12.2778
technic	-12.2778
whatsapp	-12.2778
مي	-12.2778
▁Quanti	-12.2778
▁অৱিৰ়	-12.2778
▁এডিংটন	-12.2778
▁বিস্ময়	-12.2778
▁এইছআইভি	-12.2778
ednesday	-12.2778
ম্যাসেজ	-12.2778
েজ়িঅ	-12.2778
▁regex	-12.2778
▁গঠনপ্ৰণালী	-12.2778
▁লিকছন	-12.2778
▁০০১১	-12.2778
▁পুণৰীক্ষণ	-12.2778
কেউকাষ	-12.2778
▁অয়লাৰ	-12.2778
▁বাধ্যবাধকতা	-12.2778
expiry	-12.2778
meter	-12.2778
quare	-12.2778
সন্যাসী	-12.2778
▁সৌভাগ্য	-12.2778
▁ক্লায়েন্ট	-12.2778
▁সাক্ষ্যপ্ৰমাণ	-12.2778
▁১৯৯৬	-12.2778
imper	-12.2778
জ্ঞাপন	-12.2778
▁অন্তৰ্দৃষ্টি	-12.2778
▁গড়কাপ্	-12.2778
eople	-12.2778
body	-12.2778
১৮২৯	-12.2778
▁কমিউনি	-12.2778
▁চৌপাঈ	-12.2778
▁পুনঃনির্	-12.2778
▁ৰণকৌশল	-12.2778
পৰিক্ৰমা	-12.2778
tribution	-12.2778
lynn	-12.2778
▁গৰিষ্ঠ	-12.2778
▁নিৰিখ	-12.2778
▁পুতলি	-12.2778
▁ব্যয়সায়	-12.2778
▁মদীনা	-12.2778
▁মাছখোৱা	-12.2778
▁ৱিৰম্ব	-12.2778
▁নথীভুক্ত	-12.2778
▁বাসিন্দা	-12.2778
carb	-12.2778
▁ইফঅ	-12.2778
▁জলক্ৰীড়া	-12.2778
▁শিম্পো	-12.2778
▁ষ্টাম্প	-12.2778
▁ইদ্দত	-12.2778
▁Reference	-12.2778
▁একাকীঘনিষ্ঠ	-12.2778
▁জেটলী	-12.2778
activity	-12.2778
▁আভিলা	-12.2778
ন়িল্	-12.2778
▁কোণগুলি	-12.2778
abort	-12.2778
▁ত্য়ক্ত	-12.2778
▁অপদ্ৰব্যৰ	-12.2778
▁স্বৰুপে	-12.2778
filepath	-12.2778
বিংশ	-12.2778
▁humi	-12.2778
ranscript	-12.2778
Āji	-12.2778
▁প্লাস্টিক	-12.2778
▁ফৰেইন	-12.2778
▁সৌভাগ্যৱান	-12.2778
▁গেজেট	-12.2778
▁ডায়েগ্ন	-12.2778
▁প্রক্রিয়া	-12.2778
Frank	-12.2778
▁ডেলিকে	-12.2778
পোন্ধৰ	-12.2778
▁বাইচাইকেল	-12.2778
▁অন্বেষা	-12.2778
▁ছেট্টি	-12.2778
▁সংকোচন	-12.2778
Explorer	-12.2778
তেজস্বিনা	-12.2778
▁প্রাপ্য	-12.2778
▁বীজাণু	-12.2778
▁এন্টিবায়টিক	-12.2778
▁গুৰুগ্ৰাম	-12.2778
▁স্পৰ্শ	-12.2778
▁উপলদ্ধ	-12.2778
▁বিশ্ৰাম	-12.2778
▁ৰকষ্টাৰ্ছ	-12.2778
▁অবশ্যে	-12.2778
▁কৰ্মস্থলী	-12.2778
nosuchuser	-12.2778
▁ঊনসত	-12.2778
▁ছিৰাপ	-12.2778
searchsubtitle	-12.2778
▁প্ৰস্তাব	-12.2778
▁পুষ্পহীন	-12.2778
dberrortext	-12.2778
▁নাগালেণ্ড	-12.2778
_'''\$	-12.2778
krab	-12.2778
▁১৯৯৫	-12.2778
্ৰহ্মাণ্ডবিজ্ঞান	-12.2778
▁চোপ্ৰা	-12.2778
▁দণ্ডবিধি	-12.2778
imgmultipage	-12.2778
proxyblocker	-12.2778
public	-12.2778
timezoneuse	-12.2778
returnto	-12.2778
▁সায়িনা	-12.2778
disambiguations	-12.2778
▁সংহিতা	-12.2778
▁স্পনছ	-12.2778
▁ইউৰেনিয়াম	-12.2778
▁দীঘলবাক	-12.2778
nolinkshere	-12.2778
পভট্যাগ	-12.2778
▁পৰিৱর্ত	-12.2778
▁শিলচৰ	-12.2778
▁গোৱালপাৰা	-12.2778
▁Phone	-12.2778
Communication	-12.2778
বঢ়াব	-12.2778
▁ধনমূলম	-12.2778
▁পুষ্পমুকুট	-12.2778
nosuchaction	-12.2778
▁installation	-12.2778
ফেব্রুৱাৰী	-12.2778
ailey	-12.2778
▁পৰিশ্ৰম	-12.2778
aquel	-12.2778
raditional	-12.2778
▁শিল্পীগৰাকীয়ে	-12.2778
negation	-12.2778
tionary	-12.2778
▁জলবায়ু	-12.2778
▁সুহৃদ	-12.2778
ধ্যাত্	-12.2778
▁few	-12.2778
▁উচিৎ	-12.2778
▁অথৰিটি	-12.2778
▁রাণী	-12.2778
▁নিউট্রি	-12.2778
ধ্বনি	-12.2778
ত্তুক্	-12.2778
▁ক্লীনাৰ	-12.2778
▁পেলাওক	-12.2778
▁opti	-12.2778
▁ISTN	-12.2778
▁রব্ব	-12.2778
bury	-12.2778
▁জুৱেলাৰ	-12.2778
▁খাদ্যশস্য	-12.2778
▁Mason	-12.2778
ৱলম্ব	-12.2778
▁কনফাৰেন্স	-12.2778
▁ডীলাৰ	-12.2778
▁কন়ৱ	-12.2778
▁বুৰঞ্জী	-12.2778
উলকিঅপেশাদার	-12.2779
▁Kazir	-12.2779
ahasa	-12.2779
▁হেপাট	-12.2779
▁প্ৰয়োজনীতা	-12.2779
bbw	-12.2779
▁আটাইকেইগৰাকী	-12.2779
raduat	-12.2779
thursday	-12.2779
▁পাণ্ড	-12.2779
ক্বাছ	-12.2779
▁কালসমাপ্তি	-12.2779
▁হিসেব	-12.2779
▁শল্য	-12.2779
aghara	-12.2779
▁গর্ভাৱস্থা	-12.2779
▁উপাচাৰ্য	-12.2779
mypreferences	-12.2779
▁milli	-12.2779
▁মটৰগাড়ী	-12.2779
▁বেলুন	-12.2779
smalltitse	-12.2779
▁পুসো	-12.2779
▁Vape	-12.2779
▁সমমিতি	-12.2779
▁সংবাদমাধ্যম	-12.2779
cheng	-12.2779
▁অনুৰ্ধ্ব	-12.2779
▁অসুখ	-12.2779
ক্রীড	-12.2779
পরাজয়	-12.2779
▁মেন্যু	-12.2779
cascade	-12.2779
▁নাপাহৰিব	-12.2779
▁গেংকি	-12.2779
শ্বানক	-12.2779
▁সুব্যৱস্থা	-12.2779
colum	-12.2779
উলুম	-12.2779
▁Assignment	-12.2779
▁under	-12.2779
▁স্বেচ্ছা	-12.2779
▁ৰাষ্ট্ৰপতি	-12.2779
dudu	-12.2779
▁নোৱাৰোঁ	-12.2779
▁িুব	-12.2779
warn	-12.2779
▁অভিপ্ৰ	-12.2779
trop	-12.2779
▁বহুমুখিতা	-12.2779
হনীয়তা	-12.2779
▁কৰ্মৰাজি	-12.2779
▁মাথোঁ	-12.2779
▁সমকামীআঙুল	-12.2779
vision	-12.2779
▁উকীল	-12.2779
ৰ্টেল	-12.2779
▁Operator	-12.2779
▁ছফ্	-12.2779
ল্যাটিনট্যাগ	-12.2779
▁অতীজ	-12.2779
▁অৰিহনা	-12.2779
▁কঠোৰভাবে	-12.2779
▁ঢাপ	-12.2779
▁নবুওৱত	-12.2779
▁সংগ্ৰাহক	-12.2779
▁Guide	-12.2779
গ্রাফ	-12.2779
▁অভিপ্ৰায়	-12.2779
▁প্রতিফল	-12.2779
▁Tagged	-12.2779
ণ্টেণ্ট	-12.2779
▁গেৰান্ট	-12.2779
▁Taylor	-12.2779
▁ভৰাওক	-12.2779
▁লীনফিট	-12.2779
▁ওপঙি	-12.2779
▁ভগ্নাংশ	-12.2779
▁MRU	-12.2779
হিষ্ক	-12.2779
▁ভাড়াতীয়া	-12.2779
▁Control	-12.2779
কাচোন	-12.2779
▁স্বাহাস	-12.2779
changepassword	-12.2779
muscle	-12.278
retype	-12.278
▁ব্ৰঞ্জ	-12.278
license	-12.278
▁প্ৰতিমাহে	-12.278
▁জীপেলিন	-12.278
allowed	-12.278
▁আওতাত	-12.278
▁আন্তর্	-12.278
▁Rhodi	-12.278
ipbreason	-12.278
ontains	-12.278
style	-12.278
▁নায়িকা	-12.278
▁নিষ্পাপমাই	-12.278
▁লাগিছিল	-12.278
▁বদলিকৰণ	-12.278
▁MLOP	-12.278
▁ঋতুৰাজ	-12.278
▁জনজাতিকৰণ	-12.278
▁মাৰাঠ	-12.278
▁সম্ভাৱনীয়তা	-12.278
▁Area	-12.278
▁Xbox	-12.278
content	-12.278
▁মেেয়	-12.278
▁খেলাচাঁচা	-12.278
▁ভাবিছিল	-12.278
ري	-12.278
▁gran	-12.278
mobile	-12.278
office	-12.278
নেকেটভিড	-12.278
▁কৰ্মপদ্ধতি	-12.278
উপাধ্যক্ষ	-12.278
eTo	-12.278
▁ইনফুস	-12.278
▁গেমছ	-12.278
▁দুৰ্ঘটনাথলী	-12.278
ংড্ল	-12.278
ন্গ্জু	-12.278
▁ছাড়া	-12.278
▁লোককেইজন	-12.278
øm	-12.278
▁Apply	-12.278
▁কুর়ি	-12.278
▁পিতৃযুগ	-12.278
▁উৰ্ধ	-12.278
▁জনাইছিল	-12.278
lookup	-12.278
▁টেবলেট	-12.278
▁যোগফল	-12.278
▁Setup	-12.278
▁ট্ৰিবিউনেল	-12.278
▁থাকোঁতে	-12.278
▁অনুভূতি	-12.278
▁উপযোগ	-12.278
▁তেৰাং	-12.278
notice	-12.278
▁কংপো	-12.278
ত্য়ায়	-12.278
▁নিৰূপণ	-12.278
▁সংগ্ৰহালয়	-12.278
েটেজি	-12.278
▁ছাউথ	-12.278
▁ছাহিৰ	-12.2781
▁তলৈপ্পডু	-12.2781
viewdeleted	-12.2781
অনির্দি	-12.2781
▁ডিৰাক	-12.2781
Market	-12.2781
▁জনাইছো	-12.2781
otk	-12.2781
▁মািহ	-12.2781
▁জয়পুৰ	-12.2781
কীর্ত	-12.2781
▁দেউল	-12.2781
▁গ্ৰীচ	-12.2781
yourpassword	-12.2781
host	-12.2781
▁ক্ষতিগ্ৰস্থ	-12.2781
▁ৱাৰেণ্টিসমূহ	-12.2781
▁দ্বারা	-12.2781
▁array	-12.2781
▁লিমফ	-12.2781
▁Henr	-12.2781
resent	-12.2781
▁প্ৰতিযোগী	-12.2781
Epi	-12.2781
▁নক্সা	-12.2781
▁শৌৰ্য	-12.2781
▁উপগ্ৰহ	-12.2781
ুইজা	-12.2781
চুদাচদি	-12.2781
▁United	-12.2781
zone	-12.2781
লিযন	-12.2782
▁রাড	-12.2782
▁মধ্যস্থতাকাৰী	-12.2782
▁জানিছিল	-12.2782
Stoc	-12.2782
▁দেখুৱালে	-12.2782
▁give	-12.2782
▁চৌপা	-12.2782
malltits	-12.2782
▁মিলাইছে	-12.2782
ular	-12.2782
▁প্রজা	-12.2782
সেনাবাহিনী	-12.2782
১২২০০১	-12.2782
▁তাৰমানে	-12.2782
▁চেক্টৰ	-12.2782
▁ভতিজ	-12.2782
▁য়ুদ্ধ	-12.2782
▁আবণ্টন	-12.2782
▁নাকাল	-12.2782
advanced	-12.2782
▁গৱেষণাৰাজি	-12.2782
▁ভগনিষ্পাপ	-12.2782
▁মিডিয়াযোগে	-12.2782
▁ঢৌ	-12.2782
▁চলাইছিল	-12.2782
▁চিআইডি	-12.2782
চিজিএল	-12.2782
▁MAX	-12.2782
▁ভয়াবহতা	-12.2782
▁পইন্ট	-12.2783
িষ্টদং	-12.2783
▁মহোৎসৱ	-12.2783
▁ডাউনলাইন	-12.2783
zz	-12.2783
▁নিযুত	-12.2783
▁অনুপালন	-12.2783
কৃতজ্ঞ	-12.2783
▁পৰীক্ষাগাৰ	-12.2783
▁শব্দতালিকা	-12.2783
ুষব	-12.2783
▁প্ৰত্যয়িত	-12.2783
▁ব্যৱস্থাৱলী	-12.2783
stant	-12.2783
▁ডায়েৰী	-12.2783
▁পুনর্	-12.2783
▁ব্রুম	-12.2783
lā	-12.2783
▁সিল্ক	-12.2783
gyno	-12.2783
▁আলোচনাচক্ৰ	-12.2783
▁৮০ডি	-12.2783
গোৰীয়	-12.2783
▁কস্তুৰী	-12.2783
▁was	-12.2783
light	-12.2783
▁তুৰ‍্ৰ	-12.2783
bian	-12.2783
▁উৰ্মিলাই	-12.2783
▁ডিজেল	-12.2783
exist	-12.2784
ৰ্ণিং	-12.2784
▁নণ্ণ	-12.2784
▁খ্ৰীষ্টীয়	-12.2784
ভাস্কু	-12.2784
traine	-12.2784
▁ভড়ালী	-12.2784
▁শড়া	-12.2784
▁কটাইছিল	-12.2784
▁ভিলানি	-12.2784
▁শৃংখলা	-12.2784
সঙ্	-12.2784
▁প্রশাসন	-12.2784
turbo	-12.2784
ক্সাইড	-12.2784
প্রতিমা	-12.2784
▁অকাডেমি	-12.2784
▁ছলচাত	-12.2784
Log	-12.2784
▁Product	-12.2784
▁উল্ফ	-12.2784
▁নঘট	-12.2784
▁শৰণীয়া	-12.2784
▁পেঁচ	-12.2784
unprotect	-12.2784
▁বাতিলকৰন	-12.2785
▁বীমকৃত	-12.2785
nolinks	-12.2785
▁nar	-12.2785
☠︎$	-12.2785
▁Surveys	-12.2785
▁আৰক্ষণ	-12.2785
▁টৰ্ন	-12.2785
▁নির্দেশনা	-12.2785
▁দৌৰ	-12.2785
street	-12.2785
hong	-12.2785
▁নিধন	-12.2785
Save	-12.2785
▁ডিম্ব	-12.2785
▁আচৰন	-12.2785
ready	-12.2785
▁Pranama	-12.2785
▁WLA	-12.2786
▁হাতপুথি	-12.2786
▁আজমল	-12.2786
searchresults	-12.2786
review	-12.2786
গৱেষণাৰহিত	-12.2786
▁ফৰ্মূলা	-12.2786
italia	-12.2786
ais	-12.2786
▁বালংা	-12.2787
alpha	-12.2787
্ৰুৱ	-12.2787
▁Medhi	-12.2787
▁ইনষ্টলিং	-12.2787
▁ৰাজ্যপাল	-12.2787
▁ভিআইডি	-12.2787
▁গুগ	-12.2787
Kā	-12.2787
contains	-12.2787
▁কৃতিত্ব	-12.2787
▁বিজেতা	-12.2787
▁কলকাতা	-12.2787
▁কাৰ্য্যক্ষমতা	-12.2787
▁হুইছ	-12.2787
GN	-12.2788
▁অদুৱ	-12.2788
▁মিচিং	-12.2788
▁বেলনা	-12.2788
Juan	-12.2788
▁কেলেণ্ডাৰখন	-12.2788
পতাকা	-12.2788
stockings	-12.2788
▁পালোঁ	-12.2788
যশা	-12.2788
▁WOR	-12.2788
বিবৰণী	-12.2788
▁চামিল	-12.2788
Login	-12.2788
▁open	-12.2788
▁par	-12.2788
▁প্ৰছেছ	-12.2788
▁লজ্জা	-12.2788
Heart	-12.2788
ফাৰ্ষ্ট	-12.2788
▁জলধি	-12.2789
▁তেঁও	-12.2789
▁থীম	-12.2789
undelete	-12.2789
▁আৰোপকৰণ	-12.2789
▁প্ৰমেয়	-12.2789
▁বিনিয়োগকাৰী	-12.2789
less	-12.2789
কেইগৰাকী	-12.2789
▁সহনশীলতা	-12.2789
েষজ	-12.2789
▁সেইদৰেই	-12.2789
▁কিয়ামত	-12.2789
ciation	-12.2789
চর্বি	-12.2789
ষ্প	-12.2789
▁নেথাকে	-12.2789
▁ছিব্বাৰ	-12.279
▁পুর্ব	-12.279
▁ৰাজ্যবাসীয়ে	-12.279
▁চাউল	-12.279
▁ALL	-12.279
▁চিনাক্তকাৰী	-12.279
lev	-12.279
জোৰা	-12.279
ল্যান্ড	-12.279
fix	-12.279
▁চিণ্ট	-12.279
লিউ	-12.279
প্ৰিণ্ট	-12.279
HAMI	-12.279
▁বেতন	-12.279
▁কিৰ়	-12.2791
▁কেন্দ্র	-12.2791
andal	-12.2791
▁were	-12.2791
▁একবিংশ	-12.2791
noc	-12.2791
▁সিনহা	-12.2791
▁ড্যান	-12.2791
▁বৰষা	-12.2791
স্মাৰকৰ	-12.2791
▁ডিস্	-12.2792
▁অৱশিষ্ট	-12.2792
হট	-12.2792
▁ধৰ্ম্ম	-12.2792
কোণীয়া	-12.2792
▁Info	-12.2792
▁ছাৰ্জাৰী	-12.2792
▁Cali	-12.2792
▁গ্রাহ	-12.2792
ব্যাহত	-12.2792
flash	-12.2792
Brit	-12.2792
▁ছাৰ্ভাৰ	-12.2792
▁মিশ্বন	-12.2792
▁মুষ্টি	-12.2792
▁Angelic	-12.2792
▁প্ৰান্তত	-12.2792
▁গৃহভূমি	-12.2792
▁বেগান	-12.2792
▁চংদ	-12.2792
▁পিকেট	-12.2792
▁সমাহিত	-12.2793
পরীত	-12.2793
▁দালাল	-12.2793
▁Prag	-12.2793
▁হৈমন্ত	-12.2793
▁কৰিলো৷	-12.2793
}}{	-12.2793
ৰূপা	-12.2793
▁অস্ত্র	-12.2794
ওঠৰ	-12.2794
▁৭৪	-12.2794
▁অগপ	-12.2794
▁হেৰায়	-12.2794
▁বংধ	-12.2794
কৰ্ম	-12.2794
▁bir	-12.2794
বুঢ়ী	-12.2794
▁হঠাতে	-12.2794
LOP	-12.2794
▁গোষ্ঠী	-12.2794
▁লৈছিলো	-12.2795
▁পুষ্পং	-12.2795
▁গাড়ি	-12.2795
▁কূড	-12.2795
mran	-12.2795
▁চলিছে	-12.2795
ফিনিশ	-12.2795
▁প্রজাতি	-12.2795
ুডৈয	-12.2795
▁সমর্থন	-12.2796
logpage	-12.2796
অর্ধ	-12.2796
▁পট্টে	-12.2796
▁প্ৰশ্নাৱলী	-12.2796
▁নোৱাৰো	-12.2796
rotected	-12.2796
▁দায়িত্বশীল	-12.2796
▁কিলোজ	-12.2796
▁নায়াৰ	-12.2796
▁শিক্ষাকাল	-12.2796
showhide	-12.2796
পাথো	-12.2797
▁অপাং	-12.2797
েডিন	-12.2797
▁চিন্তাবিদ	-12.2797
নিপুণ	-12.2797
▁ইকিমাস্	-12.2797
added	-12.2797
▁হেৰুৱালে	-12.2797
▁দৈব্য	-12.2797
▁Web	-12.2797
▁অপৰিহাৰ্য্য	-12.2797
নিজম	-12.2797
▁নৃ	-12.2797
Liv	-12.2797
চকীয়া	-12.2797
এছটিচি	-12.2797
চাঁ	-12.2798
▁perver	-12.2798
চিত্ৰখনি	-12.2798
▁মর্ফ	-12.2798
▁পীয়ু	-12.2798
লেহন	-12.2799
াদৰ	-12.2799
ৱন়ে	-12.2799
▁নেকী	-12.2799
▁সুখবৰ	-12.2799
াইনমেন্ট	-12.2799
▁বুসি	-12.2799
▁বৰবৰা	-12.2799
▁দুষ্টু	-12.2799
▁স্বত্	-12.2799
▁পাহৰিলে	-12.2799
▁কুঠী	-12.2799
lers	-12.2799
▁তিরু	-12.2799
▁Swi	-12.2799
▁অসাংবিধানিক	-12.2799
লিউম	-12.2799
▁ষান্মা	-12.28
১৯৭২	-12.28
▁লিটাৰ	-12.28
▁বিউট	-12.28
▁স্নায়	-12.28
Double	-12.28
ন্ডার	-12.28
▁CH	-12.28
▁শিশুটিয়ে	-12.28
চমত্কারঈক্ষণকামী	-12.28
বেস্তের্	-12.2801
জায়	-12.2801
▁করুন	-12.2801
▁নিশ্চিতকৰণ	-12.2801
▁আছোঁ	-12.2801
▁সমীকৰণ	-12.2801
dep	-12.2801
পুলিশ	-12.2801
▁amy	-12.2801
zens	-12.2801
াৰেটৰ	-12.2801
বৃংদার	-12.2801
▁ৰচিদ	-12.2802
▁তুম্হারা	-12.2802
▁ছুটী	-12.2802
▁মূখ	-12.2802
শালা	-12.2802
gā	-12.2802
▁টাস্কফ	-12.2802
য্দু	-12.2802
uploaded	-12.2803
▁৮০০০	-12.2803
▁অস্ত্	-12.2803
wl	-12.2803
hist	-12.2803
বোন্	-12.2803
▁কৰিলোঁ	-12.2803
cienc	-12.2803
▁আনিছিল	-12.2803
নথিপত্র	-12.2803
▁আৱশ্যকীয়তা	-12.2803
ডৈযি	-12.2804
▁অনুস্থান	-12.2804
ALE	-12.2804
প্ৰান্তিক	-12.2804
আৰোহণ	-12.2804
বালিকাআঙুল	-12.2804
▁স্ক্ৰিনত	-12.2804
ুলাম	-12.2805
▁Fac	-12.2805
▁pin	-12.2805
ন্যায়াধীশগৰাকীক	-12.2805
▁শ্ল	-12.2805
▁ৰেফ	-12.2805
▁টেষ্টি	-12.2805
▁টেকন	-12.2806
▁জনপ্ৰিয়কৰণ	-12.2806
শিক্ষয়িত্ৰী	-12.2806
▁বাংলাদে	-12.2806
▁Prof	-12.2806
▁সাইড	-12.2806
EGA	-12.2806
▁তোমালোক	-12.2806
cia	-12.2806
মঙ্গলবাৰ	-12.2806
দোনিঅ	-12.2806
▁শাও	-12.2807
▁লেব	-12.2807
ংদমনি	-12.2807
াইটিছ	-12.2807
একাকীচাঁচা	-12.2807
▁প্রতিদিন	-12.2807
▁আশ্চ	-12.2807
▁আঁহ	-12.2807
হাটী	-12.2807
েশং	-12.2807
▁নাট্য	-12.2808
্ৰিপ্লিকে	-12.2808
িস্তান	-12.2808
▁ফেং	-12.2808
▁স্বজন	-12.2808
▁পঠনী	-12.2808
▁কাণ্	-12.2808
▁যথাযথতা	-12.2809
▁পঠেন্	-12.2809
▁টেইল	-12.2809
osum	-12.2809
rub	-12.281
▁বাগৰা	-12.281
াথাক	-12.281
শত্	-12.281
ত্ৰাধিকাৰ	-12.281
heading	-12.281
▁আপদকাল	-12.2811
▁Hil	-12.2811
▁তথাভগ	-12.2811
▁Swe	-12.2811
▁want	-12.2812
lity	-12.2812
▁মুন়্	-12.2812
নগাঁও	-12.2812
▁সম্মোহ	-12.2812
ন়ত্তা	-12.2812
▁Languages	-12.2812
খ্ৰীষ্টান	-12.2812
▁মিলোৱা	-12.2813
ণ্মৈ	-12.2813
▁পঠিতঃ	-12.2813
নীলিম	-12.2813
▁don	-12.2813
খনে	-12.2813
▁বোকা	-12.2814
entation	-12.2814
▁উধা	-12.2814
▁ফেনা	-12.2815
▁পৰোক্ষ্য	-12.2815
▁শত্ৰুতা	-12.2815
দৃশ	-12.2815
▁অসাম্য	-12.2815
সমৃদ্ধ	-12.2815
eable	-12.2816
▁বেংকট	-12.2816
▁নোৱ	-12.2816
▁দুশ	-12.2816
lli	-12.2816
গিৰি	-12.2816
▁Ec	-12.2817
▁ঈক্ষণকামীউদ্ভট	-12.2817
▁ভাবো	-12.2817
▁সম্ভৱনা	-12.2817
zing	-12.2817
▁ক্যাট	-12.2818
▁সমর্থ	-12.2818
▁খুচৰি	-12.2819
হস্তা	-12.2819
নজ	-12.2819
▁সমূ	-12.2819
▁নিকট	-12.2819
র্ক্	-12.2819
▁Ud	-12.2819
▁পাণ্ডে	-12.282
নুউ	-12.282
▁আইডলে	-12.282
চায়াপ্পা	-12.282
▁মুদল	-12.282
▁দিছিল৷	-12.282
সৈকতেসৈকত	-12.282
▁সুধিব	-12.2821
used	-12.2821
▁কনপ	-12.2821
রেণ	-12.2822
▁ইণ্টাৰ	-12.2822
▁Water	-12.2823
▁পৰাগমন	-12.2823
▁গগৈয়ে	-12.2823
কুটা	-12.2823
▁নেউ	-12.2823
▁আদিত্য	-12.2824
▁কটাব	-12.2824
▁মাইমুখগত	-12.2824
ক্ষেত্ৰাধিকাৰ	-12.2824
▁Sci	-12.2824
▁Pop	-12.2825
pc	-12.2825
▁বৰ্তনীটো	-12.2825
াবিলা	-12.2825
▁পৰিমাণতকৈ	-12.2826
ম্বে	-12.2826
▁প্ৰয়োজনীয়খিনি	-12.2826
▁প্ৰজাতিটো	-12.2826
uk	-12.2826
ভোগী	-12.2826
▁শিশ	-12.2826
▁পৰ্য্যায়	-12.2827
লাফে	-12.2827
মেথক্স	-12.2827
alad	-12.2827
চামচ	-12.2827
ুইডেন	-12.2827
▁চিধা	-12.2828
ফ়্ফ়	-12.2828
ৰকাজুল	-12.2828
▁ব্রি	-12.2828
্ত্ৰা	-12.2828
▁ল্যাট	-12.2829
bina	-12.2829
▁শ্রে	-12.2829
▁অশেষ	-12.2829
▁সায়ং	-12.283
▁লেং	-12.283
ীৰ্য্য	-12.283
▁আলহী	-12.283
সম্পদ	-12.2831
র়িদ	-12.2831
▁Gri	-12.2831
▁অপচ	-12.2832
▁বান্দৰ	-12.2832
▁নেশ্যাৰ	-12.2832
মুখিতা	-12.2832
োকাস	-12.2832
▁লাখতকৈ	-12.2833
▁শাস	-12.2833
াৰ্কৰ	-12.2833
gni	-12.2833
▁xvideos	-12.2833
শ্বৰী	-12.2833
ট্ৰেকিং	-12.2834
▁Jos	-12.2834
▁মিলিয়ন	-12.2835
▁সহযোগিতাৰে	-12.2835
ccm	-12.2835
▁পৰিৱৰ্ত্তনসমূহ	-12.2835
must	-12.2836
▁Enan	-12.2837
▁প্ৰবাদ	-12.2837
িস্থিত	-12.2837
▁পিআই	-12.2837
▁ৰক্ষণ	-12.2838
তেজ	-12.2838
▁kay	-12.2839
▁litera	-12.2839
▁সমীপৱ	-12.2839
▁নিফা	-12.2839
▁বোলে	-12.2839
রে	-12.2839
▁পঠেত্	-12.2839
▁জনসম	-12.2839
ley	-12.2839
▁শিহ	-12.284
▁ইন্দ্ৰ	-12.284
ুপী	-12.284
▁প্ৰসাধন	-12.2841
সহযোগ	-12.2841
▁'[[$	-12.2841
▁Pte	-12.2842
▁বক্সাৰগৰাকী	-12.2842
াপগ	-12.2843
▁pie	-12.2843
▁ধৰণসমূহ	-12.2843
ক্ৰিছ	-12.2843
▁চেম্প	-12.2843
▁ছিষ্ট	-12.2843
▁মৰ্য	-12.2844
▁এডভ	-12.2844
▁খুচ	-12.2844
ত্রৈ	-12.2844
roo	-12.2845
cot	-12.2845
▁শুধ	-12.2845
▁MD	-12.2845
▁তোলাটো	-12.2845
▁ইনফোটে	-12.2846
▁অনুশ	-12.2846
্ত্তি	-12.2846
চবো	-12.2846
CR	-12.2846
বৰ্ধন	-12.2846
ডুচু	-12.2847
▁প্ৰসৱ	-12.2847
দ্বিষ	-12.2847
ndel	-12.2847
ইল্মি	-12.2847
▁নীলো	-12.2848
▁চাৰিদিন	-12.2849
lou	-12.2849
যৈক্	-12.2849
তিব্বতী	-12.2849
īẏā	-12.285
▁ৱার	-12.285
▁চোপ	-12.285
uz	-12.285
▁gol	-12.2851
▁লিকুইদ	-12.2851
▁লগিন	-12.2851
BY	-12.2851
▁নিচা	-12.2851
কৈর	-12.2852
▁ভাষাসমুহ	-12.2852
▁হাদী	-12.2852
োগ্	-12.2852
lank	-12.2852
HDFC	-12.2852
ookies	-12.2852
▁দিহা	-12.2853
▁মান়	-12.2853
Hub	-12.2853
▁নিশাই	-12.2853
▁মাইমাই	-12.2853
ব্যাপ্তি	-12.2853
▁পোনপ	-12.2854
▁আইডল	-12.2854
▁প্ৰথমভাগ	-12.2854
▁ডেটো	-12.2854
▁অংশধাৰকসকল	-12.2854
ৰিয়েলটোত	-12.2855
িৱেশ	-12.2855
▁Subscri	-12.2855
chan	-12.2855
▁IIT	-12.2855
▁Slut	-12.2857
▁দৈনি	-12.2857
▁কম্পন	-12.2857
োচাই	-12.2857
▁পৰিৱৰ্তে	-12.2857
▁বিতৰন	-12.2857
▁ছাবি	-12.2858
▁সপ্তম	-12.2859
▁তদ্	-12.2861
ravel	-12.2861
▁উপকৰণ	-12.2861
▁WC	-12.2862
▁দেবী	-12.2862
live	-12.2862
ঠাইৰ	-12.2862
▁আসনখন	-12.2863
▁কাৰ্য্যাৱলী	-12.2863
▁ৱেবছাইত	-12.2864
PTD	-12.2864
anga	-12.2864
▁অৱকল	-12.2864
books	-12.2865
ological	-12.2865
▁গণিতজ্ঞসকলৰ	-12.2866
▁ফিজি	-12.2866
ৱলি	-12.2867
জিজি	-12.2867
▁তাৰিখবোৰ	-12.2867
খ্য়াত	-12.2868
▁রথ	-12.2868
▁hal	-12.2868
flags	-12.2868
▁His	-12.2868
্টান	-12.2869
▁যেনেকুৱা	-12.2869
▁বাকেট	-12.2869
▁Cop	-12.287
▁আটাইকে	-12.287
উচ্চাৰণ	-12.287
▁মিলাই	-12.2872
▁লেন্	-12.2872
▁ফাইলতো	-12.2873
▁বীজগণিত	-12.2873
IMI	-12.2874
▁চুৰিকাৰ্য্য	-12.2874
চলোৱা	-12.2875
▁Union	-12.2875
▁বয়বস্তু	-12.2876
▁প্ৰতিষ্ঠাতা	-12.2878
কীনা	-12.2879
▁stor	-12.2879
alaya	-12.2879
▁হোটেলখন	-12.288
mind	-12.288
noemail	-12.2881
বিচ	-12.2881
JEE	-12.2881
▁মণ্ডলী	-12.2882
দিল্ৱ	-12.2882
▁সোও	-12.2882
মেনি	-12.2884
নগাওঁ	-12.2884
▁বৰধন	-12.2885
▁মিথা	-12.2885
▁তোও	-12.2885
▁মোনা	-12.2885
▁প্ৰতিদ্বন্দ্ব	-12.2886
▁অস্থি	-12.2886
▁চূ	-12.2886
▁শ্বাও	-12.2886
▁Imp	-12.2887
▁fem	-12.2887
িণী	-12.2887
perator	-12.2887
Garau	-12.2888
বুদ্ধ	-12.2888
দ্ৰম	-12.2889
▁অল্ল	-12.2889
▁অশ্লীল	-12.289
▁মুদ্রা	-12.289
▁ফৰাচ	-12.2891
▁ওজৰ	-12.2891
▁হাহা	-12.2891
▁শিৱ	-12.2892
▁bh	-12.2892
৫৯	-12.2893
▁ইউজাৰ	-12.2893
▁spread	-12.2894
ska	-12.2895
▁নথী	-12.2895
ষ্টিভ	-12.2895
কুছি	-12.2895
▁ভেনচিত্ৰটো	-12.2896
ুৱাওক	-12.2896
ঘিমা	-12.2897
visi	-12.2897
▁নথিসমূহ	-12.2897
▁তেৱে	-12.2897
ক্যাড	-12.2898
▁দাদা	-12.2898
প্রবন্ধ	-12.2898
ping	-12.2898
torm	-12.2898
▁বাঞ্চা	-12.2898
▁কেইবছৰ	-12.2898
▁ঘটনাটো	-12.2898
▁মৰম	-12.2899
্গম	-12.2899
▁Oc	-12.2899
niv	-12.2899
▁Ice	-12.29
▁আৰম্ভনি	-12.29
▁চতুৰ্	-12.2901
▁কৰ্ত্তব্য	-12.2902
gf	-12.2902
DI	-12.2902
▁প্ৰতিবিধান	-12.2903
steel	-12.2903
’}=	-12.2903
▁প্ৰাণী	-12.2904
▁পুণ্য়পা	-12.2904
একত্ৰীকৰণ	-12.2904
লুম্	-12.2904
views	-12.2905
▁ভৱনটো	-12.2905
পাচ্চ	-12.2905
াশয়	-12.2905
▁মৃ	-12.2906
▁সোফা	-12.2906
ramana	-12.2908
▁বিদ্যাৰ্থীসকল	-12.2908
night	-12.2909
fts	-12.2909
খাবন	-12.291
▁পাওনা	-12.291
োক্স	-12.291
CRI	-12.2911
aja	-12.2911
KC	-12.2912
ভেটৰ	-12.2912
✞,	-12.2913
পঠেদ	-12.2913
tter	-12.2913
্তিলৈ	-12.2914
▁পদক্ষেপসমূহ	-12.2914
পদ্ধতিৰ	-12.2914
িকৰণ	-12.2915
hōm̐	-12.2915
িকোণম	-12.2915
▁প্ৰশ	-12.2916
gp	-12.2916
ecur	-12.2917
▁কৰ্ত্তন	-12.2917
▁চক্ৰসমূহ	-12.2917
ডিভিডি	-12.2917
▁নিযুক্ত	-12.2918
গিয়ার্	-12.2918
▁উদাৰ	-12.2918
▁বাইচ	-12.2919
▁সৌন্দৰ্যসমূহ	-12.2919
aden	-12.2919
▁প্ৰথাসমূহ	-12.292
▁ভাষাবিলাক	-12.292
▁নিণ্ড্রৱ	-12.292
▁ত্রা	-12.292
কিংচন	-12.2922
হিতং	-12.2922
াকৃতিক	-12.2922
▁খোদ	-12.2923
▁পুষ্পদ	-12.2924
rma	-12.2924
প্রন	-12.2925
▁গ্ৰু	-12.2925
▁এইক্ষেত্ৰত	-12.2925
ভুক্তি	-12.2926
▁অকাল	-12.2927
ভেৰি	-12.2927
▁ক্লাৱ	-12.2927
▁শস্যসমূহ	-12.2929
গ্ৰহণযোগ্যতা	-12.293
▁সামৰে	-12.293
assword	-12.2931
BS	-12.2932
▁clima	-12.2932
▁কিতাব	-12.2933
▁গোঁ	-12.2933
কেইজন	-12.2933
▁টেংকাৰ	-12.2935
hole	-12.2935
▁উদ্যোগবিলাক	-12.2936
▁ইণ্ডো	-12.2936
▁টেলিভি	-12.2936
ৰূপায়	-12.2937
▁tea	-12.2937
▁কৰিছিলো	-12.2938
dhā	-12.2938
▁মাধ	-12.2938
▁বাছখন	-12.2939
nonym	-12.2939
বেক্	-12.2939
পঞ্চ	-12.294
GEN	-12.2941
▁নিৰ্বাপ	-12.2941
ধুলা	-12.2942
▁কফি	-12.2943
যাৰ	-12.2945
▁Master	-12.2947
▁ট্ৰান্সফ	-12.2947
▁টিকটক	-12.2949
▁বুল	-12.2951
▁চিচি	-12.2951
লিম্প	-12.2952
▁তালং	-12.2954
prop	-12.2955
ন্টী	-12.2955
▁কৰায়	-12.2955
!!	-12.2956
▁শু	-12.2957
manage	-12.2957
েনগ	-12.2958
[...]
