<unk>	0
<s>	0
</s>	0
▁	-3.13452
1	-3.42306
)	-3.5112
2	-3.62142
0	-3.65738
▁(	-3.81519
,	-3.85168
.	-3.97093
5	-3.97841
3	-4.0417
4	-4.04456
8	-4.14931
6	-4.15948
7	-4.28706
9	-4.31991
▁the	-4.33048
▁of	-4.41389
s	-4.52744
-	-4.69062
▁and	-4.763
(	-4.77728
:	-4.80959
▁to	-4.85052
▁in	-5.07927
▁'	-5.18871
ing	-5.29085
_	-5.2978
▁a	-5.38024
'	-5.39242
▁is	-5.52763
▁for	-5.57527
▁By	-5.62223
▁views	-5.64744
ed	-5.7021
▁or	-5.71279
>	-5.72897
▁=	-5.75355
▁The	-5.88213
/	-5.98026
▁-	-6.01404
▁on	-6.03867
▁by	-6.06888
',	-6.06919
▁you	-6.12363
d	-6.1405
▁be	-6.14107
▁with	-6.2524
▁your	-6.29009
y	-6.35349
▁A	-6.35857
▁as	-6.40338
e	-6.4231
▁:	-6.46043
’	-6.49947
▁_	-6.50772
▁are	-6.51235
▁from	-6.51472
▁that	-6.53711
▁at	-6.58636
t	-6.58747
al	-6.5975
▁this	-6.59805
▁Kissing	-6.65371
a	-6.65907
▁G	-6.66671
▁»	-6.66793
▁Fleshlight	-6.69569
▁not	-6.71504
ly	-6.73973
▁any	-6.77472
▁will	-6.78275
▁News	-6.80045
▁an	-6.80956
▁B	-6.81132
m	-6.82869
?	-6.84309
▁has	-6.85833
▁C	-6.86126
▁S	-6.88503
▁have	-6.90664
▁/	-6.92945
▁P	-6.94643
▁Assam	-6.98187
▁India	-6.99056
n	-7.01202
▁information	-7.01512
▁"	-7.02141
▁Latvian	-7.02859
▁In	-7.03531
▁I	-7.05192
▁can	-7.08349
▁English	-7.14475
▁was	-7.16559
"	-7.17861
▁Policy	-7.18085
▁M	-7.18524
▁other	-7.20163
▁page	-7.22137
▁it	-7.2254
▁policy	-7.23147
▁Thi	-7.23149
▁which	-7.23614
...	-7.24489
▁All	-7.24847
▁we	-7.24913
es	-7.25341
in	-7.26891
ic	-7.27681
▁our	-7.27842
▁Assamese	-7.28166
▁Islam	-7.29889
▁all	-7.32675
▁Flasher	-7.33104
▁T	-7.33427
▁under	-7.33454
A	-7.33469
▁Quiz	-7.36073
er	-7.36325
i	-7.36445
r	-7.37082
▁&	-7.40737
▁Mathematics	-7.40758
▁also	-7.41067
▁Items	-7.41596
▁Page	-7.4203
▁TV	-7.42176
h	-7.43292
▁insurance	-7.43815
▁IFFCO	-7.44754
▁us	-7.49722
been	-7.51332
▁Number	-7.51627
▁$	-7.51962
▁Insurance	-7.52069
▁D	-7.53567
▁insured	-7.54374
▁may	-7.54435
▁Categories	-7.55649
▁Indian	-7.57653
com	-7.58071
▁We	-7.58082
l	-7.58457
▁Tricked	-7.59128
▁E	-7.60558
▁What	-7.60615
▁R	-7.61409
ml	-7.61782
▁claim	-7.62067
▁time	-7.62398
▁F	-7.62664
▁about	-7.63029
c	-7.63125
▁c	-7.63967
on	-7.64768
th	-7.65239
▁Home	-7.67426
▁Al	-7.67689
%	-7.68463
or	-7.68641
▁items	-7.69689
o	-7.70624
▁It	-7.70722
▁use	-7.71297
▁h	-7.71857
▁damage	-7.71985
▁etc	-7.72368
it	-7.72585
▁one	-7.7334
▁Guwahati	-7.73799
x	-7.73922
;	-7.74366
▁personal	-7.75295
▁more	-7.76049
]	-7.76593
g	-7.77248
▁–	-7.77412
▁videos	-7.77704
▁Videos	-7.77724
C	-7.78175
▁if	-7.78418
▁Sora	-7.78921
rs	-7.82332
▁‘	-7.84383
༒	-7.8484
▁Rs	-7.84932
▁Teen	-7.85518
▁Vixen	-7.85942
▁For	-7.8693
able	-7.8705
▁year	-7.87057
▁his	-7.87389
▁Articles	-7.87694
um	-7.88255
▁Science	-7.88369
S	-7.88495
p	-7.88973
National	-7.89606
▁L	-7.89832
▁Plus	-7.90127
▁s	-7.90301
▁number	-7.90378
▁H	-7.90947
▁If	-7.91269
▁Muhammad	-7.92683
▁such	-7.9289
▁up	-7.95068
▁Office	-7.95278
▁[	-7.95304
▁do	-7.96626
▁new	-7.97529
an	-7.97709
V	-7.98102
꧂	-7.98656
▁shall	-7.9889
▁into	-7.99492
▁loss	-7.99804
▁who	-8.0015
ion	-8.00196
▁services	-8.00495
▁You	-8.00681
▁Old	-8.00709
.',	-8.0118
▁Chubby	-8.01696
▁Insured	-8.01699
P	-8.02271
B	-8.02363
▁out	-8.03545
▁K	-8.03708
▁꧁	-8.0501
▁cover	-8.05434
▁One	-8.06232
Tech	-8.06248
▁Day	-8.0639
!	-8.06911
▁pages	-8.07206
ollywood	-8.07402
▁only	-8.08507
▁against	-8.08572
▁their	-8.08871
ies	-8.09311
▁Sci	-8.09674
▁no	-8.09835
▁To	-8.099
▁N	-8.10605
▁Problems	-8.10757
▁accident	-8.10773
▁W	-8.10874
The	-8.10928
}}	-8.1198
D	-8.12153
▁No	-8.12722
▁well	-8.12755
▁Sex	-8.12894
▁than	-8.13162
▁subject	-8.13233
▁Information	-8.13874
▁p	-8.14734
▁Epson	-8.14839
▁through	-8.14844
▁Quran	-8.14863
▁its	-8.15378
▁b	-8.15407
▁Tokio	-8.15675
▁O	-8.15679
▁Of	-8.15885
E	-8.15971
▁Telugu	-8.1602
ment	-8.16652
▁Research	-8.17122
▁©	-8.1731
▁Rese	-8.17565
st	-8.17624
▁like	-8.19101
▁Power	-8.19281
en	-8.19609
▁case	-8.19684
ation	-8.21045
▁over	-8.21131
▁but	-8.21462
▁following	-8.216
▁per	-8.21945
▁products	-8.22027
▁x	-8.22362
▁Books	-8.22441
▁Review	-8.22751
▁Dr	-8.2293
▁Man	-8.24102
▁un	-8.24257
is	-8.24489
▁J	-8.24728
Nakshatr	-8.25035
▁University	-8.25136
▁years	-8.25263
▁{{	-8.25526
▁e	-8.26013
▁available	-8.26287
▁third	-8.2645
le	-8.27094
ous	-8.27299
▁liability	-8.27503
▁due	-8.27562
▁General	-8.27618
▁life	-8.27882
▁person	-8.27938
▁Reviews	-8.28386
▁+	-8.28525
▁Non	-8.28538
R	-8.28833
text	-8.29031
▁help	-8.29224
▁address	-8.29744
▁GUWAHATI	-8.29985
b	-8.30007
▁two	-8.30192
ial	-8.30508
▁Shelf	-8.31247
▁V	-8.31282
▁More	-8.31322
▁Views	-8.31403
▁some	-8.31551
▁service	-8.31664
old	-8.31696
▁business	-8.32533
▁used	-8.32553
▁days	-8.32568
▁plants	-8.3277
▁vehicle	-8.32949
▁Language	-8.32953
M	-8.33488
▁About	-8.34017
▁covered	-8.3447
k	-8.34556
▁New	-8.34626
mail	-8.3577
f	-8.36503
▁Delhi	-8.36706
▁name	-8.36707
▁#	-8.37335
▁An	-8.37383
W	-8.3806
▁covers	-8.39044
▁Section	-8.39077
▁Us	-8.3915
▁contact	-8.39199
▁Knowledge	-8.39201
▁Up	-8.39249
▁world	-8.39322
▁seeds	-8.39454
▁order	-8.39794
▁including	-8.39822
▁Ltd	-8.39978
▁user	-8.40008
mm	-8.40101
ta	-8.40373
▁i	-8.4098
I	-8.41137
▁months	-8.41212
▁History	-8.42064
▁these	-8.42139
▁day	-8.42191
▁when	-8.42204
▁online	-8.42248
▁there	-8.42511
▁data	-8.42713
▁take	-8.42755
▁Re	-8.42861
▁On	-8.431
•	-8.43383
▁Health	-8.43491
Copyright	-8.4351
▁December	-8.44874
▁“	-8.44888
▁free	-8.44924
▁period	-8.45343
T	-8.45474
▁Question	-8.45559
▁Mature	-8.45851
ity	-8.46183
▁Physics	-8.46405
▁after	-8.46498
▁Glaze	-8.46692
ary	-8.46744
▁premium	-8.46906
▁man	-8.47163
to	-8.47654
▁Panties	-8.47906
▁t	-8.4876
email	-8.48822
),	-8.49109
▁he	-8.49306
",	-8.49413
F	-8.49858
▁Book	-8.50551
:$	-8.50615
▁get	-8.50923
▁Comments	-8.50968
▁Good	-8.51042
▁Mom	-8.51053
▁Black	-8.51076
onit	-8.51141
▁+'	-8.51439
▁property	-8.52464
▁KPR	-8.52514
▁Select	-8.527
X	-8.52783
▁first	-8.528
▁sum	-8.53378
▁Interview	-8.53452
ive	-8.53503
▁account	-8.53602
▁And	-8.53825
ther	-8.5386
▁Asia	-8.53968
▁health	-8.53994
▁Company	-8.54043
▁Biography	-8.54055
Number	-8.54084
▁Hindi	-8.54261
▁Contact	-8.54419
▁provide	-8.54451
page	-8.54897
ari	-8.55253
est	-8.55388
▁Car	-8.55404
▁Gon	-8.55484
▁Punjab	-8.55547
Tokio	-8.55921
▁sex	-8.56335
▁Facial	-8.56868
▁collect	-8.57278
PLU	-8.57296
▁people	-8.57363
▁death	-8.5744
overnment	-8.57669
ar	-8.57797
RAL	-8.57842
▁Translation	-8.58212
up	-8.58265
▁file	-8.58511
▁June	-8.58994
▁Lesbian	-8.59245
▁Fisting	-8.59262
▁Sum	-8.59563
▁High	-8.59773
ng	-8.60077
▁so	-8.60191
▁party	-8.60623
▁Psycholog	-8.60651
▁Club	-8.60653
▁below	-8.60665
▁during	-8.60935
▁Olympiad	-8.61508
▁m	-8.61558
ers	-8.61752
▁Bin	-8.61893
▁U	-8.62325
▁Raunchy	-8.62373
▁Matters	-8.62374
▁Xiaomi	-8.62453
▁Young	-8.62529
▁tubes	-8.62595
▁Jan	-8.62605
L	-8.62607
▁He	-8.62616
▁injury	-8.6262
▁Times	-8.62798
+)	-8.62994
▁Computer	-8.63194
▁then	-8.63357
▁November	-8.64209
▁Gallery	-8.64292
at	-8.64331
▁re	-8.64436
▁most	-8.64575
▁where	-8.64643
▁Co	-8.65029
▁need	-8.65121
▁make	-8.65399
▁test	-8.65503
one	-8.65776
▁company	-8.65917
▁As	-8.6598
▁Do	-8.66028
▁clips	-8.66168
related	-8.66334
▁February	-8.66429
K	-8.66454
▁Privacy	-8.6686
se	-8.66886
▁Math	-8.66926
▁value	-8.67485
u	-8.677
▁XXX	-8.68044
▁Windows	-8.68178
▁how	-8.68211
▁pay	-8.68571
ha	-8.68578
▁Interviews	-8.68759
▁Read	-8.69106
=	-8.69202
▁Pigtail	-8.69581
▁Medical	-8.69587
▁Arabic	-8.69588
▁form	-8.70057
ur	-8.70062
Kes	-8.70501
▁Suktam	-8.71466
▁Newsletter	-8.71472
▁Life	-8.71553
▁Papers	-8.71915
▁Anal	-8.72216
▁work	-8.72226
▁Special	-8.72361
acific	-8.7261
☬	-8.72672
no	-8.72748
▁site	-8.73362
▁Packing	-8.7344
▁protected	-8.73489
▁Business	-8.73666
+	-8.73782
edit	-8.73846
H	-8.73859
▁languages	-8.74282
▁amount	-8.74451
▁Abdul	-8.74703
▁change	-8.74731
ya	-8.74783
▁place	-8.74797
▁part	-8.75146
▁content	-8.75298
ce	-8.75491
▁Allah	-8.75523
▁Personal	-8.75584
▁made	-8.757
ve	-8.76167
▁website	-8.76563
▁Play	-8.77077
▁Fun	-8.77256
▁non	-8.77275
▁...	-8.77342
▁expenses	-8.77454
hould	-8.77481
▁many	-8.77602
▁same	-8.78809
www	-8.79367
AHSEC	-8.79476
▁mathematics	-8.79718
▁Asian	-8.79795
▁provided	-8.79975
lease	-8.80065
▁How	-8.80617
▁Top	-8.80807
You	-8.80873
”	-8.80926
@	-8.813
://	-8.81472
▁Affairs	-8.81472
▁coverage	-8.8151
▁Excavator	-8.8157
▁Threesome	-8.81571
▁Yes	-8.81648
▁privacy	-8.82173
▁Note	-8.82455
▁Fat	-8.82541
▁book	-8.82605
▁Economic	-8.82724
▁next	-8.82834
▁age	-8.82958
▁language	-8.83419
▁Education	-8.83469
▁edit	-8.83507
ry	-8.83522
▁Tube	-8.8354
▁know	-8.83651
▁mention	-8.83705
▁knowledge	-8.83835
▁list	-8.83844
▁$$	-8.83861
▁right	-8.83861
▁said	-8.83999
▁Free	-8.84037
id	-8.84049
▁without	-8.84149
▁them	-8.84191
▁required	-8.84416
▁Ni	-8.84449
▁Go	-8.85298
▁process	-8.8531
▁Quest	-8.85739
▁Giant	-8.85774
▁written	-8.85871
▁Loss	-8.85876
▁before	-8.85878
▁Online	-8.85983
▁District	-8.86084
▁Awards	-8.86283
▁Statistics	-8.86301
▁now	-8.86432
▁best	-8.86516
z	-8.86769
▁web	-8.86816
▁System	-8.87026
▁..	-8.87128
age	-8.87131
ft	-8.87397
▁date	-8.87674
O	-8.87821
▁Di	-8.87924
▁Any	-8.87954
▁Hypothes	-8.88009
▁maxim	-8.88094
▁October	-8.88096
▁translation	-8.8812
by	-8.88277
▁Party	-8.88312
▁old	-8.88465
as	-8.88661
▁May	-8.88672
G	-8.89002
while	-8.89111
▁Is	-8.89251
▁Hospital	-8.89419
▁teen	-8.89501
▁different	-8.89686
▁Fingo	-8.90267
▁flashing	-8.90299
▁me	-8.90337
▁my	-8.90367
▁With	-8.90383
us	-8.90416
▁between	-8.90481
▁Public	-8.90544
▁every	-8.90611
▁medical	-8.90686
▁last	-8.90698
▁Amateur	-8.90702
▁f	-8.90844
▁claims	-8.91094
v	-8.91523
▁Accident	-8.91676
▁g	-8.91708
▁amateur	-8.92395
▁Women	-8.9259
▁Minister	-8.92593
▁section	-8.92635
▁here	-8.92731
tog	-8.92731
▁product	-8.9277
▁does	-8.92831
Your	-8.92836
▁Careers	-8.92841
▁were	-8.92951
ious	-8.93477
▁public	-8.93605
nd	-8.93698
▁mature	-8.93878
ti	-8.93911
▁treatment	-8.94057
▁sale	-8.94149
co	-8.94363
▁translate	-8.94598
°	-8.9464
▁access	-8.94665
▁Commission	-8.94899
▁Author	-8.94953
▁Model	-8.9497
▁August	-8.94973
▁Money	-8.94974
▁basis	-8.95021
▁would	-8.95082
▁Engineering	-8.95091
ptitude	-8.95264
imus	-8.95265
▁Post	-8.95279
▁range	-8.953
▁given	-8.95482
▁Email	-8.95629
▁each	-8.9571
▁care	-8.96181
▁provides	-8.96365
N	-8.96488
▁Movie	-8.96518
▁Keychain	-8.96573
▁problem	-8.9663
▁d	-8.9685
▁Department	-8.97412
▁those	-8.97419
▁Pantyhose	-8.97522
▁Hardness	-8.97523
▁Homemade	-8.97524
▁Damage	-8.9753
▁Islami	-8.9757
▁education	-8.976
▁Xmas	-8.97632
▁Issues	-8.97642
▁Website	-8.97759
▁Technology	-8.97763
▁Other	-8.97955
▁Downloads	-8.98166
▁Others	-8.98306
▁high	-8.98739
▁Category	-8.99069
ATE	-8.99721
tion	-8.998
▁Xophura	-8.99909
▁country	-8.9991
▁Couple	-8.99914
▁Last	-8.9994
▁Cartoons	-8.99949
$$	-8.99964
▁legal	-9.00008
▁Facts	-9.00104
▁Previous	-9.00144
▁Bengali	-9.0027
▁NET	-9.00387
less	-9.00464
▁Posts	-9.00568
ty	-9.00731
▁Fire	-9.00759
▁Economics	-9.00955
ate	-9.01022
▁At	-9.01183
▁create	-9.017
▁title	-9.01932
▁Babe	-9.01949
rising	-9.02212
▁result	-9.02319
▁Fiction	-9.02473
▁Family	-9.02476
▁Limited	-9.02505
▁text	-9.02516
▁July	-9.02528
search	-9.02611
▁what	-9.02723
▁gay	-9.02752
▁X	-9.02875
▁__	-9.03055
na	-9.0327
Thi	-9.03692
▁*	-9.03711
▁experience	-9.0388
▁risk	-9.04265
▁Girl	-9.04279
▁Show	-9.04819
▁water	-9.04995
▁support	-9.05017
▁Bubble	-9.05102
▁above	-9.05107
▁Medal	-9.05125
▁Rulings	-9.05167
▁see	-9.0521
▁College	-9.05226
▁Recent	-9.05361
▁Account	-9.055
▁details	-9.0551
▁Ali	-9.05547
▁SET	-9.05771
▁questions	-9.05969
▁had	-9.06105
ca	-9.06758
▁password	-9.07214
▁cost	-9.07226
▁Prophet	-9.07235
▁post	-9.07504
▁respect	-9.07655
tooltip	-9.07783
▁Cognition	-9.07807
▁Biology	-9.07809
▁Belief	-9.07812
▁British	-9.07812
▁Poems	-9.07868
▁January	-9.07927
▁Your	-9.0793
▁Rights	-9.08015
▁basic	-9.08028
▁terms	-9.08111
▁Sucking	-9.08202
▁develop	-9.0826
ent	-9.0866
▁anal	-9.08888
re	-9.0913
title	-9.09183
▁state	-9.09421
▁So	-9.09521
▁Workshop	-9.09601
▁set	-9.09679
).	-9.09748
▁open	-9.09844
nium	-9.09914
known	-9.10155
▁war	-9.10416
▁market	-9.10479
ch	-9.10524
▁Dawah	-9.10586
▁Muscled	-9.10592
▁Protector	-9.10597
▁Tight	-9.10611
gs	-9.10643
▁NTM	-9.10721
el	-9.10894
▁long	-9.10924
▁There	-9.11022
▁total	-9.11202
▁act	-9.11231
un	-9.11231
out	-9.11375
nternational	-9.11419
▁translat	-9.11421
▁link	-9.11782
ized	-9.11782
▁China	-9.11927
▁March	-9.11936
▁xxx	-9.12004
▁send	-9.12062
▁War	-9.12067
am	-9.12142
▁group	-9.12201
▁r	-9.12276
▁Th	-9.12445
te	-9.12505
▁limit	-9.12546
▁Download	-9.12569
▁de	-9.12782
▁error	-9.12962
▁own	-9.13175
á	-9.13417
▁daily	-9.13422
▁Bikash	-9.13438
▁Infographic	-9.13441
▁However	-9.13445
YW	-9.13456
▁Honours	-9.13457
▁development	-9.13482
▁Hairy	-9.13502
▁Isuzu	-9.13561
▁just	-9.13589
▁present	-9.13601
▁White	-9.13648
▁few	-9.1369
▁NKC	-9.13972
):	-9.13994
▁Ma	-9.14031
▁special	-9.1408
▁Sa	-9.14082
▁power	-9.14373
▁found	-9.14492
Section	-9.14617
▁offer	-9.1488
*	-9.14972
▁Medicine	-9.15393
▁protect	-9.15482
mg	-9.15547
shti	-9.15621
▁Type	-9.15624
▁Group	-9.15738
shing	-9.15957
dhi	-9.16129
▁Motor	-9.16359
▁ISUZU	-9.1636
OOD	-9.16365
▁Gorgeous	-9.1638
▁September	-9.1638
▁family	-9.16508
▁important	-9.1651
▁oldguy	-9.16648
▁kind	-9.16938
▁exist	-9.17205
ma	-9.17345
must	-9.17426
ful	-9.17669
▁websites	-9.17694
▁home	-9.17793
▁needs	-9.17828
▁v	-9.17971
▁Centre	-9.18329
il	-9.18391
Z	-9.18413
▁location	-9.18523
▁Material	-9.18693
▁Muslim	-9.1871
▁look	-9.18809
▁benefit	-9.18951
▁Me	-9.19205
▁My	-9.19223
▁financ	-9.19243
▁because	-9.19389
▁Bondage	-9.1939
▁Country	-9.19391
▁Police	-9.19407
▁understand	-9.19421
▁USA	-9.19444
▁awarded	-9.19503
OLL	-9.19505
▁science	-9.19529
▁Wife	-9.19537
▁Kannada	-9.19542
▁way	-9.19549
▁along	-9.19626
▁tech	-9.19669
▁Products	-9.19731
▁States	-9.2025
▁risks	-9.20415
▁Tubes	-9.20662
▁ma	-9.2067
delete	-9.20694
time	-9.2089
&	-9.20903
category	-9.2104
Super	-9.21162
▁go	-9.21299
▁School	-9.21486
▁request	-9.21562
▁disease	-9.21631
▁question	-9.21655
▁click	-9.21658
▁State	-9.21666
▁ICTP	-9.21755
▁Spy	-9.21756
▁Claim	-9.2179
ness	-9.22108
▁Part	-9.22223
▁type	-9.22266
▁Act	-9.22385
▁Lifeguard	-9.22514
▁Voyeur	-9.22514
▁Prize	-9.22515
▁Limousine	-9.2252
▁please	-9.2257
kaur	-9.22633
▁INDIA	-9.22666
▁protection	-9.2273
▁"$	-9.22795
▁Seal	-9.22816
▁held	-9.22817
▁specified	-9.22825
_$	-9.2288
▁Under	-9.22889
▁permission	-9.2294
▁specific	-9.22953
▁both	-9.22969
▁April	-9.22974
▁policies	-9.22977
▁event	-9.22992
▁World	-9.23521
."	-9.23714
▁—	-9.23995
▁Mille	-9.24111
Special	-9.24243
▁office	-9.24654
very	-9.24915
▁HQ	-9.24952
▁system	-9.25022
▁Form	-9.2516
▁payment	-9.25311
yar	-9.2534
the	-9.25499
ted	-9.25527
▁could	-9.25568
▁Web	-9.25651
▁Sata	-9.25749
▁Society	-9.25755
▁Kumar	-9.25756
Chief	-9.25845
os	-9.25874
▁Mission	-9.25884
▁technology	-9.25898
▁already	-9.25919
▁settings	-9.26054
▁Liability	-9.26061
▁Czech	-9.26207
▁Sri	-9.26256
dditional	-9.26305
round	-9.26415
\	-9.2653
bn	-9.26662
▁TOKIO	-9.26683
▁media	-9.26908
▁issue	-9.27047
w	-9.27094
▁Here	-9.27109
▁dis	-9.27126
ra	-9.27271
▁IP	-9.27314
▁base	-9.27689
▁Z	-9.27947
▁four	-9.27985
▁Ne	-9.27988
▁rights	-9.28077
ima	-9.28203
▁hospital	-9.28303
▁purpose	-9.28342
▁Mr	-9.28431
▁email	-9.28492
▁Trad	-9.28591
▁week	-9.28645
▁Gay	-9.28988
man	-9.29028
▁Barkotoki	-9.29073
▁Dominatrix	-9.29073
▁applicable	-9.29081
▁Individual	-9.29109
▁Prof	-9.29192
▁Snatch	-9.29214
▁quality	-9.29232
▁Sleeping	-9.29236
▁Ponytail	-9.29237
▁among	-9.29292
▁Kati	-9.29365
▁Institute	-9.29438
▁Archives	-9.29467
▁Experience	-9.29473
▁De	-9.29569
▁Sh	-9.2958
func	-9.29584
▁wiki	-9.29696
▁her	-9.29848
Y	-9.30195
▁give	-9.30265
right	-9.30307
▁co	-9.30373
▁changes	-9.30826
▁books	-9.30917
▁car	-9.31004
▁team	-9.3109
▁physic	-9.31187
▁nucle	-9.31474
▁Trade	-9.31548
▁example	-9.31608
▁computer	-9.31618
▁°	-9.31936
▁Glamour	-9.32522
▁percent	-9.32523
▁Culture	-9.32531
▁Bible	-9.3255
▁ID	-9.32606
▁Sciences	-9.32683
▁illness	-9.32686
▁travel	-9.32687
▁Govt	-9.32705
▁companies	-9.32748
▁Likes	-9.32752
▁others	-9.32769
▁application	-9.32777
▁Dili	-9.32855
▁Follow	-9.33034
▁Name	-9.33123
▁articles	-9.33457
ts	-9.33526
▁call	-9.3355
▁HD	-9.33689
▁want	-9.34022
▁Can	-9.34085
}	-9.34126
▁Development	-9.3439
▁message	-9.34452
▁Time	-9.34615
tic	-9.34811
Visitors	-9.34896
▁code	-9.34922
▁design	-9.35037
▁Food	-9.35043
▁Channel	-9.35098
ericulture	-9.3513
▁reason	-9.35171
▁Bas	-9.35191
▁school	-9.35235
▁renewal	-9.35356
ttara	-9.35416
▁-'	-9.35665
▁US	-9.36011
▁mom	-9.36022
▁Wet	-9.36082
prefs	-9.3609
€	-9.36093
₦	-9.36093
▁Transformation	-9.36093
▁Bikini	-9.36093
▁Linkages	-9.36093
▁Etiquette	-9.36094
▁Vibrator	-9.36094
▁Webcam	-9.36094
▁Pvt	-9.36097
▁Afar	-9.36099
▁video	-9.36121
▁Ultra	-9.36125
▁Doctor	-9.36147
▁share	-9.36158
▁Milk	-9.36252
▁premises	-9.36263
▁Ramanujan	-9.36264
▁Beautiful	-9.36266
▁Busty	-9.36275
▁parties	-9.3632
▁Fitness	-9.36435
▁paid	-9.36438
▁Internet	-9.36439
▁OF	-9.36496
▁conditions	-9.36526
▁charges	-9.36554
▁Cute	-9.36557
▁fire	-9.36604
▁self	-9.36704
ul	-9.36754
▁Open	-9.3684
▁local	-9.36952
▁working	-9.3701
▁back	-9.37178
▁vari	-9.37466
▁Live	-9.37722
j	-9.37941
▁ME	-9.38168
▁Be	-9.3819
rom	-9.38275
cannot	-9.38322
SP	-9.38623
▁Phone	-9.38752
▁particular	-9.38799
▁Abdu	-9.38822
▁Mathematic	-9.38847
▁Paper	-9.38935
error	-9.39046
View	-9.39294
▁Sign	-9.3931
▁God	-9.39446
▁America	-9.39649
▁German	-9.39748
▁Fiqh	-9.39796
▁Saikia	-9.39796
▁strength	-9.39798
▁Couch	-9.39815
▁Accord	-9.39824
▁Slave	-9.39911
▁bring	-9.39937
ING	-9.39949
▁Private	-9.39969
▁@	-9.40051
▁making	-9.40055
▁means	-9.40075
▁Oral	-9.40093
▁notice	-9.40225
xxx	-9.40292
cm	-9.40369
▁big	-9.40411
name	-9.40479
▁shows	-9.40574
▁offers	-9.40953
▁Sha	-9.40976
▁Who	-9.41507
▁Un	-9.41514
my	-9.41693
▁Qa	-9.41824
ah	-9.419
▁receive	-9.42005
for	-9.42171
▁Mi	-9.42254
pur	-9.42277
J	-9.42427
▁links	-9.42474
▁history	-9.42702
▁Month	-9.42871
▁Hot	-9.42935
▁government	-9.42964
▁Video	-9.43111
×	-9.43263
▁size	-9.43301
▁Fro	-9.43498
anta	-9.43522
▁PC	-9.43552
▁girl	-9.43635
ɑ	-9.4364
▁schedule	-9.43643
▁Skirt	-9.43643
▁Child	-9.43645
▁Machine	-9.43671
▁Terms	-9.437
▁general	-9.43722
▁caused	-9.43738
▁directly	-9.43752
▁Close	-9.438
▁woman	-9.43817
▁Japanese	-9.44016
[	-9.44089
▁Toys	-9.44112
▁Site	-9.44132
▁search	-9.44146
atch	-9.44405
▁less	-9.44666
▁become	-9.44798
▁math	-9.44894
▁posts	-9.44946
▁Da	-9.45002
cross	-9.4507
▁members	-9.4516
▁created	-9.45401
▁category	-9.45439
ardeners	-9.45526
▁law	-9.45584
Unite	-9.45624
▁hand	-9.459
▁List	-9.4601
group	-9.46094
onic	-9.46611
▁Or	-9.46633
▁check	-9.46662
▁read	-9.46688
▁Service	-9.4673
▁good	-9.4675
tical	-9.46754
˞	-9.468
▁Prayer	-9.46856
▁device	-9.46896
▁Get	-9.47028
ia	-9.47135
▁full	-9.47146
Xxx	-9.47187
not	-9.47264
▁Wh	-9.47518
▁enter	-9.47585
▁Aadhaar	-9.47643
▁AbdulRaoof	-9.47643
▁Bizhub	-9.47643
▁Rachamalla	-9.47643
▁Hajj	-9.47643
▁record	-9.47643
▁Congress	-9.47644
▁Death	-9.47647
▁Body	-9.47731
▁him	-9.47785
▁says	-9.47801
▁money	-9.47822
▁done	-9.47828
▁'{{	-9.47858
▁wish	-9.47879
rev	-9.4797
▁Toon	-9.48057
▁students	-9.48065
english	-9.48166
▁since	-9.48186
▁hours	-9.48216
▁black	-9.48276
▁reports	-9.48281
▁Sexy	-9.48339
▁published	-9.48446
▁includes	-9.48477
▁another	-9.48563
▁body	-9.48585
▁Claims	-9.48792
▁k	-9.49385
▁Dev	-9.49699
▁options	-9.49712
▁via	-9.50185
ermanen	-9.50203
▁civil	-9.50389
▁NM	-9.50395
{	-9.5046
▁update	-9.50555
▁Tri	-9.50641
▁area	-9.50654
▁Silk	-9.50742
English	-9.50759
TV	-9.50805
▁paper	-9.50878
▁lead	-9.50893
▁~	-9.51087
▁talk	-9.51278
▁network	-9.51361
▁database	-9.514
▁Mar	-9.5162
expr	-9.51803
▁Civil	-9.51805
▁comprehensive	-9.51809
▁jerking	-9.51809
▁return	-9.51809
▁After	-9.5181
▁Support	-9.5181
▁Chunky	-9.51812
▁Groupsex	-9.51817
▁security	-9.51819
▁Shaving	-9.51841
▁payable	-9.51875
▁characters	-9.51895
▁month	-9.51912
▁"'''	-9.51912
▁writing	-9.51913
▁apply	-9.51918
▁phone	-9.51952
▁Masturbating	-9.51977
▁control	-9.51979
▁Tiny	-9.51997
▁activities	-9.51998
▁President	-9.51998
▁settlement	-9.52003
▁Third	-9.5202
▁Value	-9.5202
▁designed	-9.52136
▁Entertainment	-9.52205
▁Older	-9.52277
▁complete	-9.52314
▁start	-9.52402
▁whe	-9.52415
▁operations	-9.52425
▁find	-9.52431
logged	-9.52498
▁accept	-9.52682
▁provid	-9.52745
▁movies	-9.52817
▁three	-9.53037
U	-9.53038
tch	-9.53546
other	-9.5372
tails	-9.53853
▁version	-9.53853
'''	-9.53859
▁See	-9.53907
ool	-9.54045
▁ensure	-9.54272
Tut	-9.54292
▁even	-9.54374
ting	-9.54414
wards	-9.54541
▁Sections	-9.54649
abha	-9.54786
action	-9.54898
▁interview	-9.55036
▁include	-9.55042
▁files	-9.55062
▁browser	-9.55085
▁equipment	-9.5521
▁customer	-9.55257
▁Off	-9.56038
▁meet	-9.56053
▁Oil	-9.56126
▁industry	-9.56157
▁Friday	-9.56158
▁Microsoft	-9.56159
▁Message	-9.5616
▁Swapping	-9.56162
▁Handbag	-9.56162
▁member	-9.56165
▁much	-9.5617
▁teaching	-9.56184
▁training	-9.5622
▁species	-9.56335
▁Per	-9.56338
▁French	-9.56347
▁Hardcore	-9.56351
▁Galway	-9.56354
▁police	-9.56372
▁Cock	-9.56372
▁Total	-9.56379
▁Standard	-9.56394
▁Check	-9.56429
▁consider	-9.56535
▁Girlfriend	-9.56566
▁large	-9.56639
like	-9.56648
▁Content	-9.56743
▁Educational	-9.56848
▁projects	-9.56908
▁LTD	-9.57011
▁materials	-9.57014
▁cru	-9.57249
▁she	-9.5732
▁w	-9.57338
▁Tech	-9.57366
▁FC	-9.57404
ily	-9.57412
▁words	-9.57568
▁diseases	-9.57601
▁wide	-9.57746
▁short	-9.57873
ie	-9.5788
▁Latest	-9.58078
▁films	-9.58284
me	-9.58297
Search	-9.5838
▁answer	-9.58435
▁Sala	-9.58459
PC	-9.58498
▁Con	-9.58739
ir	-9.5884
▁further	-9.5897
▁young	-9.59227
▁Manj	-9.59468
ternational	-9.5961
▁Squirt	-9.5963
hole	-9.59642
▁material	-9.59815
▁cookie	-9.5982
▁Award	-9.59845
▁Big	-9.59866
▁users	-9.59892
▁http	-9.59936
▁price	-9.60012
ter	-9.60179
▁Ch	-9.60236
ance	-9.60331
▁great	-9.6064
▁past	-9.60671
move	-9.6069
༻	-9.60702
▁Centerfold	-9.60702
▁Screaming	-9.60703
▁Gloryhole	-9.60703
▁PVT	-9.60704
▁Italy	-9.60705
▁department	-9.60706
▁hospitalization	-9.60708
▁Secretary	-9.60711
▁Missionary	-9.6073
▁possible	-9.6073
▁region	-9.60761
▁research	-9.60761
▁Music	-9.60841
licious	-9.60842
▁Head	-9.60865
▁≤	-9.60868
▁North	-9.60897
▁panties	-9.60899
▁Babysitter	-9.60906
▁Gagging	-9.60912
▁features	-9.61023
▁Saturday	-9.61127
▁Size	-9.61146
▁food	-9.61154
ach	-9.6116
▁documents	-9.61167
▁providers	-9.61233
▁Butt	-9.6125
▁common	-9.61274
son	-9.61364
url	-9.61385
▁visit	-9.61441
▁Social	-9.61581
▁Cru	-9.61607
▁contains	-9.61666
]]	-9.61737
user	-9.61897
When	-9.61991
ad	-9.62016
▁Game	-9.6202
▁bas	-9.62355
▁problems	-9.62399
inolta	-9.62447
protected	-9.62457
▁var	-9.62532
▁Him	-9.62716
▁Xxx	-9.62939
▁contents	-9.6301
https	-9.63241
la	-9.63555
ism	-9.63604
Go	-9.63605
▁Some	-9.63677
list	-9.63762
▁too	-9.64003
if	-9.64058
▁HC	-9.64259
▁l	-9.6429
hi	-9.64344
Show	-9.64493
▁machine	-9.64512
▁Guide	-9.64608
▁PM	-9.64677
▁edits	-9.64768
▁Vari	-9.64786
org	-9.6489
▁plant	-9.64905
▁Search	-9.65318
▁Bonus	-9.65335
▁Garden	-9.654
▁Mini	-9.65447
▁hospitalisation	-9.65464
▁Pretty	-9.65464
▁child	-9.65465
▁entire	-9.65465
▁Figures	-9.65466
▁Audition	-9.65467
▁management	-9.6547
▁Dynam	-9.65472
▁Academy	-9.65472
▁Wild	-9.65475
length	-9.65481
▁Reserved	-9.65493
▁Rules	-9.65498
▁immediately	-9.65503
kg	-9.6551
▁Army	-9.65512
▁Su	-9.6552
LASH	-9.65568
▁Beauty	-9.65667
▁Click	-9.65667
▁Extreme	-9.65669
his	-9.65672
▁Travel	-9.65675
▁trade	-9.65683
vali	-9.65721
▁Learn	-9.65728
▁Make	-9.65749
▁grow	-9.65781
▁allowed	-9.65804
▁announce	-9.65818
▁main	-9.65826
There	-9.65829
▁{	-9.65849
▁received	-9.65888
User	-9.65902
▁block	-9.6604
▁bank	-9.66046
file	-9.66117
▁Classic	-9.66165
afa	-9.66247
▁Singh	-9.66337
▁cookies	-9.66409
▁Update	-9.6659
▁Gau	-9.66685
▁end	-9.66732
▁Nama	-9.66743
▁room	-9.66834
▁might	-9.66845
▁Media	-9.66921
▁mobile	-9.66929
▁valid	-9.67075
▁japanese	-9.6709
▁Sale	-9.67144
new	-9.67393
listed	-9.67688
de	-9.68231
▁House	-9.68236
▁Asht	-9.6827
▁interest	-9.68525
nt	-9.68671
▁Questions	-9.68864
▁music	-9.68946
In	-9.69014
II	-9.69219
▁Vik	-9.69257
ist	-9.69355
int	-9.69509
▁Metal	-9.69587
▁agent	-9.69682
▁national	-9.70033
▁face	-9.70125
ual	-9.70199
▁Sweet	-9.70454
▁worship	-9.70462
ə	-9.70464
▁Expenses	-9.70464
▁Lakshmi	-9.70464
▁Professor	-9.70464
▁Vintage	-9.70464
▁Fashion	-9.70465
▁countries	-9.70465
▁Facesitting	-9.70465
▁Freak	-9.70465
▁Skinny	-9.70465
꙰	-9.70465
▁Faith	-9.70466
▁PCOS	-9.70468
▁prestig	-9.70469
▁Puking	-9.70471
▁Feb	-9.70483
▁study	-9.70498
▁role	-9.70502
▁Cheating	-9.70504
▁decide	-9.7051
▁Shake	-9.70511
▁Sofa	-9.70533
▁Ethics	-9.70538
nit	-9.70539
▁Face	-9.70542
▁Raman	-9.70549
▁strike	-9.70631
▁private	-9.70638
▁Blonde	-9.70669
▁Sunday	-9.70676
▁Two	-9.707
▁Hotel	-9.70729
▁publish	-9.70736
▁collection	-9.70755
▁Story	-9.70759
▁DB	-9.70844
▁Tease	-9.7091
▁pantyhose	-9.70924
▁Mobile	-9.7093
party	-9.71016
watchlist	-9.71043
▁close	-9.711
Us	-9.71111
ksha	-9.71131
▁Next	-9.71178
▁ago	-9.71193
▁employees	-9.71223
▁losses	-9.71236
▁Pa	-9.71269
▁Amazing	-9.71328
▁processing	-9.71349
▁al	-9.71417
▁discover	-9.71496
show	-9.71534
▁road	-9.71595
▁tub	-9.71667
ī	-9.71947
▁benefits	-9.71951
ical	-9.72002
▁require	-9.72141
▁Pro	-9.72164
si	-9.7239
▁চ	-9.72413
▁Tor	-9.72513
▁Nu	-9.72563
▁show	-9.7257
▁key	-9.72579
$	-9.7274
line	-9.72747
▁results	-9.72902
="	-9.73095
▁j	-9.73106
▁come	-9.73879
using	-9.74186
▁current	-9.74585
▁bodi	-9.74727
▁continue	-9.74938
ding	-9.7496
▁Director	-9.75077
and	-9.7541
▁Illness	-9.75608
▁Sarma	-9.7564
▁Theore	-9.75716
▁SILKS	-9.75728
▁Keypad	-9.75728
▁Ubuntu	-9.75728
▁Rabwah	-9.75728
▁Ministry	-9.75729
▁supply	-9.7573
password	-9.7573
▁Pressure	-9.75735
▁IslamHouse	-9.75737
▁Ghetto	-9.75741
▁Blindfolded	-9.75745
▁natural	-9.75746
hood	-9.75755
▁Perils	-9.75758
▁Team	-9.7576
▁Dutch	-9.75763
▁growth	-9.75779
▁simple	-9.75781
▁better	-9.75789
▁Union	-9.75832
▁perils	-9.75851
▁expert	-9.75858
▁fasting	-9.75929
▁employment	-9.75936
▁Condom	-9.75949
▁Thursday	-9.7595
▁Deep	-9.75953
▁software	-9.75956
▁Nylon	-9.75961
image	-9.76001
curred	-9.76011
▁TX	-9.76029
▁Digital	-9.76142
▁small	-9.76256
▁sell	-9.76335
–	-9.7636
▁Art	-9.76449
▁registered	-9.76478
▁levels	-9.76499
▁Lecturer	-9.76546
ৰা	-9.76639
~	-9.76652
▁American	-9.76687
▁hidden	-9.7676
▁original	-9.76772
▁Ja	-9.7694
▁Kinky	-9.77008
▁project	-9.77094
▁human	-9.77119
ED	-9.77124
▁First	-9.77258
▁types	-9.77271
▁news	-9.77276
▁Not	-9.77312
▁Stand	-9.77336
▁selected	-9.77386
▁costs	-9.77453
▁Popular	-9.77458
▁MediaWiki	-9.77528
▁Angel	-9.77656
▁<	-9.77666
▁Invalid	-9.7776
currently	-9.77824
li	-9.77852
▁multi	-9.77875
▁direct	-9.7825
named	-9.78379
▁real	-9.7838
▁Y	-9.78525
▁Gan	-9.78704
vi	-9.78863
▁inter	-9.78873
minor	-9.78968
upon	-9.78974
▁Das	-9.78984
reason	-9.79017
▁Dec	-9.79258
ian	-9.79297
ll	-9.79425
ikh	-9.79499
ities	-9.80029
▁transfer	-9.80157
Sc	-9.802
▁Set	-9.80245
▁Photo	-9.80251
▁individual	-9.80329
▁flood	-9.80333
▁mathematic	-9.80363
fa	-9.80421
▁Work	-9.80563
▁skill	-9.80575
ization	-9.80595
▁mind	-9.80649
▁Hole	-9.80651
▁Muslims	-9.80654
are	-9.80937
going	-9.80947
▁bag	-9.81122
▁addition	-9.81176
AS	-9.81211
▁try	-9.81223
^	-9.81275
β	-9.81283
▁Gaeilge	-9.81283
▁Generator	-9.81283
▁Hungarian	-9.81283
▁Sniffing	-9.81283
▁Vampire	-9.81283
▁major	-9.81283
▁Perfect	-9.81283
▁Erotic	-9.81284
▁xHamster	-9.81284
▁Scheme	-9.81285
▁describe	-9.81286
▁earlier	-9.81287
▁Drunk	-9.81288
▁Tattoo	-9.81289
▁nature	-9.81291
▁Shiny	-9.81291
▁unique	-9.81293
▁Coverage	-9.81299
▁button	-9.81312
▁choose	-9.81312
▁Prime	-9.81321
▁Charles	-9.81325
▁Beach	-9.81336
▁involved	-9.81348
▁Roll	-9.81387
▁Study	-9.81394
▁oil	-9.81433
▁feel	-9.81457
▁exceed	-9.81502
▁similar	-9.81503
▁beauty	-9.8151
▁social	-9.81512
▁Wednesday	-9.81515
▁Strip	-9.81518
▁announcement	-9.81561
▁Bill	-9.81564
▁Order	-9.81566
▁won	-9.81629
hati	-9.81632
▁}}	-9.81777
▁necessary	-9.81807
▁Jyoti	-9.81818
▁practices	-9.81846
▁Films	-9.81876
▁Now	-9.81925
▁Industrial	-9.82088
▁hard	-9.82101
help	-9.8216
▁download	-9.82168
▁print	-9.82171
ble	-9.82222
▁Kit	-9.82307
▁Library	-9.82344
message	-9.82367
▁article	-9.82438
HQ	-9.8247
▁Sep	-9.82599
ium	-9.82724
▁purposes	-9.82804
▁MB	-9.82867
▁Boss	-9.82918
he	-9.83069
▁Sir	-9.83105
onotheism	-9.83158
▁five	-9.83204
▁Design	-9.8323
My	-9.83246
▁relat	-9.83446
▁scientific	-9.83774
▁action	-9.84056
▁Padma	-9.84167
ani	-9.84579
▁Cash	-9.84662
version	-9.85064
▁Ka	-9.85184
▁Ra	-9.85247
▁virtue	-9.85706
▁Bank	-9.85984
▁Auto	-9.86065
▁lakh	-9.86081
form	-9.86182
▁Pur	-9.86188
▁district	-9.86229
▁Virtue	-9.86255
▁film	-9.86326
▁Bus	-9.86336
▁ei	-9.86486
▁employee	-9.86511
ন	-9.86547
▁Water	-9.86752
linked	-9.86919
₹	-9.87165
▁Google	-9.87165
▁Naughty	-9.87165
▁Norwegian	-9.87165
▁defloration	-9.87165
▁VirtualBox	-9.87166
▁Christmas	-9.87166
▁Frames	-9.87166
▁RECTV	-9.87166
▁motor	-9.87166
▁Fondling	-9.87167
▁Wrestling	-9.87167
▁degree	-9.87168
▁initiative	-9.87169
▁safe	-9.87169
▁riot	-9.87171
▁Workout	-9.87176
▁Scooter	-9.87178
▁Teacher	-9.87179
▁Bennet	-9.87191
▁job	-9.87191
IBM	-9.87195
▁Portal	-9.87206
▁Feet	-9.87214
▁failure	-9.87257
▁connection	-9.87276
▁responsib	-9.87285
▁Li	-9.87286
▁Dating	-9.87294
▁partners	-9.8736
▁Locate	-9.87374
▁PDF	-9.87397
▁Sunnah	-9.87404
▁Lick	-9.87433
▁regarding	-9.87463
▁learning	-9.87468
▁Ho	-9.87502
▁Clu	-9.87502
▁operation	-9.87502
▁App	-9.87507
▁trust	-9.87546
▁annual	-9.87592
▁soon	-9.87593
▁Fasting	-9.876
▁pre	-9.8766
▁comments	-9.8767
▁did	-9.87674
▁Mile	-9.87683
▁গণিত	-9.87688
▁certain	-9.87697
▁Editor	-9.87842
▁minim	-9.87855
Central	-9.87865
link	-9.87941
▁TPA	-9.88012
protect	-9.88096
▁plans	-9.88103
▁skills	-9.88121
▁NT	-9.8826
KW	-9.88276
▁career	-9.88325
▁prices	-9.8834
see	-9.88478
▁except	-9.88502
▁Help	-9.88515
▁laws	-9.88529
jan	-9.88531
este	-9.88615
ICTP	-9.88638
history	-9.88684
▁Govern	-9.887
Info	-9.88815
view	-9.88846
▁'''	-9.88885
༺	-9.88905
▁categories	-9.88938
▁Le	-9.88949
▁damaged	-9.89127
▁con	-9.8924
▁issu	-9.89331
▁prevent	-9.89392
nantha	-9.89404
taking	-9.89425
iya	-9.89463
No	-9.89819
▁Project	-9.8996
lists	-9.89985
▁se	-9.90028
▁Maha	-9.90185
▁times	-9.90286
▁Gu	-9.90368
▁step	-9.90397
▁default	-9.90585
elling	-9.907
onica	-9.91001
▁Q	-9.91007
▁Pre	-9.91095
▁represent	-9.91114
▁clear	-9.91303
▁line	-9.91347
▁Languages	-9.91587
▁store	-9.9172
ending	-9.91741
▁persons	-9.91828
▁Muni	-9.9187
AP	-9.91924
esh	-9.91979
▁sector	-9.92535
ever	-9.92546
▁Short	-9.92575
▁Problem	-9.92753
▁point	-9.92848
▁Hair	-9.92908
▁But	-9.92972
▁effect	-9.93109
vant	-9.93181
▁teacher	-9.93264
▁Class	-9.93332
▁contract	-9.93352
▁Electric	-9.93387
▁Exhibitionists	-9.93415
▁Framework	-9.93415
▁GAURAVZONE	-9.93415
▁Parody	-9.93415
▁scheme	-9.93415
₳	-9.93416
▁Feedback	-9.93416
▁Strength	-9.93416
▁jacuzzi	-9.93416
▁Management	-9.93416
▁Sarba	-9.93416
▁female	-9.93416
▁Premium	-9.93417
▁Cougar	-9.93417
▁AutoCAD	-9.93417
▁disablement	-9.93418
▁pronunciation	-9.93419
▁solving	-9.93425
▁Through	-9.93428
▁advertising	-9.93445
▁Committee	-9.93459
▁explain	-9.93476
▁Job	-9.93498
kw	-9.93521
▁promote	-9.9353
▁Sabha	-9.93544
▁Bo	-9.93564
▁Classy	-9.93599
Hide	-9.93637
▁Twink	-9.93645
▁Church	-9.93664
▁Nalbari	-9.93666
▁Cowgirl	-9.93667
▁Events	-9.93668
▁Self	-9.9367
▁reimbursement	-9.93674
▁South	-9.93702
Related	-9.93702
irac	-9.93713
▁,	-9.93744
▁down	-9.93755
▁hairy	-9.93766
▁requirements	-9.93803
▁Legal	-9.93839
▁away	-9.93844
▁Ash	-9.9385
yo	-9.93852
rdy	-9.93855
▁wife	-9.93919
▁Jorhat	-9.93974
▁children	-9.93976
▁Worship	-9.93976
▁Granny	-9.93981
▁press	-9.9399
▁rele	-9.94069
▁added	-9.9409
liable	-9.94128
▁Air	-9.94136
▁:-	-9.94171
▁sent	-9.9423
▁international	-9.94265
▁story	-9.94334
▁Call	-9.94343
▁sub	-9.94422
▁Burglary	-9.94427
till	-9.94438
▁[[	-9.94454
▁popular	-9.9451
Lee	-9.94623
▁note	-9.9469
fixed	-9.9471
▁beach	-9.94922
▁Parts	-9.95034
▁His	-9.95084
▁Plant	-9.95098
wiki	-9.95211
▁Road	-9.95246
contributions	-9.95335
▁YOU	-9.95349
▁level	-9.95389
free	-9.95393
ew	-9.95402
▁Critic	-9.95428
Months	-9.95457
▁Porn	-9.95528
ge	-9.95536
▁Si	-9.9558
▁plan	-9.95625
kW	-9.95712
▁log	-9.95893
aka	-9.96348
▁am	-9.96529
king	-9.96645
▁OR	-9.96772
▁sign	-9.96851
hide	-9.96929
▁off	-9.96942
▁submit	-9.96998
et	-9.97449
ē	-9.9763
▁::	-9.9772
ors	-9.97766
ex	-9.97904
deleted	-9.97933
▁top	-9.97983
ns	-9.98138
ā	-9.98222
▁Ex	-9.98388
▁contributions	-9.98406
▁Wats	-9.98548
ions	-9.98559
▁Law	-9.98731
ating	-9.98741
▁vagina	-9.98764
▁Cover	-9.98775
'$	-9.99116
▁Dam	-9.99131
ø	-9.99154
escription	-9.99192
▁Ga	-9.99258
ace	-9.99268
▁model	-9.99322
▁en	-9.99328
▁window	-9.99419
▁contain	-9.99461
▁aris	-9.99488
▁Crop	-9.99593
ni	-9.99727
ba	-9.99764
▁Word	-9.99798
eed	-9.9991
▁Origin	-9.99955
▁fresh	-9.99992
▁Euro	-10.0008
▁Abhinav	-10.0008
▁Gogoi	-10.0008
▁Goswami	-10.0008
⁣	-10.0008
▁Armpit	-10.0008
▁Cotton	-10.0008
▁Submissive	-10.0008
▁Twitter	-10.0008
▁attempt	-10.0008
recentchanges	-10.0008
▁Ibrahim	-10.0008
▁Treatment	-10.0008
▁Straight	-10.0008
▁kissing	-10.0008
▁Facebook	-10.0008
▁Botanix	-10.0008
▁Northeast	-10.0008
▁Android	-10.0008
▁Bedroom	-10.0009
▁subtotal	-10.0009
▁Network	-10.0009
Kurdish	-10.0009
▁Nature	-10.0009
▁Association	-10.0009
▁Kalita	-10.0009
▁Court	-10.0009
▁Trust	-10.0009
▁Foreplay	-10.0009
▁facility	-10.0009
▁Heart	-10.0009
▁Point	-10.001
html	-10.001
▁Price	-10.001
▁night	-10.0011
▁Nude	-10.0012
▁yourself	-10.0013
▁Abu	-10.0013
▁disk	-10.0015
▁Building	-10.0015
dge	-10.0016
▁Disc	-10.0018
▁Data	-10.0019
▁credit	-10.0019
▁higher	-10.0027
rious	-10.0028
▁resources	-10.0031
createacc	-10.0031
▁Areas	-10.0032
day	-10.0035
▁critical	-10.0037
▁delivery	-10.0043
▁review	-10.0044
▁Aged	-10.0045
▁Most	-10.0047
▁Pump	-10.0047
▁Cost	-10.0048
▁building	-10.0048
▁Code	-10.0055
▁buy	-10.0057
▁Toll	-10.0058
▁capacity	-10.0062
▁strong	-10.0064
▁Slovakia	-10.0068
▁Monday	-10.0068
▁Orgy	-10.0069
▁toys	-10.0078
▁Reader	-10.0092
▁today	-10.0094
▁HR	-10.0098
▁Chinese	-10.0102
▁Mathletics	-10.0102
▁electrical	-10.0102
▁Berne	-10.0103
▁Great	-10.0104
▁commercial	-10.0104
▁increasing	-10.0105
▁Over	-10.0111
▁Use	-10.0113
▁Students	-10.0113
ated	-10.0118
signed	-10.0118
▁Ko	-10.0121
▁path	-10.0124
ish	-10.0129
▁Tamil	-10.013
▁house	-10.0137
porn	-10.0137
▁class	-10.0142
▁box	-10.0142
▁Find	-10.0167
assistance	-10.0168
▁damages	-10.0168
create	-10.0181
ak	-10.0185
referred	-10.0186
caption	-10.0187
▁Ki	-10.0196
expiry	-10.0198
Express	-10.0214
▁ml	-10.0216
▁Types	-10.0217
▁Ta	-10.0226
Edit	-10.0232
Category	-10.0234
▁Swa	-10.0235
▁Bharti	-10.0237
▁revision	-10.0237
▁editing	-10.0238
▁fund	-10.024
▁vi	-10.0241
#	-10.0241
talk	-10.0245
±	-10.0251
next	-10.0256
upload	-10.0265
▁Tags	-10.0291
Rahman	-10.0305
▁NCB	-10.0324
▁preview	-10.0343
aṃ	-10.0377
ṃ	-10.0386
▁Har	-10.0387
▁Va	-10.0398
▁display	-10.0405
rief	-10.0449
▁Mo	-10.0451
ure	-10.0458
sp	-10.0463
▁di	-10.0466
▁Mechanic	-10.0467
▁image	-10.047
▁Bi	-10.0483
▁La	-10.0484
▁vehicles	-10.0486
iv	-10.0493
een	-10.0495
ant	-10.0507
q	-10.051
ne	-10.0512
▁formula	-10.0533
▁Abdur	-10.0545
light	-10.0558
▁th	-10.0566
▁EP	-10.0568
▁Whi	-10.0593
▁sister	-10.0622
▁Feature	-10.0629
▁situation	-10.0631
▁crore	-10.0631
▁Festival	-10.0632
▁professional	-10.0632
▁guide	-10.0636
all	-10.0638
▁watchlist	-10.0641
▁condition	-10.0643
ton	-10.0653
▁standard	-10.0657
▁organization	-10.0659
▁course	-10.067
▁keep	-10.0682
▁express	-10.0694
▁Boy	-10.0697
▁improve	-10.07
▁field	-10.0706
▁function	-10.0716
▁Ti	-10.0717
▁Europe	-10.0718
▁renew	-10.0718
▁depend	-10.072
▁charge	-10.0721
ł	-10.0722
▁COVID	-10.0722
▁Cleavage	-10.0722
Fawzaan	-10.0723
Ḽ	-10.0723
▁MIUI	-10.0723
▁society	-10.0723
▁GLAZE	-10.0723
▁capital	-10.0723
▁Skype	-10.0723
▁Zubeen	-10.0723
▁Choking	-10.0723
▁audio	-10.0723
▁READ	-10.0723
▁entitled	-10.0723
▁Ethnic	-10.0723
▁consequence	-10.0724
▁Bunny	-10.0724
▁Gaping	-10.0725
▁Funny	-10.0725
▁EUR	-10.0726
▁mathematician	-10.0726
▁Plate	-10.0726
▁Slim	-10.0727
▁Moore	-10.0727
▁European	-10.0728
▁African	-10.0729
▁hq	-10.0729
▁Bora	-10.0733
▁sharing	-10.0734
▁Four	-10.0736
▁emergenc	-10.0737
▁Center	-10.0738
▁accord	-10.0739
▁Writer	-10.0741
▁women	-10.075
▁Double	-10.075
▁Nasty	-10.075
▁Success	-10.0751
▁Location	-10.0752
▁explosion	-10.0752
▁File	-10.0757
▁eyes	-10.076
▁Print	-10.0765
▁Best	-10.0774
▁statement	-10.0777
▁Sal	-10.078
▁recent	-10.0781
▁together	-10.0782
▁Human	-10.0784
ID	-10.0787
▁Sam	-10.0787
▁caught	-10.0787
▁offered	-10.0792
▁pro	-10.0814
▁external	-10.0817
▁sever	-10.0827
▁Kits	-10.0832
witch	-10.084
vid	-10.0842
pt	-10.0845
▁BO	-10.0845
use	-10.0846
▁CM	-10.0849
▁AC	-10.0862
▁tools	-10.0863
An	-10.0869
ro	-10.0871
▁Are	-10.0876
MY	-10.0882
▁source	-10.0886
▁Product	-10.0894
ingle	-10.0898
▁Care	-10.091
go	-10.0919
care	-10.0921
▁Log	-10.0921
▁Gra	-10.0924
▁view	-10.0949
▁ML	-10.0951
▁limits	-10.096
ay	-10.0962
▁mis	-10.0969
SITE	-10.0971
▁Unit	-10.0993
ina	-10.1006
▁Doo	-10.1011
display	-10.1018
ling	-10.1019
NAME	-10.1023
▁acts	-10.1023
Muslims	-10.1027
͙	-10.1029
ally	-10.1029
▁Super	-10.1048
▁ways	-10.1057
submit	-10.1059
Block	-10.1063
▁works	-10.107
▁seek	-10.1078
Teen	-10.1079
sex	-10.1082
▁Control	-10.1086
▁parts	-10.1092
▁Share	-10.1093
▁Ac	-10.1108
stan	-10.1108
rac	-10.1121
▁love	-10.1121
▁\"	-10.1123
▁Raj	-10.1128
▁award	-10.1143
▁opt	-10.1153
sh	-10.1237
▁fact	-10.1272
▁Create	-10.1274
ok	-10.1276
▁MP	-10.1284
▁kg	-10.1287
▁IN	-10.1289
ɪ	-10.1293
TM	-10.1309
▁cases	-10.1314
log	-10.1324
MM	-10.1331
▁report	-10.1369
RA	-10.1374
▁actual	-10.1375
▁Ram	-10.1378
স	-10.1379
▁episode	-10.1381
▁far	-10.1383
▁keypad	-10.139
▁Pu	-10.1395
▁Place	-10.14
▁option	-10.1402
▁Student	-10.1403
▁learn	-10.1407
▁detail	-10.1415
▁IIT	-10.1433
▁Vi	-10.1441
▁term	-10.1449
▁meeting	-10.1451
▁regard	-10.1453
▁Members	-10.1454
▁perform	-10.1465
▁Engineer	-10.1467
▁assist	-10.1478
▁Heat	-10.1488
DY	-10.1489
▁foreign	-10.1489
ny	-10.149
▁Scoo	-10.1491
᭄	-10.1492
࿇	-10.1492
▁Argentinian	-10.1492
▁Crazies	-10.1492
▁People	-10.1492
▁Piercing	-10.1492
▁Sonowal	-10.1492
▁VAANI	-10.1492
▁earthquake	-10.1492
▁excavator	-10.1492
▁liabilities	-10.1492
𓆩	-10.1492
▁Adorable	-10.1492
▁Citizenship	-10.1492
▁Pregnant	-10.1492
▁Korean	-10.1492
▁Lezdom	-10.1492
▁Mirror	-10.1492
▁minister	-10.1492
▁Housewife	-10.1492
𓆪	-10.1492
▁Nudist	-10.1492
▁Displacement	-10.1492
frac	-10.1492
▁otherwise	-10.1492
▁Spanish	-10.1492
▁Prison	-10.1493
▁difference	-10.1493
▁Baruah	-10.1493
▁Latex	-10.1493
▁Rough	-10.1493
▁Axom	-10.1493
▁Theatre	-10.1493
▁authority	-10.1493
▁outside	-10.1494
▁Tape	-10.1494
▁Pradesh	-10.1495
▁easy	-10.1496
▁Islamhouse	-10.1497
▁indemni	-10.1497
▁cashless	-10.1497
▁independent	-10.1497
▁cash	-10.1498
▁identified	-10.1499
▁write	-10.1502
▁practical	-10.1505
▁Nav	-10.1508
▁Certificate	-10.1509
▁gap	-10.1511
▁Pillars	-10.1511
▁Ou	-10.1511
ified	-10.1511
▁incident	-10.1515
▁Tall	-10.1515
▁generated	-10.1516
▁again	-10.1519
▁Salih	-10.1521
▁cuckold	-10.1521
▁II	-10.1521
▁Security	-10.1521
▁Compilation	-10.1522
▁trees	-10.1523
▁Gujarati	-10.1524
SIT	-10.1525
▁interested	-10.1531
▁worth	-10.1531
▁Balls	-10.1532
▁indian	-10.1534
▁Every	-10.1534
▁discussion	-10.1536
▁Press	-10.1538
▁official	-10.154
▁join	-10.154
▁Arun	-10.1541
▁cultural	-10.1541
▁City	-10.1541
▁construction	-10.1542
▁Posing	-10.1552
▁goals	-10.1554
▁Ca	-10.1555
▁≥	-10.1557
▁Meghalaya	-10.156
▁Malayalam	-10.156
▁Applications	-10.1562
▁requested	-10.1562
▁That	-10.1566
▁doctor	-10.1579
▁Age	-10.1584
▁mother	-10.1588
▁Oct	-10.16
▁operat	-10.1605
▁app	-10.1606
▁interests	-10.1618
▁primar	-10.1618
from	-10.1619
▁city	-10.1619
▁preferences	-10.162
▁Gul	-10.1628
▁BJP	-10.1637
▁seven	-10.1637
wamy	-10.1638
▁navigation	-10.1639
▁gain	-10.1639
▁Guides	-10.1641
▁ask	-10.1648
▁fields	-10.165
▁Japan	-10.1662
▁left	-10.1675
▁normal	-10.1678
▁temporary	-10.1697
▁She	-10.1701
clear	-10.1709
▁suit	-10.1712
▁systems	-10.1713
▁events	-10.1718
▁steps	-10.1724
year	-10.1729
▁Hand	-10.1731
▁issues	-10.1734
▁consequent	-10.1737
thing	-10.1737
▁u	-10.1739
fully	-10.1739
▁Kidneyin	-10.1746
house	-10.1754
xplanation	-10.1756
▁Par	-10.176
▁areas	-10.1767
asha	-10.1773
▁toleran	-10.1781
▁air	-10.179
▁hot	-10.179
ip	-10.1796
▁add	-10.1799
▁Ad	-10.1821
Ltd	-10.1824
info	-10.1827
▁divers	-10.1836
▁Men	-10.1838
Years	-10.1847
Other	-10.1848
arga	-10.185
`	-10.1852
invalid	-10.1856
▁proper	-10.1859
ES	-10.186
same	-10.186
▁Abhi	-10.1863
Move	-10.1873
watch	-10.1875
HC	-10.1881
wah	-10.1885
Do	-10.1892
Å	-10.1903
ri	-10.1905
ud	-10.1931
ocus	-10.1931
▁Scientific	-10.1945
Hd	-10.1951
default	-10.1951
om	-10.1959
▁Wide	-10.1983
ments	-10.2
feed	-10.201
▁Date	-10.2031
▁su	-10.205
▁deleted	-10.2053
▁prior	-10.2069
emaining	-10.2073
ory	-10.2074
▁cancel	-10.208
creation	-10.2082
per	-10.2097
ence	-10.2098
é	-10.2156
▁able	-10.2159
▁Test	-10.216
ritical	-10.2182
ably	-10.2202
▁document	-10.2205
be	-10.2212
▁movie	-10.2212
}{	-10.2216
▁FAQ	-10.2227
▁Sport	-10.2238
▁Film	-10.224
▁insurer	-10.2242
å	-10.2242
▁Career	-10.2243
▁item	-10.2244
▁student	-10.2254
▁let	-10.226
▁discount	-10.2264
▁animal	-10.2264
n̪d̪	-10.2269
▁Join	-10.2276
▁Answer	-10.2295
▁believe	-10.2306
▁opportunit	-10.2307
▁Burglar	-10.2307
▁map	-10.2309
kar	-10.2312
min	-10.2312
ey	-10.2315
ا	-10.2316
▁Region	-10.2316
▁increase	-10.2317
▁card	-10.2322
▁concept	-10.2323
ε	-10.2325
ر	-10.2325
ঔৣ	-10.2325
▁potential	-10.2325
✞	-10.2325
resetpass	-10.2325
▁Biswa	-10.2325
▁second	-10.2325
▁fundamental	-10.2325
▁Melons	-10.2325
▁Ebony	-10.2325
▁Style	-10.2325
▁kidney	-10.2325
▁Mediclaim	-10.2325
▁Coronavirus	-10.2325
▁Recitation	-10.2325
Munajjid	-10.2325
▁court	-10.2325
▁Infill	-10.2326
▁Monster	-10.2326
▁Property	-10.2326
▁stories	-10.2326
▁separate	-10.2326
▁compensation	-10.2326
▁avail	-10.2326
▁established	-10.2326
▁invasion	-10.2327
▁Garg	-10.2327
▁Panty	-10.2327
▁significant	-10.2327
▁occurrence	-10.2327
▁installation	-10.2327
▁happen	-10.2329
▁$$\	-10.2329
▁Machinery	-10.2329
▁indirectly	-10.2329
▁Today	-10.2329
▁Text	-10.233
▁Hadiths	-10.233
▁Satin	-10.233
▁appro	-10.2332
▁Daily	-10.2332
▁Become	-10.2332
header	-10.2333
▁unfor	-10.2334
▁ال	-10.2334
▁Nara	-10.2334
▁stay	-10.2335
stream	-10.2336
▁View	-10.2336
▁Ha	-10.2337
▁correct	-10.2337
▁Maid	-10.2338
IN	-10.2338
▁Banging	-10.2341
▁Forest	-10.2341
specialpages	-10.2343
yer	-10.2344
▁NQ	-10.2344
▁enable	-10.2346
▁blog	-10.2349
unknown	-10.235
▁Swas	-10.235
▁pressure	-10.2353
▁Hunter	-10.2357
▁series	-10.2357
▁Kids	-10.2357
▁Oriya	-10.2359
ENAME	-10.236
eseen	-10.2362
▁WE	-10.2372
▁Emo	-10.238
▁Key	-10.238
▁fees	-10.2384
▁bill	-10.2385
struction	-10.2386
▁Kidney	-10.2386
▁Constitution	-10.2389
▁Marathi	-10.2399
▁Tuesday	-10.2399
▁Quality	-10.2399
▁Tinsukia	-10.2399
▁East	-10.24
ctn	-10.24
▁Bathing	-10.2401
▁USD	-10.2405
▁insurers	-10.2414
▁contractor	-10.2414
▁root	-10.2415
ass	-10.2415
ru	-10.2427
umulat	-10.2428
▁courses	-10.2432
tory	-10.2436
▁offering	-10.2444
▁CB	-10.2454
▁n	-10.2458
sim	-10.2462
ice	-10.2462
▁Doll	-10.2473
liss	-10.2474
▁DOC	-10.248
▁drink	-10.2484
▁menu	-10.2486
ana	-10.2493
pri	-10.2495
▁removed	-10.2496
ior	-10.2497
ill	-10.2504
news	-10.2506
your	-10.2507
haracteristics	-10.2508
▁Long	-10.2517
▁hold	-10.2517
▁goods	-10.2519
yan	-10.252
▁vision	-10.2527
ME	-10.2535
▁Christ	-10.254
dvice	-10.2544
▁mark	-10.2545
anit	-10.2559
ga	-10.2559
▁weeks	-10.2561
▁Enter	-10.2562
▁hospitals	-10.2566
▁voyeur	-10.2575
▁Plan	-10.2579
endra	-10.258
▁Annual	-10.2586
▁Se	-10.2601
File	-10.261
▁conduct	-10.2622
ung	-10.2624
do	-10.2627
angle	-10.2627
▁practice	-10.2631
▁Movies	-10.2647
pages	-10.265
▁moved	-10.2658
All	-10.2659
▁Babes	-10.2659
▁sections	-10.2664
▁Var	-10.267
tv	-10.2673
end	-10.2675
▁receiv	-10.2678
war	-10.268
.'''	-10.2681
▁sales	-10.2686
lah	-10.269
▁Love	-10.2702
Error	-10.2705
III	-10.272
ability	-10.2723
Privacy	-10.2731
Development	-10.2745
hyam	-10.2745
CM	-10.2746
pcs	-10.2771
▁Krishna	-10.2792
key	-10.2793
▁allow	-10.2794
our	-10.2797
▁invalid	-10.2814
▁tab	-10.2818
▁Peac	-10.2821
▁ISO	-10.283
▁exists	-10.2832
▁Com	-10.2849
of	-10.2871
▁journal	-10.2871
▁pass	-10.2885
full	-10.29
rup	-10.2907
▁Eas	-10.291
▁Alex	-10.291
▁Mail	-10.292
▁Start	-10.2935
▁Cy	-10.2943
ropagat	-10.2943
tal	-10.2945
her	-10.2946
▁orders	-10.2962
ave	-10.2969
▁rate	-10.2973
▁fall	-10.299
rd	-10.2991
ac	-10.2998
▁final	-10.2999
ʊ	-10.3011
ib	-10.3017
▁Na	-10.302
▁committe	-10.302
▁Custom	-10.3045
▁thing	-10.3046
▁follow	-10.3053
▁Step	-10.3053
’.	-10.3058
▁lesbian	-10.3064
ৰ	-10.3071
data	-10.3072
▁Bha	-10.3078
.,	-10.308
▁IT	-10.3085
▁exam	-10.31
▁cause	-10.312
llah	-10.3126
▁da	-10.3129
▁Thank	-10.3141
▁Issue	-10.3145
▁leas	-10.3147
▁Gold	-10.3171
▁inform	-10.3175
▁encourage	-10.3183
▁Direct	-10.3193
▁Market	-10.3193
▁Mon	-10.32
▁Patent	-10.32
rave	-10.3203
▁six	-10.3208
▁affect	-10.3209
whe	-10.3212
▁Ya	-10.3218
▁born	-10.3223
▁Will	-10.3224
▁extra	-10.3225
sed	-10.3226
▁IRDA	-10.3232
₭	-10.3234
pa	-10.3234
◤	-10.3234
Bongaigaon	-10.3234
ë	-10.3234
ن	-10.3234
▁Bloopers	-10.3234
▁Iffco	-10.3234
▁Undressing	-10.3234
▁landslide	-10.3234
▁Branch	-10.3234
▁Hospitalisation	-10.3234
▁Maharashtra	-10.3234
▁economy	-10.3234
▁breakdown	-10.3234
▁Ahmad	-10.3234
▁filmmaker	-10.3234
▁Suvidha	-10.3234
▁alleged	-10.3234
▁blood	-10.3234
▁Guidance	-10.3234
▁Street	-10.3234
flix	-10.3234
▁Dildo	-10.3234
▁whatsoever	-10.3234
▁prophet	-10.3234
▁Growth	-10.3234
▁Modi	-10.3235
▁injuries	-10.3235
▁Hottest	-10.3235
▁Scholarship	-10.3235
▁Policies	-10.3235
▁NEWS	-10.3235
▁Major	-10.3235
▁duration	-10.3235
▁Companies	-10.3235
▁strive	-10.3235
▁Foundation	-10.3235
▁chief	-10.3235
▁Savera	-10.3235
▁Prasad	-10.3236
▁cancellation	-10.3236
▁bonus	-10.3236
▁Corrupt	-10.3236
▁positive	-10.3236
▁push	-10.3236
▁Tez	-10.3237
▁Abused	-10.3237
▁Letter	-10.3238
▁Uncle	-10.3238
▁Menu	-10.3238
Amendment	-10.3238
▁season	-10.3239
▁Knowl	-10.3239
▁Master	-10.324
▁Whip	-10.324
▁Rhy	-10.3241
▁Umra	-10.3242
▁successfully	-10.3242
ɛ̝n̺	-10.3242
▁Abel	-10.3243
▁later	-10.3243
▁getting	-10.3244
▁CIN	-10.3244
▁select	-10.3244
▁Operation	-10.3246
▁generate	-10.3246
▁thereof	-10.3246
▁Fula	-10.3246
▁decision	-10.3249
▁yet	-10.3249
▁Speed	-10.325
▁connect	-10.3254
▁opportunity	-10.3254
lic	-10.3257
▁Creed	-10.3257
▁cyclone	-10.3261
▁increased	-10.3261
▁agreement	-10.3263
▁hardcore	-10.3263
▁centres	-10.3265
▁Fetish	-10.3268
▁Rodali	-10.3268
▁homemade	-10.3268
▁Brutal	-10.3269
▁fisting	-10.327
▁Mask	-10.3273
▁Forum	-10.3277
with	-10.3278
▁located	-10.328
▁Regional	-10.3281
▁informed	-10.3285
▁Lawful	-10.3285
▁purchase	-10.3285
▁culture	-10.3286
প	-10.3287
lo	-10.3289
▁started	-10.3292
▁accepted	-10.3294
▁cum	-10.3297
▁Low	-10.33
▁Ba	-10.33
▁intend	-10.3301
▁Mun	-10.3303
▁turn	-10.3305
▁Change	-10.3311
still	-10.3314
▁Audio	-10.3316
▁Massage	-10.3316
▁stated	-10.3318
▁numbers	-10.3319
▁Buy	-10.3321
▁skin	-10.3328
▁factor	-10.3335
▁Don	-10.3338
▁wait	-10.3342
▁aware	-10.3342
▁stock	-10.3344
▁exchange	-10.3345
▁Jun	-10.3348
▁Dai	-10.3351
▁Festivals	-10.3352
▁Kyr	-10.3353
▁male	-10.336
▁Options	-10.3361
▁prime	-10.3362
▁TO	-10.3365
▁live	-10.3367
▁Uni	-10.3368
▁grant	-10.3369
▁sources	-10.3375
▁asian	-10.3378
tional	-10.338
▁Hi	-10.3391
FT	-10.3392
ves	-10.3406
▁Hidden	-10.3409
▁Tuber	-10.3411
▁limited	-10.3422
▁Pra	-10.343
ped	-10.345
bit	-10.3469
▁Petite	-10.3472
);	-10.3476
▁hear	-10.3478
▁Po	-10.3483
▁portal	-10.3497
▁Du	-10.3498
Page	-10.3499
▁Basi	-10.3507
▁moral	-10.3512
▁Hell	-10.3513
▁ba	-10.3515
zed	-10.3518
▁com	-10.3525
ine	-10.3527
bar	-10.3546
▁put	-10.3549
▁Tam	-10.3552
India	-10.3564
▁Image	-10.3567
ond	-10.3588
▁secure	-10.3591
Assam	-10.3591
aziranga	-10.3612
box	-10.3616
ম	-10.3621
▁Dept	-10.3624
ishvas	-10.3641
revision	-10.3662
ousebreaking	-10.3672
code	-10.368
set	-10.3691
side	-10.3691
▁constant	-10.3702
content	-10.3709
▁tense	-10.3709
count	-10.3711
▁focus	-10.3721
ening	-10.3722
▁Hard	-10.3724
twenty	-10.3725
꧁	-10.3732
▁sites	-10.3734
China	-10.3742
redirect	-10.3742
March	-10.3742
preview	-10.3745
▁Bh	-10.3745
HM	-10.3756
—	-10.3759
GB	-10.3772
level	-10.3777
ttachment	-10.3779
▁`	-10.378
▁auto	-10.3789
blocked	-10.3789
Create	-10.3809
ological	-10.3815
▁force	-10.3819
▁bus	-10.3825
▁Tag	-10.3846
▁ac	-10.3855
AH	-10.3859
▁id	-10.386
pussy	-10.387
ashless	-10.3872
section	-10.3896
▁sen	-10.3903
ʌɾ	-10.391
ika	-10.3949
▁o	-10.3956
vā	-10.3971
▁Nam	-10.3973
▁creat	-10.3987
ol	-10.3987
▁editor	-10.3988
ata	-10.4002
▁Kar	-10.402
▁TRAD	-10.4025
▁Sub	-10.4036
▁Sur	-10.4059
ñ	-10.4059
▁enem	-10.4061
im	-10.4078
▁achieve	-10.4116
▁li	-10.4116
▁fraud	-10.4123
▁channel	-10.4132
▁photo	-10.414
▁procedure	-10.4144
▁Application	-10.4144
▁AN	-10.4145
▁fast	-10.4152
▁bridge	-10.4159
tha	-10.4162
ula	-10.4162
▁associate	-10.4162
usha	-10.4162
lady	-10.4163
ᴀ	-10.4166
▁remain	-10.4191
ç	-10.4202
mi	-10.4207
▁led	-10.4209
Watch	-10.4223
▁difficult	-10.4231
▁Jul	-10.4231
jump	-10.4231
▁household	-10.4231
▁provider	-10.4232
▁SunPorno	-10.4233
claim	-10.4234
¥	-10.4234
ۣۜ	-10.4234
Rajasthan	-10.4234
ش	-10.4234
▁Armenian	-10.4234
▁Bengaluru	-10.4234
▁Comprehensive	-10.4234
▁Escort	-10.4234
▁Hazarika	-10.4234
▁Menstrua	-10.4234
▁Nullifiers	-10.4234
▁Vocabulary	-10.4234
▁Yojna	-10.4234
▁depreciation	-10.4234
▁french	-10.4234
▁platform	-10.4234
▁robbery	-10.4234
▁scientist	-10.4234
▁subsequent	-10.4234
࿐	-10.4234
▁Bizarre	-10.4234
▁Speculum	-10.4234
▁Venkata	-10.4234
▁bathroom	-10.4234
▁certificate	-10.4234
ê	-10.4234
▁Dancing	-10.4234
▁Fundamental	-10.4234
▁Grandpa	-10.4234
▁Celebrity	-10.4234
҉	-10.4234
☠︎	-10.4234
▁Juggs	-10.4234
▁Dutta	-10.4234
▁Khabar	-10.4234
▁Natural	-10.4234
▁Morning	-10.4234
▁Record	-10.4234
▁identity	-10.4234
▁revolution	-10.4234
▁Stunning	-10.4234
▁Election	-10.4234
▁Quote	-10.4235
▁Justice	-10.4235
▁Clause	-10.4235
▁domestic	-10.4235
▁importance	-10.4235
▁Srinivas	-10.4235
▁storage	-10.4235
▁authorities	-10.4235
▁array	-10.4235
▁signature	-10.4235
▁Canva	-10.4235
▁circumstances	-10.4235
▁Bhargava	-10.4235
▁Mahanta	-10.4236
▁Bareback	-10.4236
▁hotel	-10.4237
▁itself	-10.4237
▁Bride	-10.4237
zeta	-10.4237
▁average	-10.4237
▁welcome	-10.4237
▁machinery	-10.4238
▁Russian	-10.4239
▁weather	-10.4239
▁Temple	-10.4239
▁PQ	-10.424
▁brother	-10.424
▁Mohamm	-10.424
▁FOR	-10.424
▁Pickups	-10.424
▁Min	-10.424
▁rebel	-10.424
▁accessories	-10.424
▁Weight	-10.4241
▁Jerking	-10.4241
▁Insurer	-10.4241
▁Authority	-10.4242
▁approval	-10.4243
lingual	-10.4243
▁agree	-10.4244
▁aim	-10.4244
toxic	-10.4246
▁anything	-10.4247
▁publishers	-10.4248
▁tough	-10.4249
▁dead	-10.4251
▁consideration	-10.4251
▁Base	-10.4251
▁reserved	-10.4252
▁CMI	-10.4258
▁multiple	-10.4259
▁Boiler	-10.4261
Q	-10.4264
▁Mother	-10.4265
▁notification	-10.4267
▁◥	-10.4268
▁usage	-10.4268
iaomi	-10.4269
▁meaning	-10.4269
▁translators	-10.427
▁why	-10.4271
▁Socks	-10.4271
▁bisexual	-10.4271
▁Mistress	-10.4272
▁magazine	-10.4272
▁Exotic	-10.4272
▁rare	-10.4274
▁Protection	-10.4274
▁Aug	-10.4278
▁activity	-10.4278
▁Have	-10.4279
▁fill	-10.4281
▁pe	-10.4286
▁solutions	-10.4288
▁included	-10.4291
▁San	-10.4294
▁passed	-10.4297
technical	-10.4299
▁glass	-10.43
▁Period	-10.43
▁Oiled	-10.4301
▁ratio	-10.4304
▁Experienced	-10.4305
▁License	-10.4308
ot	-10.4313
uring	-10.4315
▁college	-10.4322
▁fuel	-10.4322
▁Nirmal	-10.4323
▁carry	-10.4325
▁lack	-10.4326
▁tabs	-10.4327
▁Honor	-10.433
article	-10.433
▁tits	-10.4331
▁IDV	-10.4333
bus	-10.4334
em	-10.4337
▁minutes	-10.4347
▁Sach	-10.4354
ubs	-10.4355
▁reported	-10.436
OS	-10.4366
▁User	-10.437
▁Rate	-10.4371
▁Mumbai	-10.4375
always	-10.4379
▁Install	-10.4392
▁Punjabi	-10.4394
▁jobs	-10.4394
▁changed	-10.4402
▁Song	-10.441
▁spread	-10.4412
▁late	-10.4412
▁word	-10.4416
▁Bound	-10.4416
▁points	-10.442
া	-10.4426
▁came	-10.4427
▁width	-10.4427
▁feedback	-10.4427
rg	-10.4434
▁success	-10.4434
▁Oldy	-10.4444
ultiple	-10.4448
▁seal	-10.4459
ci	-10.4466
▁reinstate	-10.4466
▁sexy	-10.4466
▁reset	-10.447
▁Services	-10.4473
▁shr	-10.4474
▁reward	-10.448
▁Muf	-10.448
DM	-10.4494
licensed	-10.4513
ite	-10.452
▁External	-10.4533
ification	-10.4533
▁THE	-10.4543
nta	-10.4545
ck	-10.4545
▁Coed	-10.4547
▁anti	-10.4548
reset	-10.4549
lion	-10.455
rought	-10.456
▁treat	-10.4568
▁tool	-10.4569
▁format	-10.4574
▁comment	-10.458
▁Login	-10.4598
▁Red	-10.4608
dB	-10.4628
▁constitute	-10.4628
▁ad	-10.4632
▁men	-10.4633
▁Fast	-10.4643
▁author	-10.4652
que	-10.4654
▁quote	-10.4658
".	-10.4662
▁method	-10.4666
ä	-10.467
▁package	-10.4671
▁Cl	-10.4672
▁titles	-10.4674
da	-10.4687
merge	-10.4691
▁doing	-10.4697
▁cam	-10.4705
▁stand	-10.471
āya	-10.4715
▁double	-10.4715
nik	-10.4718
▁Her	-10.4727
▁contribute	-10.4731
,"	-10.4737
▁Fur	-10.4748
▁iP	-10.4752
For	-10.4764
▁Cre	-10.4792
▁blocked	-10.4793
short	-10.48
ollution	-10.4802
)="	-10.4815
Governance	-10.4821
▁Tra	-10.4824
block	-10.4825
including	-10.4831
pdf	-10.4832
part	-10.4832
power	-10.4834
we	-10.4842
Project	-10.4843
IT	-10.4845
▁Cam	-10.4853
Name	-10.4854
Latest	-10.4856
project	-10.4865
Small	-10.4865
HV	-10.4867
od	-10.4872
ery	-10.4878
water	-10.4889
▁vs	-10.4898
ailway	-10.4907
Use	-10.4923
▁Main	-10.4929
▁Bed	-10.4932
▁DAB	-10.4951
▁Trans	-10.4953
options	-10.4979
arriage	-10.4987
▁ever	-10.4995
▁lot	-10.4996
ita	-10.5008
days	-10.5017
▁useful	-10.502
men	-10.5034
▁Info	-10.5034
ু	-10.5037
′′	-10.5041
▁muscle	-10.5068
.”	-10.5069
▁Ro	-10.5071
mon	-10.5073
ora	-10.5084
reach	-10.5084
▁FI	-10.5087
▁Ap	-10.509
OUR	-10.5098
▁Kam	-10.5108
gen	-10.5116
cha	-10.512
▁Ar	-10.5127
▁lives	-10.5134
▁occur	-10.5151
▁Back	-10.5152
▁groups	-10.5162
rity	-10.518
▁rest	-10.5187
ai	-10.519
▁Publish	-10.5195
▁discuss	-10.5198
▁Fact	-10.5202
utch	-10.5203
▁handl	-10.5214
▁Cor	-10.5229
har	-10.523
▁performance	-10.5235
ms	-10.5245
▁spirit	-10.5248
▁reference	-10.5248
mes	-10.525
▁program	-10.5251
▁Solution	-10.5251
▁picture	-10.5252
▁occasion	-10.5253
▁consumer	-10.5255
WD	-10.5257
▁Right	-10.5263
▁leader	-10.5265
edits	-10.5272
▁dependent	-10.5274
hu	-10.5277
▁fun	-10.5302
▁goal	-10.5304
ET	-10.5306
ab	-10.531
ole	-10.5322
num	-10.5328
▁hair	-10.5333
▁immediate	-10.5336
▁copy	-10.5339
▁Chick	-10.5342
Ł	-10.5345
▁chinese	-10.5345
Ï	-10.5345
▁Alphabet	-10.5345
▁Cloud	-10.5345
▁Opacity	-10.5345
▁Orgasm	-10.5345
▁Oxford	-10.5345
▁Sitharaman	-10.5345
▁Yoruba	-10.5345
▁fittings	-10.5345
▁journey	-10.5345
▁proportion	-10.5345
▁religion	-10.5345
γ	-10.5345
۝	-10.5345
ো	-10.5345
▁Toilet	-10.5345
▁couple	-10.5345
qbsettings	-10.5345
▁Ladies	-10.5345
▁Software	-10.5345
▁honour	-10.5345
▁framework	-10.5345
▁ABOUT	-10.5345
▁Groped	-10.5345
▁Ukrainian	-10.5345
▁Assistant	-10.5345
▁Subscribe	-10.5345
▁behind	-10.5345
▁deceased	-10.5345
▁HPV	-10.5345
▁LIABILITY	-10.5345
▁Volume	-10.5345
▁choice	-10.5345
▁Garlic	-10.5345
▁Perky	-10.5345
▁Rubber	-10.5345
▁Turkish	-10.5345
▁freight	-10.5345
▁freak	-10.5345
▁browsing	-10.5345
▁hostilities	-10.5345
▁confiscation	-10.5345
▁exercise	-10.5345
▁impact	-10.5345
▁Miniskirt	-10.5346
▁URL	-10.5346
▁facilities	-10.5346
▁Annie	-10.5346
▁president	-10.5346
▁internet	-10.5346
▁Introduction	-10.5346
metadata	-10.5346
userrights	-10.5346
gateway	-10.5346
▁Mohammad	-10.5346
▁studies	-10.5346
▁Narayan	-10.5346
▁bear	-10.5346
guidance	-10.5346
▁burglary	-10.5347
▁AWG	-10.5347
▁valuable	-10.5347
▁Fitter	-10.5347
▁Arrested	-10.5347
▁Radio	-10.5347
▁Puneet	-10.5348
▁Strapon	-10.5348
▁consent	-10.5348
▁identify	-10.5348
▁Bosnian	-10.5348
▁HIV	-10.5348
▁creative	-10.5348
▁Electronic	-10.5349
▁Sharma	-10.5349
▁Oja	-10.5349
▁Assistance	-10.5349
▁proposal	-10.535
▁Manager	-10.535
Redirect	-10.535
▁Store	-10.535
▁secret	-10.535
▁Medhi	-10.535
▁arrested	-10.535
▁latest	-10.535
▁characteristics	-10.5351
▁CAB	-10.5352
▁affiliates	-10.5352
▁Spit	-10.5352
▁Parents	-10.5352
▁true	-10.5353
▁Stud	-10.5354
▁Although	-10.5354
fox	-10.5356
▁consist	-10.5358
ka	-10.5359
▁Finance	-10.536
▁Peeing	-10.536
▁recently	-10.536
▁Spec	-10.536
▁Uphol	-10.536
▁screen	-10.536
▁greater	-10.5362
▁Amit	-10.5363
▁decades	-10.5363
▁input	-10.5364
▁reduced	-10.5364
▁installed	-10.5364
▁Casting	-10.5364
▁occurred	-10.5365
▁income	-10.5366
]]"	-10.5367
▁metal	-10.5368
▁Drilled	-10.5371
ANY	-10.5375
matsu	-10.5377
▁এ	-10.538
ong	-10.5382
mechanical	-10.5383
▁dialysis	-10.5383
▁Second	-10.5386
▁registration	-10.5386
▁Husband	-10.5386
▁Heels	-10.5386
▁maintenance	-10.5386
▁Bisexual	-10.5387
▁classroom	-10.5387
▁Chairman	-10.5387
▁beautiful	-10.5387
▁boy	-10.5387
▁Payment	-10.5387
▁Dorm	-10.5388
▁novel	-10.5388
CCI	-10.5389
▁track	-10.539
▁schoolgirl	-10.5391
▁virgins	-10.5392
▁Zoo	-10.5394
▁mov	-10.5394
▁charged	-10.5396
▁Rain	-10.54
▁partial	-10.5405
▁Benefits	-10.5406
▁Researchers	-10.5412
▁researched	-10.5416
voyeur	-10.5418
▁affected	-10.5418
mobile	-10.5418
▁concerns	-10.5426
▁rules	-10.5429
▁successful	-10.5432
▁Kush	-10.5436
▁consumers	-10.5438
▁Brunette	-10.5443
▁CSIR	-10.5443
▁granny	-10.5444
▁Learning	-10.5444
▁Definition	-10.5445
▁complex	-10.5445
▁Room	-10.5445
▁Hail	-10.5447
▁defects	-10.5447
▁rule	-10.5452
▁expand	-10.5457
▁gold	-10.5458
▁organized	-10.5461
▁XP	-10.5462
▁causes	-10.5462
sha	-10.5463
TER	-10.5465
ITI	-10.5469
▁Rash	-10.5477
▁los	-10.5491
▁crores	-10.5492
▁organizations	-10.5493
af	-10.5495
▁Apps	-10.5495
ied	-10.5496
▁reading	-10.55
▁mean	-10.5501
▁ECG	-10.5501
▁submitt	-10.5502
▁vintage	-10.5502
▁windows	-10.5504
elcome	-10.5504
▁extension	-10.5505
ipb	-10.5507
▁Baby	-10.5508
▁username	-10.5509
▁wear	-10.5511
▁dildo	-10.5512
tinguish	-10.5512
▁Politics	-10.5514
op	-10.5516
▁digit	-10.5517
▁Pi	-10.5521
▁Toy	-10.5524
▁space	-10.5531
▁Send	-10.5533
ping	-10.5535
▁functions	-10.5536
▁semi	-10.5537
▁Tele	-10.5542
▁Net	-10.5542
▁Directors	-10.5545
▁NO	-10.5548
ositive	-10.5548
ector	-10.5555
▁sustain	-10.5558
▁Action	-10.5559
vind	-10.5564
▁supported	-10.5566
Porn	-10.5568
achal	-10.5569
▁stop	-10.5577
AL	-10.5577
▁copyright	-10.558
▁server	-10.5581
▁Mis	-10.5598
▁revisions	-10.5604
▁ha	-10.561
▁fam	-10.5611
▁mission	-10.5616
▁disabled	-10.5623
SON	-10.5624
:\$	-10.5629
▁Shiva	-10.5642
ony	-10.5648
▁Dey	-10.5652
ankaj	-10.5654
▁Lo	-10.5663
▁আ	-10.5663
nanda	-10.5666
▁messages	-10.5667
▁rent	-10.5671
▁Easter	-10.5673
▁unexpected	-10.568
▁Sanj	-10.5683
▁NB	-10.5686
wa	-10.569
ital	-10.5692
}}_	-10.5698
mature	-10.5708
▁celebrate	-10.571
▁Prag	-10.5716
▁Fo	-10.5725
▁promot	-10.5729
ut	-10.5735
▁mail	-10.5739
NV	-10.574
▁Neha	-10.5741
▁reasons	-10.5741
▁easi	-10.5751
stored	-10.5774
mo	-10.5777
ull	-10.5783
arendra	-10.5787
TR	-10.5798
ley	-10.58
▁va	-10.5803
ph	-10.5806
uty	-10.5807
▁Shi	-10.5823
▁login	-10.5825
▁literar	-10.5833
▁RE	-10.5844
▁Small	-10.5847
mum	-10.5854
▁Fa	-10.5855
ver	-10.5863
titled	-10.5865
PA	-10.587
▁prepare	-10.5882
number	-10.5885
▁Ag	-10.5886
di	-10.589
▁Mah	-10.5902
▁tests	-10.5902
had	-10.5913
NCB	-10.5918
ö	-10.5927
▁hd	-10.5928
cant	-10.593
▁Hy	-10.5931
Assamese	-10.5932
actions	-10.5936
site	-10.5952
▁Seed	-10.5954
▁Rack	-10.5974
tip	-10.5986
stocking	-10.5989
▁Medi	-10.5996
PO	-10.6001
fare	-10.6003
What	-10.6004
▁Cr	-10.6007
LC	-10.6012
▁sure	-10.6014
▁accounts	-10.6026
appiness	-10.604
▁Dep	-10.6041
ল	-10.6044
Book	-10.6053
Drive	-10.6059
zu	-10.606
lit	-10.6061
▁refu	-10.6062
Add	-10.6068
▁play	-10.6069
Sex	-10.607
micro	-10.6088
How	-10.6091
class	-10.6095
modified	-10.6103
â	-10.6104
http	-10.611
summary	-10.6117
<	-10.6119
▁ca	-10.612
▁info	-10.612
গ	-10.6123
▁±	-10.6128
▁Br	-10.6139
▁populariz	-10.6141
temporary	-10.6142
▁Poste	-10.6149
▁ability	-10.6161
ide	-10.6178
comment	-10.6179
}}:	-10.6187
▁names	-10.6188
exists	-10.6196
n̺	-10.6213
▁ALL	-10.622
▁ch	-10.6222
pping	-10.6225
▁Christian	-10.6234
▁celebrat	-10.624
$$,	-10.6241
▁declare	-10.6243
ball	-10.625
got	-10.6264
SM	-10.6268
links	-10.6272
ased	-10.6276
avali	-10.6284
▁unit	-10.6307
▁define	-10.631
▁Allie	-10.6314
▁engage	-10.632
▁Ke	-10.6321
source	-10.6327
having	-10.6328
ap	-10.6332
Pages	-10.6334
▁Further	-10.634
▁refer	-10.6343
nship	-10.6354
▁host	-10.637
ferred	-10.6378
mong	-10.6379
▁move	-10.6388
▁accidents	-10.639
ylla	-10.6392
▁Shy	-10.6408
ATION	-10.6412
▁port	-10.6421
ring	-10.6421
rk	-10.6431
table	-10.6432
▁cross	-10.6433
▁expect	-10.6438
hield	-10.6441
▁defect	-10.6453
▁PRO	-10.6456
▁cons	-10.6457
▁feature	-10.6478
▁Exam	-10.6482
▁Wah	-10.6483
▁Flood	-10.6485
led	-10.6488
▁electronic	-10.6492
▁Grievance	-10.6492
▁object	-10.6494
▁relationship	-10.6497
auto	-10.65
▁holder	-10.6505
▁concern	-10.6505
▁Archive	-10.6506
▁whole	-10.6507
▁crop	-10.651
▁repair	-10.6514
times	-10.6524
▁matter	-10.6535
্	-10.6535
▁meant	-10.6537
▁Like	-10.6538
è	-10.6541
▁Program	-10.6542
▁Drill	-10.6543
teen	-10.6543
▁deliver	-10.6548
▁clean	-10.6563
▁writer	-10.6565
▁Tim	-10.6567
▁adjust	-10.6567
▁Real	-10.6568
▁reserve	-10.6573
▁lecture	-10.6578
ould	-10.6583
US	-10.6584
▁Doct	-10.6587
ee	-10.6589
talkpage	-10.659
▁transport	-10.6592
̷	-10.6595
ù	-10.6595
⋆	-10.6595
ă	-10.6595
ï	-10.6595
ᴋ	-10.6595
▁Explosion	-10.6595
▁little	-10.6595
▁உ	-10.6595
Arfaj	-10.6595
Qahtani	-10.6595
Đ	-10.6595
ũ	-10.6595
ಲ	-10.6595
ೆ	-10.6595
ཌ	-10.6595
▁Athletic	-10.6595
▁Because	-10.6595
▁Brahmaputra	-10.6595
▁Casablanca	-10.6595
▁Cinema	-10.6595
▁Corporate	-10.6595
▁Cylinder	-10.6595
▁Disclaimer	-10.6595
▁Flirt	-10.6595
▁Lingerie	-10.6595
▁Munjal	-10.6595
▁Opportunity	-10.6595
▁Schedule	-10.6595
▁Sensual	-10.6595
▁Stepmom	-10.6595
▁Veblr	-10.6595
▁aggregate	-10.6595
▁contamination	-10.6595
▁encyclopedia	-10.6595
▁marvel	-10.6595
▁perfect	-10.6595
▁ˀ	-10.6595
❯	-10.6595
𒆜	-10.6595
▁Chengdu	-10.6595
▁Kerala	-10.6595
▁Lipstick	-10.6595
▁ULFA	-10.6595
▁essential	-10.6595
▁menstrua	-10.6595
▁protocol	-10.6595
▁Daniel	-10.6595
▁Military	-10.6595
▁fashion	-10.6595
▁medicine	-10.6595
▁extensive	-10.6595
▁Leashed	-10.6595
▁responsibility	-10.6595
▁Airport	-10.6595
▁Uzbek	-10.6595
▁terrorism	-10.6595
▁Beaver	-10.6595
▁Grandma	-10.6595
▁Western	-10.6595
▁Ramadan	-10.6595
▁narrow	-10.6595
▁resolution	-10.6595
▁Safety	-10.6596
▁presence	-10.6596
▁Rocco	-10.6596
▁TWR	-10.6596
▁Torture	-10.6596
▁currency	-10.6596
▁Address	-10.6596
▁disclosure	-10.6596
▁Hungary	-10.6596
▁admitted	-10.6596
▁exclusive	-10.6596
createaccount	-10.6596
}+\	-10.6596
▁citation	-10.6596
▁Woman	-10.6596
▁Therefore	-10.6596
sqm	-10.6596
▁Risk	-10.6596
▁Obese	-10.6596
▁packing	-10.6596
▁Helpline	-10.6597
▁Malaysian	-10.6597
▁Horn	-10.6597
▁Speaking	-10.6597
▁diagnostic	-10.6597
▁transit	-10.6597
▁living	-10.6597
▁Engage	-10.6597
▁Humid	-10.6597
▁Innovation	-10.6597
▁Week	-10.6598
▁accused	-10.6598
▁Studies	-10.6599
login	-10.6599
▁however	-10.6599
▁Czechia	-10.6599
▁Providing	-10.6599
▁Three	-10.6599
▁Tips	-10.6599
▁nerv	-10.66
▁railway	-10.6601
▁instruments	-10.6601
▁Green	-10.6602
▁pulla	-10.6602
▁Boots	-10.6602
▁virtual	-10.6602
▁Swallow	-10.6603
▁continuous	-10.6605
▁Australian	-10.6605
▁Clear	-10.6607
Sorry	-10.6608
▁Married	-10.6608
▁ruling	-10.6609
▁Training	-10.6609
▁belonging	-10.661
▁Mathematician	-10.661
▁Credit	-10.6611
▁Drinking	-10.6612
▁Islands	-10.6614
argument	-10.6614
▁Just	-10.6614
▁agriculture	-10.6615
closing	-10.6616
▁Max	-10.6616
▁Agent	-10.6617
▁Sharing	-10.6618
▁Paris	-10.6619
▁Boxing	-10.6619
▁Alien	-10.6619
▁aspects	-10.6619
▁Electrical	-10.662
▁Pool	-10.6623
▁Nov	-10.6623
IP	-10.6623
__	-10.6624
▁advice	-10.6624
▁agreed	-10.6625
ebony	-10.6627
▁Religions	-10.6627
▁manufacturer	-10.6628
▁Board	-10.6628
▁Goals	-10.663
▁Apr	-10.663
▁wave	-10.6632
▁extend	-10.6635
▁Administrator	-10.6636
▁Chain	-10.6636
▁Pale	-10.6637
▁noun	-10.6639
rines	-10.6639
▁OEM	-10.664
▁birth	-10.664
▁Bulbs	-10.6641
▁Kalkim	-10.6641
▁Rupabham	-10.6641
▁Taboo	-10.6641
▁Reinstate	-10.6642
▁joined	-10.6642
▁assignment	-10.6642
▁Important	-10.6642
▁replacement	-10.6643
▁Perennials	-10.6643
▁Virtual	-10.6647
▁Pragya	-10.6647
ign	-10.6648
▁Six	-10.665
▁Agriculture	-10.6651
▁citizens	-10.6651
▁director	-10.6652
▁Jail	-10.6652
▁farmers	-10.6652
▁beginn	-10.6653
▁centers	-10.6653
▁Field	-10.6653
▁enhance	-10.6653
▁asked	-10.6653
▁Swinger	-10.6663
▁Retrieve	-10.6667
▁near	-10.6672
▁Mega	-10.6672
▁impose	-10.6672
▁Publisher	-10.6675
cial	-10.6676
nologin	-10.6676
▁Khan	-10.6677
▁Win	-10.6677
▁plus	-10.6681
▁approv	-10.6682
context	-10.669
▁tax	-10.6692
mbulance	-10.6693
▁attend	-10.6696
▁save	-10.6696
▁noted	-10.6696
▁master	-10.6697
▁occasions	-10.6701
▁fur	-10.6702
▁programs	-10.6702
admin	-10.6706
▁Imam	-10.6706
▁Wiktionary	-10.6707
▁Nurse	-10.6707
▁Stories	-10.6708
%)	-10.6708
▁happy	-10.671
▁Advisor	-10.671
▁status	-10.6712
▁procedures	-10.6714
▁la	-10.6715
▁side	-10.6716
▁rates	-10.6718
ss	-10.6725
▁stocks	-10.6727
IMO	-10.673
▁serve	-10.6733
ji	-10.6735
▁achiev	-10.6747
CBD	-10.6749
CC	-10.6753
▁bite	-10.6755
cumulat	-10.6759
▁usur	-10.676
▁pray	-10.6762
▁Hey	-10.6763
alaya	-10.6764
▁Chang	-10.6767
tention	-10.6767
/$	-10.6769
▁huge	-10.6769
▁Shaved	-10.6774
▁Dibrugarh	-10.6774
ommercial	-10.6775
▁Pregnancy	-10.6775
▁nude	-10.6777
▁MIT	-10.6778
▁excess	-10.6778
▁heart	-10.6781
▁Bharat	-10.6784
va	-10.6789
▁edited	-10.6791
▁foot	-10.6792
▁Legs	-10.6795
▁tube	-10.6796
▁Virtues	-10.68
▁continu	-10.6802
IES	-10.6804
_{{	-10.6812
▁teachers	-10.6833
▁committee	-10.6837
He	-10.6844
ov	-10.6846
ennai	-10.6846
ard	-10.6846
▁bigge	-10.6855
▁graduate	-10.6873
sa	-10.6873
▁Thai	-10.6875
aksha	-10.6875
▁customers	-10.6877
{{	-10.6889
ara	-10.6889
PF	-10.6892
oor	-10.6894
Simple	-10.6894
nvesha	-10.6895
aḥ	-10.6896
ikas	-10.6914
index	-10.692
▁previous	-10.6922
▁reads	-10.6923
css	-10.6928
▁mix	-10.693
▁seen	-10.6933
ggers	-10.6935
embership	-10.694
▁Visit	-10.6948
▁Protect	-10.695
▁examples	-10.695
▁Blog	-10.6954
ag	-10.6956
▁Offer	-10.6956
▁declar	-10.6961
▁Tur	-10.6966
▁missing	-10.6975
▁edition	-10.6975
▁offices	-10.6977
▁specially	-10.6982
▁reach	-10.6992
▁Jo	-10.7012
▁SB	-10.7024
▁Out	-10.7041
▁hit	-10.7051
istance	-10.7056
▁Yu	-10.7075
▁Ranj	-10.7083
bies	-10.7086
▁গ	-10.7091
atic	-10.7101
▁lo	-10.7104
▁match	-10.7109
▁equal	-10.7124
nagar	-10.7138
LE	-10.7143
ick	-10.7151
▁Give	-10.7155
▁Hol	-10.7159
rc	-10.7162
net	-10.7163
▁Temp	-10.7191
nce	-10.7193
▁committ	-10.7197
▁nī	-10.7199
uja	-10.7203
date	-10.7206
mer	-10.7225
oz	-10.7227
▁ex	-10.723
▁Owner	-10.7255
early	-10.7269
ather	-10.7281
▁whil	-10.7289
eya	-10.729
▁qualit	-10.7308
wnership	-10.731
▁theft	-10.7311
▁!	-10.7313
ight	-10.7323
▁III	-10.7332
▁determine	-10.7336
▁advis	-10.7344
▁forms	-10.7344
▁nation	-10.7353
List	-10.7357
▁violen	-10.7359
▁Mill	-10.736
▁Maths	-10.7378
▁disclose	-10.7383
pi	-10.7384
this	-10.7392
▁($	-10.7394
amateur	-10.7406
EST	-10.7408
▁Ver	-10.7414
nterface	-10.7414
▁bound	-10.7417
▁guarantee	-10.7419
iaries	-10.742
Content	-10.7423
▁En	-10.7428
▁command	-10.7434
ḥ	-10.7434
language	-10.7445
▁>	-10.7453
Ba	-10.7455
subject	-10.7459
▁Des	-10.7464
str	-10.7469
▁Shan	-10.7477
}}}	-10.748
Tube	-10.7484
Facial	-10.7492
ke	-10.7502
privacy	-10.7506
▁Arab	-10.7515
Fire	-10.7519
required	-10.7519
]].	-10.7522
▁TN	-10.7523
Top	-10.7525
Warning	-10.7527
Huge	-10.7528
japanese	-10.7529
MediaWiki	-10.7529
films	-10.7534
Ke	-10.7539
▁Ph	-10.754
Login	-10.7542
Tags	-10.7545
media	-10.7545
ko	-10.7549
Enter	-10.7555
ala	-10.7556
NA	-10.7562
▁uses	-10.7564
▁Launch	-10.7569
five	-10.7572
CE	-10.7575
created	-10.7575
moved	-10.7581
ground	-10.7581
categories	-10.759
▁Ten	-10.7605
udden	-10.7619
off	-10.7632
style	-10.7643
▁Bir	-10.7648
hamed	-10.7651
WF	-10.7656
ub	-10.7656
math	-10.7664
girlfriend	-10.767
pe	-10.7671
Not	-10.7682
Sadi	-10.7682
▁broad	-10.7684
Un	-10.7687
RY	-10.7691
forget	-10.7698
ise	-10.771
rance	-10.7711
chat	-10.7714
▁giv	-10.772
▁remov	-10.7721
▁St	-10.7736
raditional	-10.7751
▁GAT	-10.7752
▁Bag	-10.777
ʌɾʌ	-10.7783
▁Fu	-10.7799
▁Where	-10.7801
▁CR	-10.7805
cular	-10.781
board	-10.7827
io	-10.7841
ler	-10.7855
▁Then	-10.7863
Log	-10.788
▁ā	-10.7893
▁Pure	-10.7899
▁pra	-10.7907
gi	-10.7911
▁employer	-10.7912
MO	-10.7918
▁Equipment	-10.7921
▁professor	-10.7922
▁Youth	-10.7927
▁complaint	-10.7928
▁suffering	-10.7928
▁structure	-10.7936
▁prayer	-10.7936
eet	-10.7937
▁Item	-10.7937
▁requirement	-10.7941
once	-10.795
Share	-10.7957
▁owner	-10.7959
GST	-10.7963
AC	-10.7972
phant	-10.7975
MENT	-10.7981
gram	-10.7992
▁obtain	-10.8
▁Access	-10.8
vention	-10.8001
í	-10.8009
PE	-10.8016
ি	-10.8019
▁gas	-10.8019
▁modern	-10.8023
𑁆	-10.8024
℟	-10.8024
๖	-10.8024
ད	-10.8024
✿	-10.8024
〘	-10.8024
AutoDesk	-10.8024
dynamic	-10.8024
infinite	-10.8024
®	-10.8024
î	-10.8024
।	-10.8024
শ	-10.8024
ৱ	-10.8024
℥℟	-10.8024
▁Amputee	-10.8024
▁Belgian	-10.8024
▁Bhatnagar	-10.8024
▁Bottle	-10.8024
▁Calculator	-10.8024
▁Continue	-10.8024
▁Kolkata	-10.8024
▁Platform	-10.8024
▁Practitioner	-10.8024
▁Recipe	-10.8024
▁Surprise	-10.8024
▁Universities	-10.8024
▁WhatsApp	-10.8024
▁Wuhan	-10.8024
▁Zealand	-10.8024
▁convenience	-10.8024
▁explicit	-10.8024
▁families	-10.8024
▁hundred	-10.8024
▁restaurant	-10.8024
▁supplement	-10.8024
▁vscoop	-10.8024
▁ṛṣi	-10.8024
〙	-10.8024
▁Ramdorai	-10.8024
▁Sahitya	-10.8024
▁cosmetic	-10.8024
▁pregnancy	-10.8024
▁Åberg	-10.8024
ü	-10.8024
▁Gohain	-10.8024
▁Texas	-10.8024
▁approximate	-10.8024
▁cattle	-10.8024
▁hunks	-10.8024
▁military	-10.8024
▁Smothering	-10.8024
▁Crazy	-10.8024
▁temperature	-10.8024
▁Bbw	-10.8024
▁LIMITATION	-10.8024
▁Sperm	-10.8024
▁Brazilian	-10.8024
▁Punished	-10.8024
▁fixture	-10.8024
▁enrich	-10.8024
▁future	-10.8024
▁Organisation	-10.8024
▁prompt	-10.8024
▁Drugs	-10.8024
▁housewife	-10.8024
▁scale	-10.8024
▁bursting	-10.8024
▁commission	-10.8024
▁aircraft	-10.8024
▁kept	-10.8024
▁conjecture	-10.8024
Wahhab	-10.8024
▁lightning	-10.8024
▁Cachar	-10.8024
▁adverse	-10.8024
whatsapp	-10.8024
▁shipping	-10.8024
urniture	-10.8024
▁Classroom	-10.8024
▁Durga	-10.8024
▁convey	-10.8024
▁distribution	-10.8024
ficiency	-10.8024
▁surrounding	-10.8024
▁Choice	-10.8024
▁village	-10.8024
▁Meanwhile	-10.8024
▁loading	-10.8024
▁OneNote	-10.8024
▁legacy	-10.8024
▁gender	-10.8024
▁Jeans	-10.8024
▁Pirate	-10.8025
▁Collar	-10.8025
▁Schoolgirl	-10.8025
▁influence	-10.8025
▁Shelves	-10.8025
▁terrorist	-10.8025
▁requisition	-10.8025
▁compulsory	-10.8025
▁quick	-10.8025
▁worldwide	-10.8025
▁Space	-10.8025
▁duties	-10.8025
▁Dream	-10.8025
▁Flyover	-10.8025
▁permissible	-10.8025
▁lodge	-10.8025
▁Keyboard	-10.8025
▁Mount	-10.8025
▁Konwar	-10.8025
Zog	-10.8025
▁Bihu	-10.8025
▁accordance	-10.8025
▁Uniform	-10.8025
▁Vision	-10.8025
▁Textile	-10.8025
▁LIVE	-10.8025
▁Infinity	-10.8025
▁Austria	-10.8025
export	-10.8025
▁tasteless	-10.8025
▁transferred	-10.8025
▁disability	-10.8026
▁stress	-10.8026
▁Pension	-10.8026
▁Domination	-10.8026
▁Lockdown	-10.8026
governance	-10.8026
▁Notice	-10.8026
▁Since	-10.8026
▁definition	-10.8026
▁Terrorism	-10.8026
▁manner	-10.8026
▁Zakah	-10.8026
Upload	-10.8027
▁ownership	-10.8027
▁distributor	-10.8027
▁green	-10.8027
▁Locker	-10.8027
empower	-10.8027
▁Viral	-10.8027
▁Dirty	-10.8027
▁curriculum	-10.8027
▁changing	-10.8028
▁Virus	-10.8028
▁membership	-10.8028
▁UPS	-10.8028
▁competition	-10.8028
▁threat	-10.8028
▁Purity	-10.8028
▁Wheeler	-10.8028
▁Moreover	-10.8029
COPY	-10.8029
undelete	-10.8029
▁proceed	-10.8029
▁Element	-10.803
▁'''\$	-10.803
▁INR	-10.803
▁Glasses	-10.803
▁selection	-10.803
▁anywhere	-10.803
▁integer	-10.8031
VIDEOS	-10.8031
▁Stack	-10.8031
▁Zakat	-10.8031
wheeler	-10.8032
▁Princess	-10.8033
▁communication	-10.8033
▁installments	-10.8033
▁Anime	-10.8033
▁allowance	-10.8033
▁settled	-10.8033
▁storm	-10.8034
▁earned	-10.8034
▁comply	-10.8034
▁Donate	-10.8035
▁Polish	-10.8037
▁gardeners	-10.8037
unlimited	-10.8037
▁Seni	-10.8037
▁Jump	-10.8037
▁BQ	-10.8037
▁icon	-10.8038
▁resident	-10.8038
twelve	-10.8039
▁maintained	-10.804
▁release	-10.8041
▁Borah	-10.8041
▁Qur	-10.8041
▁Receive	-10.8043
▁acid	-10.8044
▁Seduce	-10.8044
▁AT	-10.8045
▁tear	-10.8046
▁Spanking	-10.8046
▁Meet	-10.8047
▁Engine	-10.8047
guri	-10.8047
▁Cha	-10.8049
▁Has	-10.8052
conception	-10.8052
▁speaking	-10.8052
▁obtained	-10.8053
▁corporate	-10.8053
▁Sumu	-10.8056
▁legs	-10.8057
▁amend	-10.8057
▁delivered	-10.8057
▁ATM	-10.8059
▁Courses	-10.806
famous	-10.806
▁Stream	-10.8061
▁longer	-10.8061
ateg	-10.8062
▁Believ	-10.8063
surrection	-10.8065
▁custom	-10.8067
▁Latin	-10.8068
▁po	-10.8071
▁heav	-10.8071
▁·	-10.8072
'''$	-10.8073
***	-10.8074
▁Femdom	-10.8075
▁abuse	-10.8076
▁Redhead	-10.8076
▁Srigunam	-10.8076
▁Executive	-10.8077
▁exposure	-10.8077
▁Steel	-10.8078
▁suicide	-10.8078
▁tips	-10.8079
▁Italian	-10.808
▁ideas	-10.808
▁Wind	-10.808
▁carriage	-10.8082
▁patient	-10.8083
▁Hours	-10.8086
▁tr	-10.8087
underline	-10.8087
▁super	-10.8091
▁restrictions	-10.8091
▁namespaces	-10.8092
▁Marketing	-10.8095
▁weight	-10.8099
▁million	-10.8099
entry	-10.8102
▁efforts	-10.8104
ki	-10.8104
everything	-10.8106
advanced	-10.8108
▁blonde	-10.811
Browse	-10.8112
▁QR	-10.8113
ilers	-10.8119
▁prayers	-10.812
▁cleaning	-10.8122
▁AND	-10.8123
▁IS	-10.8124
▁ideal	-10.8125
its	-10.8126
▁Plea	-10.8126
▁completed	-10.8127
▁production	-10.8127
▁recover	-10.8129
▁break	-10.8129
▁discipline	-10.813
▁poly	-10.8131
▁detect	-10.8131
▁repairs	-10.8134
▁active	-10.8134
nvelope	-10.8137
▁lea	-10.8137
CBI	-10.8142
▁policyholder	-10.8146
▁Electronics	-10.8148
▁domain	-10.8149
▁prospect	-10.8155
"]	-10.8156
▁becom	-10.8156
▁Construction	-10.8157
▁failed	-10.8158
▁prob	-10.8158
▁keeping	-10.8161
▁{{{	-10.8162
▁Subject	-10.8163
▁photos	-10.8163
▁Hon	-10.8166
[[$	-10.8166
efficient	-10.8167
▁recognize	-10.8167
▁eight	-10.8168
▁Merc	-10.8168
▁solo	-10.8169
▁×	-10.8174
▁Park	-10.8176
▁diaries	-10.8176
▁Submit	-10.8178
▁discounts	-10.8191
structure	-10.8194
▁Officer	-10.8205
run	-10.8209
RE	-10.821
▁rise	-10.821
amine	-10.8211
▁Register	-10.8214
▁Yama	-10.8215
anagar	-10.8215
▁Vene	-10.8218
▁standards	-10.8219
▁situations	-10.822
▁MNC	-10.822
▁Think	-10.8223
▁Naj	-10.8224
rfe	-10.8227
▁empty	-10.8227
ural	-10.8229
core	-10.823
▁SO	-10.823
ang	-10.8231
▁JavaScript	-10.8231
▁models	-10.8233
▁Bio	-10.8238
sig	-10.8247
▁Ky	-10.8251
▁occurr	-10.8253
▁Fund	-10.8254
nic	-10.8256
▁kra	-10.8256
▁expir	-10.8257
▁saved	-10.8258
▁John	-10.8261
▁cards	-10.8263
▁statistics	-10.8284
▁classic	-10.8291
▁y	-10.8303
▁organize	-10.8308
▁bracket	-10.8309
▁Trip	-10.8309
▁mode	-10.831
▁driver	-10.8318
roposal	-10.8323
▁machines	-10.8324
oaching	-10.8327
iddle	-10.8335
▁Ghos	-10.8337
▁theory	-10.8338
▁Deut	-10.8352
▁Eat	-10.8353
ʌ	-10.836
▁voice	-10.8364
ei	-10.8367
▁drive	-10.8374
taining	-10.8374
▁Sales	-10.8375
rilli	-10.8379
▁sole	-10.838
▁updates	-10.8397
Transit	-10.841
▁Bord	-10.8411
▁shared	-10.8416
bility	-10.8437
▁remember	-10.8441
▁BM	-10.8442
▁Abdurrah	-10.845
▁align	-10.8453
▁fat	-10.8455
▁operate	-10.8456
ethanol	-10.8467
▁description	-10.847
▁Provide	-10.8477
ld	-10.8481
ɨ	-10.8484
▁style	-10.8484
▁Kav	-10.8486
han	-10.8486
alam	-10.8495
Re	-10.8501
▁Renew	-10.8513
nent	-10.8513
PL	-10.8517
▁variet	-10.8519
▁Link	-10.8522
av	-10.8524
ARE	-10.8527
ṇ	-10.8531
MT	-10.8532
▁bu	-10.8532
▁Prophets	-10.8534
▁explore	-10.8544
▁TS	-10.8547
▁Indic	-10.855
▁states	-10.8558
hy	-10.8569
▁lesbians	-10.8579
UL	-10.8579
▁\	-10.8597
▁logs	-10.8602
bad	-10.8606
▁summary	-10.8607
andi	-10.8608
shown	-10.8629
▁Contents	-10.8635
eer	-10.8639
ronic	-10.8647
oli	-10.8679
asic	-10.8681
▁originat	-10.8695
▁Pe	-10.8698
▁critic	-10.8707
▁Ab	-10.8714
▁Bar	-10.8717
fi	-10.8718
Post	-10.872
AR	-10.8722
▁ä	-10.8722
ast	-10.8732
▁Pass	-10.8734
hat	-10.8739
mal	-10.8746
Di	-10.8751
ps	-10.8754
▁le	-10.8755
khar	-10.8757
get	-10.8766
busty	-10.8767
oid	-10.8777
▁Saty	-10.8779
▁inspect	-10.8781
▁Bos	-10.8784
jit	-10.8797
▁Ji	-10.88
▁("	-10.8802
HK	-10.8803
can	-10.881
rill	-10.8812
▁stage	-10.8823
pc	-10.8827
ose	-10.8853
▁ball	-10.8864
▁head	-10.887
▁don	-10.8876
fingering	-10.888
▁King	-10.8889
ven	-10.8895
▁cre	-10.8899
nexpected	-10.89
big	-10.8909
cy	-10.8911
▁commence	-10.8913
era	-10.8922
iti	-10.8925
▁Cart	-10.893
▁Path	-10.8931
OX	-10.8933
")	-10.8942
▁HB	-10.8942
lets	-10.8948
▁sp	-10.8956
ize	-10.8963
▁SI	-10.8966
ej	-10.8975
limate	-10.8975
mil	-10.8983
▁sh	-10.8985
checked	-10.899
▁hire	-10.9
fe	-10.9008
insurance	-10.9014
Categories	-10.9014
ju	-10.903
ess	-10.903
personal	-10.9033
za	-10.9048
ট	-10.9048
DL	-10.9066
result	-10.9085
Current	-10.9085
Part	-10.9101
▁ho	-10.9115
such	-10.9118
▁light	-10.9138
account	-10.914
Mature	-10.914
life	-10.914
overflow	-10.9142
▁origin	-10.9144
publisher	-10.9152
read	-10.9152
February	-10.9153
▁Sun	-10.9157
SI	-10.9157
©	-10.9166
ans	-10.9168
fifty	-10.9169
place	-10.9171
public	-10.9175
Ð	-10.9182
TOKIO	-10.9184
▁Nation	-10.9184
rollback	-10.9184
video	-10.9184
Invalid	-10.9188
Settings	-10.9188
Media	-10.919
three	-10.9193
First	-10.9194
Road	-10.9196
External	-10.9196
remember	-10.9196
unexpected	-10.92
home	-10.9203
চ	-10.9208
selected	-10.9209
Hub	-10.921
Visit	-10.9211
missing	-10.9215
rahman	-10.9216
aq	-10.922
align	-10.9221
portal	-10.9228
▁Rail	-10.923
▁run	-10.9235
ify	-10.9236
EMA	-10.9237
description	-10.9239
▁Input	-10.9242
▁ko	-10.9244
▁Cop	-10.9244
Petite	-10.9253
▁environment	-10.9253
Bio	-10.9253
▁Etc	-10.9255
value	-10.9263
▁Dis	-10.9263
nu	-10.9264
az	-10.927
art	-10.9271
▁Sm	-10.9272
suf	-10.9279
special	-10.9288
▁Founde	-10.9291
NB	-10.9292
mark	-10.9295
▁Packag	-10.9321
To	-10.9338
▁bin	-10.9339
▁vid	-10.9342
yz	-10.9346
drau	-10.935
ush	-10.9358
▁Sect	-10.9365
▁fee	-10.9372
▁devote	-10.9376
og	-10.9386
ade	-10.9396
Change	-10.9399
▁Local	-10.9407
▁Multi	-10.9408
▁Cat	-10.943
▁Fi	-10.9433
▁Clip	-10.9437
▁Report	-10.9437
EL	-10.9438
yam	-10.9438
▁Bhav	-10.9443
▁Teach	-10.9448
▁Associate	-10.9461
ram	-10.9463
ern	-10.9468
reme	-10.9469
▁Om	-10.9471
▁fa	-10.9482
tigation	-10.9483
▁Biographi	-10.9484
▁produc	-10.9487
lam	-10.9492
▁Star	-10.9496
▁Year	-10.9507
ikimedia	-10.9513
star	-10.9522
▁Months	-10.9523
specially	-10.9525
ries	-10.9537
KI	-10.9548
sari	-10.9551
Ga	-10.9555
den	-10.9573
▁Hindu	-10.9578
mic	-10.9579
▁receipt	-10.9587
▁examination	-10.9588
▁organisation	-10.9589
ndi	-10.959
▁representative	-10.959
▁Summer	-10.959
rights	-10.9591
▁Drive	-10.9592
▁principle	-10.9594
▁association	-10.9595
▁camera	-10.9595
▁Result	-10.9596
ake	-10.9596
fficient	-10.9597
▁effort	-10.9597
doors	-10.9597
▁Cookie	-10.9597
▁Days	-10.9599
IS	-10.9599
ava	-10.96
▁task	-10.96
▁Statistic	-10.96
▁brand	-10.9603
▁Benefit	-10.9604
▁expense	-10.9604
▁contribution	-10.9607
▁though	-10.9607
▁Comment	-10.9608
▁trad	-10.961
▁eye	-10.9612
▁Option	-10.9612
assets	-10.9621
▁gather	-10.9626
▁Adjust	-10.963
ustain	-10.9636
SET	-10.964
nda	-10.9641
▁client	-10.9648
▁provision	-10.9648
eal	-10.9652
▁prospe	-10.9653
▁Method	-10.9654
▁Person	-10.9655
aj	-10.9656
▁pol	-10.9656
▁clip	-10.9657
▁solution	-10.966
akam	-10.9661
▁recommend	-10.9664
▁Col	-10.9666
▁install	-10.9666
MAI	-10.9674
▁Africa	-10.9676
▁Present	-10.9677
▁profession	-10.9678
▁agricultur	-10.968
▁approach	-10.968
▁merc	-10.9681
We	-10.9681
▁Rama	-10.9682
▁engine	-10.9683
▁Lok	-10.9684
▁Copy	-10.9689
▁Table	-10.9689
clusive	-10.969
▁Neighbor	-10.969
η	-10.969
ղ	-10.969
α	-10.969
Ꮆ	-10.969
օ	-10.969
iffcotokio	-10.969
Ꭵ	-10.969
glaze	-10.969
▁Penetration	-10.969
▁༄	-10.969
RWBCIS	-10.9691
Singapore	-10.9691
Summary	-10.9691
Thanjaavoor	-10.9691
whatlinkshere	-10.9691
æ	-10.9691
ô	-10.9691
œ	-10.9691
ɭ	-10.9691
͢	-10.9691
ঁ	-10.9691
ঃ	-10.9691
▁ASSAM	-10.9691
▁Accessibility	-10.9691
▁Advertising	-10.9691
▁Agreement	-10.9691
▁Barkataki	-10.9691
▁Cheerleader	-10.9691
▁Collaborat	-10.9691
▁Conduct	-10.9691
▁Earthquake	-10.9691
▁Favorite	-10.9691
▁GALWAY	-10.9691
▁Gopinath	-10.9691
▁Hardrock	-10.9691
▁Industry	-10.9691
▁Investigation	-10.9691
▁Karnataka	-10.9691
▁Nightwear	-10.9691
▁Paddled	-10.9691
▁Philips	-10.9691
▁PrimeGrid	-10.9691
▁Redressal	-10.9691
▁Sanjeev	-10.9691
▁Smesharik	-10.9691
▁Swahili	-10.9691
▁Unfortunately	-10.9691
▁Yoxhub	-10.9691
▁custody	-10.9691
▁gloryhole	-10.9691
▁playwright	-10.9691
▁straight	-10.9691
▁television	-10.9691
▁wrote	-10.9691
▁û	-10.9691
►	-10.9691
google	-10.9691
হ	-10.9691
▁Crossdressing	-10.9691
▁Scottish	-10.9691
▁Virgin	-10.9691
▁cuttings	-10.9691
▁diameter	-10.9691
▁evidence	-10.9691
Barpeta	-10.9691
▁Breakdown	-10.9691
▁HTML	-10.9691
▁Paytm	-10.9691
▁patent	-10.9691
▁silver	-10.9691
▁Capital	-10.9691
▁Afrikaans	-10.9691
▁Staff	-10.9691
▁airport	-10.9691
▁Declar	-10.9691
▁Chemical	-10.9691
▁themselves	-10.9691
▁Consultant	-10.9691
▁Communication	-10.9691
▁মি	-10.9691
▁collision	-10.9691
▁abroad	-10.9691
▁Required	-10.9691
▁residence	-10.9691
▁Tongue	-10.9691
ɪɴ	-10.9691
▁hazard	-10.9691
▁giant	-10.9691
▁legislation	-10.9691
▁plump	-10.9691
▁Buttfucking	-10.9691
▁resistance	-10.9691
▁Foursome	-10.9691
▁hardware	-10.9691
▁guru	-10.9691
▁Locator	-10.9691
▁vessel	-10.9691
▁expertise	-10.9691
▁dishonest	-10.9691
▁attack	-10.9691
▁Forbidd	-10.9691
▁Mouthful	-10.9691
▁Voltage	-10.9691
▁excellence	-10.9691
▁arrive	-10.9691
▁Cucumber	-10.9691
▁Expenditure	-10.9691
▁Partners	-10.9691
Remove	-10.9691
▁Showroom	-10.9691
▁russian	-10.9691
▁Reference	-10.9691
▁Stockings	-10.9691
▁community	-10.9692
▁Workmen	-10.9692
▁behavior	-10.9692
▁pamp	-10.9692
▁Suzhou	-10.9692
▁figure	-10.9692
▁stipulation	-10.9692
scope	-10.9692
ATSU	-10.9692
▁Albanian	-10.9692
▁Floor	-10.9692
▁parameter	-10.9692
▁surgeries	-10.9692
▁unauthori	-10.9692
▁analysis	-10.9692
▁Gasket	-10.9693
▁Golf	-10.9693
▁funny	-10.9693
▁Actress	-10.9693
▁comedy	-10.9693
▁Planning	-10.9693
▁Topics	-10.9693
▁pieces	-10.9693
headline	-10.9693
^{	-10.9693
▁Malay	-10.9693
▁Daddy	-10.9693
▁Priyank	-10.9693
▁launched	-10.9693
▁Perverted	-10.9693
therapy	-10.9694
▁Mahmo	-10.9694
▁rail	-10.9694
▁Hospitalization	-10.9694
▁frost	-10.9694
▁cancer	-10.9694
▁Sample	-10.9694
▁Bear	-10.9694
▁Gandhi	-10.9694
▁transportation	-10.9694
▁proposer	-10.9694
▁behalf	-10.9695
▁Excess	-10.9695
▁Battery	-10.9695
▁Welding	-10.9695
▁Guru	-10.9695
JJ	-10.9695
▁Pilgrimage	-10.9695
▁Humping	-10.9695
▁Attribut	-10.9695
▁Fantasy	-10.9696
▁driving	-10.9696
▁KPO	-10.9696
ber	-10.9696
▁Spain	-10.9696
▁sync	-10.9696
▁Manga	-10.9697
▁Leather	-10.9697
▁duty	-10.9697
▁Civilization	-10.9698
▁boiler	-10.9698
▁Hav	-10.9698
▁diet	-10.9699
▁Experts	-10.97
▁bulbs	-10.9701
▁ingredients	-10.9701
▁dreams	-10.9701
▁palms	-10.9701
▁tweets	-10.9701
▁Proof	-10.9701
▁amendments	-10.9701
Hz	-10.9701
▁Scholars	-10.9702
▁attention	-10.9702
▁KOM	-10.9703
php	-10.9704
▁Inside	-10.9705
▁Zone	-10.9705
▁Color	-10.9705
CO	-10.9706
▁Writing	-10.9706
▁Bridge	-10.9706
▁assured	-10.9706
▁transaction	-10.9706
▁invest	-10.9706
▁ahead	-10.9706
▁Case	-10.9708
▁gr	-10.9709
▁breed	-10.9709
▁researchers	-10.971
PCS	-10.971
▁Contract	-10.9713
▁protest	-10.9714
▁typing	-10.9714
▁Developing	-10.9715
▁Flashing	-10.9715
▁journalist	-10.9716
chhe	-10.9716
▁Logo	-10.9716
▁Shri	-10.9716
ghai	-10.9716
▁Conditions	-10.9717
▁Skills	-10.9717
▁Prop	-10.9717
▁Employees	-10.9717
▁aspirations	-10.9717
▁Jawa	-10.9718
▁Enjoy	-10.9719
▁Paul	-10.9719
▁released	-10.972
▁massage	-10.972
▁regular	-10.9721
▁collapse	-10.9722
almost	-10.9723
never	-10.9724
ster	-10.9724
▁Original	-10.9724
▁Know	-10.9724
▁Title	-10.9724
▁thinking	-10.9725
▁Kz	-10.9725
▁recommendation	-10.9726
▁Watching	-10.9728
Advanced	-10.9728
▁wild	-10.9732
▁Crores	-10.9734
▁passengers	-10.9735
▁parents	-10.9735
utdoor	-10.9736
▁suffers	-10.9737
scene	-10.9738
red	-10.974
▁cell	-10.974
▁involves	-10.974
▁enabled	-10.9741
▁Muk	-10.9741
▁possess	-10.9742
ancy	-10.9742
▁VM	-10.9742
▁ambulance	-10.9743
▁Talk	-10.9743
▁Aziz	-10.9744
▁guest	-10.9746
experimental	-10.9747
▁É	-10.9747
▁Ball	-10.9748
▁balance	-10.9749
▁built	-10.975
▁AIDS	-10.9751
▁pregnant	-10.9751
▁religious	-10.9751
▁Jesus	-10.9751
▁exclusions	-10.9751
▁Exclusions	-10.9752
▁[[{{	-10.9752
▁friends	-10.9752
▁topics	-10.9752
▁Gangbang	-10.9752
▁Sivasagar	-10.9752
▁Deepthroat	-10.9752
▁Maintenance	-10.9752
▁Valentine	-10.9755
▁SMS	-10.9755
▁Manag	-10.9755
▁Current	-10.9756
▁administration	-10.9756
▁highlight	-10.9756
▁poet	-10.9763
▁inland	-10.9766
Blood	-10.9767
▁Environment	-10.9767
▁Should	-10.9767
▁institutions	-10.9768
▁Additional	-10.9768
▁displayed	-10.977
aṇḍ	-10.9772
▁Land	-10.9774
mar	-10.9777
▁fetish	-10.9778
PM	-10.9779
▁Mu	-10.9782
▁tasks	-10.9783
▁panel	-10.9783
▁brands	-10.9783
▁bad	-10.9784
▁dictionary	-10.9784
sql	-10.9785
▁Results	-10.9786
▁Inter	-10.9788
▁Regular	-10.9789
▁tanks	-10.9791
ame	-10.9792
RMO	-10.9795
desc	-10.9799
▁facilitat	-10.9802
▁Tr	-10.9803
▁Spread	-10.9805
▁Practice	-10.9805
▁Fix	-10.9805
[/	-10.9809
▁Hd	-10.981
▁pillar	-10.9813
▁SIM	-10.9813
▁vener	-10.9813
phet	-10.9816
▁joint	-10.9817
floating	-10.9817
hirk	-10.9818
[{{	-10.9819
matic	-10.982
▁Agents	-10.9821
▁Force	-10.9823
:{{	-10.9823
▁Fri	-10.9824
egative	-10.9825
▁dance	-10.9827
▁proof	-10.983
▁writers	-10.983
riti	-10.9831
▁player	-10.9834
cious	-10.9835
▁pov	-10.9835
▁visible	-10.9837
▁à	-10.9837
▁ò	-10.9837
ccumulator	-10.9838
▁Solutions	-10.9838
▁pain	-10.9841
▁leaders	-10.9844
▁Registration	-10.9844
hing	-10.9845
▁Sources	-10.985
▁complet	-10.9854
▁Dad	-10.9855
▁Frost	-10.986
CAM	-10.986
▁Che	-10.9861
▁pr	-10.9861
▁convert	-10.9863
ida	-10.9868
craft	-10.9869
জ	-10.987
▁%	-10.9871
▁touch	-10.9873
▁height	-10.9875
▁Thanks	-10.9875
▁plays	-10.9879
▁Sak	-10.9882
eering	-10.9884
.:	-10.9884
▁Dust	-10.9905
▁Andy	-10.991
itgi	-10.9911
▁template	-10.9914
mb	-10.9914
mL	-10.9916
▁land	-10.992
▁contracts	-10.992
▁Stop	-10.992
▁hour	-10.9922
▁Features	-10.9923
stock	-10.9923
▁Dir	-10.9925
▁ì	-10.9929
▁clicking	-10.9931
▁engineering	-10.9933
▁hubby	-10.9934
▁Cookies	-10.9936
▁Vid	-10.9937
▁Database	-10.9937
▁Series	-10.9939
▁promotion	-10.994
▁ō	-10.994
raj	-10.9941
▁clock	-10.9942
raw	-10.9942
▁mu	-10.9945
aughter	-10.9946
Ask	-10.9948
▁OK	-10.9949
ecast	-10.9957
▁sectors	-10.9959
ings	-10.9961
▁Anti	-10.9961
Ex	-10.9962
▁AD	-10.9969
oggle	-10.9975
▁districts	-10.9976
ik	-10.9981
nary	-10.9985
ons	-10.9988
▁locked	-10.9994
ese	-11.0001
▁Holes	-11.0004
▁bi	-11.0008
sing	-11.0009
Alok	-11.0011
▁carton	-11.0017
▁Source	-11.0019
▁Wat	-11.0021
loy	-11.0021
ger	-11.0028
▁Map	-11.0029
▁Password	-11.0032
▁color	-11.0034
▁organis	-11.0036
▁Koni	-11.0044
▁}	-11.0059
▁Wale	-11.0061
▁session	-11.0071
▁ON	-11.0074
▁keys	-11.0074
▁craft	-11.0075
chi	-11.0077
▁engag	-11.0081
▁sexual	-11.0085
▁walk	-11.0086
▁Got	-11.009
hr	-11.0091
▁redirects	-11.0092
nded	-11.0096
▁Nar	-11.0097
hanja	-11.0098
▁maa	-11.0101
racle	-11.0102
▁Pan	-11.0106
▁query	-11.0109
▁Eh	-11.0115
ential	-11.012
▁gra	-11.0121
▁Shah	-11.0125
▁Wear	-11.0128
ṣ	-11.0129
▁Lee	-11.0136
▁HRC	-11.0136
▁Son	-11.0146
ology	-11.0151
▁board	-11.0155
▁FA	-11.0155
▁Operat	-11.0156
▁profit	-11.0157
▁papers	-11.0159
AIR	-11.016
too	-11.0162
ER	-11.0167
AIL	-11.0175
ODE	-11.0175
▁devices	-11.0176
▁Sp	-11.0177
cera	-11.0182
▁max	-11.0184
::	-11.0188
▁Hort	-11.0189
ITE	-11.0195
▁SC	-11.0202
ible	-11.0218
▁cancell	-11.0225
ayan	-11.0227
UR	-11.0227
▁Sah	-11.0242
urah	-11.0243
▁Settings	-11.0246
▁brunette	-11.0247
▁Using	-11.0248
▁West	-11.027
holesale	-11.0279
ð	-11.0279
▁adapt	-11.028
▁cha	-11.0282
▁girlfriend	-11.0283
▁art	-11.0291
▁nin	-11.0292
▁col	-11.0304
▁EX	-11.0308
▁Huge	-11.0311
▁Warning	-11.0313
▁Host	-11.033
ena	-11.0334
wing	-11.0335
▁global	-11.0336
▁Pack	-11.0337
nts	-11.0338
▁Examin	-11.0344
:'''	-11.0346
babes	-11.0349
▁experiences	-11.0352
▁Girls	-11.0353
▁ab	-11.0355
▁manager	-11.036
unt	-11.037
hya	-11.0382
directed	-11.0385
col	-11.0386
uel	-11.0398
thy	-11.0406
stic	-11.0407
mai	-11.0409
▁treatments	-11.0413
▁du	-11.0418
kesh	-11.042
ups	-11.044
▁Take	-11.0443
ner	-11.0448
ক	-11.0451
▁Ono	-11.0457
▁bra	-11.0458
▁fair	-11.0466
eather	-11.0469
bi	-11.0484
▁Am	-11.0486
ually	-11.0493
▁radio	-11.0494
▁Chandras	-11.05
▁seat	-11.0527
igtit	-11.0527
dated	-11.0528
tu	-11.0533
TES	-11.0533
back	-11.0539
ute	-11.0545
▁Pen	-11.0562
BS	-11.0568
pornstars	-11.0574
▁teens	-11.0581
▁Vijaya	-11.0585
▁Krishnam	-11.0592
sub	-11.0605
▁introduc	-11.0611
ho	-11.0614
ieces	-11.0619
▁Fr	-11.0644
▁NOT	-11.0649
Am	-11.0652
▁Creativ	-11.0671
▁Pay	-11.0677
ndran	-11.0684
"/	-11.0687
▁Ada	-11.0702
▁Cast	-11.0706
▁Yash	-11.071
otPorn	-11.0713
ins	-11.0714
▁é	-11.0714
CS	-11.0719
ving	-11.072
crimina	-11.0728
▁fla	-11.0746
▁trip	-11.0754
word	-11.0761
▁Trina	-11.0761
āpa	-11.0762
sides	-11.0767
▁͙	-11.0767
userlog	-11.0777
onsequent	-11.0782
▁Chandra	-11.0788
▁?	-11.079
▁Anup	-11.0839
sia	-11.086
ṟa	-11.0866
urface	-11.0867
▁periods	-11.0867
▁participate	-11.0879
long	-11.0894
▁t̪	-11.091
have	-11.0911
orist	-11.0914
▁Solo	-11.0935
Ber	-11.0936
▁webcam	-11.0937
▁Aj	-11.0954
over	-11.0967
▁pan	-11.0971
▁Bu	-11.0972
esides	-11.0978
dential	-11.0988
ney	-11.0988
tan	-11.0995
Link	-11.0996
change	-11.0997
▁NE	-11.1003
eeds	-11.1015
ics	-11.1023
ali	-11.1034
ier	-11.1044
extension	-11.1052
▁Bare	-11.1057
▁syn	-11.1064
body	-11.1067
max	-11.1067
Source	-11.1067
ree	-11.1075
lation	-11.1075
▁UK	-11.1079
▁Dur	-11.1084
nice	-11.1089
eh	-11.1089
▁mon	-11.1092
▁institution	-11.1096
compare	-11.1104
lon	-11.1104
▁Sho	-11.1108
▁ū	-11.1111
HRC	-11.1111
thirty	-11.1116
Save	-11.1118
month	-11.1119
▁Sta	-11.1121
Canada	-11.1121
gu	-11.1126
Glaze	-11.1127
ɽ	-11.1127
Contact	-11.1128
Pussy	-11.1128
Old	-11.1132
bag	-11.1139
Windows	-11.114
New	-11.1143
Ô	-11.1148
”.	-11.1149
first	-11.1151
profit	-11.1151
access	-11.1153
Tits	-11.1161
MPa	-11.1163
CAD	-11.1164
▁Poly	-11.1171
hiv	-11.1171
▁Mari	-11.1173
previous	-11.1174
ফ	-11.1175
DC	-11.1175
▁Ken	-11.1175
most	-11.1176
ndemni	-11.1184
profile	-11.1188
Boss	-11.1191
disabled	-11.1192
carton	-11.1194
namespace	-11.1194
♔	-11.1195
except	-11.1196
normal	-11.1196
▁আৰ	-11.1196
Australia	-11.1196
doctor	-11.1197
ye	-11.1197
Japan	-11.1198
Kinky	-11.1199
months	-11.1201
Email	-11.1206
query	-11.1208
thyl	-11.1213
Help	-11.1213
diff	-11.1218
win	-11.1221
prev	-11.1221
▁Bhar	-11.1225
BE	-11.1225
lu	-11.1226
West	-11.1228
bbw	-11.123
pta	-11.123
left	-11.1234
\"	-11.1241
ENT	-11.1244
ɲ	-11.1248
var	-11.125
▁Mut	-11.1252
▁ban	-11.1257
fund	-11.1262
ran	-11.1264
GH	-11.1265
Open	-11.1271
lide	-11.1276
▁Wa	-11.1278
words	-11.1279
der	-11.1285
▁--	-11.1286
▁collaborat	-11.1287
hru	-11.1313
rish	-11.1315
▁Pip	-11.1317
▁arrang	-11.1318
▁typical	-11.132
hidden	-11.1321
▁Emerg	-11.1324
exe	-11.1333
efore	-11.1335
tes	-11.1335
dh	-11.1336
eith	-11.1339
ised	-11.1344
eplay	-11.1354
IF	-11.1357
▁Persi	-11.1369
meta	-11.138
elan	-11.1382
lead	-11.1395
▁para	-11.1406
uddin	-11.141
Thai	-11.1419
HD	-11.1419
way	-11.142
anners	-11.1427
none	-11.1435
lor	-11.1448
▁Chet	-11.1449
ʌɪ̯	-11.1449
▁Saud	-11.1463
▁tradition	-11.1474
▁Nage	-11.1474
medical	-11.148
Del	-11.1486
▁micro	-11.1489
▁Thu	-11.1492
▁Domi	-11.1498
ust	-11.15
▁Tool	-11.1504
▁Add	-11.1504
versions	-11.1504
mulated	-11.1506
▁Nil	-11.1512
type	-11.1514
▁ten	-11.1514
▁Ud	-11.1529
▁Fl	-11.1534
▁ra	-11.1539
▁Bet	-11.1539
imal	-11.1542
▁forward	-11.1542
▁Cum	-11.1547
yr	-11.1548
ficial	-11.1549
mī	-11.1558
▁sho	-11.1565
olo	-11.1569
unning	-11.1573
▁Exxxtra	-11.1574
ɪl	-11.1575
▁promi	-11.1576
▁enterprise	-11.1577
▁Tweet	-11.1578
▁academic	-11.1579
▁objective	-11.158
skar	-11.1583
▁Request	-11.1589
▁candidate	-11.1592
▁Vehicle	-11.1592
▁supplier	-11.1593
AT	-11.1594
▁movement	-11.1594
▁Article	-11.1594
▁Disease	-11.1595
▁citizen	-11.1598
▁Physic	-11.1599
ays	-11.1599
▁farmer	-11.1601
▁statistic	-11.1607
▁succeed	-11.1609
▁spell	-11.161
▁Innocent	-11.1611
▁Jai	-11.1614
▁begin	-11.1615
▁setting	-11.1618
▁Clean	-11.162
▁station	-11.1621
aram	-11.1627
EO	-11.1631
ESE	-11.1633
▁Fine	-11.1634
pro	-11.1638
▁Farm	-11.1643
ccuracy	-11.1643
▁speak	-11.1647
▁Hour	-11.1648
▁Dry	-11.1648
▁bangla	-11.1649
▁Example	-11.1651
▁Vegetable	-11.1651
INI	-11.1654
▁Load	-11.1657
bas	-11.1658
▁suggest	-11.1659
ICS	-11.166
▁drug	-11.1663
▁workshop	-11.1664
▁Official	-11.1666
▁worker	-11.1667
▁Limit	-11.1668
▁PA	-11.1681
ama	-11.1685
ijan	-11.1687
▁petition	-11.1688
▁negligen	-11.1689
▁progress	-11.1689
jyoti	-11.169
`,`	-11.169
Ň	-11.169
Ҝ	-11.169
آ	-11.169
̶	-11.169
Dühring	-11.1691
Jalukbari	-11.1691
ó	-11.1691
ú	-11.1691
ÿ	-11.1691
ĕ	-11.1691
ĭ	-11.1691
ŏ	-11.1691
ŭ	-11.1691
ɔgɔ	-11.1691
ʟ	-11.1691
ಚ	-11.1691
ನ	-11.1691
ಪ	-11.1691
ಯ	-11.1691
ರ	-11.1691
ಾ	-11.1691
ೋ	-11.1691
್	-11.1691
▁Acrobatic	-11.1691
▁Bombay	-11.1691
▁Canadian	-11.1691
▁Council	-11.1691
▁Depreciation	-11.1691
▁Dhekiakhowa	-11.1691
▁EXCAVATOR	-11.1691
▁Earlier	-11.1691
▁Friends	-11.1691
▁Grammar	-11.1691
▁InfoComm	-11.1691
▁Isaiah	-11.1691
▁Laxmi	-11.1691
▁Paradise	-11.1691
▁Parliament	-11.1691
▁Portuguese	-11.1691
▁Saggytits	-11.1691
▁Temperature	-11.1691
▁Uyghur	-11.1691
▁Yogurt	-11.1691
▁anxiety	-11.1691
▁dacoity	-11.1691
▁flexibility	-11.1691
▁gardening	-11.1691
▁gorgeous	-11.1691
▁industries	-11.1691
▁naughty	-11.1691
▁ouguiya	-11.1691
▁strapon	-11.1691
▁vocabulary	-11.1691
▁←	-11.1691
▁Coffin	-11.1691
▁Haryana	-11.1691
▁Oleate	-11.1691
▁Silchar	-11.1691
▁architect	-11.1691
▁confidence	-11.1691
▁portfolio	-11.1691
nocookies	-11.1691
̃	-11.1691
ҟ	-11.1691
▁Bangladesh	-11.1691
▁Drugged	-11.1691
▁FOLLOW	-11.1691
▁Kashmir	-11.1691
▁Ocean	-11.1691
▁Wikipedia	-11.1691
▁modify	-11.1691
▁substantia	-11.1691
▁Insertion	-11.1691
▁Pravasi	-11.1691
▁certifi	-11.1691
allmessages	-11.1691
tsiplanm	-11.1691
ɻ	-11.1691
ʼ	-11.1691
͢͢͢	-11.1691
▁adorable	-11.1691
▁geographic	-11.1691
▁twitter	-11.1691
activeusers	-11.1691
্ৰী	-11.1691
▁Diameter	-11.1691
▁Moisture	-11.1691
▁Strike	-11.1691
▁genius	-11.1691
★	-11.1691
▁Footjob	-11.1691
▁[...]	-11.1691
▁accessibility	-11.1691
▁adult	-11.1691
▁Television	-11.1691
▁śrī	-11.1691
▁Moaning	-11.1691
▁endorsement	-11.1691
▁quran	-11.1691
▁sensitive	-11.1691
▁Ahmed	-11.1691
filehist	-11.1691
▁Jocks	-11.1691
▁Nursing	-11.1691
▁Picture	-11.1691
▁modification	-11.1691
▁Bleeding	-11.1691
▁shiny	-11.1691
▁wreck	-11.1691
▁Tolerance	-11.1691
▁Jamaica	-11.1691
▁challenging	-11.1691
▁Zombie	-11.1691
▁Panjab	-11.1691
▁deserve	-11.1691
▁literature	-11.1691
▁Surveyors	-11.1691
▁Cancellation	-11.1691
▁latina	-11.1691
▁Messenger	-11.1691
▁enormous	-11.1691
IMPS	-11.1691
▁Murty	-11.1691
▁rimming	-11.1691
▁thousand	-11.1691
▁Storage	-11.1691
▁Available	-11.1691
▁Disablement	-11.1691
▁energy	-11.1691
KEY	-11.1691
▁Normal	-11.1691
▁verification	-11.1691
▁Thickness	-11.1691
▁illegal	-11.1691
▁automatically	-11.1691
▁Corporation	-11.1691
▁enough	-11.1691
▁rainfall	-11.1691
▁Supply	-11.1691
▁Ecosystem	-11.1691
▁ovaries	-11.1691
▁baggage	-11.1691
▁recognition	-11.1691
ɑʀ	-11.1691
▁Bucket	-11.1691
▁Conway	-11.1691
▁Dhawan	-11.1691
▁Tourism	-11.1691
▁Sissy	-11.1691
▁Large	-11.1691
▁birthday	-11.1691
viewsource	-11.1691
▁availability	-11.1691
▁rubber	-11.1691
▁pump	-11.1691
▁IDSA	-11.1691
▁festival	-11.1691
▁Transportation	-11.1691
Champ	-11.1692
▁cartoon	-11.1692
▁Bangla	-11.1692
▁Sheikh	-11.1692
}=\	-11.1692
▁diabetes	-11.1692
▁symptoms	-11.1692
▁Graphic	-11.1692
▁Manufacturer	-11.1692
▁executive	-11.1692
▁Syndrome	-11.1692
▁Faculty	-11.1692
▁JOBS	-11.1692
▁grasses	-11.1692
▁Lotto	-11.1692
▁showcase	-11.1692
▁turnover	-11.1692
▁Panel	-11.1692
▁Sufi	-11.1692
badtitle	-11.1692
▁pursui	-11.1692
destination	-11.1693
▁Bazar	-11.1693
▁Irani	-11.1693
facesitting	-11.1693
▁temple	-11.1693
▁Cello	-11.1693
▁Edition	-11.1693
▁Sugar	-11.1693
▁Bihar	-11.1693
▁Biker	-11.1693
▁scholars	-11.1693
allpages	-11.1694
▁investment	-11.1694
▁geet	-11.1694
▁Structure	-11.1694
▁bibliography	-11.1694
▁conversation	-11.1694
▁Taib	-11.1694
▁Sister	-11.1695
▁whatever	-11.1695
▁Identification	-11.1695
▁Ganesh	-11.1695
▁Movement	-11.1695
▁Label	-11.1695
cili	-11.1695
▁interaction	-11.1696
▁Artistic	-11.1696
▁Stock	-11.1696
▁Lactati	-11.1696
▁effectively	-11.1696
▁Humanity	-11.1696
▁implementation	-11.1696
▁Operator	-11.1696
▁Anesthe	-11.1696
▁artist	-11.1697
▁IRDAI	-11.1697
▁Manipuri	-11.1697
▁PHP	-11.1697
▁firm	-11.1697
▁speaker	-11.1697
Mainland	-11.1697
▁Storm	-11.1697
▁tongue	-11.1697
▁passion	-11.1698
▁memory	-11.1698
▁Agency	-11.1698
▁baby	-11.1699
▁bench	-11.1699
VU	-11.1699
▁explanation	-11.1699
▁transmission	-11.17
▁Kendra	-11.17
▁component	-11.17
+\	-11.17
▁James	-11.1701
▁Pancha	-11.1701
]]'''	-11.1701
hlet	-11.1701
▁Admission	-11.1702
▁submission	-11.1702
lap	-11.1702
▁Amid	-11.1702
▁Sankardeva	-11.1702
▁Also	-11.1702
▁Device	-11.1702
▁respond	-11.1702
drunk	-11.1703
▁milk	-11.1703
▁patterns	-11.1703
▁Solved	-11.1704
▁Championships	-11.1704
▁afore	-11.1704
▁nurtur	-11.1704
blocks	-11.1705
mediawiki	-11.1705
harl	-11.1705
▁Ratna	-11.1705
}=	-11.1705
▁verb	-11.1706
▁collaborative	-11.1706
▁broadly	-11.1707
▁Grace	-11.1707
▁Vidya	-11.1708
▁moment	-11.1709
Shashi	-11.1709
▁Pat	-11.1709
▁POS	-11.1709
▁duly	-11.1709
hindi	-11.171
▁Supplication	-11.1712
▁Painting	-11.1712
▁France	-11.1713
▁Vice	-11.1714
▁Aunt	-11.1714
lthough	-11.1715
▁relation	-11.1715
vials	-11.1718
▁parking	-11.1718
▁think	-11.1721
mooth	-11.1723
broken	-11.1723
▁consultations	-11.1724
▁administrators	-11.1725
▁Pov	-11.1725
▁Attack	-11.1727
▁feet	-11.1727
▁venture	-11.1728
▁Anus	-11.1729
▁recovered	-11.1729
▁build	-11.1729
▁comfort	-11.173
tropic	-11.173
▁Khali	-11.1731
▁Dance	-11.1734
▁Financ	-11.1736
▁excit	-11.1736
▁mesh	-11.1737
uidelines	-11.1738
alent	-11.1739
▁Michael	-11.174
anian	-11.1741
▁PART	-11.1741
[[	-11.1741
▁communicat	-11.1741
▁easter	-11.1742
▁Guys	-11.1744
▁Artist	-11.1744
▁Searches	-11.1745
▁installing	-11.1745
aijan	-11.1746
▁filled	-11.1746
▁attribut	-11.1747
o̞	-11.1749
▁saying	-11.1751
▁borne	-11.1755
▁institutes	-11.1756
▁font	-11.1756
▁theorem	-11.1757
▁produced	-11.1758
▁improvement	-11.1758
▁Homepage	-11.1759
▁Root	-11.1759
▁Commissioner	-11.176
▁avoid	-11.1762
▁govt	-11.1762
▁bacteria	-11.1762
Trademarks	-11.1763
▁folk	-11.1763
▁industrial	-11.1764
▁skinny	-11.1764
▁spot	-11.1764
▁TIFR	-11.1764
▁Urdu	-11.1764
▁raid	-11.1764
▁Organizations	-11.1764
▁equivalent	-11.1765
▁Commons	-11.1765
▁admission	-11.1765
▁Israel	-11.1765
▁Toyota	-11.1765
▁Bishnu	-11.1765
▁Pradhan	-11.1765
▁Creampie	-11.1765
▁Baligaon	-11.1765
▁Level	-11.1765
▁followed	-11.1765
▁Children	-11.1765
▁Grihshoryam	-11.1766
▁Essential	-11.1766
▁bondage	-11.1766
▁jurisdiction	-11.1766
▁output	-11.1766
▁beliefs	-11.1766
▁Exchange	-11.1766
▁confirmation	-11.1768
▁RSS	-11.1769
▁prefix	-11.177
▁cheating	-11.177
▁Wire	-11.177
dhaka	-11.177
▁grounds	-11.1771
▁Indium	-11.1771
▁Daughter	-11.1771
▁opted	-11.1772
▁usual	-11.1772
▁Soon	-11.1772
▁documentation	-11.1773
polling	-11.1773
▁Reality	-11.1774
ancient	-11.1775
▁Box	-11.1775
Tamil	-11.1776
▁alone	-11.1776
ely	-11.1777
▁Port	-11.1778
▁restriction	-11.178
▁Write	-11.1781
mu	-11.1783
▁cock	-11.1785
▁null	-11.1785
Hover	-11.1785
▁Insp	-11.1786
▁kit	-11.1787
▁kits	-11.1788
▁Diseases	-11.1788
▁tree	-11.1789
▁Lab	-11.1791
▁effected	-11.1791
antine	-11.1791
▁Status	-11.1796
▁extract	-11.1797
▁Deen	-11.18
▁position	-11.18
▁Cases	-11.1805
cus	-11.1808
PT	-11.1809
▁principles	-11.1809
▁Reports	-11.1811
▁cartons	-11.1812
▁encourag	-11.1813
▁Divin	-11.1813
userpage	-11.1814
▁Loan	-11.1815
alloon	-11.1815
nath	-11.1816
▁Arm	-11.1816
▁petite	-11.1821
ttitude	-11.1825
aught	-11.1829
▁complaints	-11.1831
▁processes	-11.1831
▁Ban	-11.1832
̪d̪	-11.1832
▁disciplines	-11.1833
▁cycle	-11.1834
▁center	-11.1835
▁directors	-11.1835
▁mailing	-11.1837
▁associat	-11.184
▁Teenage	-11.1844
▁flash	-11.1844
▁fault	-11.1846
▁learners	-11.1846
urit	-11.1848
▁Sects	-11.1848
▁units	-11.1848
▁Boro	-11.1849
masturbation	-11.1849
▁handed	-11.185
▁Programs	-11.1854
arnivorous	-11.1857
▁ga	-11.186
[[:$	-11.1863
▁died	-11.1866
▁shelf	-11.1867
sheet	-11.1869
▁sup	-11.187
PAN	-11.187
▁Cup	-11.1871
beach	-11.1874
▁pictures	-11.1875
stub	-11.1875
▁PI	-11.1876
▁northeast	-11.1876
▁Chat	-11.1878
capture	-11.1878
laying	-11.1879
▁Plastic	-11.188
▁letter	-11.188
tube	-11.188
▁references	-11.1883
frog	-11.1884
Naba	-11.1884
▁division	-11.1885
▁zone	-11.1885
nominal	-11.1886
▁Ri	-11.1891
▁blondes	-11.1893
▁MLC	-11.1896
▁measure	-11.1903
▁logo	-11.1906
Contribution	-11.1907
spiration	-11.1908
ibliography	-11.1909
▁Sik	-11.1912
▁carrie	-11.1913
▁Intimat	-11.1914
▁Mess	-11.1918
▁heading	-11.1921
▁sound	-11.1923
▁cute	-11.1925
Yearly	-11.1926
anal	-11.1927
▁searching	-11.1932
manufacturing	-11.1932
▁exams	-11.1933
▁Theft	-11.1935
▁Tay	-11.1937
▁animals	-11.1939
BRO	-11.1943
▁loot	-11.1944
urt	-11.1944
▁NX	-11.1945
▁follows	-11.1951
Protect	-11.1954
PD	-11.1955
▁closed	-11.1957
anda	-11.1963
▁doctors	-11.1965
▁lift	-11.1971
▁tags	-11.1972
Golden	-11.1973
▁Gr	-11.1973
PG	-11.1974
▁drop	-11.1975
nder	-11.1977
▁Basis	-11.1978
▁italian	-11.1979
▁professionals	-11.1982
▁fantasy	-11.1986
▁Discussion	-11.1997
▁Village	-11.2
sunny	-11.2002
▁DE	-11.2003
▁buildings	-11.2006
▁Ed	-11.2013
▁viewed	-11.2017
▁Extr	-11.2019
▁operator	-11.2019
OR	-11.2021
matures	-11.2025
▁relate	-11.2025
▁FO	-11.2027
▁houses	-11.2027
bby	-11.2033
▁healthy	-11.2036
▁emo	-11.2036
WAL	-11.2037
▁TED	-11.2037
▁Ran	-11.2042
▁UP	-11.2045
gan	-11.2045
SE	-11.2047
▁Lust	-11.2047
▁Mil	-11.2052
▁confirmed	-11.2053
▁bags	-11.2055
overall	-11.2061
▁owned	-11.2062
▁Files	-11.2062
▁threesome	-11.2063
▁Pet	-11.2066
ental	-11.2067
▁individuals	-11.2069
▁Cho	-11.207
▁Sup	-11.2073
than	-11.2075
ganj	-11.208
icked	-11.2081
ŋ	-11.2081
darsh	-11.2082
ntm	-11.2087
▁Swar	-11.2096
▁initial	-11.2098
▁Many	-11.2101
cam	-11.2102
▁wrong	-11.2104
▁respective	-11.2108
▁namespace	-11.211
▁agents	-11.2111
dal	-11.2116
▁profile	-11.2116
LOP	-11.2128
▁warning	-11.2131
▁AM	-11.2135
lig	-11.214
endors	-11.2142
▁Count	-11.2147
mp	-11.2153
▁Idea	-11.216
restricted	-11.2165
▁[[$	-11.217
▁indicat	-11.2174
▁equipments	-11.2176
▁Light	-11.2177
osted	-11.218
lite	-11.2182
▁advertise	-11.2182
▁Ful	-11.2185
▁Mpa	-11.2185
▁babes	-11.219
▁Australia	-11.2194
▁IA	-11.2203
ep	-11.2208
▁♔	-11.2212
▁hc	-11.2214
ʊn	-11.2214
▁BE	-11.2215
iamond	-11.2219
▁surve	-11.2225
▁Sports	-11.2233
▁Fill	-11.2235
▁Need	-11.2244
shaved	-11.2249
▁actor	-11.2256
▁CAD	-11.2264
▁got	-11.2273
▁deal	-11.2274
▁[[:$	-11.2279
▁Publishe	-11.2287
▁appli	-11.2288
Na	-11.2291
▁invi	-11.2295
▁বি	-11.2297
Delete	-11.23
▁images	-11.2303
▁computers	-11.2305
▁Vip	-11.2308
OY	-11.2321
▁BS	-11.2322
Apart	-11.2327
▁toner	-11.233
▁Laure	-11.2332
ternal	-11.2335
how	-11.2342
dive	-11.2342
lawful	-11.2344
ks	-11.2348
▁gun	-11.2351
▁Commo	-11.2352
▁Magic	-11.2356
▁payments	-11.2356
▁Pal	-11.2358
▁ধৰ	-11.2366
ow	-11.237
▁Testi	-11.2373
▁Rupa	-11.2375
rang	-11.2379
▁friend	-11.2382
▁combine	-11.2385
▁bar	-11.2385
under	-11.2398
▁Tel	-11.2399
ʜ	-11.2402
▁sequence	-11.2403
charis	-11.2409
ৰক	-11.2409
btak	-11.2428
ency	-11.2437
▁ku	-11.2439
CA	-11.2442
ockdown	-11.2445
cal	-11.2448
editors	-11.2449
▁graphic	-11.2456
▁girls	-11.2457
ounting	-11.2458
hd	-11.2464
▁Wiki	-11.2471
acco	-11.2487
nivers	-11.2488
▁opens	-11.2489
AE	-11.2493
As	-11.2498
inux	-11.2498
aims	-11.2505
▁Spo	-11.2509
aqq	-11.251
▁Tits	-11.252
bed	-11.2529
▁low	-11.2544
▁undergo	-11.2544
IV	-11.2549
Promote	-11.2554
▁serv	-11.2555
bu	-11.2555
▁Jona	-11.2556
▁Watch	-11.2563
work	-11.2571
dom	-11.2574
riya	-11.2577
▁Cred	-11.2579
ocieties	-11.2581
rata	-11.2581
▁evaluate	-11.2588
ivot	-11.2598
▁Kha	-11.2612
▁Gen	-11.2619
▁Dhu	-11.262
ture	-11.2624
▁Pipe	-11.2643
▁Tata	-11.2646
▁Hospitals	-11.2651
logs	-11.2654
▁pussy	-11.2657
pl	-11.2657
▁Break	-11.2658
urban	-11.266
HA	-11.2662
air	-11.2662
▁Abhij	-11.2668
▁generat	-11.2671
▁Inc	-11.2678
Rs	-11.268
liness	-11.268
HIS	-11.2683
Th	-11.2687
}}]]	-11.2692
.)	-11.2699
▁restore	-11.2704
ug	-11.2714
▁Retr	-11.2724
▁ensur	-11.2737
note	-11.2743
▁god	-11.2752
stead	-11.2755
▁Sab	-11.2758
self	-11.2777
rification	-11.2777
▁archive	-11.2778
room	-11.2782
▁na	-11.2789
▁table	-11.2804
vil	-11.2806
▁participat	-11.2807
su	-11.2808
▁allocate	-11.2815
▁DC	-11.2815
▁watch	-11.2818
gation	-11.2835
▁seiz	-11.2843
ining	-11.2845
bber	-11.2847
rel	-11.2847
SK	-11.2857
els	-11.2865
cute	-11.2867
ray	-11.287
▁Bhu	-11.2874
▁med	-11.2876
▁promise	-11.2878
▁values	-11.2879
ica	-11.2889
lines	-11.2894
▁Well	-11.2897
ether	-11.2901
ome	-11.2902
asy	-11.2924
▁Rent	-11.293
▁propert	-11.2934
ngzhou	-11.2936
▁contribut	-11.2937
▁pcs	-11.294
SAN	-11.2944
lla	-11.2957
headed	-11.2958
UP	-11.297
gy	-11.2991
gh	-11.2992
umble	-11.2992
▁Explore	-11.2996
bo	-11.2997
Tablet	-11.2998
egacy	-11.2999
SING	-11.3013
▁tell	-11.3016
▁sing	-11.302
▁gal	-11.3027
lty	-11.303
▁Shut	-11.3036
ations	-11.3041
ked	-11.3042
▁Error	-11.3044
some	-11.3061
idget	-11.3067
quote	-11.3071
▁Trend	-11.3078
▁arrange	-11.3081
MI	-11.3091
▁Pee	-11.3095
▁Animal	-11.3098
tra	-11.3099
files	-11.3104
▁mā	-11.3106
ear	-11.3108
▁Ju	-11.3109
▁Ze	-11.311
▁Bit	-11.311
▁Ty	-11.3121
▁Fe	-11.3127
lbar	-11.3128
lim	-11.3128
▁Seek	-11.3133
▁প	-11.3156
▁Matures	-11.3168
▁spar	-11.3169
▁EN	-11.3175
▁Met	-11.3207
▁Fold	-11.3213
$$.	-11.3214
eli	-11.3214
ṭa	-11.3218
ada	-11.3222
Oth	-11.3223
▁Process	-11.3249
▁Hija	-11.3252
ou	-11.3258
▁Sing	-11.3262
asim	-11.3272
alli	-11.3279
wali	-11.3279
▁Deed	-11.3281
rie	-11.3282
oxy	-11.3283
▁Ava	-11.3284
▁dishe	-11.3286
equate	-11.3301
▁Hima	-11.3302
rah	-11.3304
etta	-11.3306
’’	-11.3311
aking	-11.3314
▁AK	-11.3315
only	-11.3321
▁regulat	-11.3326
▁cr	-11.3329
DSP	-11.3332
▁Found	-11.3342
ʀ	-11.3344
Mathematics	-11.3346
ig	-11.3346
shto	-11.3347
▁Eu	-11.335
▁compa	-11.335
▁Visual	-11.3354
▁feed	-11.3354
ʌŋ	-11.3357
▁SH	-11.3358
Insurance	-11.3391
member	-11.3392
theme	-11.3395
▁sa	-11.3396
del	-11.3406
▁mount	-11.3409
ে	-11.3412
▁༺	-11.3414
▁cm	-11.3419
▁ka	-11.3426
ṭ	-11.3429
lable	-11.343
▁CG	-11.3432
AM	-11.3434
used	-11.3442
OTE	-11.3442
kind	-11.3444
dah	-11.3446
▁ru	-11.3456
▁Mac	-11.3459
about	-11.346
▁Dia	-11.3461
ś	-11.3464
▁”	-11.3464
▁Rep	-11.3468
Home	-11.3472
▁MS	-11.3474
terface	-11.3474
girl	-11.3476
onversation	-11.3476
ombustion	-11.3486
lie	-11.3508
meat	-11.3508
▁founder	-11.3508
Videos	-11.3511
ral	-11.3518
▁Tai	-11.3518
post	-11.3521
uwa	-11.3527
▁reduc	-11.3531
Remember	-11.3534
\$	-11.354
ht	-11.354
▁Ans	-11.3542
▁Sara	-11.3542
template	-11.3542
pipe	-11.3543
awi	-11.3548
▁license	-11.355
operator	-11.3553
▁Increase	-11.356
licate	-11.3564
cyst	-11.3565
mails	-11.3566
function	-11.3575
trong	-11.3575
add	-11.3588
XXX	-11.3596
▁spy	-11.3603
bel	-11.3603
Interview	-11.3604
duplicatesearch	-11.3606
akhi	-11.3607
▁authori	-11.3609
tr	-11.3616
▁Fol	-11.3618
author	-11.3622
▁Kh	-11.3624
match	-11.3626
Statistics	-11.3631
region	-11.3631
global	-11.3633
limit	-11.3633
See	-11.3633
▁Surf	-11.3633
Amateur	-11.3635
ple	-11.3636
Free	-11.3637
Delhi	-11.3637
without	-11.3638
local	-11.3639
LU	-11.3641
Revision	-11.3644
Fisting	-11.3645
session	-11.3646
depth	-11.3648
LTD	-11.3649
shift	-11.3654
Maxim	-11.3654
Lesbian	-11.3654
Mpa	-11.3657
▁handle	-11.3657
blank	-11.3658
click	-11.3659
break	-11.3661
▁nutrition	-11.3663
NET	-11.3664
śā	-11.3664
NKC	-11.3665
▁drama	-11.3665
lay	-11.3666
success	-11.3666
▁CAT	-11.367
GA	-11.3672
sign	-11.3674
▁wet	-11.3675
Social	-11.3675
▁Compa	-11.3677
copyright	-11.3678
Password	-11.3678
Experience	-11.3679
Library	-11.368
failure	-11.3681
Books	-11.3683
wrong	-11.3683
authenticated	-11.3684
bracket	-11.3684
Amazing	-11.3685
navigation	-11.3687
Hidden	-11.3687
warning	-11.3688
feedback	-11.3688
download	-11.3689
driver	-11.369
width	-11.369
BJP	-11.3691
shared	-11.3694
suppress	-11.3695
Real	-11.3699
check	-11.3704
▁Bish	-11.3706
East	-11.371
Step	-11.3713
Dec	-11.3713
double	-11.3714
Under	-11.3715
rape	-11.3716
Peac	-11.3719
wan	-11.3723
AGE	-11.3723
another	-11.3726
removed	-11.373
bat	-11.3732
threesome	-11.3738
Don	-11.3738
hour	-11.3738
said	-11.3738
friend	-11.374
ct	-11.3744
HB	-11.3746
building	-11.3753
pad	-11.3754
NER	-11.3759
On	-11.376
force	-11.3765
menu	-11.3766
ricks	-11.3769
▁Lecture	-11.3772
height	-11.3776
members	-11.3777
▁bo	-11.3782
▁Van	-11.3786
owing	-11.3791
MR	-11.3795
sch	-11.3796
Methoxy	-11.38
God	-11.3806
It	-11.3806
▁par	-11.3809
black	-11.3812
Dr	-11.3815
atiya	-11.3816
ext	-11.3821
semi	-11.3827
▁Begin	-11.3832
LIA	-11.3834
▁Ann	-11.3838
LA	-11.3839
six	-11.3839
vas	-11.3843
oc	-11.3845
ı	-11.3846
▁identifi	-11.3856
▁reasonabl	-11.3856
path	-11.3859
nya	-11.3866
▁Kal	-11.3868
]]'	-11.3868
color	-11.3871
Contents	-11.3877
charge	-11.389
Up	-11.3896
OUT	-11.3897
▁scan	-11.391
wo	-11.3914
sustain	-11.3915
▁Ben	-11.3917
redirects	-11.3919
▁rais	-11.3928
ilig	-11.3929
join	-11.3929
▁produce	-11.3933
▁Lu	-11.3935
ze	-11.3948
▁temper	-11.3953
Me	-11.3954
▁train	-11.396
mine	-11.397
til	-11.397
▁Tie	-11.3978
▁numer	-11.3992
BM	-11.3998
TUBE	-11.3998
ctor	-11.3998
▁Though	-11.4001
server	-11.4003
▁idea	-11.4003
▁Inco	-11.4004
ū	-11.401
▁milfs	-11.4012
▁inspir	-11.4014
▁Dish	-11.4016
▁tw	-11.4019
require	-11.4024
missions	-11.4028
▁Tree	-11.4033
LET	-11.4033
uff	-11.4036
▁ja	-11.404
given	-11.404
▁Standardi	-11.4043
▁delay	-11.4043
NEE	-11.4045
▁raise	-11.4051
▁Je	-11.4052
▁Pain	-11.4057
nger	-11.4058
kat	-11.4061
:-	-11.4064
lling	-11.4066
CU	-11.4067
ḍu	-11.4068
SS	-11.4073
Lo	-11.4073
▁Ins	-11.4076
▁Degree	-11.4077
▁disorder	-11.4078
▁Scene	-11.4079
▁Artisan	-11.4079
▁Riot	-11.408
▁Magazine	-11.4087
Ele	-11.4087
▁Bang	-11.4088
▁safeguard	-11.4092
▁Eye	-11.4092
▁magnet	-11.4093
ile	-11.4095
▁programme	-11.4095
aint	-11.4095
▁Exclusion	-11.4096
▁exclusion	-11.4096
▁sport	-11.4096
▁Kil	-11.4097
▁prove	-11.4099
▁response	-11.4099
▁celebration	-11.4099
▁partner	-11.41
moni	-11.4103
▁resource	-11.4105
▁centre	-11.4106
operation	-11.4107
ming	-11.4109
▁belief	-11.4112
▁Organization	-11.4113
base	-11.4115
▁Common	-11.4117
▁maintain	-11.412
▁learner	-11.412
▁involv	-11.4122
▁topic	-11.4122
mode	-11.4132
▁implement	-11.4132
▁Val	-11.4133
▁vita	-11.414
ipur	-11.4146
▁realize	-11.4147
▁demand	-11.4147
▁Spank	-11.415
ulb	-11.4151
▁Develop	-11.4153
▁appear	-11.4154
teel	-11.4156
▁charg	-11.4159
▁wil	-11.416
▁Cente	-11.4162
And	-11.4162
▁sea	-11.4162
▁st	-11.4162
AVE	-11.4164
▁register	-11.4164
▁Ayurved	-11.4166
▁translator	-11.4167
▁warrant	-11.4171
rative	-11.4174
Kurd	-11.4178
ION	-11.4179
kgs	-11.4179
▁Suck	-11.4179
▁remote	-11.4179
▁Tribun	-11.418
▁alternative	-11.418
▁Glass	-11.418
you	-11.4181
▁Translator	-11.4183
▁Area	-11.4183
urriculum	-11.4185
▁Dynamic	-11.4186
▁indirect	-11.4187
▁WORK	-11.4187
☆	-11.4188
☠	-11.4188
▁versatil	-11.4189
nstab	-11.4189
ɴ	-11.419
𑀢	-11.419
ɳ	-11.419
ᴇ	-11.419
▁Volunt	-11.419
▁hails	-11.419
▁Bureau	-11.419
č	-11.419
į	-11.419
Ꮑ	-11.419
∆	-11.419
Ħ	-11.419
§	-11.419
ђ	-11.419
ᴍ	-11.419
loginreq	-11.419
к	-11.419
▁t̪ʌlʌɪ̯	-11.419
▁Tumblr	-11.419
𑁂	-11.419
AMTRON	-11.4191
Qazabri	-11.4191
Template	-11.4191
­	-11.4191
Ã	-11.4191
ã	-11.4191
ĩ	-11.4191
Σ	-11.4191
م	-11.4191
ي	-11.4191
࿗	-11.4191
▁AbdulMuhs	-11.4191
▁Appliances	-11.4191
▁AskIslamPedia	-11.4191
▁Borwein	-11.4191
▁Buddhis	-11.4191
▁Chopra	-11.4191
▁Comorian	-11.4191
▁Complaint	-11.4191
▁Dhubri	-11.4191
▁Fermat	-11.4191
▁Hockey	-11.4191
▁Hyderabad	-11.4191
▁Libraries	-11.4191
▁Liquid	-11.4191
▁Lollipop	-11.4191
▁Madhavdev	-11.4191
▁PTFE	-11.4191
▁Phukan	-11.4191
▁Procedure	-11.4191
▁Religious	-11.4191
▁Revenge	-11.4191
▁Script	-11.4191
▁Settlement	-11.4191
▁Stethoscope	-11.4191
▁Tenerife	-11.4191
▁Trampling	-11.4191
▁WITH	-11.4191
▁WOMEN	-11.4191
▁Zhongyue	-11.4191
▁brazilian	-11.4191
▁duplicate	-11.4191
▁excellent	-11.4191
▁franchise	-11.4191
▁homosexual	-11.4191
▁improving	-11.4191
▁intelligence	-11.4191
▁misfortune	-11.4191
▁satisfy	-11.4191
▁technologies	-11.4191
▁workmanship	-11.4191
▁ঘ	-11.4191
▁●	-11.4191
⚡	-11.4191
✧	-11.4191
中	-11.4191
文	-11.4191
꧅	-11.4191
gohain	-11.4191
responsibilities	-11.4191
▁Auditorium	-11.4191
▁Bangkok	-11.4191
▁Bombshell	-11.4191
▁Broadcast	-11.4191
▁Freckled	-11.4191
▁Gadkari	-11.4191
▁Stadium	-11.4191
▁WORLD	-11.4191
▁Yojana	-11.4191
▁bottom	-11.4191
▁burden	-11.4191
▁deepthroat	-11.4191
▁eligibility	-11.4191
▁kilobytes	-11.4191
▁merchant	-11.4191
▁opacity	-11.4191
▁stakeholders	-11.4191
Madagascar	-11.4191
Ø	-11.4191
؏	-11.4191
ყ	-11.4191
▁Begum	-11.4191
▁Caucasian	-11.4191
▁Cricket	-11.4191
▁Little	-11.4191
▁Nutrition	-11.4191
▁Purpose	-11.4191
▁Qualification	-11.4191
▁Tutorial	-11.4191
▁accurate	-11.4191
▁convenient	-11.4191
⚜	-11.4191
▁Florida	-11.4191
▁Tariff	-11.4191
▁hyena	-11.4191
exhausted	-11.4191
°∆°	-11.4191
ʈ	-11.4191
▁CookiesLegal	-11.4191
▁orgasm	-11.4191
▁spouse	-11.4191
⚔	-11.4191
▁Dealers	-11.4191
▁THAT	-11.4191
ᴏ	-11.4191
▁Scientist	-11.4191
▁AUD	-11.4191
▁stepmom	-11.4191
▁iPhone	-11.4191
▁jinn	-11.4191
Behind	-11.4191
▁Patrick	-11.4191
▁NuVid	-11.4191
▁Disadvantages	-11.4191
MOTIV	-11.4191
▁Trump	-11.4191
▁dialog	-11.4191
▁efficiency	-11.4191
▁nominee	-11.4191
▁California	-11.4191
▁Navigation	-11.4191
▁Vishnu	-11.4191
FULLPAGENAME	-11.4191
িত	-11.4191
▁Plumber	-11.4191
▁denied	-11.4191
▁grandpa	-11.4191
▁Charges	-11.4191
▁Radioactive	-11.4191
▁vitamin	-11.4191
▁ladder	-11.4191
▁subscribe	-11.4191
▁intelligent	-11.4191
sysop	-11.4191
▁Colourline	-11.4191
▁dozen	-11.4191
▁neglect	-11.4191
Acquire	-11.4191
livepreview	-11.4191
▁AUTO	-11.4191
▁Repository	-11.4191
▁mushroom	-11.4191
loginsuccess	-11.4191
▁Shanghai	-11.4191
▁infrastructure	-11.4191
▁Wipro	-11.4191
▁Tourist	-11.4191
▁superior	-11.4191
▁Braces	-11.4191
softcore	-11.4191
▁Literacy	-11.4191
▁Recommendations	-11.4191
▁personnel	-11.4191
Except	-11.4191
▁Backroom	-11.4191
▁Humiliation	-11.4191
▁humiliation	-11.4191
▁derivative	-11.4191
▁Subscription	-11.4191
▁Awardees	-11.4191
▁Yahya	-11.4191
▁mandatory	-11.4191
▁spoke	-11.4191
▁Coffee	-11.4191
Orissa	-11.4191
▁crash	-11.4191
▁Finish	-11.4191
▁MMMM	-11.4191
yatāṃ	-11.4191
▁Passionate	-11.4191
▁Half	-11.4191
▁insert	-11.4191
Softcore	-11.4191
▁legitimate	-11.4191
▁Sailor	-11.4191
▁Antique	-11.4191
▁IDOL	-11.4191
▁Horse	-11.4191
▁enjoy	-11.4191
▁Tropica	-11.4191
▁himself	-11.4191
▁regulations	-11.4191
▁reflect	-11.4191
blockip	-11.4191
▁Instagram	-11.4191
▁Understand	-11.4191
▁Swiss	-11.4191
▁Exclusive	-11.4191
newuserlog	-11.4191
▁Goddess	-11.4191
ṇī	-11.4191
▁identical	-11.4191
▁false	-11.4191
▁Fidelity	-11.4191
▁Toddler	-11.4191
▁Valid	-11.4192
▁attendant	-11.4192
▁Pashto	-11.4192
Merge	-11.4192
▁appliance	-11.4192
\".'''	-11.4192
▁discharge	-11.4192
▁premier	-11.4192
captcha	-11.4192
▁interior	-11.4192
▁Alternatively	-11.4192
▁Murder	-11.4192
▁inquiry	-11.4192
▁hospitalised	-11.4192
watchthis	-11.4192
▁Spring	-11.4192
▁configur	-11.4192
▁Siddha	-11.4192
▁xmas	-11.4192
▁Bhog	-11.4192
▁Brochure	-11.4192
▁Negligence	-11.4192
▁Scandal	-11.4192
▁quantit	-11.4192
▁Competition	-11.4192
▁Insulin	-11.4192
▁german	-11.4192
▁wonder	-11.4192
▁Stamps	-11.4192
▁clause	-11.4192
☬☠	-11.4192
▁Screenshot	-11.4192
▁angel	-11.4192
▁Candidate	-11.4192
▁introduction	-11.4193
▁Bhawan	-11.4193
▁Burha	-11.4193
timezone	-11.4193
▁Overview	-11.4193
▁idol	-11.4193
▁preparation	-11.4193
▁recruit	-11.4193
▁negligence	-11.4193
DMCA	-11.4193
Kitchen	-11.4193
lookup	-11.4193
▁XXXKinky	-11.4193
▁street	-11.4193
▁HOME	-11.4193
▁implied	-11.4193
BPH	-11.4193
▁linguist	-11.4194
▁Lightning	-11.4194
▁Breast	-11.4194
▁radiation	-11.4194
▁Touch	-11.4194
Experiment	-11.4194
▁Duties	-11.4194
▁Nobel	-11.4194
▁celebrity	-11.4194
▁weekend	-11.4194
▁lessons	-11.4194
!!!	-11.4194
▁Injury	-11.4194
ṣṭa	-11.4194
▁Chemistry	-11.4194
▁Drama	-11.4194
▁recitation	-11.4194
▁Strategies	-11.4194
▁GNU	-11.4194
▁Dhol	-11.4195
▁mortal	-11.4195
▁Sitting	-11.4195
▁Unani	-11.4195
▁viral	-11.4195
▁Mouth	-11.4195
▁Xbox	-11.4195
▁Rai	-11.4195
▁Forward	-11.4195
▁Gauge	-11.4195
▁Inundation	-11.4195
▁togetherness	-11.4195
▁clothing	-11.4195
usergroup	-11.4196
▁Deka	-11.4196
▁justice	-11.4196
▁Arabian	-11.4196
▁agencies	-11.4197
▁Hanum	-11.4197
▁Riding	-11.4197
label	-11.4197
▁Plot	-11.4197
nocreate	-11.4197
ldots	-11.4197
▁Truth	-11.4197
▁Balance	-11.4197
LECT	-11.4198
▁Bulgarian	-11.4198
movedto	-11.4198
▁transition	-11.4198
▁Faulty	-11.4198
▁Awesome	-11.4198
▁Task	-11.4198
externally	-11.4198
Deductible	-11.4198
Division	-11.4199
▁Square	-11.4199
▁fift	-11.4199
▁Setup	-11.4199
▁priority	-11.4199
▁insect	-11.4199
▁Lotion	-11.4199
▁Haze	-11.42
▁heaven	-11.42
▁Desk	-11.42
jumpto	-11.42
▁distinct	-11.4201
▁intellectual	-11.4201
▁closeup	-11.4202
▁PLA	-11.4202
▁Blue	-11.4202
▁ICU	-11.4202
asir	-11.4202
▁AGP	-11.4202
▁Enjo	-11.4202
▁GBP	-11.4202
▁advertiser	-11.4202
▁Processes	-11.4202
▁Tgirl	-11.4203
skl	-11.4203
▁Chicken	-11.4204
▁Designation	-11.4204
▁pull	-11.4204
▁overview	-11.4204
▁automatic	-11.4204
▁globally	-11.4205
▁fulfill	-11.4205
subscription	-11.4205
▁pronoun	-11.4206
▁WEB	-11.4206
▁Gym	-11.4206
▁Caught	-11.4206
▁challenges	-11.4206
▁staffs	-11.4207
▁armpits	-11.4207
▁twinks	-11.4207
▁Consultations	-11.4207
▁viz	-11.4207
▁tickets	-11.4207
▁Leggings	-11.4207
▁breakage	-11.4207
▁attributes	-11.4207
retard	-11.4207
PCO	-11.4208
▁Fake	-11.4208
▁kʌ	-11.4208
▁collectors	-11.4209
▁Plump	-11.421
▁warranty	-11.421
▁Sky	-11.4211
▁upline	-11.4211
!'''	-11.4212
groups	-11.4212
▁Mangal	-11.4212
▁enroll	-11.4212
▁Presentation	-11.4212
CUS	-11.4212
irendra	-11.4213
▁suffered	-11.4214
++	-11.4214
Sequence	-11.4214
▁suspect	-11.4215
▁Zhe	-11.4216
▁apple	-11.4217
▁element	-11.4217
▁deduct	-11.4218
▁Meaning	-11.4218
EAM	-11.4219
▁explosi	-11.422
▁Muhamm	-11.422
▁park	-11.4221
GMCH	-11.4221
▁commodit	-11.4221
▁extreme	-11.4223
▁hence	-11.4223
OURS	-11.4223
▁Serbia	-11.4225
▁enhancement	-11.4225
wala	-11.4225
▁possession	-11.4226
▁expos	-11.4227
▁Comic	-11.4228
▁thereby	-11.4228
▁GQ	-11.4228
▁say	-11.4229
neq	-11.4229
sulfide	-11.4229
▁Bela	-11.423
▁portion	-11.4231
▁setup	-11.4231
▁arisen	-11.4231
:≥	-11.4232
Massive	-11.4232
▁quot	-11.4232
▁Principles	-11.4233
▁clubs	-11.4233
▁Franchises	-11.4233
▁disputes	-11.4234
▁Advantages	-11.4234
▁Quarters	-11.4234
▁mistakes	-11.4234
▁soil	-11.4235
▁internationally	-11.4235
▁maintaining	-11.4236
Karim	-11.4236
▁demanding	-11.4236
▁winners	-11.4236
▁Tractor	-11.4237
▁lower	-11.4239
▁someone	-11.424
▁horn	-11.424
▁Fried	-11.4242
▁bodies	-11.4242
▁gift	-11.4243
▁Characters	-11.4246
longpage	-11.4246
▁brutal	-11.4246
▁featured	-11.4246
▁Rich	-11.4247
▁Amazingly	-11.4247
▁Cleaning	-11.4248
▁Creat	-11.4249
Tribal	-11.425
▁accuracy	-11.4251
▁Boat	-11.4252
▁Trends	-11.4252
▁bless	-11.4252
▁Sewa	-11.4253
▁thanks	-11.4254
▁Chand	-11.4255
▁Hiren	-11.4255
▁scor	-11.4256
▁Lith	-11.4257
▁String	-11.4258
▁Asph	-11.4258
▁Dear	-11.4259
oll	-11.426
▁limbs	-11.426
▁authored	-11.4262
▁Theorem	-11.4262
▁Releases	-11.4262
▁cylinders	-11.4262
▁holidays	-11.4262
▁instructions	-11.4263
▁fruits	-11.4263
▁samples	-11.4264
▁shops	-11.4266
▁Specialist	-11.4267
▁shemales	-11.4269
permitted	-11.427
▁Chen	-11.4271
native	-11.4273
▁Mika	-11.4274
les	-11.4275
▁Dig	-11.4277
ational	-11.4279
▁boat	-11.4279
parser	-11.428
▁Handa	-11.428
▁→	-11.4281
▁serial	-11.4282
AB	-11.4285
▁fitness	-11.4286
▁husband	-11.4286
Adjustable	-11.4286
▁routine	-11.4286
▁telephone	-11.4286
▁disclaimer	-11.4286
▁Nirbhaya	-11.4287
▁shape	-11.4287
▁volume	-11.4287
▁political	-11.4287
▁Tokyo	-11.4288
▁Bli	-11.4288
▁Relative	-11.4288
▁Legend	-11.4289
▁hassle	-11.4289
filter	-11.4289
▁Traffic	-11.4289
▁responses	-11.4289
▁chosen	-11.429
▁Average	-11.429
▁Corner	-11.429
▁innocent	-11.429
▁textbox	-11.429
▁safeguards	-11.429
▁celebrations	-11.4291
▁programmes	-11.4291
▁Mal	-11.4291
▁appears	-11.4292
▁Ladders	-11.4292
▁Modern	-11.4292
▁CHF	-11.4292
khil	-11.4293
▁crown	-11.4294
PIL	-11.4294
▁tied	-11.4295
▁Brand	-11.4296
▁'''[[	-11.4297
▁Answered	-11.4297
▁Rod	-11.4297
▁node	-11.4297
enne	-11.4298
Mantri	-11.4299
▁seminar	-11.43
▁preferred	-11.4302
▁performed	-11.4302
preced	-11.4302
▁fabrics	-11.4303
▁Philippines	-11.4303
▁Down	-11.4306
▁Impurit	-11.4311
▁folder	-11.4312
para	-11.4312
▁aunt	-11.4313
▁Banga	-11.4315
Authentication	-11.4316
▁Lean	-11.4317
host	-11.4317
▁leap	-11.4318
▁Buckle	-11.4318
▁Zain	-11.4318
▁Vehicles	-11.4319
▁candidates	-11.4319
▁drugs	-11.4319
monotheism	-11.4319
rajo	-11.4319
▁Dong	-11.4321
▁profiles	-11.4323
sky	-11.4324
infringement	-11.4324
▁Biograph	-11.4325
▁Factor	-11.4326
eg	-11.4328
▁compris	-11.4329
▁arise	-11.4329
▁Ladder	-11.433
▁Gaming	-11.433
▁defend	-11.433
▁omission	-11.433
tolen	-11.433
any	-11.4331
▁Rao	-11.4334
IANS	-11.4334
▁cells	-11.4334
▁bandh	-11.4336
ুট	-11.4343
▁Discover	-11.4343
▁Anas	-11.4344
▁corner	-11.4344
▁cameras	-11.4347
▁recip	-11.4347
▁associations	-11.4348
▁Deb	-11.4348
▁Hill	-11.4351
▁sun	-11.4353
▁confirm	-11.4357
▁prescri	-11.4359
▁lingerie	-11.4359
UKI	-11.4363
▁plate	-11.4364
uploaded	-11.4364
▁Rose	-11.437
▁lapse	-11.437
CARE	-11.4371
▁Abi	-11.4376
confirmed	-11.4376
▁Eid	-11.4377
▁fake	-11.4378
▁presentation	-11.4382
▁spend	-11.4384
▁striptease	-11.439
kin	-11.4391
▁breaks	-11.4392
▁downloading	-11.4394
▁]	-11.4395
▁owners	-11.4395
xotic	-11.4395
webcam	-11.4395
▁rating	-11.4399
▁Mesh	-11.44
▁shower	-11.4401
▁relationships	-11.4404
▁Complete	-11.4412
▁suppliers	-11.4413
anga	-11.4414
aternity	-11.4415
▁Rates	-11.4415
▁maid	-11.4416
ini	-11.4417
▁operators	-11.4417
echnical	-11.4418
▁boobs	-11.4418
▁burner	-11.4419
▁random	-11.442
▁zero	-11.4422
▁Tar	-11.4423
▁tall	-11.4425
▁Vote	-11.4426
ten	-11.4426
▁Interest	-11.4427
▁blue	-11.4428
▁([[	-11.4428
▁spirits	-11.4429
▁fish	-11.4432
bot	-11.4433
▁Pakistan	-11.4437
▁Quick	-11.4437
▁Mexican	-11.4437
▁Too	-11.4439
▁Lifestyle	-11.444
GIS	-11.4442
▁methods	-11.4444
▁Romania	-11.4444
▁Extension	-11.4446
▁rice	-11.4447
tist	-11.4448
▁upskirts	-11.445
▁Sheen	-11.445
UND	-11.4452
▁apart	-11.4452
eaches	-11.4454
▁addresses	-11.4457
BAL	-11.4463
▁ju	-11.4465
▁kille	-11.4468
▁preserve	-11.4468
stry	-11.447
▁finance	-11.447
▁rain	-11.448
▁evening	-11.4481
▁Foot	-11.4481
BL	-11.4483
ient	-11.4487
▁traditional	-11.4488
▁BSP	-11.4493
▁dr	-11.4494
▁Compensati	-11.4496
▁IC	-11.4496
ATIONS	-11.4497
efault	-11.4501
▁correctly	-11.4509
stand	-11.4509
adhika	-11.4509
secretary	-11.4509
▁ENG	-11.451
▁assess	-11.4511
ICC	-11.4512
▁Mills	-11.4512
ell	-11.4513
▁FAQs	-11.4517
zhu	-11.4517
contri	-11.4521
tive	-11.4522
tie	-11.4526
▁accessed	-11.4528
▁Gree	-11.4528
▁Places	-11.4534
lene	-11.4536
ue	-11.4537
▁qualifi	-11.4539
▁Steph	-11.4541
▁Intr	-11.4541
▁Melan	-11.4543
▁Lock	-11.4546
_{	-11.4546
▁deep	-11.4547
▁gathering	-11.455
anity	-11.4551
▁banner	-11.4555
▁Rider	-11.4562
kyo	-11.4565
▁former	-11.4567
mita	-11.4575
▁ছ	-11.4577
catch	-11.4578
dentification	-11.4578
▁reaction	-11.4579
▁virus	-11.4579
▁Chi	-11.4579
ists	-11.4581
SHAN	-11.4581
pager	-11.4584
▁Shandong	-11.459
▁subpages	-11.459
kh	-11.4593
epresentative	-11.4594
ctively	-11.4597
atches	-11.4597
▁reput	-11.4598
▁Pil	-11.4601
▁matches	-11.4601
formed	-11.4604
▁CA	-11.4609
DR	-11.4613
▁adjective	-11.4614
joy	-11.4614
recognise	-11.4615
▁simpl	-11.4617
▁Ez	-11.4618
▁Works	-11.4625
▁Practic	-11.4631
▁tra	-11.4632
▁Mark	-11.4635
▁Expo	-11.4637
▁TOP	-11.464
----------------	-11.4649
yperlink	-11.4656
▁nurse	-11.4657
'''.	-11.4658
let	-11.4658
▁cat	-11.4659
▁Los	-11.466
▁watching	-11.466
size	-11.4662
exclud	-11.4664
KS	-11.4666
ITS	-11.4666
▁Translat	-11.4669
IMA	-11.4671
rovisions	-11.4675
▁Banks	-11.4676
▁.	-11.4676
▁Paras	-11.4682
▁Linu	-11.4683
▁comput	-11.4687
▁floods	-11.4687
▁tend	-11.4692
▁Photos	-11.4694
MEI	-11.4695
▁ar	-11.4696
ja	-11.4699
▁Reason	-11.4704
anti	-11.471
▁DO	-11.4711
▁Tools	-11.4714
seven	-11.4715
uni	-11.4715
ants	-11.4716
EN	-11.4717
doubt	-11.4717
▁revise	-11.4718
▁TUBE	-11.4719
lash	-11.4725
▁kā	-11.4727
)$$	-11.4727
▁BD	-11.4727
iagnostic	-11.4728
race	-11.4728
ila	-11.4729
▁authenticated	-11.4729
▁SE	-11.4729
▁Gad	-11.4731
▁advisor	-11.4735
HAR	-11.4736
fucking	-11.4738
▁Cool	-11.4739
▁Rim	-11.4744
▁exten	-11.4746
Le	-11.4747
▁necessit	-11.4749
▁blank	-11.4754
ṣa	-11.4756
▁ye	-11.4757
IPL	-11.4762
▁dedicat	-11.4762
▁bot	-11.4763
▁Pri	-11.4773
▁Customer	-11.4773
▁institute	-11.4774
▁asset	-11.4775
lyn	-11.4782
Teasing	-11.4789
sey	-11.479
ailed	-11.4801
bes	-11.4815
GN	-11.4816
land	-11.4822
▁Saw	-11.4834
▁remove	-11.4855
IVE	-11.4856
▁Prim	-11.4858
yi	-11.4865
eyya	-11.4869
Documents	-11.4874
}}/	-11.4876
rag	-11.4878
▁Numer	-11.4882
▁winn	-11.4884
▁addressed	-11.4884
vert	-11.4885
▁Prayers	-11.489
permission	-11.4905
▁sy	-11.4907
aṅka	-11.4916
satellite	-11.4919
▁lock	-11.492
nude	-11.492
Ra	-11.4923
sy	-11.4923
ward	-11.4928
▁ER	-11.4928
De	-11.4932
▁Bor	-11.4932
▁seed	-11.4935
▁curve	-11.4938
low	-11.4938
▁speed	-11.4941
Inputs	-11.4942
missible	-11.4942
ṇa	-11.4947
blast	-11.4948
vernment	-11.4949
▁flo	-11.495
▁FIR	-11.4951
processor	-11.4952
▁awards	-11.4953
▁'(	-11.4959
▁Ele	-11.496
▁deb	-11.4963
′′)	-11.4966
tani	-11.4971
ware	-11.4971
isc	-11.4972
▁renewals	-11.4975
structures	-11.4976
hreshold	-11.4976
▁Detail	-11.4976
bug	-11.4979
▁Own	-11.4981
▁INT	-11.4984
Pr	-11.4989
▁advantage	-11.4991
▁Ah	-11.4992
▁ups	-11.5001
▁Oh	-11.5002
▁Kno	-11.5006
▁ground	-11.5007
▁MPa	-11.5009
ax	-11.501
came	-11.5012
face	-11.5014
▁Sat	-11.5017
may	-11.502
▁Hub	-11.5022
▁Moor	-11.5027
▁interact	-11.5028
dha	-11.5028
outs	-11.5029
▁notif	-11.503
tter	-11.5035
▁Chance	-11.5041
eating	-11.5045
▁CHE	-11.505
Tax	-11.506
}°	-11.5062
▁bal	-11.5065
NT	-11.5066
▁contra	-11.5072
row	-11.5083
▁Masturbation	-11.5098
▁Schools	-11.5098
▁requests	-11.5109
ᴇʀ	-11.5113
▁locations	-11.5121
▁CO	-11.5124
TC	-11.5127
ply	-11.513
▁Ser	-11.5131
▁Victor	-11.5132
izing	-11.5133
▁HT	-11.5135
▁mar	-11.5138
▁Admi	-11.514
▁ক	-11.514
trying	-11.5147
▁Pr	-11.5148
▁Gur	-11.515
tana	-11.5152
dildo	-11.5153
iesel	-11.5181
maining	-11.5185
▁acup	-11.5193
VL	-11.5194
nes	-11.5195
emaker	-11.5196
dika	-11.5202
▁severe	-11.5205
▁cast	-11.5208
ski	-11.5213
▁index	-11.5213
wal	-11.5215
▁intimate	-11.5222
▁errors	-11.5226
▁Homeopath	-11.5227
dhar	-11.523
▁hole	-11.5232
▁Graci	-11.5233
▁Deva	-11.5241
▁Ame	-11.5242
▁fine	-11.5244
▁suck	-11.5244
KG	-11.5245
BO	-11.5247
alities	-11.5248
▁Restrict	-11.5258
▁Warehous	-11.5258
case	-11.5261
▁Han	-11.5262
▁musical	-11.5281
Ma	-11.5282
uchi	-11.5286
▁Bl	-11.5292
alled	-11.5293
ality	-11.5296
▁Cu	-11.5298
▁Lea	-11.5299
▁edge	-11.53
▁samā	-11.5305
eem	-11.5306
▁Jam	-11.5307
volves	-11.5307
▁execut	-11.5309
▁devot	-11.5313
ned	-11.5317
▁derive	-11.5326
Never	-11.5332
▁Keychains	-11.535
nam	-11.5353
▁Bra	-11.5355
eb	-11.536
▁Proper	-11.5362
ham	-11.5375
Uttar	-11.5377
▁redirect	-11.5395
Da	-11.5397
SA	-11.5403
▁Em	-11.5404
▁bang	-11.5404
KV	-11.5405
newer	-11.5407
▁Stra	-11.5413
▁cars	-11.5417
▁Row	-11.5438
tribution	-11.5439
▁Turb	-11.5448
BP	-11.5448
airy	-11.545
ʌt̪	-11.545
▁IM	-11.5452
ajan	-11.5463
▁Parth	-11.5467
▁rura	-11.5467
▁invent	-11.5476
ITA	-11.5479
ron	-11.5482
▁Tab	-11.5486
▁incorrect	-11.5489
onvalescen	-11.5504
arehouse	-11.5509
AN	-11.5532
▁Sc	-11.5533
char	-11.5534
▁Viol	-11.5536
IME	-11.5545
mount	-11.5546
▁versions	-11.5551
LV	-11.5562
▁Jer	-11.5564
essa	-11.5568
▁prioriti	-11.5568
ddy	-11.5569
▁Nat	-11.5576
▁ম	-11.558
tī	-11.5583
ati	-11.5583
▁Interact	-11.5588
▁determin	-11.5604
lin	-11.5604
ain	-11.5605
▁BEE	-11.5606
▁Fil	-11.5619
▁cur	-11.5621
▁amounts	-11.5634
stri	-11.5635
▁coat	-11.5641
▁Kan	-11.5649
itar	-11.5652
eat	-11.5655
GU	-11.5658
▁leone	-11.5662
BT	-11.5665
▁Mix	-11.5678
olic	-11.5678
▁participa	-11.5685
oo	-11.5685
▁HV	-11.5686
js	-11.5691
▁Lat	-11.5706
gra	-11.572
ðɨ	-11.5737
▁collects	-11.576
▁introduce	-11.5767
als	-11.5768
Sa	-11.5773
VP	-11.5773
yā	-11.5778
▁Lalit	-11.5795
▁Dies	-11.5798
rated	-11.5802
Some	-11.5803
▁OS	-11.5805
▁Sy	-11.5805
▁gro	-11.5806
hand	-11.581
▁Past	-11.5812
▁Computers	-11.5821
▁pa	-11.5832
▁youth	-11.5841
res	-11.5843
contribs	-11.5843
▁AbdulAzi	-11.5843
TD	-11.5863
ope	-11.5866
▁Pearl	-11.587
emia	-11.5871
EX	-11.5885
awa	-11.5892
vard	-11.5892
▁cri	-11.5893
eeth	-11.5894
ruth	-11.5897
mā	-11.5918
commod	-11.5918
egend	-11.5922
zeb	-11.5923
▁constitut	-11.5928
▁Tea	-11.5931
job	-11.5931
ob	-11.5934
loating	-11.5938
cific	-11.5945
ola	-11.5945
▁expire	-11.5949
MW	-11.5961
▁Sl	-11.5968
venting	-11.5972
ɪ̯	-11.5972
ences	-11.5979
▁Bad	-11.5994
loni	-11.6011
bs	-11.6022
hir	-11.6026
▁fines	-11.6027
jsp	-11.6029
pon	-11.6029
▁Litera	-11.6037
eu	-11.6044
Manu	-11.6046
▁Mura	-11.6059
eva	-11.6063
qu	-11.6064
▁synt	-11.6065
CK	-11.6066
Communit	-11.607
TO	-11.607
▁Rum	-11.6081
▁vā	-11.6085
assam	-11.6088
▁Sang	-11.6089
▁Camp	-11.6105
web	-11.611
ln	-11.611
hold	-11.6119
inching	-11.6119
emin	-11.6122
য়	-11.6129
▁cu	-11.6135
novative	-11.6141
▁apt	-11.6149
hot	-11.6155
ledge	-11.6159
nk	-11.6165
hit	-11.6169
RT	-11.6171
Krish	-11.6173
NE	-11.6175
laya	-11.6185
▁LO	-11.6186
▁SITE	-11.6194
nding	-11.6195
▁pl	-11.6198
aimed	-11.6201
▁narrati	-11.6202
▁CAS	-11.6203
allowe	-11.6215
▁promis	-11.6237
opathy	-11.6242
..	-11.6248
wet	-11.6261
▁Ru	-11.6265
NDE	-11.6276
ori	-11.6276
Vac	-11.6278
▁Es	-11.6281
▁স	-11.629
OT	-11.6291
uxi	-11.6291
information	-11.6303
lose	-11.6303
last	-11.6305
aper	-11.6309
▁Establish	-11.6318
▁Sel	-11.6321
onia	-11.6339
▁Cars	-11.6354
cum	-11.6366
DO	-11.6374
AMP	-11.6377
top	-11.6378
ets	-11.6378
ented	-11.6379
▁Wi	-11.6381
dhya	-11.6384
▁KK	-11.6385
qa	-11.6397
▁conv	-11.6397
Gear	-11.6402
vided	-11.6407
lief	-11.6409
▁equat	-11.6413
▁wa	-11.6414
▁den	-11.6414
▁Want	-11.6418
pen	-11.6418
▁THI	-11.6421
mad	-11.6425
ties	-11.6431
▁ś	-11.6431
lue	-11.6433
DE	-11.6435
wire	-11.6437
ase	-11.6443
▁Shar	-11.6444
formulation	-11.6452
shed	-11.6459
alita	-11.6466
policy	-11.648
rintable	-11.6481
mighty	-11.6485
▁Collect	-11.6486
AX	-11.6486
ash	-11.6486
▁Meri	-11.6489
TED	-11.6491
AA	-11.6493
which	-11.6497
▁earn	-11.6501
UM	-11.6514
▁crim	-11.6519
▁Ski	-11.652
▁bio	-11.6523
ngli	-11.6561
▁Grant	-11.6567
Quiz	-11.6581
dj	-11.6581
▁Nas	-11.6589
ORT	-11.6594
own	-11.6596
chan	-11.6601
▁star	-11.6606
▁doubl	-11.6608
iz	-11.661
HT	-11.6613
▁curv	-11.6616
▁pilgrim	-11.6617
BC	-11.6619
grade	-11.662
rnament	-11.6623
aime	-11.6624
oster	-11.6632
▁Lim	-11.6633
ought	-11.6636
▁Shivan	-11.6653
▁Sura	-11.6662
axi	-11.6668
insured	-11.6669
blowjob	-11.6671
▁Anim	-11.6671
gothi	-11.6678
▁Sidh	-11.668
Indian	-11.6688
▁desire	-11.6695
iversity	-11.67
range	-11.6704
ɛ	-11.6707
ivity	-11.6714
▁transmit	-11.672
spam	-11.673
ecruit	-11.6731
▁Dhar	-11.6733
qb	-11.6733
alt	-11.6733
ately	-11.6736
▁restrict	-11.6742
tara	-11.6747
mila	-11.6752
▁Gam	-11.6754
▁Suit	-11.6755
▁dies	-11.6761
▁Intention	-11.6764
▁acc	-11.6765
▁leav	-11.6774
ord	-11.678
▁Karm	-11.6782
▁sal	-11.6782
ō	-11.6784
▁Tera	-11.6791
lan	-11.6798
uj	-11.6799
ges	-11.6805
mate	-11.6809
two	-11.6811
▁son	-11.6823
usual	-11.6826
hari	-11.6827
Mark	-11.6831
āra	-11.6839
book	-11.6841
▁carri	-11.6843
tattoo	-11.6846
titude	-11.6849
boy	-11.6855
Reason	-11.6856
third	-11.6857
Babe	-11.6859
▁manage	-11.686
stick	-11.686
Fix	-11.6862
Bharat	-11.6863
address	-11.6865
About	-11.6868
parent	-11.6875
▁Tradi	-11.6879
where	-11.6883
▁thank	-11.6885
Translation	-11.6886
āṃ	-11.6887
du	-11.6892
made	-11.6898
High	-11.6898
Hindi	-11.69
Black	-11.6908
EVE	-11.6909
],	-11.6909
injury	-11.6911
road	-11.6912
▁Gal	-11.6915
Business	-11.6916
▁waste	-11.6918
āna	-11.6918
online	-11.692
archive	-11.6923
blonde	-11.6924
print	-11.6925
▁inf	-11.693
District	-11.6932
▁SP	-11.6934
tia	-11.6934
▁voc	-11.6937
bhū	-11.694
Public	-11.6941
Technology	-11.6942
occupation	-11.6943
▁Rape	-11.6945
UGC	-11.6945
Website	-11.6946
Account	-11.6946
а	-11.6947
House	-11.6949
map	-11.6951
teacher	-11.6952
Bengali	-11.6952
Date	-11.6953
ways	-11.6955
ʧ	-11.6956
𑀫	-11.6956
electric	-11.6956
Recent	-11.6956
adjective	-11.6963
replace	-11.6965
benefit	-11.6966
▁Handl	-11.6966
dar	-11.6966
policies	-11.6967
cc	-11.6968
nurse	-11.6971
payment	-11.6972
April	-11.6973
▁PR	-11.6975
wikipedia	-11.6976
Local	-11.6977
▁ethn	-11.6977
pixels	-11.6979
▁Hit	-11.6979
Solo	-11.6981
speed	-11.6981
Czech	-11.6983
week	-11.6985
▁Rub	-11.6986
SLTD	-11.6986
database	-11.6986
ANT	-11.6986
foot	-11.6988
published	-11.6989
MIT	-11.6991
Industrial	-11.6992
Shandong	-11.6994
Auto	-11.6995
spread	-11.6996
Learn	-11.6997
subpages	-11.6997
CAA	-11.6997
olin	-11.6998
Village	-11.6998
Tools	-11.6999
current	-11.6999
American	-11.6999
preferences	-11.7
nless	-11.7
▁merg	-11.7
Great	-11.7001
increasing	-11.7002
John	-11.7002
excess	-11.7002
Mathletics	-11.7003
Burglary	-11.7003
Discussion	-11.7003
Next	-11.7005
Chinese	-11.7005
sample	-11.7006
Database	-11.7007
JavaScript	-11.7009
ছ	-11.7009
TRI	-11.7009
Pregnancy	-11.701
Dibrugarh	-11.701
Set	-11.7011
Sports	-11.7011
Politics	-11.7011
Shaved	-11.7012
Mumbai	-11.7012
screen	-11.7013
vintage	-11.7013
discipline	-11.7014
Legs	-11.7017
fire	-11.7017
▁Ge	-11.7017
username	-11.7018
commercial	-11.702
decision	-11.7021
ECG	-11.7021
ppy	-11.7021
electrical	-11.7022
tiya	-11.7023
ì	-11.7023
▁mer	-11.7023
proof	-11.7023
Series	-11.7024
both	-11.7025
external	-11.7025
statistics	-11.7026
fantasy	-11.7027
huge	-11.7029
Send	-11.7029
Oct	-11.703
isa	-11.7031
empty	-11.7031
▁Rup	-11.7031
Baby	-11.7033
tah	-11.7033
saved	-11.7036
Big	-11.7038
solved	-11.7038
aching	-11.7041
liance	-11.7041
complete	-11.7042
RS	-11.7043
▁ft	-11.7045
virus	-11.7047
MCG	-11.7048
Tuber	-11.7048
step	-11.7049
দ	-11.7052
DI	-11.7057
matches	-11.706
engineering	-11.7064
late	-11.7067
Ro	-11.7072
anks	-11.7072
Song	-11.7077
wn	-11.7079
eimbursement	-11.708
▁Ev	-11.7086
registered	-11.7087
Anti	-11.7088
TH	-11.7092
Cute	-11.7094
Select	-11.7094
utant	-11.7095
ease	-11.7099
italian	-11.7104
▁Happ	-11.7106
▁Shir	-11.7109
butt	-11.7109
lone	-11.7119
asian	-11.7122
rap	-11.7123
thumb	-11.7131
▁Prad	-11.7133
books	-11.7145
tags	-11.7149
▁fix	-11.7151
watching	-11.7153
playing	-11.7155
▁dedicate	-11.7156
▁Ob	-11.7156
▁logg	-11.7162
lib	-11.7173
পা	-11.7174
SH	-11.7174
found	-11.7177
}}.	-11.7179
lcome	-11.718
▁Mind	-11.718
▁min	-11.718
RU	-11.7182
lug	-11.7182
seeds	-11.7185
lesbians	-11.7191
▁Digg	-11.7192
▁Micro	-11.7195
Sucking	-11.7196
afi	-11.72
girls	-11.7208
nclosed	-11.7213
▁accumulat	-11.7213
results	-11.7225
omeone	-11.7227
ables	-11.7232
RO	-11.7233
▁Nadu	-11.7233
▁Surge	-11.7233
hawk	-11.7235
▁preserv	-11.7236
▁islam	-11.7239
grave	-11.7244
uki	-11.7253
SHA	-11.7265
▁dism	-11.7265
▁Dh	-11.7273
bodi	-11.7275
▁rep	-11.728
▁shar	-11.7282
▁Techni	-11.7282
▁vo	-11.7287
expired	-11.7291
▁af	-11.7292
ying	-11.7302
aji	-11.7303
tly	-11.7303
ependent	-11.7304
Pro	-11.7306
agged	-11.7312
WA	-11.7313
large	-11.732
tools	-11.7323
gl	-11.7327
army	-11.7331
▁wh	-11.7347
cket	-11.7347
▁suffer	-11.735
abir	-11.735
▁z	-11.7351
▁Remov	-11.7354
lled	-11.7355
▁imp	-11.7355
▁dimension	-11.7357
▁integra	-11.7361
▁Hone	-11.7363
▁typ	-11.7383
▁swinger	-11.7389
▁dig	-11.739
duk	-11.739
meter	-11.7391
sexy	-11.7397
▁incur	-11.7399
tam	-11.74
▁Princ	-11.7406
▁Maju	-11.7406
▁crow	-11.741
lding	-11.7412
▁remin	-11.7413
haṃ	-11.7413
▁Sk	-11.7414
disambiguation	-11.7415
ages	-11.7416
▁Brother	-11.742
▁Lakh	-11.742
▁Stotram	-11.7421
▁vegetable	-11.7421
▁protein	-11.7423
▁Quant	-11.7424
▁API	-11.7424
▁holiday	-11.7425
▁cylinder	-11.7425
▁fruit	-11.7425
videos	-11.7428
▁passenger	-11.7429
ulsion	-11.7431
▁Religion	-11.7431
▁Pillar	-11.7432
▁Crore	-11.7432
▁Course	-11.7432
▁preference	-11.7433
▁emerg	-11.7438
▁Poem	-11.7438
▁Ruling	-11.7443
▁character	-11.7444
▁Mans	-11.7445
specialpage	-11.7447
▁instance	-11.7447
hearing	-11.7448
abh	-11.745
▁ones	-11.7453
Poly	-11.7454
loaded	-11.7454
ters	-11.7456
▁lecturer	-11.7458
▁campa	-11.746
▁Release	-11.7461
▁Alo	-11.7461
▁limb	-11.7461
ixed	-11.7462
truste	-11.7463
▁Bil	-11.7463
▁Stu	-11.7464
▁Excel	-11.7465
fil	-11.7465
▁Rank	-11.7466
FF	-11.7467
FIC	-11.7467
▁Zak	-11.7469
▁harvest	-11.7474
oun	-11.7474
milfs	-11.7476
▁monitor	-11.7476
REAS	-11.748
eng	-11.7481
Nai	-11.7481
▁Kat	-11.7482
▁PAR	-11.7483
▁Build	-11.7483
HIM	-11.7483
▁Kul	-11.7486
▁peril	-11.7487
▁Drink	-11.7488
winner	-11.7488
EMEN	-11.7489
▁memor	-11.7489
▁tank	-11.749
▁agri	-11.7491
▁Sand	-11.7492
▁piss	-11.7492
▁settle	-11.7495
▁shop	-11.7497
▁distribute	-11.7498
▁Bridg	-11.7499
▁Solve	-11.7501
▁suspe	-11.7502
▁BRA	-11.7502
▁Reserve	-11.7503
▁Advertise	-11.7503
▁Sankardev	-11.7504
▁score	-11.7505
▁Agricultur	-11.7506
▁temporar	-11.7506
hṛ	-11.7508
▁Politic	-11.7508
▁Russia	-11.7509
▁NIT	-11.7509
▁Basumatar	-11.751
▁Sanskrit	-11.751
skin	-11.7511
▁Panch	-11.7512
zech	-11.7512
▁Gujarat	-11.7513
quare	-11.7513
▁govern	-11.7515
hetto	-11.7515
▁simultaneous	-11.7516
cated	-11.7516
XA	-11.7518
fnm	-11.7518
QWL	-11.7519
ী	-11.752
ɛ̝	-11.7521
▁stipulat	-11.7521
াল	-11.7521
▁Sar	-11.7521
▁Strap	-11.7521
ccurrence	-11.7521
ritish	-11.7522
▁Negligen	-11.7522
▁transform	-11.7522
slampedia	-11.7522
quisition	-11.7522
Munajj	-11.7522
▁confidential	-11.7522
▁Slovak	-11.7523
▁Survey	-11.7523
ং	-11.7524
£	-11.7524
Ē	-11.7524
я	-11.7524
Ꭼ	-11.7524
Ꮋ	-11.7524
👑	-11.7524
ಸ	-11.7524
	-11.7524
ň	-11.7524
▁guard	-11.7524
℞	-11.7524
☣	-11.7524
ʏ	-11.7524
է	-11.7524
Ꮲ	-11.7524
‐	-11.7524
𓊈	-11.7524
ষ	-11.7524
▁Gazipur	-11.7524
▁Swedish	-11.7524
▁Æ	-11.7524
Implosion	-11.7524
Preferences	-11.7524
SEARCH	-11.7524
Swachh	-11.7524
VIEWS	-11.7524
cascading	-11.7524
currentevents	-11.7524
kaḷ	-11.7524
maṅgaḷa	-11.7524
ynchron	-11.7524
ypocrisy	-11.7524
Ƒîʀɛ	-11.7524
ɔ	-11.7524
ռ	-11.7524
י	-11.7524
ه	-11.7524
ঠ	-11.7524
র	-11.7524
ଓଡିଆ	-11.7524
ಗ	-11.7524
ಳ	-11.7524
ಹ	-11.7524
ು	-11.7524
⎠	-11.7524
▁Ahmedabad	-11.7524
▁Arunudoi	-11.7524
▁BUSINESS	-11.7524
▁Beijing	-11.7524
▁Bolívar	-11.7524
▁Carbide	-11.7524
▁Catalogue	-11.7524
▁Chidambaram	-11.7524
▁Chihuahua	-11.7524
▁Colossians	-11.7524
▁Configuring	-11.7524
▁DAMAGES	-11.7524
▁Dungeon	-11.7524
▁ENGLISH	-11.7524
▁Economy	-11.7524
▁Endowment	-11.7524
▁Equatoria	-11.7524
▁Facilities	-11.7524
▁GDPR	-11.7524
▁Genius	-11.7524
▁Hardbodied	-11.7524
▁Hitachi	-11.7524
▁Hobsbawm	-11.7524
▁Hogtied	-11.7524
▁Hypnotized	-11.7524
▁Jordan	-11.7524
▁Judaism	-11.7524
▁Kapoor	-11.7524
▁Kazakh	-11.7524
▁Kobelco	-11.7524
▁Kokrajhar	-11.7524
▁Lahowal	-11.7524
▁LifeHacker	-11.7524
▁Lokhra	-11.7524
▁Machkhowa	-11.7524
▁Majmoo	-11.7524
▁Mallikarjun	-11.7524
▁Matondkar	-11.7524
▁Mummification	-11.7524
▁Netherlands	-11.7524
▁Occasion	-11.7524
▁PROJECTS	-11.7524
▁Powder	-11.7524
▁Pratidin	-11.7524
▁Raghunathan	-11.7524
▁Reshuffle	-11.7524
▁Scenario	-11.7524
▁Sleeve	-11.7524
▁Subsidence	-11.7524
▁TECHNOLOG	-11.7524
▁Tharoor	-11.7524
▁UIDAI	-11.7524
▁Upskirt	-11.7524
▁Vignanam	-11.7524
▁Warranty	-11.7524
▁Zeolite	-11.7524
▁accomplish	-11.7524
▁algebra	-11.7524
▁bulldog	-11.7524
▁complications	-11.7524
▁currencies	-11.7524
▁cycads	-11.7524
▁deposit	-11.7524
▁deterioration	-11.7524
▁endeavo	-11.7524
▁entitlement	-11.7524
▁fascinat	-11.7524
▁globe	-11.7524
▁hormone	-11.7524
▁hygiene	-11.7524
▁hypertension	-11.7524
▁incorporat	-11.7524
▁incredible	-11.7524
▁instinct	-11.7524
▁liquor	-11.7524
▁mitigat	-11.7524
▁oxidation	-11.7524
▁pedagog	-11.7524
▁pediatricians	-11.7524
▁polyamide	-11.7524
▁procrastination	-11.7524
▁quarter	-11.7524
▁scenario	-11.7524
▁stalwart	-11.7524
▁technique	-11.7524
▁tissues	-11.7524
	-11.7524
𐌄	-11.7524
𑀓𑀼	-11.7524
Mizoram	-11.7524
bhagav	-11.7524
manuscript	-11.7524
▁'←	-11.7524
▁Beauties	-11.7524
▁Lovelace	-11.7524
▁Opinion	-11.7524
▁Zomato	-11.7524
▁centuries	-11.7524
▁constraint	-11.7524
▁stadium	-11.7524
𑀺	-11.7524
Amharic	-11.7524
PBUH	-11.7524
femdom	-11.7524
noarticletext	-11.7524
▁DIRECT	-11.7524
▁Facility	-11.7524
▁Manufacturing	-11.7524
▁ORGANI	-11.7524
▁Penetrating	-11.7524
▁XNXX	-11.7524
▁diagrams	-11.7524
▁entrepreneur	-11.7524
▁medications	-11.7524
▁voluntar	-11.7524
Abbaa	-11.7524
▁Density	-11.7524
▁Khutba	-11.7524
▁buckle	-11.7524
▁immense	-11.7524
Fingering	-11.7524
Laptop	-11.7524
Ɇ	-11.7524
ɳɖ	-11.7524
ή	-11.7524
▁Aurora	-11.7524
▁CNY	-11.7524
▁Caramel	-11.7524
▁Cumshower	-11.7524
▁Impact	-11.7524
▁audience	-11.7524
▁grammar	-11.7524
▁অ	-11.7524
▁ব্য	-11.7524
▁𑀧𑁄	-11.7524
繁	-11.7524
𑀭𑀼	-11.7524
𓊉	-11.7524
▁FreePornVideos	-11.7524
▁Mahindra	-11.7524
▁Ultimate	-11.7524
▁WHAT	-11.7524
▁century	-11.7524
▁orientation	-11.7524
▁profiling	-11.7524
▁venue	-11.7524
▁Manganese	-11.7524
▁cheaper	-11.7524
▁confused	-11.7524
▁favor	-11.7524
▁fluori	-11.7524
▁pounding	-11.7524
Broken	-11.7524
ransliteration	-11.7524
Ŧ	-11.7524
Ꮭ	-11.7524
▁Aditya	-11.7524
▁Kshit	-11.7524
▁Landslide	-11.7524
▁Urban	-11.7524
▁broadcast	-11.7524
▁duplication	-11.7524
▁plea	-11.7524
ENTIAL	-11.7524
▁Accept	-11.7524
▁Casino	-11.7524
▁Juicy	-11.7524
▁autonomy	-11.7524
︎	-11.7524
▁Chapter	-11.7524
▁Sarania	-11.7524
▁Shetty	-11.7524
▁redhead	-11.7524
PAPER	-11.7524
opinion	-11.7524
ৡ	-11.7524
໔	-11.7524
ᤂ	-11.7524
▁ajax	-11.7524
▁mistress	-11.7524
▁seedlings	-11.7524
𑀢𑀼	-11.7524
▁universities	-11.7524
▁Attend	-11.7524
▁Goalpara	-11.7524
▁Malawi	-11.7524
▁Silver	-11.7524
▁accompany	-11.7524
▁communities	-11.7524
▁moderate	-11.7524
▁satisfie	-11.7524
ipblocklist	-11.7524
ostanol	-11.7524
▁Dhruba	-11.7524
▁Secularism	-11.7524
fenney	-11.7524
uddha	-11.7524
Hodgkin	-11.7524
aashtakam	-11.7524
▁Collapse	-11.7524
▁Knees	-11.7524
▁QTP	-11.7524
dhury	-11.7524
▁leverage	-11.7524
▁Whatsapp	-11.7524
TDIL	-11.7524
Ù	-11.7524
Ƚ	-11.7524
ɳɳ	-11.7524
▁Flower	-11.7524
▁Lenses	-11.7524
▁encrypt	-11.7524
CLIP	-11.7524
gnore	-11.7524
▁Kingdom	-11.7524
▁Specifications	-11.7524
▁purify	-11.7524
▁thickness	-11.7524
▁vṛ	-11.7524
▁Activities	-11.7524
▁Michel	-11.7524
▁Kimberl	-11.7524
▁Withdraw	-11.7524
abbrev	-11.7524
▁Bornamghar	-11.7524
▁Administration	-11.7524
▁AOA	-11.7524
▁Boobs	-11.7524
▁appreciation	-11.7524
▁fission	-11.7524
▁poison	-11.7524
▁treasur	-11.7524
▁dissemination	-11.7524
▁hacker	-11.7524
t̪t̪	-11.7524
▁Football	-11.7524
▁sauna	-11.7524
onomy	-11.7524
▁Perspective	-11.7524
▁Piano	-11.7524
▁rubr	-11.7524
āvaṇ	-11.7524
▁Sincerely	-11.7524
blondeteen	-11.7524
▁SDK	-11.7524
▁literacy	-11.7524
▁Sikhism	-11.7524
▁Xhamster	-11.7524
AASU	-11.7524
realname	-11.7524
▁LIMITED	-11.7524
▁OPEN	-11.7524
▁investigation	-11.7524
▁kāñcī	-11.7524
▁Varieties	-11.7524
▁Egyptian	-11.7524
▁composition	-11.7524
▁citizenship	-11.7524
▁York	-11.7524
▁Dialysis	-11.7524
▁heritage	-11.7524
▁burial	-11.7524
▁daddy	-11.7524
▁radioactivity	-11.7524
েল	-11.7524
▁Compress	-11.7524
HSLC	-11.7524
▁Pragjyoti	-11.7524
Expiry	-11.7524
missingcomment	-11.7524
pāśa	-11.7524
▁Galile	-11.7524
▁jurisprudence	-11.7524
▁faith	-11.7524
▁Righteous	-11.7524
▁effective	-11.7524
▁entertained	-11.7524
▁football	-11.7524
oxide	-11.7524
readonly	-11.7524
▁Vivek	-11.7524
▁Cousin	-11.7524
newimages	-11.7524
▁CAREER	-11.7524
kitchen	-11.7525
▁contingencies	-11.7525
▁plastic	-11.7525
▁subsidiaries	-11.7525
▁favourite	-11.7525
▁Sitemap	-11.7525
▁cultivation	-11.7525
▁headquarter	-11.7525
▁maturity	-11.7525
▁penalties	-11.7525
▁shareholders	-11.7525
▁Kohli	-11.7525
▁Meeting	-11.7525
▁Crane	-11.7525
▁Chechen	-11.7525
newbies	-11.7525
Exceptions	-11.7525
▁judge	-11.7525
▁underwriting	-11.7525
▁layout	-11.7525
▁horse	-11.7525
params	-11.7525
erjee	-11.7525
lakṣmī	-11.7525
▁Desktop	-11.7525
▁Shareholders	-11.7525
BBW	-11.7525
▁Français	-11.7525
▁cricket	-11.7525
▁Estes	-11.7525
▁CONS	-11.7525
▁entities	-11.7525
▁perspective	-11.7525
KYC	-11.7525
▁enquiries	-11.7525
▁faithful	-11.7525
pimple	-11.7525
▁Barbie	-11.7525
▁Globalization	-11.7525
▁Nudity	-11.7525
▁hurricane	-11.7525
▁Tawh	-11.7525
▁elections	-11.7525
▁SEAL	-11.7525
▁ultra	-11.7525
▁Madina	-11.7525
▁tires	-11.7525
UTC	-11.7525
▁Clown	-11.7525
▁Upgrade	-11.7525
▁Municipality	-11.7525
▁Smut	-11.7525
▁morning	-11.7525
▁clinic	-11.7525
▁rockslide	-11.7525
▁subcategories	-11.7525
▁Dixit	-11.7525
▁Bharali	-11.7525
▁leadership	-11.7525
jjah	-11.7525
▁GAID	-11.7525
▁Caneing	-11.7525
▁bottle	-11.7525
ordinary	-11.7525
▁Juice	-11.7525
▁Panchayat	-11.7526
wellings	-11.7526
▁xcache	-11.7526
▁CXZ	-11.7526
▁oṉṟ	-11.7526
▁Bishop	-11.7526
▁entries	-11.7526
blocklog	-11.7526
luffy	-11.7526
▁solicitation	-11.7526
▁audition	-11.7526
▁Makkah	-11.7526
vātma	-11.7526
▁Coordination	-11.7526
▁achievements	-11.7526
▁Clothed	-11.7526
▁packet	-11.7526
▁Pharmac	-11.7526
▁wedding	-11.7526
▁Backstage	-11.7526
▁shutdown	-11.7526
▁wrongful	-11.7526
▁coordination	-11.7526
Horizon	-11.7526
▁utilit	-11.7526
▁Antibiotic	-11.7526
▁Chocolate	-11.7526
▁studied	-11.7526
▁wwatching	-11.7526
▁Tafs	-11.7526
▁licking	-11.7526
͙N͙	-11.7526
▁Jazz	-11.7526
▁Flame	-11.7526
▁Pizza	-11.7526
▁customized	-11.7526
▁worshipped	-11.7526
▁pollen	-11.7526
▁POWER	-11.7526
▁Wedding	-11.7527
igious	-11.7527
▁versatility	-11.7527
prefsnologin	-11.7527
▁GOLD	-11.7527
▁bangladeshi	-11.7527
▁Validity	-11.7527
▁retail	-11.7527
RADI	-11.7527
Undelete	-11.7527
▁Bribe	-11.7527
▁CAPD	-11.7527
zzz	-11.7527
▁Copper	-11.7527
SHOP	-11.7527
▁Acharya	-11.7527
▁Uzan	-11.7527
▁Jiang	-11.7527
▁oxygen	-11.7527
BOss	-11.7527
▁Basque	-11.7527
ISRO	-11.7527
hentai	-11.7527
▁pulse	-11.7527
▁progressive	-11.7527
▁domination	-11.7527
▁Entry	-11.7527
ligence	-11.7527
mouth	-11.7527
▁Truck	-11.7527
▁worry	-11.7527
▁Madhur	-11.7527
Rahul	-11.7527
এব	-11.7527
▁Cardio	-11.7528
▁toughness	-11.7528
▁phase	-11.7528
alpha	-11.7528
▁hadith	-11.7528
evvā	-11.7528
▁smoking	-11.7528
▁digitization	-11.7528
Tripura	-11.7528
▁honey	-11.7528
▁Quar	-11.7528
▁Lymphoma	-11.7528
▁mountable	-11.7528
▁university	-11.7528
▁Vista	-11.7528
yn	-11.7528
▁shut	-11.7528
▁wholesale	-11.7528
▁Judge	-11.7528
▁Lady	-11.7528
▁Spirit	-11.7528
▁hereunder	-11.7528
▁Alert	-11.7528
▁Doggy	-11.7528
▁diamond	-11.7528
▁Canton	-11.7528
repatriation	-11.7528
▁Freedom	-11.7529
▁Cuban	-11.7529
▁exact	-11.7529
▁Shape	-11.7529
▁NQWL	-11.7529
লি	-11.7529
▁Aero	-11.7529
▁Customized	-11.7529
▁delegat	-11.7529
▁MOTO	-11.7529
▁salvation	-11.7529
▁serious	-11.7529
▁directions	-11.7529
▁sitting	-11.7529
▁formatting	-11.7529
▁Parag	-11.7529
▁fiction	-11.7529
▁assembly	-11.753
UGU	-11.753
cumshots	-11.753
Yuva	-11.753
RUB	-11.753
▁Combin	-11.753
▁Poland	-11.753
▁[//	-11.753
▁hyperlink	-11.753
▁frequently	-11.753
▁Distributor	-11.753
▁soccer	-11.753
▁Jewellery	-11.753
▁Fresher	-11.753
▁tempest	-11.753
AZE	-11.753
▁delight	-11.7531
▁cfnm	-11.7531
এল	-11.7531
▁surprise	-11.7531
▁assure	-11.7531
▁steam	-11.7531
▁Tagged	-11.7531
▁deities	-11.7531
▁Shui	-11.7531
EMPL	-11.7531
▁Gum	-11.7532
▁solid	-11.7532
▁Acne	-11.7532
▁Tiger	-11.7532
▁Relief	-11.7532
Wanted	-11.7532
▁MAG	-11.7532
▁climate	-11.7532
▁draw	-11.7532
▁Siva	-11.7532
▁DST	-11.7533
▁alcohol	-11.7533
▁Gross	-11.7533
▁Bodo	-11.7533
UC	-11.7533
▁amazing	-11.7533
ēṉ	-11.7534
laiman	-11.7534
▁Crime	-11.7534
▁slande	-11.7534
▁Jamaat	-11.7534
▁withdrawn	-11.7534
▁simultaneously	-11.7534
▁safety	-11.7534
▁absolute	-11.7535
H͙	-11.7535
▁Miracle	-11.7535
▁Moran	-11.7535
▁Lesb	-11.7535
▁balloon	-11.7536
▁Punk	-11.7536
▁factories	-11.7536
▁Capacity	-11.7537
▁servicing	-11.7537
▁MRI	-11.7537
▁difficulties	-11.7537
▁Herb	-11.7537
▁game	-11.7537
▁muslim	-11.7537
▁bathing	-11.7537
▁preside	-11.7537
▁foreigners	-11.7537
▁Hymn	-11.7538
Ladyboy	-11.7538
BRIC	-11.7538
▁supplication	-11.7538
jj	-11.7539
▁BTS	-11.7539
linktext	-11.7539
▁easier	-11.754
▁billion	-11.754
▁Lez	-11.754
yuan	-11.754
throttled	-11.754
recreate	-11.754
▁groom	-11.7541
▁surface	-11.7541
▁Tribunal	-11.7541
▁Naam	-11.7541
▁fullest	-11.7541
▁Draw	-11.7542
▁packaging	-11.7542
▁Topless	-11.7542
ppm	-11.7542
movepage	-11.7542
petite	-11.7543
▁Even	-11.7543
▁apprehended	-11.7543
▁Lili	-11.7543
appearance	-11.7544
▁sentence	-11.7544
▁Advertisement	-11.7544
▁beginner	-11.7544
▁Yak	-11.7545
dots	-11.7545
berg	-11.7546
scanner	-11.7546
ilestones	-11.7547
ectomy	-11.7547
▁Feng	-11.7547
▁Sexual	-11.7547
▁inception	-11.7547
▁substances	-11.7547
▁practitioners	-11.7547
intentionally	-11.7547
▁Conifers	-11.7547
▁obligations	-11.7548
▁Royals	-11.7548
▁wind	-11.7548
▁pronounce	-11.7548
anontalk	-11.7549
▁satisfactor	-11.7549
▁accountability	-11.7549
▁variations	-11.7549
▁Puja	-11.755
▁Incredibles	-11.755
▁principal	-11.755
▁Factory	-11.755
▁shaving	-11.755
▁Unfo	-11.755
▁APPL	-11.7551
▁Publications	-11.7551
▁instantly	-11.7551
▁fear	-11.7551
▁Dharm	-11.7552
▁Pissing	-11.7552
▁lacs	-11.7552
border	-11.7553
articles	-11.7553
▁ornament	-11.7553
▁elevat	-11.7554
▁bond	-11.7555
Below	-11.7555
alias	-11.7555
▁listening	-11.7556
▁productive	-11.7556
▁sake	-11.7556
▁Town	-11.7556
UNS	-11.7556
▁survey	-11.7556
▁Front	-11.7557
▁disadvantage	-11.7557
▁vol	-11.7558
▁Collection	-11.7558
▁Height	-11.7558
stack	-11.7558
▁Shoes	-11.7559
▁intake	-11.7559
urna	-11.756
ATOR	-11.756
occer	-11.756
▁ABO	-11.7561
▁taj	-11.7561
▁Feeding	-11.7561
▁enhanc	-11.7562
UNIC	-11.7562
undo	-11.7562
▁civi	-11.7563
▁attach	-11.7563
PU	-11.7563
▁washing	-11.7563
▁aerials	-11.7563
▁popula	-11.7563
▁pick	-11.7563
▁FREE	-11.7563
▁Thick	-11.7564
aviya	-11.7564
tation	-11.7564
▁accompanie	-11.7564
aski	-11.7564
ل	-11.7565
▁Train	-11.7565
▁lining	-11.7565
▁gag	-11.7565
▁Worth	-11.7565
▁minute	-11.7565
▁booty	-11.7565
▁applies	-11.7565
ZZI	-11.7566
retype	-11.7566
▁river	-11.7566
▁Convert	-11.7566
▁Lack	-11.7567
▁foundation	-11.7567
▁Bonne	-11.7568
▁innovation	-11.7569
▁possibilit	-11.7569
Bhabha	-11.7569
▁Roman	-11.757
▁shifting	-11.757
▁Cric	-11.7572
CSR	-11.7572
▁Hence	-11.7573
▁Picket	-11.7573
bigass	-11.7574
▁photographs	-11.7575
▁gang	-11.7575
▁immobiliz	-11.7575
ited	-11.7575
▁chains	-11.7576
enter	-11.7576
▁Ahlu	-11.7576
TIONS	-11.7576
Alexandra	-11.7577
▁Cycle	-11.7577
▁reminder	-11.7578
▁officer	-11.7578
▁Apple	-11.7579
gandha	-11.758
▁Kong	-11.758
▁guys	-11.758
CHIN	-11.758
▁rack	-11.758
subcategory	-11.758
amids	-11.7581
▁sheer	-11.7581
▁Bird	-11.7581
▁succeeded	-11.7581
▁suggestion	-11.7581
shop	-11.7582
paragraph	-11.7583
▁Owners	-11.7583
▁fresher	-11.7584
Query	-11.7584
▁Bhatt	-11.7584
▁Badaw	-11.7585
Bureaucra	-11.7585
▁Mean	-11.7585
▁rituals	-11.7586
▁Protests	-11.7586
akhet	-11.7587
▁Aircrafts	-11.7587
▁Patients	-11.7587
▁Holidays	-11.7587
▁Ability	-11.7587
▁Reciters	-11.7588
▁Tribute	-11.7588
▁babe	-11.7588
▁convicts	-11.7588
▁Poster	-11.7588
▁Chart	-11.7589
▁establishments	-11.7589
▁interviewer	-11.7589
▁Processing	-11.7592
▁Interesting	-11.7592
▁Blackmail	-11.7593
▁unre	-11.7593
▁Arti	-11.7595
▁Flash	-11.7596
▁Nice	-11.7596
Katha	-11.7597
▁Packaging	-11.7598
▁prioritiz	-11.7598
▁met	-11.7599
▁Myth	-11.7599
▁gradual	-11.76
logout	-11.76
rogation	-11.7601
▁reciter	-11.7601
▁FR	-11.7602
▁float	-11.7603
▁blend	-11.7604
▁suppose	-11.7604
▁amended	-11.7605
▁minimal	-11.7606
▁song	-11.7606
BAG	-11.7606
▁Suz	-11.7606
dev	-11.7607
▁loans	-11.7607
adjustable	-11.7608
▁termin	-11.7609
▁Chair	-11.7609
▁Nine	-11.7611
▁Illnesses	-11.7611
cache	-11.7613
▁Rev	-11.7614
▁specialist	-11.7615
▁Tig	-11.7616
▁scripts	-11.7616
▁Gyan	-11.7618
▁Term	-11.7618
▁stamp	-11.7619
▁Guy	-11.7619
▁repaired	-11.762
Shaq	-11.7621
lev	-11.7622
▁Once	-11.7622
▁outcome	-11.7622
▁gate	-11.7622
▁LOSS	-11.7623
▁Dimension	-11.7624
▁sweet	-11.7625
tract	-11.7626
▁sericulture	-11.7626
▁assamese	-11.7626
Mitra	-11.7626
▁desires	-11.7627
▁APIs	-11.7628
mulator	-11.7628
▁Stotrams	-11.7628
▁vegetables	-11.7628
▁innovations	-11.7629
▁Meetings	-11.763
▁games	-11.763
LO	-11.7631
cooled	-11.7632
LAR	-11.7634
indī	-11.7634
▁kms	-11.7634
▁vast	-11.7634
▁differ	-11.7637
▁Hero	-11.7637
▁Bort	-11.7639
▁lecturers	-11.7642
▁temp	-11.7642
▁freshers	-11.7644
▁Gaon	-11.7644
▁mo	-11.7645
ronunciation	-11.7645
▁Thread	-11.7645
▁Baker	-11.7646
▁socio	-11.7647
▁Blocks	-11.7647
▁Solar	-11.7647
▁kn	-11.7648
▁Verb	-11.7649
ood	-11.765
▁intention	-11.765
▁Clamp	-11.765
▁planner	-11.765
▁JÛ	-11.7652
▁Manipur	-11.7652
▁ভ	-11.7654
▁১	-11.7654
ek	-11.7655
▁dancing	-11.7655
▁Brit	-11.7656
▁chubby	-11.7656
▁Lift	-11.7657
▁তি	-11.7657
▁ʋɑ	-11.7658
▁bike	-11.7658
▁phrase	-11.7659
nal	-11.766
▁AIBA	-11.766
▁GO	-11.766
▁Pounding	-11.766
▁Zinc	-11.766
▁flower	-11.766
▁verses	-11.766
▁lb	-11.766
▁Bajaj	-11.7661
▁Tanned	-11.7661
▁feminin	-11.7661
▁Masjid	-11.7661
▁Random	-11.7661
▁Nepali	-11.7661
▁Krisham	-11.7661
▁Sponsor	-11.7661
▁activation	-11.7661
▁paradise	-11.7661
▁penetration	-11.7661
▁Nagaland	-11.7661
▁Shillong	-11.7661
▁Bodoland	-11.7661
▁Nickel	-11.7661
▁Thailand	-11.7661
▁Bdsm	-11.7662
▁Employment	-11.7662
▁magnets	-11.7662
▁interruption	-11.7662
▁RedTube	-11.7662
▁Baku	-11.7662
▁tattva	-11.7662
▁Drilling	-11.7663
▁married	-11.7663
▁variant	-11.7663
▁Mop	-11.7663
▁memorize	-11.7663
▁Candy	-11.7664
ecutive	-11.7664
▁Courag	-11.7665
▁Immuniz	-11.7665
▁stolen	-11.7665
->	-11.7666
▁Methyl	-11.7667
▁Function	-11.7667
▁guided	-11.7667
▁bizarre	-11.7669
▁Magazines	-11.7669
▁alternatives	-11.767
▁excluded	-11.767
▁TGN	-11.7672
▁uneven	-11.7672
▁PE	-11.7672
▁exclud	-11.7672
▁dollar	-11.7673
customcss	-11.7674
▁Sinhala	-11.7674
▁instruction	-11.7674
▁statut	-11.7674
▁father	-11.7675
▁Inad	-11.7675
images	-11.7677
▁Rural	-11.7677
▁Format	-11.7678
▁Battle	-11.7678
▁Posters	-11.7679
high	-11.768
+...	-11.768
DAND	-11.7681
▁deeds	-11.7684
▁officers	-11.7684
▁organizing	-11.7685
▁commences	-11.7685
▁tenant	-11.7686
tamil	-11.7686
▁finished	-11.7687
▁wires	-11.7688
▁Stick	-11.769
▁greet	-11.7694
▁Aash	-11.7697
▁Side	-11.7697
ejan	-11.7698
▁evaluat	-11.7698
▁Ku	-11.7698
▁Haw	-11.7699
INN	-11.7701
asswordremindert	-11.7704
▁remaining	-11.7705
▁stations	-11.7706
▁Neo	-11.7706
▁Nagar	-11.7707
▁Soft	-11.7708
▁defeat	-11.7709
▁HUB	-11.7709
▁Skin	-11.7709
▁Requests	-11.7709
▁recit	-11.771
▁Officials	-11.7711
▁movements	-11.7712
▁residents	-11.7713
instrol	-11.7717
▁handles	-11.7717
▁digitiz	-11.7717
illin	-11.7718
▁sort	-11.7719
phu	-11.772
▁Covered	-11.772
city	-11.7721
DEC	-11.7722
mmer	-11.7722
urisprudence	-11.7724
▁ই	-11.7725
▁Fines	-11.7726
▁oiled	-11.7727
▁prod	-11.7729
▁Inf	-11.7731
tm	-11.7732
mṛta	-11.7732
▁Brush	-11.7732
DAC	-11.7733
▁CD	-11.7733
▁DIN	-11.7733
▁Button	-11.7734
▁Theory	-11.7734
xxxtrasmall	-11.7735
breasts	-11.7737
BK	-11.7737
ewellery	-11.7741
▁slut	-11.7743
apping	-11.7744
utiny	-11.7745
bb	-11.7745
andbag	-11.7746
▁carbon	-11.7746
au	-11.7747
ḍa	-11.7749
▁Memori	-11.7749
▁pure	-11.775
▁Talks	-11.7751
▁Summers	-11.7752
▁clients	-11.7752
▁organisations	-11.7752
▁receipts	-11.7752
▁examinations	-11.7752
▁representatives	-11.7752
▁lights	-11.7753
▁Poll	-11.7754
▁Walk	-11.7755
▁Lesson	-11.7756
▁provisions	-11.7756
▁gut	-11.7756
▁thai	-11.7756
gaon	-11.7758
▁Schola	-11.7761
filed	-11.7763
▁workers	-11.7764
entiment	-11.7766
obbin	-11.7766
lary	-11.777
ʌɾɪ	-11.7771
uary	-11.7773
▁Jama	-11.7774
▁functioning	-11.7775
anonymous	-11.7776
ples	-11.7777
QTT	-11.7777
▁Leng	-11.7779
▁Latina	-11.7782
▁hydr	-11.7784
counter	-11.7788
▁professors	-11.7792
▁specta	-11.7793
▁Equipments	-11.7794
lore	-11.7795
editing	-11.7797
ength	-11.7799
▁fuck	-11.7799
exist	-11.7799
ISL	-11.78
Cutting	-11.7807
aluation	-11.7808
IGHT	-11.7812
weed	-11.7813
▁mess	-11.7815
plain	-11.7816
Te	-11.7819
rotchless	-11.782
▁Territori	-11.782
alya	-11.7821
▁necessar	-11.7821
▁Watering	-11.7822
ended	-11.7823
▁Goal	-11.7824
▁objects	-11.7827
▁doesn	-11.7829
▁browse	-11.7829
▁Banking	-11.7832
rica	-11.7835
▁Grievances	-11.7835
▁electronics	-11.7835
▁Gang	-11.7836
▁matters	-11.7837
eq	-11.7844
▁limitation	-11.7846
rt	-11.7846
▁workshops	-11.7847
▁Pranami	-11.7847
▁Methodolog	-11.7848
AJA	-11.785
▁Mas	-11.7852
▁KH	-11.7853
▁Belt	-11.7853
▁ICT	-11.7854
ISI	-11.7854
▁Dand	-11.7857
▁sect	-11.7859
▁squirting	-11.786
▁import	-11.7863
▁Anth	-11.7863
▁nil	-11.7865
▁Hrs	-11.7868
▁Ƭ	-11.7868
hile	-11.7868
▁NRC	-11.7868
▁dependents	-11.7869
amping	-11.7871
▁COMP	-11.7872
bbed	-11.7873
▁WHO	-11.7876
▁Kr	-11.7878
▁facial	-11.7878
respective	-11.7878
cox	-11.7879
start	-11.788
▁toolbar	-11.788
▁Display	-11.7881
▁spank	-11.7882
▁numeric	-11.7882
▁TAL	-11.7883
▁broker	-11.7884
oolbox	-11.7885
▁Deca	-11.7887
mile	-11.7888
xygen	-11.7889
▁Excellen	-11.7892
▁Criticism	-11.7893
▁য	-11.7894
rit	-11.7894
mari	-11.7897
Ass	-11.7897
non	-11.7898
MU	-11.79
THER	-11.79
▁script	-11.7901
▁Teens	-11.7901
▁Koh	-11.7903
▁op	-11.7905
nia	-11.7905
▁thought	-11.7906
Statement	-11.7909
▁Lum	-11.7911
▁vaccine	-11.7911
orrugated	-11.7913
▁JA	-11.7914
▁Links	-11.7916
riding	-11.7917
▁trans	-11.7918
▁channels	-11.7918
▁Seat	-11.7921
IPR	-11.7923
ānu	-11.7924
▁forum	-11.7925
hid	-11.7927
protectedpage	-11.7927
▁GL	-11.7927
▁Glu	-11.7928
Dead	-11.7929
▁deletion	-11.793
retrieve	-11.7932
mah	-11.7934
▁Annu	-11.7936
▁breaking	-11.7937
rch	-11.7941
▁dealing	-11.7945
▁Paint	-11.7945
oodle	-11.7946
▁optional	-11.7947
saurus	-11.7948
▁networking	-11.7949
▁loan	-11.7949
▁lists	-11.7953
▁kick	-11.7953
▁Kris	-11.7956
▁epic	-11.7957
▁ব	-11.796
ques	-11.7961
▁sample	-11.7963
▁interface	-11.7966
▁lamp	-11.7968
▁cream	-11.7969
▁parent	-11.797
▁discusse	-11.797
fer	-11.797
▁Units	-11.7972
refixindex	-11.7972
▁moves	-11.7973
▁boys	-11.7973
hub	-11.7976
▁alike	-11.7977
▁forwarder	-11.7978
▁farm	-11.7979
▁voyeurh	-11.7984
unk	-11.7987
idan	-11.7993
▁Ray	-11.7997
mK	-11.8004
ianna	-11.8007
icated	-11.8008
uties	-11.801
hosen	-11.8012
luv	-11.8013
▁Joint	-11.8015
pool	-11.8015
▁Tv	-11.8017
orient	-11.8018
▁Nand	-11.802
▁documented	-11.8023
▁GI	-11.8023
▁glu	-11.8025
PS	-11.8031
▁damp	-11.8032
usion	-11.8032
▁admir	-11.8032
▁$$=	-11.8032
deep	-11.8037
dbl	-11.804
REG	-11.8042
▁keypads	-11.8043
OL	-11.8047
asket	-11.8049
hema	-11.8053
▁Ve	-11.8054
BY	-11.8054
▁Chrom	-11.8055
qah	-11.8056
amahaṃ	-11.8059
ppet	-11.806
▁Pol	-11.806
▁Whe	-11.8062
sukh	-11.8062
acia	-11.8065
Chance	-11.8066
▁solved	-11.8067
thaim	-11.8074
▁Stage	-11.8074
▁Rajk	-11.8075
DUR	-11.8075
▁Words	-11.8075
▁Boys	-11.8078
HP	-11.8078
Milf	-11.8079
▁sisters	-11.8082
▁IST	-11.8084
▁EXC	-11.8087
▁fucking	-11.8088
▁Sour	-11.8089
▁Prab	-11.8092
▁fe	-11.8094
▁wikipedia	-11.8103
Palms	-11.8105
▁EM	-11.8114
hiya	-11.8118
▁SLTD	-11.8121
Lines	-11.8123
▁CAA	-11.8123
▁pixels	-11.8123
omali	-11.8124
▁Indra	-11.8129
older	-11.8132
▁ᴘ	-11.8134
Enabl	-11.8137
Internal	-11.8138
▁Pulle	-11.8139
uta	-11.8144
▁reviews	-11.8144
thi	-11.8146
▁Fernande	-11.8147
rod	-11.815
raffic	-11.815
▁PER	-11.815
ference	-11.8157
pul	-11.8162
undation	-11.8164
wide	-11.8168
cht	-11.8173
cl	-11.8173
ection	-11.8176
▁Khu	-11.818
maid	-11.8182
▁Covers	-11.8182
RI	-11.8184
ef	-11.8185
▁Avali	-11.819
▁Exclud	-11.8195
▁Sto	-11.8197
▁stores	-11.82
ompensation	-11.8201
Rockstars	-11.8207
HRD	-11.8207
▁tri	-11.8214
▁failures	-11.8215
\".	-11.8217
▁mill	-11.8221
▁reduce	-11.8223
▁Zakar	-11.8226
▁logical	-11.8227
EET	-11.8231
▁fin	-11.8232
teenage	-11.8232
qee	-11.8233
▁Bal	-11.8234
ire	-11.8239
▁ṟ	-11.8242
Seminars	-11.8248
▁MR	-11.825
▁Cay	-11.8253
tley	-11.8258
▁Jessi	-11.8261
Track	-11.8262
▁Depend	-11.8263
ometer	-11.8269
▁shift	-11.8282
▁AVE	-11.8286
▁trib	-11.8289
▁Cal	-11.8294
ulous	-11.8301
TPA	-11.8308
attery	-11.8314
▁diff	-11.8316
▁suppress	-11.8319
▁Udd	-11.832
▁Fee	-11.832
illa	-11.8322
ilek	-11.8325
▁marks	-11.8326
comes	-11.8327
napshot	-11.8329
hara	-11.8333
▁depth	-11.8335
dependence	-11.8337
after	-11.8337
▁Revision	-11.8339
▁Cli	-11.8341
▁regions	-11.8341
▁Introduc	-11.8345
ough	-11.835
▁ke	-11.8352
▁SA	-11.8354
rovince	-11.8366
▁Cali	-11.8371
▁IITs	-11.8374
▁delete	-11.8377
˞:	-11.8378
”)	-11.8382
kakh	-11.839
▁Den	-11.8391
▁precis	-11.8392
ning	-11.8393
▁RS	-11.8395
▁bbw	-11.8404
qi	-11.8405
▁red	-11.8408
▁ARE	-11.841
▁SX	-11.8414
UT	-11.8436
▁pleasure	-11.8437
ack	-11.8438
Clips	-11.8441
SX	-11.8442
winn	-11.8444
▁fil	-11.8446
▁aru	-11.8451
dye	-11.8453
tric	-11.8458
{(	-11.846
▁Updates	-11.8462
ris	-11.8462
ures	-11.8467
Dhu	-11.8467
dy	-11.8475
hoose	-11.8476
uent	-11.8476
śara	-11.8478
NIS	-11.8478
ail	-11.8488
▁Shak	-11.849
iving	-11.849
▁Checker	-11.849
ates	-11.8491
ride	-11.8491
onda	-11.8493
araṇ	-11.8494
PDC	-11.8494
kha	-11.8497
▁Smok	-11.85
rine	-11.8504
▁Compan	-11.8504
▁jɛ̝	-11.8506
GP	-11.8507
▁databases	-11.8508
ilgrimage	-11.8508
arity	-11.851
▁Osa	-11.8512
▁Pink	-11.8514
▁ফ	-11.8516
fective	-11.8516
▁interviews	-11.8519
▁cent	-11.8525
hn	-11.8527
mahim	-11.8527
umar	-11.8527
▁Emer	-11.853
UV	-11.8531
ension	-11.8539
▁Mor	-11.8546
NG	-11.8547
▁Contain	-11.8548
▁nor	-11.8548
ensive	-11.8552
śāy	-11.8553
emanding	-11.8555
▁Urin	-11.8558
▁attract	-11.8561
▁Mike	-11.8564
AY	-11.8564
STM	-11.8566
▁claimant	-11.8566
▁wi	-11.8568
more	-11.8577
boob	-11.8581
▁sizes	-11.8589
▁Organ	-11.8592
ort	-11.8596
OWN	-11.86
KN	-11.8607
▁Amo	-11.8609
anie	-11.8609
▁Cub	-11.8611
▁moms	-11.8612
▁Indonesia	-11.8612
zard	-11.862
romotion	-11.8622
▁hav	-11.8628
▁Shop	-11.8629
▁particulars	-11.8632
itis	-11.8636
islam	-11.8641
▁Maxim	-11.8641
fit	-11.8643
▁tru	-11.8644
▁magic	-11.865
▁Jit	-11.8656
pair	-11.866
herita	-11.8663
▁Charl	-11.8664
wi	-11.8666
umb	-11.8671
▁frame	-11.8673
▁Channels	-11.8673
active	-11.868
▁Ug	-11.8681
stitutional	-11.8683
▁schools	-11.8693
yah	-11.8694
▁AR	-11.8702
azz	-11.8706
bating	-11.8706
ota	-11.8709
▁initiat	-11.8709
IM	-11.871
▁KW	-11.871
▁desir	-11.8722
theism	-11.8723
▁rollback	-11.8723
Sac	-11.8724
iff	-11.8727
▁Ð	-11.8729
xpression	-11.8732
āsa	-11.8733
▁looks	-11.8733
Guna	-11.8739
▁ob	-11.8748
otic	-11.876
▁ride	-11.8761
Bad	-11.8762
prime	-11.8765
▁Shim	-11.8767
NDER	-11.8775
KK	-11.878
cture	-11.878
▁Chan	-11.8789
▁fifty	-11.879
uminat	-11.8791
AI	-11.8791
▁Heav	-11.8792
ʌjɪ̯	-11.8798
▁door	-11.88
oral	-11.8808
ensation	-11.8813
▁bat	-11.8824
▁yes	-11.8827
▁cook	-11.8836
sai	-11.8838
val	-11.8842
uthentication	-11.8845
Fift	-11.8845
▁te	-11.8846
inety	-11.8847
▁Pot	-11.8848
jat	-11.8852
▁Names	-11.8852
shal	-11.8857
lies	-11.8857
dia	-11.8858
▁Narrat	-11.8867
zam	-11.8871
▁Thrus	-11.8874
Inde	-11.8874
▁Led	-11.8877
▁regula	-11.8884
nab	-11.889
▁abid	-11.8891
▁yd	-11.8891
▁defin	-11.8894
▁Sind	-11.8894
▁Materials	-11.8897
preg	-11.8897
spite	-11.8902
itle	-11.8903
rage	-11.891
lated	-11.8919
HI	-11.8924
▁Comp	-11.8928
▁Medicines	-11.8929
▁Ir	-11.8939
ivilization	-11.8942
▁mm	-11.8947
Prohibit	-11.896
ban	-11.8963
nx	-11.8966
ath	-11.8966
▁Bull	-11.8972
▁librari	-11.8978
▁Visitor	-11.8978
▁Voca	-11.898
flags	-11.8983
▁grave	-11.8988
▁ge	-11.8989
▁Za	-11.8992
yB	-11.8993
divid	-11.9
ʌð	-11.9003
▁Actor	-11.9009
▁Workshops	-11.9012
gin	-11.9015
mann	-11.9021
▁butt	-11.9025
cid	-11.9031
cked	-11.9034
ematic	-11.9042
▁Jew	-11.9043
▁WF	-11.9051
▁advise	-11.9053
▁surger	-11.9056
▁Spa	-11.9059
tree	-11.906
bortion	-11.9067
Az	-11.9068
▁Forms	-11.9068
▁Let	-11.9071
accept	-11.9073
"'	-11.9078
▁unti	-11.9083
▁Sch	-11.9092
gangbang	-11.9094
adend	-11.9098
▁Devi	-11.9106
imitati	-11.9106
▁Gab	-11.9116
lee	-11.9127
▁roma	-11.9133
▁Iceland	-11.9135
▁modified	-11.9142
▁territor	-11.9143
cheng	-11.9145
▁Ent	-11.9145
▁pi	-11.9145
seen	-11.9149
hala	-11.9149
▁dur	-11.9151
▁heir	-11.9155
▁violat	-11.9156
pery	-11.9158
minal	-11.9159
▁Groups	-11.9165
tri	-11.9165
▁Shai	-11.9175
Und	-11.9177
ua	-11.9182
▁Jet	-11.9185
bang	-11.9198
ura	-11.9201
▁nine	-11.9201
▁Judi	-11.9204
▁educat	-11.921
tance	-11.9211
▁nea	-11.9217
▁Visualiz	-11.9219
▁amateurs	-11.9223
▁Card	-11.9225
pia	-11.9228
osque	-11.923
▁Prob	-11.9236
KP	-11.9237
pression	-11.9248
▁CT	-11.9249
falls	-11.9254
▁Mov	-11.9256
ark	-11.9262
▁midd	-11.9263
▁cycl	-11.9264
▁administrat	-11.9265
digit	-11.9266
▁Ol	-11.9269
ssa	-11.9271
▁guarante	-11.9272
ON	-11.9284
▁UN	-11.9285
▁retain	-11.9306
echanical	-11.9309
▁commo	-11.9313
▁mass	-11.9313
▁Barr	-11.9316
tit	-11.9317
▁ray	-11.9318
▁IV	-11.932
▁possibl	-11.933
▁Numbers	-11.9331
▁indicate	-11.9337
▁Giv	-11.934
▁Burn	-11.9346
▁texts	-11.9349
SHI	-11.9349
▁End	-11.9354
▁stick	-11.9354
ND	-11.9363
▁Ur	-11.9367
inan	-11.9374
▁Rob	-11.9378
▁comp	-11.9382
▁DR	-11.9392
lamp	-11.9395
▁Systems	-11.9395
yu	-11.9401
▁miss	-11.9402
▁knowing	-11.9407
▁ISOG	-11.9414
▁spi	-11.9419
▁Bilas	-11.942
tilt	-11.9434
iqu	-11.9438
Sul	-11.9443
omen	-11.9443
aś	-11.9446
▁ill	-11.9447
lts	-11.945
bin	-11.9456
ŋg	-11.9461
▁stone	-11.9472
$.	-11.9474
▁Fall	-11.9475
ST	-11.9482
JI	-11.9482
kash	-11.9484
▁LI	-11.9486
▁Nir	-11.9492
▁escalat	-11.9495
BI	-11.9498
▁Tal	-11.9502
▁Char	-11.9502
microb	-11.9504
▁Dharam	-11.9506
RED	-11.9509
ea	-11.951
▁Palla	-11.9524
▁Sansk	-11.9533
TIC	-11.9535
demni	-11.9536
finals	-11.9555
▁Pop	-11.9565
sets	-11.9579
▁Leon	-11.9583
▁Hedg	-11.959
ser	-11.959
correctly	-11.9598
cking	-11.9598
stro	-11.9614
▁assign	-11.962
band	-11.9628
▁Unti	-11.9643
▁disclos	-11.9645
Fi	-11.9651
▁boundar	-11.9658
▁Fresh	-11.966
ink	-11.9661
ude	-11.9662
arse	-11.9668
emis	-11.9671
igital	-11.9681
isuse	-11.9689
egoti	-11.9691
▁Vers	-11.9691
amaka	-11.9692
▁Geh	-11.9699
$,	-11.9711
ionate	-11.9713
representati	-11.9723
▁formal	-11.9728
raṇa	-11.9735
QU	-11.9747
▁Alli	-11.9748
▁Vo	-11.9749
▁Must	-11.9752
ku	-11.9754
JC	-11.9755
▁Patan	-11.9757
▁Vad	-11.9767
▁inaugurate	-11.9769
angzhou	-11.9773
▁propos	-11.9775
▁sq	-11.9777
alā	-11.9779
Qad	-11.979
▁NP	-11.9798
xy	-11.9803
nnels	-11.9804
onal	-11.9814
▁recreati	-11.9814
▁bit	-11.9821
▁wo	-11.983
▁Harsh	-11.9834
▁CATE	-11.9852
live	-11.9854
jya	-11.9875
Amba	-11.9879
VE	-11.9881
▁Jana	-11.9884
ship	-11.9891
▁meal	-11.9897
▁practic	-11.9907
svoyeur	-11.9921
▁Wage	-11.9921
eague	-11.9926
▁Pers	-11.9935
▁AH	-11.9944
phal	-11.9946
▁Olympiads	-11.9951
VAL	-11.9955
aim	-11.9956
▁Er	-11.996
iq	-11.9961
▁Block	-11.9965
▁inc	-11.9969
field	-11.997
▁SU	-11.9971
''	-11.9977
kol	-11.9978
▁Davi	-11.9979
tai	-11.9986
▁Jay	-11.9992
ems	-12
▁Pin	-12.0002
toll	-12.0003
ALLE	-12.0003
jā	-12.0003
▁finish	-12.0016
ikā	-12.0031
▁fr	-12.0034
▁Sahi	-12.004
ribb	-12.0047
riticism	-12.005
▁Cap	-12.0053
justif	-12.0054
shan	-12.0055
expected	-12.0069
ṟu	-12.0071
▁fan	-12.0076
▁HA	-12.0078
urthermore	-12.0081
hook	-12.0086
▁ৰ	-12.0086
▁Quer	-12.0091
roda	-12.0093
▁warm	-12.0094
ecades	-12.011
śi	-12.0119
▁av	-12.0125
▁Ok	-12.0128
}}]].	-12.0128
▁MAN	-12.0132
▁congr	-12.0132
▁GB	-12.0138
arsha	-12.0138
▁Te	-12.0139
▁Far	-12.0141
ken	-12.0148
ɪn̺	-12.0149
asses	-12.0152
▁consult	-12.0155
▁compile	-12.0166
▁Gya	-12.0173
▁administrati	-12.0175
aus	-12.0184
ākā	-12.0191
utlook	-12.0191
▁MO	-12.0195
paid	-12.0201
▁mʊ	-12.0207
▁Promot	-12.0207
▁Disp	-12.0222
▁Rahman	-12.0225
nfortunate	-12.0239
▁Wash	-12.0239
ently	-12.0243
shvas	-12.0245
▁Sunn	-12.0249
▁Edit	-12.025
rma	-12.0259
▁Flor	-12.0268
tartup	-12.0276
OI	-12.0287
rin	-12.0289
LP	-12.0294
▁Connect	-12.0296
mala	-12.0299
▁stud	-12.0309
▁forest	-12.031
▁n̺	-12.031
▁prais	-12.0314
oice	-12.0316
▁Express	-12.0318
ʌn̪d̪ɪ	-12.0321
ovid	-12.0322
uine	-12.0331
▁premiums	-12.0333
ENG	-12.0335
▁Ward	-12.0339
▁ov	-12.0341
aksh	-12.0347
osa	-12.0359
▁Bur	-12.036
▁Tok	-12.0362
▁Differen	-12.0364
bow	-12.0368
▁Med	-12.0376
LD	-12.0377
abs	-12.0383
carpa	-12.0393
▁clima	-12.0396
cro	-12.0408
▁Gui	-12.0412
▁Java	-12.0414
stal	-12.0429
EER	-12.0437
▁pri	-12.0445
eṅka	-12.0451
▁ne	-12.0462
kā	-12.0462
▁donat	-12.0465
CD	-12.0466
ṅk	-12.047
▁ʋʌ	-12.0473
CW	-12.0474
▁url	-12.0491
mit	-12.0492
BU	-12.0493
diaries	-12.0499
llow	-12.0501
limina	-12.0501
aken	-12.0502
▁Qu	-12.0507
rable	-12.0507
logical	-12.0509
iss	-12.0525
▁Ek	-12.0526
▁Heli	-12.0531
BAK	-12.0533
now	-12.0543
▁Import	-12.0544
rn	-12.0544
▁Kada	-12.0548
zone	-12.055
janu	-12.0559
▁flag	-12.0568
oom	-12.0571
lot	-12.0574
string	-12.0584
▁Pac	-12.059
anson	-12.0594
▁Pest	-12.0603
ners	-12.0607
ising	-12.0608
epair	-12.0613
owl	-12.0625
locked	-12.0626
samādh	-12.0626
▁দ	-12.0627
▁Cas	-12.0632
ʌʋ	-12.0633
elite	-12.0645
iated	-12.0649
▁territori	-12.0656
▁mor	-12.0657
verything	-12.0659
iously	-12.0679
ija	-12.0682
ān	-12.0686
▁ta	-12.0689
▁SOL	-12.0691
fluent	-12.0693
gas	-12.0704
bd	-12.0708
▁Brea	-12.0717
oph	-12.0725
▁belt	-12.0728
ound	-12.0729
oop	-12.0729
▁mandat	-12.0729
EE	-12.074
hopped	-12.0751
aving	-12.076
emp	-12.0764
amba	-12.0767
Ch	-12.0769
TS	-12.0771
eplacement	-12.0771
▁illustrat	-12.0775
vocation	-12.0786
ngali	-12.079
▁surge	-12.0794
▁authentic	-12.0796
nn	-12.0804
▁Av	-12.0808
llab	-12.0817
Lipi	-12.0818
▁cams	-12.082
▁Atheis	-12.0824
hong	-12.0824
▁pill	-12.0838
tub	-12.0841
▁Kala	-12.085
▁Say	-12.0859
pag	-12.086
▁Scr	-12.0862
advantages	-12.0862
La	-12.0864
▁por	-12.0865
ians	-12.0879
cer	-12.0882
OME	-12.0885
▁applica	-12.0886
দা	-12.0894
▁Ib	-12.0894
heir	-12.0895
Fata	-12.0903
▁Basel	-12.0908
▁GK	-12.0911
uch	-12.092
▁Reduc	-12.0927
oy	-12.0944
▁cā	-12.095
cci	-12.0953
Hand	-12.0957
▁Vani	-12.0957
,$$	-12.0958
LAN	-12.0961
▁res	-12.0968
exi	-12.0975
UPE	-12.0982
ock	-12.0992
ilum	-12.0995
▁Sush	-12.1006
▁Purchase	-12.1007
je	-12.1007
ব	-12.1007
▁Nit	-12.1008
cel	-12.1012
▁simplif	-12.1026
EC	-12.1027
bc	-12.103
MP	-12.1034
▁Mir	-12.1039
▁gen	-12.104
internal	-12.1043
Unit	-12.1044
maś	-12.1052
▁Baz	-12.1059
DA	-12.106
▁graph	-12.1062
▁Tash	-12.1063
▁Oppos	-12.1063
exit	-12.1066
Con	-12.1076
isted	-12.1088
▁merge	-12.1107
COT	-12.111
BF	-12.1115
horny	-12.1137
āka	-12.114
pā	-12.1154
Al	-12.1156
▁Sham	-12.1157
▁Mona	-12.1161
espite	-12.1168
OK	-12.1173
▁librar	-12.1173
▁Permission	-12.1174
HE	-12.1176
▁RH	-12.1182
AD	-12.1183
▁beat	-12.1189
nc	-12.1193
▁Popula	-12.1198
asts	-12.1203
Ja	-12.1213
ipar	-12.1218
▁fra	-12.1234
ont	-12.1235
▁requir	-12.124
uk	-12.124
elief	-12.1241
IR	-12.1246
flies	-12.1247
ñca	-12.1247
▁Chris	-12.1253
,”	-12.1265
]]\	-12.1266
boo	-12.127
▁allie	-12.1274
eph	-12.1277
center	-12.128
ɾ	-12.1282
▁Institut	-12.1285
▁str	-12.1299
▁Emp	-12.13
▁Simpl	-12.1301
▁ন	-12.1304
▁Til	-12.1311
OO	-12.1312
▁axi	-12.1314
entilator	-12.133
▁mi	-12.1332
▁Snap	-12.1333
▁Wal	-12.1336
alized	-12.1336
▁tā	-12.1338
▁sli	-12.1339
Treat	-12.1345
Shopp	-12.1347
▁Writ	-12.1349
▁reinstat	-12.1351
▁Turn	-12.1365
ngcheng	-12.1366
EB	-12.1367
omo	-12.1369
▁Hassa	-12.1373
hur	-12.1378
▁contributor	-12.1379
esai	-12.1383
▁Spell	-12.1385
FW	-12.1391
udhai	-12.1393
fan	-12.1407
eś	-12.1421
ains	-12.1421
ogi	-12.1431
cu	-12.1437
anding	-12.1439
FC	-12.1441
Qa	-12.1442
ZE	-12.1454
gical	-12.1459
JA	-12.146
db	-12.1463
nine	-12.1465
igh	-12.1466
hap	-12.1468
▁Institution	-12.1469
dget	-12.147
য	-12.1482
▁accessib	-12.1497
▁cont	-12.1502
items	-12.1506
▁subjects	-12.151
mash	-12.1512
▁Borb	-12.1515
UE	-12.1516
Vai	-12.1516
▁Runn	-12.1517
mat	-12.1528
ashk	-12.1533
▁FS	-12.1536
āma	-12.1537
yl	-12.1543
Articles	-12.1545
ests	-12.1551
▁repl	-12.1553
etry	-12.156
▁ni	-12.1563
small	-12.1568
warn	-12.1569
▁malay	-12.1571
bani	-12.1573
▁Fernand	-12.1582
▁LOCA	-12.1583
jane	-12.1587
āva	-12.1587
Po	-12.1595
Office	-12.1597
▁ins	-12.1602
lock	-12.1608
bust	-12.1617
strate	-12.1619
ACT	-12.1627
ryan	-12.1627
Made	-12.1632
▁Tak	-12.1638
Information	-12.1647
▁Scar	-12.1649
uṇ	-12.1651
orous	-12.1656
par	-12.1659
ert	-12.1661
Research	-12.1665
None	-12.1671
who	-12.1672
kay	-12.1677
ksh	-12.168
▁Sla	-12.1683
Mov	-12.1684
una	-12.1685
manager	-12.1691
opt	-12.1694
▁Siri	-12.1703
illing	-12.1703
▁lau	-12.1704
VC	-12.1707
▁mere	-12.171
General	-12.1714
্প	-12.1717
typical	-12.1723
:'	-12.1727
fail	-12.1729
ontains	-12.174
asc	-12.1744
khan	-12.1745
Over	-12.1745
person	-12.1748
OC	-12.175
combusti	-12.1754
Male	-12.1757
aginal	-12.1757
health	-12.1759
hakur	-12.1761
▁cap	-12.1762
‘	-12.1764
pass	-12.1769
update	-12.177
Group	-12.1771
dam	-12.1774
world	-12.1779
BD	-12.1781
▁publishe	-12.1784
▁ren	-12.1787
uted	-12.1792
otes	-12.1793
If	-12.1793
script	-12.1795
Disable	-12.1802
ṇḍ	-12.1802
Sci	-12.1804
ore	-12.1812
Gallery	-12.1817
▁Koo	-12.1818
death	-12.1822
▁Woo	-12.1823
handjob	-12.1825
▁Im	-12.1826
JÛ	-12.1827
▁madhy	-12.1829
=\	-12.1829
Kab	-12.1832
des	-12.1834
ALA	-12.1834
Blow	-12.1835
Personal	-12.1837
atre	-12.1843
nish	-12.1843
ত	-12.1847
Reminder	-12.1849
candid	-12.185
IFF	-12.1851
▁Bila	-12.1853
Read	-12.1855
were	-12.1858
provided	-12.1858
ev	-12.186
liant	-12.1862
cent	-12.1862
Video	-12.1865
clips	-12.1866
CRO	-12.1867
Online	-12.1868
anic	-12.1871
Telugu	-12.1872
between	-12.1873
▁broke	-12.1875
Math	-12.1876
gang	-12.1877
▁qui	-12.1878
▁Leader	-12.188
Trade	-12.188
▁jo	-12.188
▁cure	-12.1881
specific	-12.1881
Vu	-12.1884
Previous	-12.1884
Asian	-12.1887
suck	-12.189
Compare	-12.1894
▁Jac	-12.1896
▁sā	-12.1897
ʋ	-12.1898
deletion	-12.1898
vu	-12.1899
Xmas	-12.1901
akh	-12.1901
what	-12.1904
ars	-12.1905
pers	-12.1906
▁Gas	-12.1906
▁Commit	-12.1906
Material	-12.191
Foot	-12.191
itary	-12.1915
bā	-12.1915
atu	-12.1915
oldguy	-12.1918
▁Bota	-12.1919
Start	-12.1919
≥	-12.1919
Liability	-12.192
চী	-12.1921
▁vaccin	-12.1921
dog	-12.1923
Import	-12.1925
request	-12.1926
▁Maru	-12.1926
Paypal	-12.1928
▁Sin	-12.1929
থ	-12.1929
Discuss	-12.193
popular	-12.193
thumbnail	-12.193
COM	-12.1932
Internet	-12.1933
KD	-12.1934
Fitness	-12.1935
State	-12.1936
Party	-12.1936
employed	-12.1936
scu	-12.1937
limited	-12.1939
Game	-12.1939
sponsor	-12.194
Lock	-12.194
Act	-12.1941
restore	-12.1941
Xho	-12.1942
doggy	-12.1942
Japanese	-12.1943
Entertainment	-12.1944
consider	-12.1944
engineer	-12.1944
🌟	-12.1944
Ƥ	-12.1944
↭	-12.1944
SC	-12.1945
ops	-12.1945
glasses	-12.1946
multi	-12.1946
Mu	-12.1949
Girlfriend	-12.195
Educational	-12.1951
administrator	-12.1953
▁Tempe	-12.1954
▁Andh	-12.1955
Member	-12.1956
notice	-12.1956
secure	-12.1957
movies	-12.1957
specified	-12.1957
Saturday	-12.1958
recent	-12.1958
Subject	-12.1959
▁Manz	-12.1962
interracial	-12.1963
pantyhose	-12.1964
Mail	-12.1964
Product	-12.1965
Extension	-12.1965
Display	-12.1966
contains	-12.1967
announce	-12.1969
graduate	-12.1972
Mobile	-12.1972
▁pose	-12.1972
ffm	-12.1972
documented	-12.1972
toolbar	-12.1973
Own	-12.1974
TOP	-12.1974
Visual	-12.1974
WHO	-12.1974
certain	-12.1974
Criticism	-12.1975
Long	-12.1975
▁Theme	-12.1975
nosuch	-12.1975
Lesson	-12.1975
Jyoti	-12.1975
hich	-12.1976
food	-12.1978
hl	-12.1978
Site	-12.1979
necessary	-12.1979
Class	-12.1979
Worship	-12.198
sugar	-12.198
children	-12.198
....	-12.1981
Jorhat	-12.1981
Slovakia	-12.1982
Jan	-12.1982
Granny	-12.1982
Size	-12.1983
facial	-12.1983
gathering	-12.1984
গণিত	-12.1984
Advisor	-12.1984
po	-12.1985
Monday	-12.1985
Pakistan	-12.1985
optional	-12.1985
Ƭ	-12.1986
Construction	-12.1986
Lifestyle	-12.1986
āda	-12.1986
division	-12.1986
Mexican	-12.1986
Quick	-12.1987
Meghalaya	-12.1987
ᴘ	-12.1987
worm	-12.1989
Audio	-12.1989
Action	-12.1989
Malayalam	-12.1989
Massage	-12.1989
NRC	-12.199
method	-12.199
Buckle	-12.199
Tinsukia	-12.1991
Tuesday	-12.1992
Quality	-12.1992
Brunette	-12.1992
Orgy	-12.1992
import	-12.1992
Crop	-12.1992
Human	-12.1993
Marathi	-12.1994
Bathing	-12.1994
Talk	-12.1994
Ladder	-12.1994
Plastic	-12.1995
Registration	-12.1995
Definition	-12.1996
confirm	-12.1997
young	-12.1997
Rack	-12.1997
please	-12.1998
squirting	-12.1998
amukh	-12.1998
ambi	-12.1998
Stories	-12.1999
complex	-12.1999
Kidney	-12.2
ecision	-12.2
itz	-12.2
Electronic	-12.2001
Options	-12.2001
northeast	-12.2002
Nurse	-12.2003
held	-12.2003
CSIR	-12.2004
muscle	-12.2004
Imam	-12.2004
granny	-12.2005
Wiktionary	-12.2005
restriction	-12.2005
Punjabi	-12.2006
support	-12.2006
organized	-12.2006
Room	-12.2007
college	-12.2007
Cookies	-12.2007
WB	-12.2009
AUT	-12.2009
put	-12.2009
SO	-12.201
Agent	-12.201
hti	-12.2011
▁Deh	-12.2012
Forms	-12.2013
caught	-12.2016
blue	-12.2016
{{{	-12.2017
together	-12.2017
Porno	-12.2017
domain	-12.2017
à	-12.2018
ò	-12.2018
browse	-12.2019
Clean	-12.2019
fuel	-12.202
happy	-12.202
dealing	-12.202
random	-12.2021
recognize	-12.2021
USD	-12.2021
successful	-12.2022
zero	-12.2022
▁Prophe	-12.2023
reate	-12.2024
shelf	-12.2028
tech	-12.2029
visible	-12.2029
Editor	-12.203
brunette	-12.203
split	-12.203
capacity	-12.2031
ICE	-12.2032
lean	-12.2033
prob	-12.2035
▁bed	-12.2036
IDV	-12.2038
supported	-12.2039
drive	-12.2039
wife	-12.2039
minutes	-12.204
few	-12.204
failed	-12.204
duce	-12.2041
UK	-12.2042
interface	-12.2042
▁Trea	-12.2044
GENT	-12.2046
glass	-12.2047
নি	-12.2047
Shemale	-12.2048
rot	-12.2049
touch	-12.205
qualifi	-12.205
upskirts	-12.205
annual	-12.2051
NX	-12.2056
ugh	-12.2058
government	-12.2059
expand	-12.2064
changeable	-12.2066
epper	-12.2067
flora	-12.2068
Questions	-12.207
Net	-12.2071
root	-12.2071
śat	-12.2073
fish	-12.208
XX	-12.208
roll	-12.2082
striptease	-12.2085
tification	-12.2086
nnocenthigh	-12.2087
▁intimat	-12.209
Islami	-12.2092
status	-12.2095
:"	-12.2096
burner	-12.2098
Test	-12.2099
anja	-12.2108
asset	-12.2112
ncy	-12.2113
fix	-12.2124
▁roads	-12.2129
thanol	-12.2132
Mechanic	-12.2133
cong	-12.2133
seas	-12.2137
yearly	-12.2138
mother	-12.2139
lara	-12.214
TI	-12.2147
construction	-12.2148
fline	-12.2149
fight	-12.2149
term	-12.215
▁manag	-12.2152
lingerie	-12.2152
hours	-12.2153
GL	-12.2157
strong	-12.2159
XP	-12.2159
flu	-12.2161
Had	-12.2165
▁statu	-12.2166
▁bri	-12.2168
▁TM	-12.2168
▁summarize	-12.2169
ulina	-12.2172
attend	-12.2172
▁Rati	-12.2175
lux	-12.2177
Groups	-12.2179
ṇṭ	-12.2179
rough	-12.2185
town	-12.2187
ically	-12.2188
meone	-12.2189
/-	-12.2189
Hc	-12.219
ode	-12.2191
added	-12.2194
Prefix	-12.2202
▁Driv	-12.2206
brace	-12.2207
▁Inform	-12.221
mass	-12.2211
▁Late	-12.2214
HALL	-12.222
Latina	-12.2221
athi	-12.2224
▁Int	-12.2226
heading	-12.2227
pre	-12.2227
ebre	-12.2233
act	-12.2234
QR	-12.2235
PH	-12.2236
mailerror	-12.2237
years	-12.2239
owned	-12.2246
gold	-12.2248
▁CF	-12.2248
▁Cro	-12.2249
hil	-12.225
▁Chea	-12.225
past	-12.2253
boobs	-12.2262
MG	-12.2263
common	-12.2263
quest	-12.2269
rich	-12.2272
lapse	-12.2275
▁Tw	-12.2281
tag	-12.2286
former	-12.2288
▁Doc	-12.2292
TSU	-12.2296
ANG	-12.2299
unprotect	-12.23
gay	-12.2301
irth	-12.2302
khand	-12.2305
kas	-12.2308
half	-12.231
slut	-12.2312
MANA	-12.2312
summ	-12.2315
▁experiment	-12.2326
▁Clar	-12.2327
▁aid	-12.2327
▁Remind	-12.2328
ses	-12.233
▁Digit	-12.233
▁Soo	-12.2332
acct	-12.2335
uv	-12.2336
ography	-12.2339
ZA	-12.2343
lege	-12.2344
▁jewel	-12.2345
Got	-12.2346
hum	-12.2347
ʌr	-12.2349
▁parse	-12.2352
▁fell	-12.2358
▁Nag	-12.236
▁qualif	-12.2361
scr	-12.2362
easurement	-12.2366
pornstar	-12.2367
▁pla	-12.2369
▁Brun	-12.2374
rm	-12.2375
ɨm	-12.2376
▁writ	-12.2378
śanaṃ	-12.2378
▁AbdulRa	-12.2381
▁Sou	-12.2387
lly	-12.239
xʌ	-12.2392
ensored	-12.2395
lowjob	-12.2398
▁Character	-12.2399
TEL	-12.24
wp	-12.24
▁Sad	-12.2401
illage	-12.2402
▁fulfil	-12.2404
syn	-12.2406
▁Abd	-12.2408
aged	-12.2409
▁dialect	-12.2412
▁opposite	-12.2412
▁Cyp	-12.2412
▁preg	-12.2415
ānā	-12.2415
▁Hire	-12.2417
▁habit	-12.2417
course	-12.2419
▁Holiday	-12.2421
▁convict	-12.2422
▁Aircraft	-12.2423
▁ritual	-12.2423
▁Kau	-12.2423
▁flow	-12.2424
Inter	-12.2424
END	-12.2424
ureaucrat	-12.2425
▁Advantage	-12.2425
▁mistake	-12.2426
▁dispute	-12.2426
▁Resource	-12.2426
▁Quarter	-12.2427
▁upskirt	-12.2427
▁Franchise	-12.2428
▁Reciter	-12.2428
▁Protest	-12.2428
ndling	-12.2429
▁Employee	-12.243
▁Franc	-12.243
▁CH	-12.243
▁Condition	-12.243
▁Patient	-12.2431
▁decade	-12.2431
▁consultation	-12.2432
▁Cartoon	-12.2434
▁Skill	-12.2434
bian	-12.2436
bbi	-12.2437
dhikar	-12.2439
▁Statu	-12.244
▁eat	-12.2441
▁photograph	-12.2442
▁Ethic	-12.2445
erma	-12.2445
▁pancha	-12.2445
▁finger	-12.2445
▁lan	-12.2449
▁El	-12.245
▁Island	-12.2451
ds	-12.2451
DOW	-12.2451
ridge	-12.2452
Anal	-12.2453
▁champion	-12.2454
ronouns	-12.2454
▁aspect	-12.2456
▁belong	-12.2459
▁reform	-12.2459
----	-12.2462
sir	-12.2464
▁Cult	-12.2466
aid	-12.2466
▁LANGUAGE	-12.2466
aheem	-12.2469
▁modul	-12.2471
ʋɛ̝	-12.2473
bal	-12.2473
▁diagnose	-12.2475
▁buyer	-12.2476
▁Setting	-12.2477
quisite	-12.248
gainst	-12.2481
▁tv	-12.2484
ādh	-12.2488
▁Celeb	-12.2488
ECT	-12.249
▁Fight	-12.249
▁Jerk	-12.2491
Mens	-12.2492
▁apprehend	-12.2492
▁Machin	-12.2493
Chang	-12.2494
▁Tract	-12.2495
▁Tue	-12.2495
▁Aab	-12.2496
throttle	-12.2497
▁Latvia	-12.2498
rinking	-12.2498
ception	-12.2499
ptions	-12.25
ros	-12.2501
▁Muscle	-12.2501
▁arrest	-12.2502
▁choos	-12.2502
ROM	-12.2502
shoora	-12.2503
▁Capacit	-12.2503
yster	-12.2504
▁Look	-12.2505
agic	-12.2505
YE	-12.2507
▁Ahl	-12.2507
▁withdraw	-12.2507
▁manifest	-12.2507
▁Bulgaria	-12.2508
ucculents	-12.2508
▁Bosnia	-12.2509
▁Fault	-12.2509
llowance	-12.2509
wesome	-12.251
▁Italia	-12.251
ORS	-12.251
ccupation	-12.2511
▁Principle	-12.2512
▁GMC	-12.2512
▁Bengal	-12.2512
garh	-12.2512
fertility	-12.2513
▁distributors	-12.2513
▁frequent	-12.2513
lindfolded	-12.2514
abinet	-12.2515
▁believer	-12.2515
▁fabr	-12.2515
▁Luc	-12.2515
scribe	-12.2517
▁Barua	-12.2517
AHO	-12.2517
separat	-12.2518
ebruary	-12.2518
carbon	-12.2518
ircumstances	-12.2518
tasia	-12.2518
▁Kiss	-12.2519
▁Consult	-12.2519
etween	-12.2519
mprovement	-12.2519
Û	-12.2519
iarrhoea	-12.2519
ordination	-12.2519
aruḷ	-12.252
▁Candid	-12.252
▁Entrepreneur	-12.252
gypt	-12.252
▁situat	-12.252
▁Competit	-12.2521
▁Audit	-12.2521
xpenditure	-12.2521
▁navigat	-12.2521
▁solicit	-12.2521
Sea	-12.2522
tects	-12.2522
zbek	-12.2522
▁Madras	-12.2522
▁compensat	-12.2522
CIAL	-12.2522
▁Transport	-12.2522
▁Municipal	-12.2522
oholi	-12.2522
ituation	-12.2522
uarantee	-12.2522
xponential	-12.2522
aculty	-12.2522
oject	-12.2522
egitimate	-12.2522
Customize	-12.2523
aturopathy	-12.2523
uppress	-12.2523
▁LIMIT	-12.2523
arewell	-12.2523
▁Global	-12.2523
hiddencat	-12.2523
▁Afrika	-12.2523
ɢ	-12.2524
▁Recommend	-12.2524
đ	-12.2524
Ť	-12.2524
Ÿ	-12.2524
ʘ	-12.2524
Т	-12.2524
ۣ	-12.2524
ค	-12.2524
Ꮶ	-12.2524
Ᏻ	-12.2524
ᖫ	-12.2524
ᛗ	-12.2524
𑀼	-12.2524
ց	-12.2524
উ	-12.2524
ত্ৰ	-12.2524
durganāḍī	-12.2524
kvaṇatk	-12.2524
āmaṇi	-12.2524
Ŕ	-12.2524
Ǥ	-12.2524
ʆ	-12.2524
є	-12.2524
ਜ	-12.2524
ਪ	-12.2524
ਾ	-12.2524
ੰ	-12.2524
ᐃ	-12.2524
➕➕	-12.2524
ⱥ	-12.2524
𑀯	-12.2524
editmyuser	-12.2524
urvedi	-12.2524
Շ	-12.2524
Ꮥ	-12.2524
ᴀʙ	-12.2524
▁𑀦𑀺𑀷𑁆𑀶	-12.2524
booksources	-12.2524
Ɩɛɠɛŋɖ	-12.2524
ʂ	-12.2524
ت	-12.2524
খ	-12.2524
▁Cameltoe	-12.2524
▁Galvanizing	-12.2524
▁Lympho	-12.2524
▁aspirants	-12.2524
▁grievance	-12.2524
▁remunerati	-12.2524
Sikkim	-12.2524
▁CHFJPY	-12.2524
▁EURNOK	-12.2524
▁GBPJPY	-12.2524
▁Villegas	-12.2524
▁nuditytits	-12.2524
▁viḷamp	-12.2524
Bokmål	-12.2524
Confirm	-12.2524
Crossdresser	-12.2524
Dantauram	-12.2524
Dossary	-12.2524
Graduate	-12.2524
Janakpuri	-12.2524
KeezMovies	-12.2524
Kohm	-12.2524
Muqbil	-12.2524
ORIYA	-12.2524
SIBILITY	-12.2524
Shanqette	-12.2524
Shiddy	-12.2524
Vietnamese	-12.2524
\'\'\'	-12.2524
apparatus	-12.2524
cascade	-12.2524
caturdaś	-12.2524
cūḻ	-12.2524
emorrh	-12.2524
ersecution	-12.2524
ertilizer	-12.2524
hygienic	-12.2524
igarettes	-12.2524
ignorewarning	-12.2524
iharChandigarhCh	-12.2524
isinfectant	-12.2524
movenotallowed	-12.2524
naissance	-12.2524
oudspeaker	-12.2524
o̸	-12.2524
punlace	-12.2524
sundarī	-12.2524
tuesday	-12.2524
wiktionary	-12.2524
yPunjabRajasthan	-12.2524
	-12.2524
¤	-12.2524
Ñ	-12.2524
ąř	-12.2524
Ğ	-12.2524
ňţ	-12.2524
śyāma	-12.2524
śāntikṣamecāmerū	-12.2524
š	-12.2524
Ə	-12.2524
ǝ	-12.2524
ɡ	-12.2524
ɪᴛ	-12.2524
ʋʉ̩	-12.2524
ʌmmʌjɪ̯ʌpp	-12.2524
ʍ	-12.2524
ː	-12.2524
̵	-12.2524
̶ᴇ̶	-12.2524
̿	-12.2524
͙C͙	-12.2524
͙P͙	-12.2524
͛	-12.2524
ΐ	-12.2524
Ω	-12.2524
σ	-12.2524
Аҧсуа	-12.2524
П	-12.2524
и	-12.2524
м	-12.2524
р	-12.2524
у	-12.2524
հ	-12.2524
ն	-12.2524
ւ	-12.2524
א	-12.2524
تو	-12.2524
س	-12.2524
عل	-12.2524
۞	-12.2524
ۼ	-12.2524
ܐ	-12.2524
ওক	-12.2524
িয়া	-12.2524
ূ	-12.2524
০	-12.2524
ৰামানুজন	-12.2524
ਬ	-12.2524
ੀ	-12.2524
ଓଡ଼ି	-12.2524
ୟ	-12.2524
ร	-12.2524
ຮ	-12.2524
༘	-12.2524
࿔ྀ	-12.2524
Ꭺ	-12.2524
Ꭿ	-12.2524
ᖭ	-12.2524
ᴀʀᴀʙ	-12.2524
ᴄ	-12.2524
ᴛᴀ	-12.2524
ᴠ	-12.2524
ᴡ	-12.2524
▁Abkhaz	-12.2524
▁Adjectives	-12.2524
▁Ahadith	-12.2524
▁Airfreight	-12.2524
▁Alappuzha	-12.2524
▁Antichrist	-12.2524
▁Apprentice	-12.2524
▁Arneja	-12.2524
▁Assignment	-12.2524
▁Azerbaijani	-12.2524
▁Bachelor	-12.2524
▁Beryllium	-12.2524
▁Bilvaashtakam	-12.2524
▁CADJPY	-12.2524
▁CIRCUMSTANCES	-12.2524
▁Cadmium	-12.2524
▁Calcutta	-12.2524
▁Celebrations	-12.2524
▁Chariali	-12.2524
▁Choudhury	-12.2524
▁Concept	-12.2524
▁Contingencies	-12.2524
▁Custody	-12.2524
▁EURPLN	-12.2524
▁EURZAR	-12.2524
▁Eligibility	-12.2524
▁Encyclopedia	-12.2524
▁Exploited	-12.2524
▁Failure	-12.2524
▁Fellowship	-12.2524
▁Flexible	-12.2524
▁Fujian	-12.2524
▁GBPDKK	-12.2524
▁GaysPower	-12.2524
▁Golaghat	-12.2524
▁HEBREWS	-12.2524
▁Hitchhiker	-12.2524
▁Hussain	-12.2524
▁INDIRECT	-12.2524
▁INFORMATION	-12.2524
▁Invoice	-12.2524
▁Jagiroad	-12.2524
▁Journalists	-12.2524
▁Journey	-12.2524
▁Judgment	-12.2524
▁Jurisdiction	-12.2524
▁Kalapahar	-12.2524
▁Kikuyu	-12.2524
▁Ladbrokes	-12.2524
▁Librarian	-12.2524
▁Lithuania	-12.2524
▁Lâkkou	-12.2524
▁Magnets	-12.2524
▁Maligaon	-12.2524
▁MalluApps	-12.2524
▁Montenegr	-12.2524
▁Motorcycle	-12.2524
▁Muharram	-12.2524
▁NDFB	-12.2524
▁OTHERWISE	-12.2524
▁POPULAR	-12.2524
▁PROCESS	-12.2524
▁Palestinian	-12.2524
▁Philosophy	-12.2524
▁PornRabbit	-12.2524
▁Professional	-12.2524
▁Python	-12.2524
▁Qarsyiah	-12.2524
▁RCMT	-12.2524
▁RECORDS	-12.2524
▁Ramazaan	-12.2524
▁Refrigerat	-12.2524
▁Sarusajai	-12.2524
▁Scorpio	-12.2524
▁Shippment	-12.2524
▁Spandex	-12.2524
▁Spokesman	-12.2524
▁Strawberry	-12.2524
▁Sunbathing	-12.2524
▁Switzerland	-12.2524
▁TRANSLATION	-12.2524
▁Tamkeni	-12.2524
▁Taqbaylit	-12.2524
▁Thallium	-12.2524
▁Trouble	-12.2524
▁Unshaven	-12.2524
▁Upornia	-12.2524
▁Varadhan	-12.2524
▁WFDSA	-12.2524
▁Zeppelin	-12.2524
▁assault	-12.2524
▁attorney	-12.2524
▁beneficiaries	-12.2524
▁bhuvanatray	-12.2524
▁bolívar	-12.2524
▁bribery	-12.2524
▁carbide	-12.2524
▁catalogue	-12.2524
▁consignment	-12.2524
▁corpus	-12.2524
▁correspondence	-12.2524
▁creampie	-12.2524
▁decentralized	-12.2524
▁decipher	-12.2524
▁dictionaries	-12.2524
▁dignitaries	-12.2524
▁disabilities	-12.2524
▁drastically	-12.2524
▁embarrassing	-12.2524
▁epidemic	-12.2524
▁epidermis	-12.2524
▁erosion	-12.2524
▁exhaustive	-12.2524
▁ghlass	-12.2524
▁giraffe	-12.2524
▁judgment	-12.2524
▁kishtey	-12.2524
▁koḷḷ	-12.2524
▁landscape	-12.2524
▁laptop	-12.2524
▁levelheadedness	-12.2524
▁livelihood	-12.2524
▁malnutrition	-12.2524
▁masculine	-12.2524
▁migrants	-12.2524
▁miracles	-12.2524
▁nautica	-12.2524
▁nipple	-12.2524
▁obesity	-12.2524
▁pesticides	-12.2524
▁philosoph	-12.2524
▁politician	-12.2524
▁powder	-12.2524
▁python	-12.2524
▁shoplift	-12.2524
▁spontaneous	-12.2524
▁sterility	-12.2524
▁tawheed	-12.2524
▁trouble	-12.2524
▁t̪ʌmmɪl	-12.2524
▁unpredictable	-12.2524
▁unsubscribe	-12.2524
▁viṉāv	-12.2524
▁weapons	-12.2524
▁́	-12.2524
▁ঐ	-12.2524
▁ღ	-12.2524
▁Ṣ	-12.2524
𑀷𑁆	-12.2524
CLAIM	-12.2524
Reinforcement	-12.2524
▁Agarwala	-12.2524
▁TOYOTA	-12.2524
▁kanaka	-12.2524
▁thesauri	-12.2524
inusitis	-12.2524
landlord	-12.2524
lastmodifiedat	-12.2524
ynonyms	-12.2524
▁ADVIS	-12.2524
▁Arizona	-12.2524
▁Chaudhuri	-12.2524
▁Cobalt	-12.2524
▁Eliminate	-12.2524
▁Fractal	-12.2524
▁Helmet	-12.2524
▁Heritage	-12.2524
▁Laborator	-12.2524
▁Masjed	-12.2524
▁Moisturiz	-12.2524
▁OBOE	-12.2524
▁Oscars	-12.2524
▁bachelor	-12.2524
▁consumption	-12.2524
▁fiqh	-12.2524
▁kūṟu	-12.2524
▁lubrica	-12.2524
▁niścalatattv	-12.2524
▁pseudo	-12.2524
▁thirteen	-12.2524
▁wisdom	-12.2524
▁সংখ্যা	-12.2524
noexactmatch	-12.2524
pukur	-12.2524
pɪɾʌp	-12.2524
śumbh	-12.2524
κ	-12.2524
༺༒༻	-12.2524
▁Absorpti	-12.2524
▁Azər	-12.2524
▁BTAD	-12.2524
▁Bullocks	-12.2524
▁Cosplay	-12.2524
▁Girdle	-12.2524
▁Nayyar	-12.2524
▁Norway	-12.2524
▁Polyester	-12.2524
▁Raymond	-12.2524
▁Rhenium	-12.2524
▁Throat	-12.2524
▁constructed	-12.2524
▁ignored	-12.2524
▁imprison	-12.2524
▁likeableness	-12.2524
▁nationalisation	-12.2524
▁ʋɪɾʌjɪ̯	-12.2524
▁যৌ	-12.2524
▁Hetero	-12.2524
▁LINK	-12.2524
▁Linares	-12.2524
▁Manuscript	-12.2524
▁Pradyum	-12.2524
▁Ravage	-12.2524
▁sanction	-12.2524
▁tbsp	-12.2524
▁technological	-12.2524
minerals	-12.2524
▁Yobt	-12.2524
ATURE	-12.2524
Î	-12.2524
Ş	-12.2524
Ɖ	-12.2524
φ	-12.2524
ۇ	-12.2524
მ	-12.2524
ḧ	-12.2524
▁Acholi	-12.2524
▁Deposit	-12.2524
▁Ganguly	-12.2524
▁POLIC	-12.2524
▁Reflect	-12.2524
▁TECHNO	-12.2524
▁elsewhere	-12.2524
▁kaṃsa	-12.2524
▁psych	-12.2524
▁textarea	-12.2524
▁𑀅𑀯	-12.2524
etroleum	-12.2524
muggl	-12.2524
▁Nilsson	-12.2524
▁Objectives	-12.2524
▁condens	-12.2524
▁naṇṇ	-12.2524
TrannyShemale	-12.2524
dellogpage	-12.2524
dvaya	-12.2524
mʉ̩	-12.2524
princess	-12.2524
templatesused	-12.2524
wfQuery	-12.2524
▁Albert	-12.2524
▁Daitto	-12.2524
▁IcePorn	-12.2524
▁Interruption	-12.2524
▁Refractoriness	-12.2524
▁Shukra	-12.2524
▁airplane	-12.2524
▁brahma	-12.2524
▁kidn	-12.2524
▁predict	-12.2524
▁therapies	-12.2524
▁Gurukul	-12.2524
ensitivity	-12.2524
▁Commuter	-12.2524
▁MAXIM	-12.2524
▁böne	-12.2524
FORCE	-12.2524
arhrhu	-12.2524
¶	-12.2524
Ą	-12.2524
ͣ	-12.2524
ق	-12.2524
ި	-12.2524
Ꮎ	-12.2524
▁Belarus	-12.2524
▁Consider	-12.2524
▁DATA	-12.2524
▁Minutes	-12.2524
▁Clothing	-12.2524
▁Patrika	-12.2524
▁HERE	-12.2524
▁emphasi	-12.2524
▁pancreas	-12.2524
▁nylon	-12.2524
▁Titjob	-12.2524
▁vandalis	-12.2524
Rollback	-12.2524
addcat	-12.2524
fficacy	-12.2524
nbsp	-12.2524
surāṇā	-12.2524
▁Cambridge	-12.2524
▁Consultancy	-12.2524
▁Ministries	-12.2524
𑀓𑁆	-12.2524
LIFE	-12.2524
▁GROUP	-12.2524
▁Thomas	-12.2524
▁tariff	-12.2524
▁coupons	-12.2524
▁hotspot	-12.2524
▁SOURCE	-12.2524
▁backpack	-12.2524
▁refresh	-12.2524
sauce	-12.2524
▁Alexandria	-12.2524
▁Possible	-12.2524
facebook	-12.2524
returnto	-12.2524
ūḍa	-12.2524
͟͟͞	-12.2524
▁album	-12.2524
▁decorations	-12.2524
▁disrespect	-12.2524
ⱥŇ	-12.2524
Aashooraa	-12.2524
▁UPDATE	-12.2524
CIDENT	-12.2524
JizzBu	-12.2524
▁Ellip	-12.2524
embedde	-12.2524
lesbianass	-12.2524
ɪɴɢ	-12.2524
͞	-12.2524
▁Mecca	-12.2524
▁WordPress	-12.2524
▁uncertainties	-12.2524
▁voyeurbizarre	-12.2524
▁conclusion	-12.2524
peeches	-12.2524
tābhyāṃ	-12.2524
▁Disclosure	-12.2524
▁সং	-12.2524
cosplay	-12.2524
▁substernal	-12.2524
KILL	-12.2524
Nagaon	-12.2524
▁Smartp	-12.2524
▁Catfight	-12.2524
▁Villani	-12.2524
▁LinkedIn	-12.2524
▁STYL	-12.2524
▁passport	-12.2524
ɛɛ	-12.2524
▁Shahua	-12.2524
▁sickness	-12.2524
▁utilize	-12.2524
Darrang	-12.2524
ivaṉ	-12.2524
ppʌ	-12.2524
vināś	-12.2524
▁PROpaid	-12.2524
▁Submission	-12.2524
▁consultancy	-12.2524
▁polytheism	-12.2524
▁Cumshot	-12.2524
SQL	-12.2524
ignition	-12.2524
▁certification	-12.2524
▁skirt	-12.2524
Cartosat	-12.2524
\(\'	-12.2524
bigbutt	-12.2524
▁smart	-12.2524
faiyr	-12.2524
GIRL	-12.2524
▁Britain	-12.2524
▁Idol	-12.2524
▁esteem	-12.2524
▁hungry	-12.2524
▁ssbbw	-12.2524
nosuchaction	-12.2524
▁Budget	-12.2524
▁Silos	-12.2524
ṭṭ	-12.2524
▁transparency	-12.2524
nosuchuser	-12.2524
▁capabilities	-12.2524
▁rapture	-12.2524
▁welfare	-12.2524
▁Refractor	-12.2524
alendar	-12.2524
▁HOW	-12.2524
▁proposition	-12.2524
▁CREAM	-12.2524
▁Cattle	-12.2524
▁backb	-12.2524
▁spoil	-12.2524
AKER	-12.2524
▁humidity	-12.2524
▁infection	-12.2524
𑁆𑀢	-12.2524
ʌmbʌ	-12.2524
▁extraordinary	-12.2524
▁Morcha	-12.2524
MISSION	-12.2524
▁Palgha	-12.2524
▁tranquility	-12.2524
▁regex	-12.2524
subcat	-12.2524
▁Kushbel	-12.2524
▁trademarks	-12.2524
▁Naasir	-12.2525
interwiki	-12.2525
mainpage	-12.2525
unawara	-12.2525
ɨkk	-12.2525
▁Chromium	-12.2525
▁Obedien	-12.2525
▁rankings	-12.2525
▁worries	-12.2525
ustomizable	-12.2525
RUIT	-12.2525
▁Friction	-12.2525
▁technician	-12.2525
wishers	-12.2525
▁CLOSE	-12.2525
▁awning	-12.2525
▁deliverables	-12.2525
april	-12.2525
▁uniform	-12.2525
▁Bhuyan	-12.2525
▁MOQ	-12.2525
▁bulls	-12.2525
▁cavity	-12.2525
▁documentaries	-12.2525
Bathroom	-12.2525
▁Swift	-12.2525
tlantic	-12.2525
▁Bargirl	-12.2525
▁Delicacy	-12.2525
nolinkshere	-12.2525
▁Mineral	-12.2525
▁methane	-12.2525
▁Integrat	-12.2525
▁encoding	-12.2525
▁filipino	-12.2525
imgmultipage	-12.2525
▁Parentage	-12.2525
STORY	-12.2525
▁Computing	-12.2525
ombie	-12.2525
▁newborn	-12.2525
dberrortext	-12.2525
▁alarming	-12.2525
▁Mustard	-12.2525
śānti	-12.2525
টি	-12.2525
▁Ganbang	-12.2525
▁Veterinarian	-12.2525
etaphor	-12.2525
▁Freight	-12.2525
▁Tawheed	-12.2525
HUNTER	-12.2525
KMSS	-12.2525
▁Hassle	-12.2525
কল	-12.2525
▁JOB	-12.2525
▁Specific	-12.2525
▁Trainee	-12.2525
▁Troop	-12.2525
▁handwriting	-12.2525
▁n̺ʌll	-12.2525
▁orchid	-12.2525
alvation	-12.2525
mmortal	-12.2525
▁biography	-12.2525
burg	-12.2525
Without	-12.2525
bourg	-12.2525
▁Sophi	-12.2525
▁Winners	-12.2525
ৰত	-12.2525
▁Mountain	-12.2525
▁Analysis	-12.2525
atikram	-12.2525
iyeng	-12.2525
searchsubtitle	-12.2525
▁Cascade	-12.2525
accountcreated	-12.2525
forbidden	-12.2525
▁Banana	-12.2525
▁target	-12.2525
▁TECH	-12.2525
▁histories	-12.2525
areback	-12.2525
▁Airways	-12.2525
filepath	-12.2525
ɪʀ	-12.2525
▁cubic	-12.2525
▁Graham	-12.2525
▁Detach	-12.2525
▁TRADER	-12.2525
▁grocer	-12.2525
▁naturopathy	-12.2525
▁vibra	-12.2525
hicago	-12.2525
ockslide	-12.2525
śoka	-12.2525
▁Object	-12.2525
mammal	-12.2525
▁Ooh	-12.2525
▁Fabri	-12.2525
▁Ablution	-12.2525
Asamiya	-12.2525
▁CONTROL	-12.2525
▁Mahapuru	-12.2525
▁Unlimited	-12.2525
▁Nutriflow	-12.2525
▁Emara	-12.2525
▁shipment	-12.2525
▁Empower	-12.2525
▁Dominno	-12.2525
▁sensual	-12.2525
timezoneuse	-12.2525
▁Screen	-12.2525
▁tabtip	-12.2525
ডা	-12.2525
hippie	-12.2525
▁Kitten	-12.2525
▁Dictionaries	-12.2526
▁BASED	-12.2526
▁māynt	-12.2526
▁Rhodium	-12.2526
rithmet	-12.2526
▁Lyrics	-12.2526
▁Tricke	-12.2526
ṉaṟivu	-12.2526
CuNi	-12.2526
mypreferences	-12.2526
▁exempted	-12.2526
▁elder	-12.2526
Uzbekistan	-12.2526
arallel	-12.2526
Banna	-12.2526
▁Mondal	-12.2526
etropoli	-12.2526
▁Elegant	-12.2526
Bentley	-12.2526
▁FILMS	-12.2526
▁Thiruv	-12.2526
ambara	-12.2526
▁modernization	-12.2526
▁Amlan	-12.2526
▁Emulsion	-12.2526
Ciara	-12.2526
বী	-12.2526
ktiḥ	-12.2526
utonomous	-12.2526
▁torture	-12.2526
▁inventory	-12.2526
▁Changsari	-12.2526
▁stickam	-12.2526
Pattern	-12.2526
▁impart	-12.2526
LLER	-12.2526
▁Adamu	-12.2526
▁DirtyTeen	-12.2526
▁Nails	-12.2526
▁Madrassa	-12.2526
▁Discount	-12.2526
▁ugly	-12.2526
াম	-12.2526
omestic	-12.2526
▁jock	-12.2526
fibre	-12.2526
addgroup	-12.2526
changepassword	-12.2526
▁Tomorrow	-12.2526
▁bibli	-12.2526
▁Molded	-12.2526
soever	-12.2526
▁socks	-12.2526
▁wander	-12.2526
Flix	-12.2526
▁farewell	-12.2526
▁Sloan	-12.2526
iniform	-12.2527
Unprotect	-12.2527
▁arabic	-12.2527
▁Dubai	-12.2527
▁undone	-12.2527
▁stunning	-12.2527
patrolled	-12.2527
▁Chaudh	-12.2527
▁Pouch	-12.2527
▁goodwill	-12.2527
proxyblocker	-12.2527
▁luck	-12.2527
▁Spray	-12.2527
OFFICE	-12.2527
▁Sanct	-12.2527
▁PLAY	-12.2527
turkish	-12.2527
Saheem	-12.2527
caveng	-12.2527
▁packed	-12.2527
odemich	-12.2527
pawg	-12.2527
▁proxy	-12.2527
▁sāyi	-12.2527
Tafseer	-12.2527
▁sunplas	-12.2527
▁Hailstorm	-12.2527
▁ANTI	-12.2527
śruti	-12.2527
▁Analyst	-12.2527
▁functionality	-12.2527
Rock	-12.2527
▁Hirsut	-12.2527
▁Pigeon	-12.2527
▁Zakaah	-12.2527
▁Tibet	-12.2527
▁Jagan	-12.2527
▁confidentiality	-12.2527
▁exponential	-12.2527
▁dvār	-12.2527
▁eligib	-12.2527
▁Thereafter	-12.2527
Yesterday	-12.2527
▁mosque	-12.2528
▁taṉ	-12.2528
জি	-12.2528
▁myself	-12.2528
▁draft	-12.2528
▁enthusias	-12.2528
Entrepreneurship	-12.2528
▁sacrifice	-12.2528
▁herbs	-12.2528
NESS	-12.2528
▁multilingual	-12.2528
▁Vessel	-12.2528
▁proceedings	-12.2528
▁punished	-12.2528
▁Conference	-12.2528
▁͙B͙	-12.2528
▁Memory	-12.2528
▁Estate	-12.2528
ruḷk	-12.2528
▁Gynecological	-12.2528
▁hereafter	-12.2528
▁labour	-12.2528
▁Sinhal	-12.2528
▁Quantity	-12.2528
▁Bronze	-12.2528
Stamp	-12.2528
▁Sauna	-12.2528
▁Marxis	-12.2528
▁Buffaloes	-12.2528
▁basket	-12.2528
Bhagwa	-12.2528
Sandbox	-12.2528
▁Sorority	-12.2528
▁Ponder	-12.2528
▁Dramatic	-12.2528
▁Glimpse	-12.2528
▁buddh	-12.2528
Output	-12.2528
▁uṇarv	-12.2528
▁connectivity	-12.2528
▁castle	-12.2528
☆☬	-12.2529
ান	-12.2529
▁Controller	-12.2529
▁Agro	-12.2529
▁Jenny	-12.2529
qualification	-12.2529
▁flush	-12.2529
▁CLEAN	-12.2529
▁Glance	-12.2529
▁Diarrhoea	-12.2529
▁Finally	-12.2529
▁Album	-12.2529
gnifica	-12.2529
▁cbt	-12.2529
▁periodically	-12.2529
jiang	-12.2529
▁Summit	-12.2529
▁Classmate	-12.2529
▁Sweetheart	-12.2529
jpg	-12.2529
▁moth	-12.2529
▁aspiration	-12.2529
wood	-12.2529
▁universal	-12.2529
▁pilot	-12.2529
▁Biodata	-12.2529
atrix	-12.2529
▁thereafter	-12.2529
▁veter	-12.2529
xnxx	-12.253
▁Pythagor	-12.253
▁SPECI	-12.253
▁LOG	-12.253
▁Nichi	-12.253
▁Finger	-12.253
▁nationalization	-12.253
▁Egypt	-12.253
▁wordings	-12.253
ORG	-12.253
▁Archi	-12.253
▁Balan	-12.253
▁Photography	-12.253
Return	-12.253
▁Barman	-12.253
▁Defend	-12.253
ñcī	-12.253
▁VOL	-12.253
volcani	-12.253
▁diagnosis	-12.253
▁meanwhile	-12.253
▁supari	-12.253
▁transformation	-12.253
▁conjunct	-12.253
TEM	-12.253
viewdeleted	-12.253
▁fortune	-12.253
▁Crack	-12.253
Otherwise	-12.253
ruits	-12.253
CCESS	-12.253
▁supra	-12.253
VKV	-12.253
▁Chuck	-12.253
elope	-12.253
▁marry	-12.253
EVER	-12.253
▁OTHER	-12.2531
▁Pixel	-12.2531
▁Ragh	-12.2531
▁easiest	-12.2531
▁Triangle	-12.2531
▁Sweden	-12.2531
JOST	-12.2531
▁Macedonian	-12.2531
▁Slovenian	-12.2531
▁Vape	-12.2531
▁downline	-12.2531
▁gums	-12.2531
▁skinless	-12.2531
lateral	-12.2531
▁APRI	-12.2531
ZECH	-12.2531
AsRIE	-12.2531
▁Alumin	-12.2531
▁Punishment	-12.2531
▁injur	-12.2531
Jaz	-12.2531
räja	-12.2531
▁Mandir	-12.2531
▁PHIL	-12.2531
▁CHO	-12.2532
▁czp	-12.2532
▁earth	-12.2532
girlsvideo	-12.2532
▁Balear	-12.2532
▁Indigenous	-12.2532
▁Snake	-12.2532
▁WIND	-12.2532
▁petitioners	-12.2532
▁mysteri	-12.2532
▁Miscellany	-12.2532
▁Circu	-12.2532
▁scrutiny	-12.2532
▁cheque	-12.2532
▁acrobatic	-12.2532
rregular	-12.2532
▁wives	-12.2532
▁Pursu	-12.2533
▁insertion	-12.2533
▁loose	-12.2533
▁Brahma	-12.2533
▁gym	-12.2533
closure	-12.2533
KHz	-12.2533
▁erotica	-12.2533
KTL	-12.2533
▁Tension	-12.2533
vijaya	-12.2533
redir	-12.2533
shipped	-12.2533
▁Tender	-12.2533
▁Bronch	-12.2533
▁Soap	-12.2533
▁Puss	-12.2533
nolinks	-12.2533
functionalities	-12.2533
▁partnership	-12.2533
▁pigtail	-12.2533
▁Hacker	-12.2534
ummar	-12.2534
▁HQWL	-12.2534
▁Mysti	-12.2534
▁Lodge	-12.2534
llegations	-12.2534
Transfer	-12.2534
▁Groove	-12.2534
▁Reward	-12.2534
▁Physicist	-12.2534
▁altered	-12.2534
▁Cabinet	-12.2534
Explained	-12.2535
▁Infertility	-12.2535
bcat	-12.2535
empt	-12.2535
epsi	-12.2535
▁auxil	-12.2535
▁cargo	-12.2535
TTA	-12.2535
▁Ramesh	-12.2535
▁Glossary	-12.2535
▁RESP	-12.2535
▁propagat	-12.2535
▁cāva	-12.2535
▁reproductive	-12.2536
Gallant	-12.2536
▁Herz	-12.2536
▁nano	-12.2536
lakṣm	-12.2536
▁atmosphere	-12.2536
▁hardness	-12.2536
▁essay	-12.2536
▁germinat	-12.2536
▁smṛt	-12.2536
▁planning	-12.2536
▁inaugurating	-12.2537
▁Passion	-12.2537
▁Fitting	-12.2537
esented	-12.2537
▁fetch	-12.2537
▁retire	-12.2537
kHz	-12.2537
▁Sweetie	-12.2537
erennials	-12.2537
▁agitation	-12.2537
AYA	-12.2537
▁Halo	-12.2537
agalog	-12.2537
▁tweeted	-12.2537
▁passage	-12.2537
▁Lux	-12.2537
▁wʊ	-12.2537
ketch	-12.2538
▁north	-12.2538
▁classification	-12.2538
BAD	-12.2538
PORN	-12.2538
▁Academ	-12.2538
▁Dhema	-12.2538
▁Barta	-12.2538
▁carriers	-12.2538
▁Neog	-12.2538
▁Arrangement	-12.2538
▁Delight	-12.2539
egovi	-12.2539
▁tattooed	-12.2539
▁Booklet	-12.2539
▁nev	-12.2539
hlä	-12.2539
fishnet	-12.2539
▁immun	-12.2539
▁Naked	-12.2539
▁Deals	-12.2539
STO	-12.254
▁terminal	-12.254
▁physician	-12.254
▁NeighborhoodL	-12.254
কা	-12.254
▁DTO	-12.254
aborted	-12.2541
▁slippe	-12.2541
SCRI	-12.2541
harī	-12.2541
▁Panther	-12.2541
mha	-12.2541
▁coeds	-12.2541
TRO	-12.2541
accmailt	-12.2541
▁manifestation	-12.2541
▁Shell	-12.2541
Modified	-12.2542
▁plying	-12.2542
▁WLA	-12.2542
rīm	-12.2542
kānti	-12.2542
▁salarie	-12.2542
▁Carina	-12.2542
▁cracking	-12.2542
angana	-12.2542
erformance	-12.2542
druff	-12.2542
▁sleeping	-12.2542
celebrities	-12.2542
▁Shank	-12.2543
cannotdelete	-12.2543
▁Estonia	-12.2543
▁householders	-12.2543
▁seriously	-12.2543
▁feast	-12.2543
Amber	-12.2543
▁Profile	-12.2543
Pantone	-12.2543
▁pads	-12.2543
▁MAX	-12.2544
faq	-12.2544
▁advisers	-12.2544
▁Fitte	-12.2544
▁ref	-12.2544
Tip	-12.2544
JNU	-12.2544
▁Amul	-12.2545
▁PQWL	-12.2545
verified	-12.2545
▁YouTube	-12.2545
▁prevalen	-12.2545
edric	-12.2545
▁MRU	-12.2546
FID	-12.2546
▁Basumatari	-12.2546
▁Mistake	-12.2546
▁Cause	-12.2546
▁Sanskriti	-12.2546
kpr	-12.2546
ʌn̺	-12.2546
▁shirk	-12.2546
gyno	-12.2546
ṇam	-12.2546
▁Shearing	-12.2546
Respect	-12.2547
Pornstar	-12.2547
▁WPL	-12.2547
▁Kom	-12.2547
ache	-12.2547
IITs	-12.2547
CTS	-12.2547
harma	-12.2548
▁Guid	-12.2548
logpage	-12.2548
▁Radiation	-12.2548
▁DON	-12.2548
▁debtor	-12.2548
▁YouPorn	-12.2548
▁Cuck	-12.2548
▁inclusion	-12.2548
▁Masseu	-12.2548
VAC	-12.2549
nominat	-12.2549
▁Typically	-12.2549
▁Slap	-12.2549
▁infant	-12.2549
▁audit	-12.2549
▁lava	-12.2549
▁feb	-12.255
PSE	-12.255
▁remotely	-12.255
▁Forget	-12.255
▁Foam	-12.255
hanged	-12.255
▁CNG	-12.2551
▁procure	-12.2551
▁Cheat	-12.2551
▁Reject	-12.2551
▁Insect	-12.2551
AMCC	-12.2551
antho	-12.2552
▁manual	-12.2552
▁Broad	-12.2552
▁Jalu	-12.2553
▁Liner	-12.2553
▁iOS	-12.2553
▁modest	-12.2553
▁LIP	-12.2554
latin	-12.2554
▁Anaesthe	-12.2554
▁Priya	-12.2554
▁Param	-12.2554
▁rogu	-12.2554
▁Corona	-12.2555
rhiz	-12.2555
▁VID	-12.2555
▁intent	-12.2556
▁Intens	-12.2556
▁striking	-12.2556
▁Astra	-12.2556
▁firstenglish	-12.2556
▁Telephon	-12.2556
}+	-12.2556
noname	-12.2556
supererogatory	-12.2557
▁embrac	-12.2557
placement	-12.2557
▁Typing	-12.2558
▁spring	-12.2558
▁Wise	-12.2558
▁therewith	-12.2558
▁stockings	-12.2558
▁LGB	-12.2559
▁unlike	-12.2559
▁Celebrate	-12.2559
Cheque	-12.2559
▁Melod	-12.256
addr	-12.256
GE	-12.256
▁chargeable	-12.256
▁Colour	-12.2561
stadh	-12.2561
ARY	-12.2561
▁TOI	-12.2561
▁Spir	-12.2561
▁Guidelines	-12.2562
▁fractur	-12.2562
ADA	-12.2562
compass	-12.2563
▁biop	-12.2563
bigtits	-12.2563
smalltits	-12.2563
oactive	-12.2563
▁fever	-12.2563
LSOs	-12.2563
▁Ak	-12.2563
▁veg	-12.2564
▁stating	-12.2564
▁Closeup	-12.2564
▁strip	-12.2564
▁combination	-12.2564
▁Theater	-12.2565
▁mob	-12.2565
▁Hull	-12.2565
▁lawyer	-12.2565
▁Infants	-12.2566
▁garages	-12.2566
▁SciQs	-12.2566
▁NGOs	-12.2566
▁DVDs	-12.2566
▁tutorials	-12.2566
▁prepositions	-12.2566
▁barriers	-12.2566
▁mechanisms	-12.2566
▁livecams	-12.2566
▁Nick	-12.2566
▁RECO	-12.2566
MRC	-12.2566
▁disasters	-12.2567
▁scam	-12.2567
YON	-12.2567
▁Much	-12.2567
centric	-12.2567
▁approaches	-12.2568
▁Adams	-12.2568
▁Broom	-12.2568
▁Programmes	-12.2568
ulent	-12.2568
tya	-12.2568
ūji	-12.2568
▁DEMA	-12.2569
showhide	-12.2569
searchresults	-12.2569
▁Naw	-12.2569
▁Pune	-12.2569
abund	-12.2569
regularity	-12.257
rose	-12.257
▁fatal	-12.2571
▁Subtitling	-12.2571
kiṉ	-12.2571
Bait	-12.2571
▁Benefi	-12.2571
▁prana	-12.2572
HONE	-12.2572
▁HAND	-12.2573
▁nird	-12.2573
irsut	-12.2574
▁cables	-12.2574
oltage	-12.2574
ṅñ	-12.2574
▁exceptions	-12.2574
▁Pick	-12.2574
bytes	-12.2574
ixobo	-12.2574
foursome	-12.2575
▁Admin	-12.2576
▁COM	-12.2576
lapsed	-12.2576
▁Looking	-12.2576
▁kṣay	-12.2577
rowning	-12.2577
▁ZL	-12.2578
▁damping	-12.2578
▁BAR	-12.2578
arvat	-12.2578
▁nails	-12.2579
▁Missi	-12.2579
Gynecologist	-12.2579
▁Needy	-12.2579
▁modules	-12.258
ASH	-12.258
▁Ayurveda	-12.258
▁Regulation	-12.258
nhance	-12.258
sṛ	-12.2581
▁devi	-12.2581
▁Jayant	-12.2581
ɪll	-12.2581
▁exemp	-12.2581
LANGUAGES	-12.2582
▁sarve	-12.2583
▁Eight	-12.2583
▁sav	-12.2583
▁anyway	-12.2583
▁urge	-12.2583
ɪ̯ɨ	-12.2583
▁Helic	-12.2584
▁soul	-12.2584
▁updating	-12.2584
▁COR	-12.2584
▁banged	-12.2585
▁Hyun	-12.2585
▁recipe	-12.2586
▁disc	-12.2586
rasad	-12.2587
▁proto	-12.2587
āyai	-12.2588
▁Shall	-12.2588
SUB	-12.2588
bile	-12.2589
CLE	-12.2589
▁Chip	-12.2589
▁deadline	-12.2589
▁cury	-12.259
▁Franch	-12.259
ense	-12.259
▁Volunteer	-12.259
but	-12.2591
▁saving	-12.2591
[...]
