▁	8980
)	8325
1	7796
2	6666
ৰ	6251
▁(	6234
0	6114
,	4764
5	4671
4	4615
3	4591
6	3950
8	3734
7	3414
9	3132
-	2674
।	2564
▁কাম	2167
(	2031
▁আৰু	1952
:	1785
'	1757
ত	1679
▁'	1503
_	1464
.	1377
▁দ্বাৰা	1097
▁মতামত	1036
’	975
▁-	910
▁কৰা	883
>	876
▁=	841
ক	811
▁চুমাচুমি	789
▁বা	780
ে	779
▁চমকানি	749
▁এই	701
',	677
▁বাবে	671
▁হ	623
▁চমকানো	615
▁:	613
▁ছলচাতুরী	608
▁শৃগালী	601
s	575
ব	519
▁পৰা	516
▁আবৃত	512
▁কৰিব	495
▁আপোনাৰ	490
/	463
▁হৈছে	453
▁কৰি	440
▁বিনিময়	422
▁লাটভিয়ান	408
▁_	406
▁আলো	405
▁কৰক	395
▁সমূহ	384
ঔৣ	384
▁কোনো	380
▁আপুনি	375
ই	374
▁এটা	368
ল	367
▁হয়	363
▁»	349
▁ক	342
িত	340
▁অসমীয়া	333
▁বীমা	328
▁/	321
▁তথ্য	314
লৈ	312
?	310
▁কৰে	303
▁পৃষ্ঠা	300
▁এক	299
▁হোৱা	289
▁পাৰে	269
▁ই	268
▁আমাৰ	266
▁সংখ্যা	262
া	259
▁আমি	259
੔	258
ন	257
বা	255
ি	254
ী	244
▁আছে	241
▁সতীচ্ছদ	237
▁দিয়া	235
▁প	226
▁যি	224
▁থকা	222
▁"	220
▁ইছলাম	212
▁যে	210
]	210
▁কি	206
িক	205
▁মাই	205
▁যৌনাংগ	199
▁[	198
সমূহ	197
۝	195
▁আচমন	195
▁কৰাৰ	194
▁কৰিবলৈ	193
▁মি	192
▁সৈতে	191
▁প্ৰদান	187
▁চ	187
▁G	186
ম	184
▁সুৰক্ষা	183
▁অ	182
▁বড়ো	182
▁হৈ	181
য়ে	180
▁বিভিন্ন	179
▁ব্যৱহাৰ	178
▁বিষয়ে	178
▁গুৱাহাটী	177
▁আন	176
▁যদি	174
ও	173
"	172
▁গণিত	171
▁।	170
▁দাবী	169
▁ইয়াৰ	169
▁নাই	168
▁উপাদান	167
✞	167
ো	166
▁অথ	164
▁ব্যক্তিগত	163
কৈ	160
▁TV	160
▁বিষয়	159
▁এ	159
▁T	159
ছ	156
...	155
▁B	155
▁বি	155
▁News	154
▁হাত	152
▁সেই	152
▁কৰিছে	152
▁স	151
▁ক্ষতি	146
▁বিজ্ঞান	145
ীয়	144
▁C	143
▁প্ৰতি	143
ঃ	142
▁বীমাকৃত	141
▁নতুন	141
▁দৃদ্ধ	141
▁অসম	140
▁লাভ	140
▁অনুবাদ	139
▁ল	138
▁অধিক	135
▁আল	135
▁‘	135
▁সেৱা	134
▁টকা	133
্	133
দ	132
▁সকলো	131
▁লগত	128
▁বিন	128
▁খামখেয়াল	128
▁Assamese	127
▁ঢকান	127
▁ভাল	126
▁S	124
%	124
▁নাম	124
টো	122
x	122
▁নহয়	121
▁ম	121
▁A	120
কোনো	120
▁$	120
▁India	119
▁শক্তি	119
ৰা	119
▁আ	119
▁মিলি	119
তে	117
▁কথা	116
▁ও	115
▁উল্লেখ	114
▁ক্ষেত্ৰত	113
্য	113
▁লগতে	112
লে	112
▁অতি	112
▁জ্ঞান	112
▁P	111
▁লাগিব	111
▁প্ৰ	110
▁আইটেম	109
ভাৱে	108
কে	107
খন	107
▁তাৰ	106
▁সময়ত	106
▁ব	106
▁গ	106
▁“	105
▁তেন্তে	105
▁মৃত্যু	104
R	104
বোৰ	104
▁২	104
▁ওপৰত	103
;	103
তা	102
▁ব্যক্তি	102
	102
▁বন্ধ	102
a	101
▁ক্যাটাগৰি	100
▁ভিডিও	100
▁আপোনাক	100
▁নীতি	100
▁গছ	100
▁আই	99
এই	99
▁১	99
▁এখন	98
onit	98
ু	97
▁মই	97
▁সময়	97
gina	97
▁এপসন	97
▁গোলগাল	96
protected	95
y	95
▁L	95
▁ভি	94
▁হিচাপে	94
▁Sora	93
email	93
টা	92
b	92
▁যোগাযোগ	92
মেইল	92
▁মুখগত	92
▁ভিতৰত	91
ৰপৰা	91
▁সি	91
ৰে	91
▁꧁	91
꧂	91
”	89
▁বিশেষ	89
▁বোঁচকা	89
▁তেওঁ	89
▁পি	89
od	88
▁সম্পাদনা	88
▁অধীনত	88
▁মখোমুখী	88
লিচি	87
▁সহায়	87
☬	87
▁–	87
▁খনক	86
▁যায়	86
▁ভাষা	86
▁তেওঁলোক	85
▁in	85
▁ভাৰতীয়	85
▁সামগ্ৰী	85
▁টা	85
ড	84
▁পলিচী	84
▁মূল্য	83
▁তলত	83
Va	83
▁সৃষ্টি	83
▁স্বাস্থ্য	83
াৰ	82
▁দিব	82
▁লৈ	82
▁?	82
▁এটি	82
▁তৃতীয়	82
▁সুবিধা	82
▁টকিঅ	82
▁✞	82
",	81
সকলৰ	80
▁বীজ	80
▁ড	80
▁তথা	80
▁res	80
etter	80
oll	79
▁উত্তৰ	79
▁of	79
▁এনে	79
▁ধাৰা	79
হ	79
▁শেল্ফ	79
▁কাৰণে	78
▁শিক্ষা	78
▁বুলি	78
▁অধিকাৰ	77
▁চিকিৎসা	77
▁হৈছিল	77
ywo	77
▁পোৱা	77
▁আইন	76
com	76
▁__	76
▁বছৰ	75
ং	75
}}	75
▁on	75
▁কম	75
▁ন	75
▁হোৱাৰ	75
▁জিপ্লাছ	75
▁বিভাগ	75
▁সম্পূৰ্ণ	74
▁সম্পত্তি	74
C	74
▁এজন	74
▁১০	74
▁অসমৰ	74
ণ	73
▁মা	73
▁..	73
▁দায়িত্ব	72
▁পক্ষ	72
▁টিউব	72
i	71
▁লক্ষ্য	71
▁বৃদ্ধি	71
র	71
▁দেশ	71
▁সা	71
▁তেওঁৰ	71
▁প্ৰশ্ন	70
▁মহিলা	70
!	70
▁দা	70
▁ভাষাত	70
▁সাক্ষাৎকাৰ	70
▁দুৰ্ঘটনা	69
▁মুহাম্ম	69
েই	68
▁সম্পৰ্কে	68
L	68
▁অন্য	68
ed	67
▁এইটো	67
প্ৰযুক্তি	67
☬✞	67
▁যেনে	67
▁IFFCO	67
তো	66
▁ছ	66
Ð	66
▁দি	65
▁hr	65
â	65
▁ইয়াত	64
▁অন্যান্য	64
▁ধন	64
t	64
▁চমু	64
S	64
▁থাকিব	64
▁লোকচান	64
▁বিশ্ববিদ্যালয়	64
▁নিষ্পেষণ	63
▁ইসুজু	63
▁আদি	63
▁পিছত	63
▁নম্বৰ	63
▁তাক	63
২	63
▁ৰিচাৰ্	63
▁লাগে	62
▁লোৱা	62
লা	62
▁অংশ	61
ing	61
য়	61
unja	61
▁ৰহমান	61
▁প্ৰকাশ	61
▁নিম্ন	61
▁বেছি	61
▁মৌলিক	61
তকৈ	60
▁ছবি	60
▁ব্যয়	60
▁কোৰআন	60
জ	60
▁মোৰ	60
▁য	60
▁দিয়ে	60
ř	60
▁যোৱা	60
াই	59
▁কেন্দ্ৰ	59
URA	59
▁পলিচীৰ	59
▁ধৰি	59
▁লেখক	59
▁আছিল	59
ari	59
▁আৰম্ভ	59
▁ইমেইল	59
এ	59
▁তালিকা	59
▁কিছুমান	59
▁+	59
W	59
آ	59
▁থাকে	59
▁চৰকাৰ	58
সুৰক্ষিত	58
▁আমাক	58
▁ইছলামী	58
▁কিন্তু	58
▁ৰামানুজন	58
▁পূৰ্বৱৰ্তী	58
▁আজি	58
H	58
▁ভাৰতত	57
৷	57
▁গ্ৰহণ	57
▁কাৰণ	57
▁মেটাৰ্চ	57
▁The	57
n	56
▁কৰিলে	56
▁ৰোগ	56
▁দ	56
▁সমাধান	56
▁নে	56
ta	56
ҟ	56
ê	56
▁উ	56
▁প্ৰয়োজন	56
▁মাহ	55
▁ইংৰাজী	55
▁D	55
▁#	55
▁বিশ্ব	55
▁প্ৰথম	55
▁প্ৰকাৰ	55
▁বিকাশ	55
▁মন	54
▁যদিহে	54
▁কোম্পানীৰ	54
▁লোক	54
▁ব্যুৰ	54
▁দৰে	54
▁টি	54
Ŧ	54
▁উচ্চ	54
▁এক্স	54
▁এতিয়া	53
Ke	53
▁খবৰ	53
PL	53
▁চিকিৎসালয়	53
p	53
স	53
▁বাহন	53
▁ৰাষ্ট্ৰীয়	53
▁আৰ	53
e	53
▁নি	52
▁চা	52
▁XXX	52
V	52
▁©	52
▁মন্তব্য	52
▁গোপনীয়তা	52
▁KPR	52
▁পাছত	51
▁জন	51
▁যাতে	51
▁অনুমতি	51
▁তেতিয়া	51
▁ডি	51
মান	51
▁পৰীক্ষা	51
▁৫	51
অ	51
▁অনলাইন	50
ীয়া	50
▁সীমা	50
▁ধজভংগ	50
:$	50
▁+'	50
▁কে	50
▁ব্যৱস্থা	50
গছনি	50
▁সামৰি	49
▁উদ্দেশ্য	49
▁আলোচনা	49
হে	49
▁পৰিশোধ	49
▁সু	49
▁যুদ্ধ	49
▁খ	49
A	49
▁যোগান	49
▁কৰিছিল	48
মূলক	48
▁যিটো	48
▁বুড়	48
▁খৰচ	48
▁যেতিয়া	48
▁সমস্যা	48
▁H	48
▁সংগ্ৰহ	48
▁এম	48
▁ইত্যাদি	48
▁অনুসৰি	47
old	47
B	47
▁ৰাজ্য	47
▁সাধাৰণ	47
▁জ্যোতি	47
▁M	47
▁Jan	47
▁কোটি	47
▁অন্তৰ্ভুক্ত	47
▁।'	47
▁I	47
১	47
▁যাৰ	47
ট	46
▁ঈক্ষণকামী	46
সমূহৰ	46
text	46
▁সম্পৰ্কীয়	46
▁ৰখা	46
ফিকু	46
বুৰ	46
▁clip	46
লিখিত	46
▁বিজ্ঞানী	46
▁প্ৰিয়	46
▁ভাৰত	46
•	46
Don	46
▁xxx	46
▁উপ	46
▁যিবোৰ	46
▁অতিৰিক্	46
▁কীপ্যাড	46
▁উপলব্ধ	46
▁সদস্য	46
▁ট	45
▁প্র	45
▁হাবি	45
▁জীৱন	45
▁ইতিহাস	45
▁মুখ্য	45
▁নিজৰ	45
▁ভ	45
বলৈ	45
▁One	45
▁পৰি	45
উপাদান	45
বিলাক	45
▁আঘাত	45
am	44
▁পৰিয়াল	44
▁অনুগ্ৰহ	44
▁প্ৰেৰণ	44
▁x	44
▁ব্যৱসায়	44
▁বৰা	44
▁কেনেকৈ	44
▁এইচকিউ	44
▁ইফকো	44
িং	43
▁চনৰ	43
▁ৱেবছাইট	43
▁Comments	43
▁প্ৰিমিয়াম	43
▁ছালাত	43
▁সহজ	43
▁জড়ি	43
▁মূল	43
▁গা	43
টি	43
▁আব্দু	43
▁ফলত	43
▁এগৰাকী	42
▁ঈমান	42
▁দৰঙী	42
আপোনাৰ	42
▁কিচ্কিচ্	42
চ	42
▁জিলা	42
al	42
▁ধৰ্ম	42
▁ভিডিঅ	42
▁সঠিক	42
▁গ্লে	41
▁হব	41
▁কীচেইনে	41
স্বামী	41
▁পালন	41
▁কয়	41
▁সং	41
▁ভুল	41
▁বৰ্তমান	41
ন্ন	41
in	41
▁ক্ষতিৰ	41
▁কেৱল	41
▁অনুৰোধ	41
no	41
▁আবেদন	41
X	41
▁কৰো	41
বি	41
▁Times	41
▁দক্ষতা	41
▁সন্ধান	41
▁নেকি	41
edit	40
▁জৰিয়তে	40
▁মু	40
▁ফজিলত	40
▁গুৰুত্বপূৰ্ণ	40
গত	40
▁the	40
▁ক্ৰীড়া	40
▁R	40
▁প্ৰয়োজনীয়	40
▁অহা	40
▁ক্ষমতা	40
Y	40
▁আমেৰিকা	40
ny	40
▁দিনৰ	40
ল্লাল্লাহ	39
▁আহিছে	39
▁মাজত	39
▁চাকৰি	39
ugu	39
▁আল্লাহ	39
▁{{	39
▁বিৱৰণী	39
জন	39
▁ইউ	39
তি	39
যোগ্য	39
▁এন	39
▁বিধি	39
▁চীন	39
▁আৰবী	39
▁কিয়	39
▁Xxx	39
▁দায়বদ্ধতা	39
▁J	39
▁দুটা	39
▁গোছলখানা	38
▁জীৱনী	38
লৈকে	38
▁Tel	38
▁ধনৰাশি	38
▁প্ৰডাক্ট	38
▁জন্ম	38
▁দাস	38
▁ক্লাব	38
▁সমাজ	38
▁জ	38
পি	38
▁Archive	38
েৰে	38
▁লিমাজীন	38
k	38
▁আগতে	38
▁গৃহ	38
▁মাস	38
P	38
▁গ্ৰন্থ	38
▁ফ	38
h	38
d	38
▁এইচ	38
▁প্ৰৱেশ	38
▁কাৰ্য্য	38
▁বাণিজ্য	38
▁লগে	38
▁কোম্পানী	37
▁দিল্লী	37
▁আলাইহি	37
▁চাৰি	37
▁সৰ্বাধিক	37
টোৱে	37
▁আব্দুল	37
▁ইতিমধ্যে	37
▁অৱ	37
▁যদিও	37
▁পদ্ধতি	37
▁Xiaomi	37
▁হস্পিটেল	37
▁থকাৰ	37
▁বাহিৰে	37
▁ধনৰাশিৰ	37
না	37
প	37
▁ভাৰতৰ	37
ভাৰ	37
tog	37
▁মুঠ	37
▁&	37
▁বাতিল	37
▁দেখা	37
▁প্ৰচাৰ	37
▁প্ৰযোজ্য	37
▁বিক্ৰী	36
▁অছাল্লাম	36
স্বন	36
guy	36
▁যোগেদি	36
▁জি	36
▁মতে	36
▁শেহতীয়া	36
▁কম্পিউটাৰ	36
▁ক্ষতিপূৰণ	36
▁সংযোগ	36
অসমীয়া	36
▁জীবন	36
▁Economic	36
▁ক্লেইম	36
▁বিশ্বাস	36
▁৩	36
▁শ্ৰী	36
▁বাংলা	35
▁বিৱৰণ	35
বাৰ	35
videos	35
▁একে	35
▁কোন	35
▁সংস্কৃতি	35
▁ঘৰ	35
৩	35
▁দ্বিতীয়	35
▁বহু	35
▁জানিব	35
page	35
▁হেঁচকা	35
▁শিশু	35
▁NTM	35
▁বীমাৰ	35
▁স্থানান্তৰ	34
▁ডিচেম্বৰ	34
▁হ্যান্ডব্যাগ	34
▁কিছু	34
▁কল্পনা	34
▁চাওক	34
▁নেটৱৰ্ক	34
▁পাৰিব	34
▁অনু	34
▁যৌন	34
▁চিনেমা	34
▁ঈশান	34
on	34
ফ	34
mm	34
▁ভিত্তি	34
▁বিজ্ঞাপন	34
▁সলনি	34
▁E	34
▁পুনৰ	34
okio	34
▁এল	34
▁ঠিকনা	34
▁সম্পৰ্কিত	33
▁অন্তিম	33
▁চি	33
মগ্ৰ	33
▁পাৰো	33
▁ফাইল	33
▁F	33
▁মুছলিম	33
কেটেগৰী	33
▁কৰিম	33
▁হাঁ	33
জনক	33
g	33
=	33
▁অনুসন্ধান	33
▁পৰিণতি	33
▁বছৰৰ	33
এবং	33
▁বাতৰি	33
▁দিয়ক	33
▁আটাই	33
▁ইয়াক	33
▁পাব	33
▁ক্ৰম	33
eneral	33
▁Insu	33
▁Compa	33
▁গ্ৰাহক	33
▁ধৰণৰ	33
▁লয়	33
▁ঘোষণা	33
▁গৈছে	33
o	33
▁আয়োগ	33
খিনি	33
▁সম	32
▁লোমষ	32
—	32
▁নীড়পাতা	32
ment	32
▁বস্তু	32
তাৰ	32
▁অগ্নিকাণ্ড	32
▁শ্বাইখ	32
▁বিচাৰে	32
▁অনুমোদন	32
▁হজ্জ	32
কৰণ	32
▁নিৰ্মাতা	32
▁ক্লিক	32
▁প্ৰতিষ্ঠান	32
▁অৱশ্যে	32
▁কা	32
ৱে	32
▁মান	32
০০০	32
▁AS	32
▁অভিযোগ	32
▁বিৰুদ্ধে	32
▁আঁচনি	32
ভাবে	32
▁এইচবি	32
u	32
TV	32
rance	32
▁মটৰ	32
েল	32
▁দিশ	32
▁এইখন	32
▁ঠ	32
▁Indian	32
ক্স	32
▁কিট	32
▁K	31
বলগীয়া	31
▁স্থায়ী	31
কাৰী	31
জাতীয়	31
কাকত	31
গ	31
বদ্ধ	31
চি	31
েন	31
▁অৰ্থ	31
▁আপগুলি	31
search	31
য়া	31
ছৰ	31
▁তেল	31
▁W	31
▁অফ	31
▁বৈদ্যুতিক	31
ha	31
▁পানী	31
▁কোম্পানীয়ে	31
▁সক্ষম	31
▁Vi	31
ভ	31
▁উচিত	31
×	31
▁আপডেট	30
▁অকচ	30
▁গণনা	30
হি	30
▁আপুনা	30
▁শ	30
▁অলিম্পিয়াড	30
▁ব্যাখ্যা	30
▁মালিক	30
▁ষ্ট	30
mg	30
▁কুমাৰ	30
ka	30
▁দৈনিক	30
▁বজাৰ	30
▁বাদ	30
খনৰ	30
▁খন	30
▁দিয়াৰ	30
▁স্থান	30
WOOD	30
এচ	30
▁দিন	30
▁বিক্রী	30
ৎ	30
▁মানুহ	30
]]	30
ৰি	30
▁গোট	29
▁কো	29
আপুনি	29
▁কিমান	29
▁বঁটা	29
▁পাৰি	29
▁ডিজাইন	29
▁শব্দ	29
▁বিত্তীয়	29
▁তেনে	29
ান্ত	29
ান	29
▁বৰ	29
অসম	29
▁অক্টোবৰ	29
▁ইণ্ডিয়া	29
@	29
▁ক্ৰয়	29
▁Windows	29
▁পাঠ	29
টোৰ	29
▁প্ৰভাৱ	29
ন়্	29
▁গল্প	29
▁মনত	29
মা	29
▁তেখেত	29
▁চনত	29
OLL	29
▁বাহনখন	29
▁by	29
▁সিদ্ধান্ত	29
উদ্ভট	29
▁তাত	29
▁ব্যক্তিয়ে	29
▁যিয়ে	29
▁পৰৱৰ্তী	28
▁গে	28
▁—	28
om	28
▁গৱেষণা	28
▁আক্ৰান্ত	28
▁প্ৰায়	28
▁অর্ডাৰ	28
▁ধৰা	28
াম	28
cy	28
▁আদায়	28
▁নিৰ্মাণ	28
▁স্পষ্ট	28
▁মানি	28
▁নাগৰিক	28
▁পুষ্পহীনতা	28
▁অৰ্থাৎ	28
▁কৰাত	28
বিধান	28
▁অনুষ্ঠিত	28
▁...	28
▁দৈ	28
▁প্ৰকাশিত	28
▁পৃষ্ঠাটো	28
▁তাৰিখ	28
▁শিল্প	28
▁$$	28
▁অনুষ্ঠান	28
▁জীৱনৰ	28
▁উপায়	28
"$	28
▁আধাৰ	28
▁প্ৰধানমন্ত্ৰী	28
র্ডেনীয়ার্চ	28
▁June	28
INR	28
▁'$	28
tooltip	27
▁উদাহৰণ	27
▁উদ্যোগ	27
▁শেষ	27
নে	27
▁সার্চ	27
▁অনা	27
▁জনপ্ৰিয়	27
▁৮	27
▁কাল	27
▁যোগ	27
▁প্ৰক্ৰিয়া	27
▁ভিত্তিত	27
▁আদব	27
▁জাননী	27
▁বিকল্প	27
▁প্ৰযুক্তি	27
▁নহ	27
▁প্ৰাপ্ত	27
▁দ্রঢ়িমা	27
▁মাহৰ	27
▁খাদ্য	27
িন	27
ৰী	27
▁লে	27
j	27
▁পৰিকল্পনা	27
▁এয়া	27
▁অভিযান	27
▁ভ্ৰমণ	27
M	27
▁গতিকে	27
▁সংস্কৰণ	27
▁ফিকহ	27
সমুহ	27
▁ছাত্ৰ	27
IT	27
লৱে	27
▁অভিজ্ঞতা	27
▁~	27
▁নিৰ্দিষ্ট	27
title	27
ৱ	27
▁কাগজ	27
▁*	27
ময়	27
▁হাদীছ	27
▁পৰামৰ্শ	27
ন্ত	26
▁সুৰক্ষাৰ	26
▁সময়ৰ	26
▁বৰকটকী	26
op	26
up	26
গণিত	26
Privacy	26
▁ৰে	26
▁জমা	26
▁গণিতজ্ঞ	26
লি	26
▁মডেল	26
ভৰ্ত্তি	26
কৃত	26
Q	26
▁অন	26
func	26
▁ঘটনা	26
▁ইনফ	26
▁পৰাই	26
delete	26
K	26
▁চুৰি	26
▁বিপদাশংকা	26
▁পৃষ্ঠাসমূহ	26
rev	26
▁ক্লিপ	26
পত্ৰ	26
▁to	26
ನ	26
▁দে	26
ভিত্তিক	26
হীন	26
ান্ডা	26
▁ভাবে	26
▁অৱস্থান	26
▁সী	26
▁নিবন্ধ	26
_$	26
▁Ni	25
▁নবী	25
▁নিজ	25
▁একাউন্ট	25
▁যাব	25
▁নিৰ্বাচিত	25
▁গাড়ী	25
▁নং	25
▁বিধান	25
▁অৱস্থা	25
▁প্ৰয়োগ	25
▁আছ	25
SP	25
▁লিখা	25
▁এজেন্ট	25
▁ৰাজহুৱা	25
ত্ব	25
▁কৰাটো	25
l	25
ীন	25
▁V	25
▁ক্ষেত্ৰ	25
▁লিখিত	25
▁ফিল্ম	25
▁নৱীকৰণ	25
▁ছলে	25
▁অৱস্থাত	25
র্মে	25
▁গাইড	25
ফাইল	25
m	25
▁জানক	25
▁নফ	25
AS	25
▁District	25
▁হাৰ	25
▁মুকলি	25
▁সে	25
▁সামাজিক	25
▁'{{	25
▁তৈয়াৰ	25
꙰	25
ভাৰত	25
▁পাওঁ	25
▁মানৱ	25
▁Delhi	25
জনিত	25
dhi	24
▁Kati	24
yar	24
r	24
Z	24
▁মেটাল	24
▁কলসীয়	24
▁সৰ্ব	24
▁সম্পৰ্ক	24
▁উদ্ভিদ	24
▁শাস্তি	24
file	24
▁বিচৰা	24
▁ব্যৱসায়িক	24
▁বিশেষজ্ঞ	24
নন্দ	24
th	24
৮	24
▁নিশ্চিত	24
মোৰ	24
va	24
▁N	24
an	24
নি	24
সকল	24
▁তে	24
।”	24
র্ণ	24
▁ডাঙৰ	24
▁সাহায্য	24
ল্লাহ	24
▁ভাষাৰ	24
ধাৰা	24
T	24
▁গুণ	24
▁বয়স	24
▁চাপ	24
▁সংৰক্ষিত	24
▁৬	24
▁ভাইৰাছ	24
▁দিবলৈ	24
▁ফটো	24
▁লগ	24
ur	24
▁আৰব	24
▁সমৰ্থন	24
▁at	24
▁লভ্য	24
▁৪	24
c	24
atch	24
▁জল	24
▁Bu	24
▁শিক্ষক	24
▁দল	24
▁নাথ	24
▁প্ৰমাণ	24
▁ইঞ্চুৰেঞ্চ	23
ia	23
▁চেষ্টা	23
▁প্ৰস্তুত	23
▁ব্যৱস্থাপনা	23
নীন	23
▁বিদেশ	23
কৰ	23
▁তা	23
দি	23
▁বৈধ	23
▁একাউণ্ট	23
▁সাংসদ	23
যুক্ত	23
ুতীয়া	23
▁লাখ	23
▁সম্প	23
▁পা	23
▁and	23
▁প্ৰয়োজনীয়তা	23
▁সঞ্চালক	23
▁দায়িত্বৰ	23
তম	23
▁নকৰে	23
link	23
সকলে	23
v	23
▁বিষয়টো	23
▁ভট্ভটি	23
▁বাৰ্তা	23
▁আমা	23
▁ধ	23
▁ইবন	23
শান	23
▁পদ	23
▁তৰবিয়ত	23
▁কাৰ্য	23
▁স্কুল	23
▁অধ্যয়ন	23
▁মুক্ত	23
▁যাত্ৰা	23
▁নিজে	23
ষ্ট	23
▁প্ৰিমিয়ামৰ	23
▁সংকলন	23
▁টকাৰ	23
▁কৰোৱা	23
▁মে	23
▁বেলেগ	23
°	23
▁আদেশ	23
▁২০১৪	23
+	23
▁দুৰ্ঘটনাৰ	23
▁জুলাই	23
▁সন্দৰ্ভত	23
▁জুন	23
▁এইচসি	23
▁Tech	23
▁সময়ে	23
▁শিক্ষাৰ	23
▁মানে	22
▁নেতৃত্ব	22
জৰ	22
▁জনা	22
er	22
▁লিখক	22
▁Enter	22
▁স্থানীয়	22
▁Live	22
D	22
erm	22
ervice	22
▁Poli	22
▁বেংক	22
▁মন্ত্ৰী	22
'''	22
▁মনো	22
হিক	22
কিং	22
▁পুথি	22
▁প্ৰশিক্ষণ	22
ন্	22
▁জাৰি	22
▁ডিভাইচ	22
▁৫০	22
▁নিয়ম	22
▁কেডব্লু	22
▁মূল্যৰ	22
▁লিমিটেড	22
▁ইয়া	22
▁বে	22
▁আহি	22
▁গুৱাহাটীত	22
▁ছায়াছবি	22
▁Assam	22
ter	22
লগ	22
▁"'''	22
▁১৪	22
$$	22
▁কাৰ্য্যালয়	22
▁পৰিচালনা	22
▁উপস্থিত	22
ENAME	22
▁ইন	22
▁ছু	22
F	22
▁নকৰা	22
▁কল	22
▁উন্নত	22
▁অনলাইনত	22
নতুন	22
▁গঠন	22
▁কুকি	22
াহ	22
▁মেডিকেল	22
▁গো	22
▁ওপৰ	22
দু	22
▁Rach	22
alla	22
▁উপৰিও	22
▁লগা	21
▁বালিকা	21
right	21
▁চৰিয়ত	21
▁দৃষ্টি	21
f	21
▁পৰিমাণ	21
ীক	21
▁পিতৃ	21
ুল	21
াঙি	21
‘	21
▁আকার	21
▁ঔষধ	21
▁a	21
cm	21
াথম	21
▁কলেজ	21
▁৭	21
▁মহা	21
পূ	21
িকা	21
১৯	21
▁দৰমহা	21
▁অৰ্জন	21
▁প্ৰধান	21
Assamese	21
তী	21
▁੔	21
দৰে	21
এচএ	21
ইউনাইটেড	21
▁ষ্টেচ	21
▁PC	21
▁গেলৱে	21
E	21
িল	21
▁লোকে	21
▁ফেব্ৰুৱাৰী	21
েও	21
▁জাল	21
েৰেল	21
▁পথ	21
▁দ্বীন	21
▁বতৰ	21
ৃত	21
▁কলা	21
&	21
▁সৰু	21
▁পঞ্জীয়ন	21
▁আলী	21
▁ka	21
by	21
▁আদিৰ	21
▁মেথ	21
াল	21
bble	21
os	21
▁সুন্দৰ	21
জি	21
▁স্বভাৱ	21
▁অনুভৱ	21
▁এছ	20
prefs	20
▁প্ৰস্তাৱ	20
দৰ্শনকাৰী	20
পৰা	20
▁সাহিত্য	20
▁অডিঅ	20
co	20
কা	20
action	20
▁মুদ্ৰা	20
▁চিহ্ন	20
▁কৃষি	20
ock	20
▁সহ	20
▁বিস্ফোৰণ	20
▁এচ	20
▁Abhi	20
jan	20
▁কালদৈৰ্ঘ্য	20
is	20
▁মহাবিদ্যালয়	20
▁বিষয়া	20
▁হে	20
বিহীন	20
▁খণ্ড	20
expr	20
▁২০	20
▁শান্তি	20
▁ৱেবচাইট	20
▁অনুসাৰে	20
▁ৰাখিব	20
▁খেল	20
▁চাওঁক	20
▁স্ব	20
▁www	20
িষ্ট	20
▁দাখিল	20
▁Re	20
▁ডাটা	20
▁ৰেচম	20
▁তিনি	20
▁প্ৰতিটো	20
টিন	20
জীজ	20
সি	20
▁কাৰ	20
▁বো	20
▁ME	20
ৱা	20
▁সো	20
▁সম্বন্ধ	20
দে	20
ায়	20
▁আগষ্ট	20
▁লোকৰ	20
▁তল	20
es	20
▁ৱিকি	20
▁প্ৰকল্প	20
O	20
▁c	20
য়েই	20
▁নিৰ্দেশনা	20
ছে	20
▁মীমাংস	20
▁NT	20
▁১৮	20
▁Bha	20
৪	20
▁উত্পাদক	20
▁সদস্যৰ	20
▁সংঘৰ্ষ	20
▁কৰ্ম	20
▁tub	20
▁ৰেহাই	20
ভি	20
▁বৃদ্ধ	20
▁হোটেল	20
▁Nation	19
▁সৌন্দৰ্য	19
াইজ	19
▁বিজ	19
▁Spy	19
▁একক	19
tain	19
▁প্ৰশাসন	19
▁নিয়ন্ত্ৰণ	19
▁১৩	19
মি	19
▁সপ্তাহ	19
▁বৰ্ণনা	19
▁সুযোগ	19
▁গোটেই	19
▁শতাংশ	19
▁ফলাফল	19
▁পৰিচয়	19
▁ভাগ	19
▁আত্ম	19
▁পত্ৰ	19
my	19
▁বিপদ	19
▁পোস্ট	19
://	19
▁সংশোধনী	19
▁সমকাম	19
▁অধ্যাপক	19
▁২৪	19
▁পৃষ্ঠাৰ	19
কিবা	19
ছিল	19
▁বিশাল	19
Xxx	19
▁য়	19
▁বিনষ্ট	19
বোৰৰ	19
▁মড	19
▁কিতাপ	19
▁নিউক্ল	19
▁সংস্থা	19
▁গঢ়	19
▁বাজ	19
▁বিলাক	19
▁ডাউনলোড	19
৫	19
▁f	19
▁গৰাকী	19
য়ো	19
error	19
▁মেৰামতি	19
▁বিগত	19
▁আইনী	19
▁জেন	19
▁অসুস্থতা	19
▁জৰি	19
কিঅ	19
▁এণ্ড	19
▁প্রতি	19
▁উপযুক্ত	19
▁তেজ	19
▁শস্য	19
PC	19
imited	19
লেটি	19
▁দূৰ	19
▁অটোক্যাড	19
▁জানুৱাৰী	19
Super	19
াদ	19
▁যা	19
▁Dynam	19
FC	19
▁সংশোধন	19
▁নিয়োগ	19
Tut	19
▁সংঘট	19
▁চিকিৎসক	19
▁গৈ	18
থ	18
watchlist	18
▁সাল	18
▁হিতাধিকাৰ	18
ch	18
▁সন্মান	18
▁শ্বিৰ্ক	18
▁পাৰ্থক্য	18
বাৰ্ষিক	18
▁No	18
▁স্থাপন	18
▁দিওঁ	18
িফেন	18
▁চুক্তি	18
▁অনুযায়ী	18
▁বিবাহ	18
্লাচ	18
ex	18
ডে	18
I	18
▁এইবোৰ	18
▁মীমাংসা	18
▁পায়	18
▁যন্ত্ৰ	18
বাহন	18
ID	18
▁খেলনা	18
▁ডাউনল	18
▁২০১৯	18
▁নিৰ্ভৰ	18
▁তথ্যসমূহ	18
▁পর্যালোচনা	18
▁বিচাৰি	18
▁পাৰ	18
▁মহিলাৰ	18
▁আগৰ	18
▁ভাৱে	18
▁থোৱা	18
▁টে	18
সলনি	18
▁প্ৰফেছৰ	18
▁সমান	18
tails	18
▁যোগদান	18
▁বিপ্লৱ	18
log	18
▁পিচি	18
▁শাখা	18
▁পাম	18
▁সমুহ	18
ulb	18
▁Na	18
বেশি	18
চদাচদি	18
▁মুখ্যমন্ত্ৰী	18
্তন	18
▁পূৰণ	18
▁নিজা	18
▁পণ্য	18
▁Post	18
পাতি	18
▁আগবঢ়োৱা	18
▁≤	18
ন্দ	18
▁তোলা	18
▁প্ৰৱন্ধ	18
আৰ	18
▁কৈ	18
িয়া	18
▁মাতৃ	18
▁নিউ	18
__	18
▁বিষয়সমূহ	18
▁১৯	18
▁বৃহ	18
াত	18
ৰাম	18
▁X	18
াধিক	18
▁মিনি	18
▁এনকিউ	18
▁অনুচ্ছেদ	18
নেল	18
▁ফুট	18
▁ইফক	18
এম	18
▁সোধা	17
▁কেতিয়া	17
ৈ	17
▁ৰূপ	17
রত	17
▁আহৰণ	17
le	17
াংশ	17
▁অন্তৰ	17
▁তৌহীদ	17
▁গুপ্তশব্দ	17
নৰ	17
▁°	17
▁শইকীয়া	17
▁জাপানী	17
▁চলা	17
▁ব্যাপক	17
প্ৰাপ্ত	17
▁চচমকানো	17
▁২০২০	17
▁মাজ	17
▁অধ্যায়	17
▁২৭	17
োট	17
▁সমল	17
৭	17
ছন	17
▁মুখ	17
▁পলিচীখন	17
শিষ্ট	17
▁প্ৰাকৃতিক	17
▁লেখা	17
▁শিঙা	17
▁বয়	17
▁পে	17
▁হিন্দু	17
▁লওক	17
▁শিৰোণামা	17
▁বিলা	17
▁আঘাতৰ	17
▁শৰ্মা	17
▁ব্যৱহাৰৰ	17
▁হল	17
▁নিৰ্বাচন	17
▁দৰ্শন	17
▁:-	17
টন	17
িয়ান	17
▁ঘটনাৰ	17
নৈতিক	17
▁নোৱাৰি	17
▁কেৰিয়াৰ	17
▁১২	17
login	17
▁উদ্ধাৰ	17
▁উৎস	17
▁থ	17
▁প্ৰপত্ৰ	17
য়নে	17
▁উৎপাদন	17
▁ব্যুৰো	17
গছনিৰ	17
▁ইফফচো	17
▁ভা	17
▁পেটেণ্ট	17
▁Z	17
▁উচ্চত	17
name	17
▁ইবাদত	17
▁সাধাৰন	17
at	17
▁ভভারতীয়	17
▁সংগ্রহ	17
▁প্ৰবন্ধ	17
▁বিকল্পসমূহ	17
▁প্যাড	17
▁বহুত	17
▁বৈশিষ্ট্য	17
কো	17
▁কোৱা	17
▁প্ৰদৰ্শন	17
পৰাকৈ	17
▁বৃক্ক	17
▁ৱে	17
পা	17
▁বিমান	17
▁মাহত	17
▁নোহোৱা	17
▁বানপানী	17
Special	17
▁চিন্তা	17
▁কৰোতা	17
▁কৰ	17
▁গতি	17
▁বিষয়ৰ	17
▁প্ৰতিলিপি	17
zie	17
▁FL	17
▁ইচ্ছা	17
▁ছৌদ	17
▁কবৰ	17
▁গুৰুত্ব	17
▁কেয়াৰ	17
um	16
▁বাধা	16
▁চাব	16
▁আটক	16
▁বিদ্ৰোহ	16
▁মিনোল	16
হব	16
▁বিকলাংগতা	16
কাৰ	16
▁বক্স	16
ম্	16
group	16
▁প্রা	16
▁লাইফ	16
▁ওপে	16
য	16
▁ছপ	16
▁শ্ৰমিক	16
▁জো	16
▁ধন্যবাদ	16
▁সহায়ক	16
▁চিক্ৰেট	16
▁উদয়	16
▁for	16
▁ঘণ্টাত	16
▁ব্যাগ	16
▁সহযোগী	16
▁চো	16
▁হা	16
▁ফু	16
▁লোকসকল	16
▁বিপৰীতে	16
▁ধাৰাবাহিক	16
▁অলপ	16
▁ত্ৰুটী	16
▁ঋণ	16
▁কৰ্মচাৰী	16
▁উৎপত্তি	16
▁কাৰণত	16
▁কেইটামান	16
▁চৌহদ	16
Page	16
▁পৰিছে	16
▁বিল	16
▁সেৱাসমূহ	16
▁প্লেট	16
▁সমকামী	16
▁দলৰ	16
▁Tube	16
▁অংক	16
▁আৰক্ষীয়ে	16
▁ৰক্ষা	16
▁দেখুৱাওক	16
▁প্ৰা	16
▁হওক	16
▁অস্বচ্ছতা	16
▁দিলে	16
▁উদ্দেশ্যে	16
▁ঠিক	16
▁বেহা	16
▁অবিহনে	16
▁পঞ্জী	16
কি	16
▁তেখেতে	16
▁উঠা	16
▁প্ৰাক	16
▁চৰকাৰে	16
▁মাল	16
২৬	16
বাইট	16
user	16
▁@	16
arga	16
▁ৰচনা	16
▁বাইবেল	16
▁ব্যতিক্ৰম	16
▁ভগ	16
▁বায়ু	16
▁প্ৰতিনিধিত্ব	16
▁TX	16
▁টয়লেট	16
▁প্ৰাৰ্থী	16
▁সম্পদ	16
বাচি	16
▁জন্য	16
আই	16
G	16
▁ঔ	16
▁ৱ	16
নাহ	16
not	16
▁যান	16
▁না	16
মই	16
ূ	16
স্	16
▁U	16
▁শ্ৰেষ্ঠ	16
▁ঠাইৰ	16
▁নার	16
ীমা	16
▁॥	16
▁(₹)	16
±	16
▁৩০	16
▁আনহাতে	16
ر	16
▁তিনিটা	16
▁বক্ল	16
▁ধৰ্মঘট	16
▁হাস্পতাল	16
}	16
৅	16
▁{	16
▁শাৰীৰিক	15
▁নীতিমালা	15
▁পৰিবহন	15
▁যোজনা	15
এটা	15
▁স্থিৰ	15
▁Roll	15
▁শিক্ষণ	15
▁বিবেচনা	15
▁থাকিলে	15
▁উক্ত	15
▁যতন	15
▁দু	15
▁DB	15
▁মাটি	15
▁সাত	15
▁আৰক্ষী	15
▁ডিব্ৰুগড়	15
▁পৰে	15
move	15
▁ভভিজা	15
un	15
▁বাকী	15
▁নিক	15
▁টেছলা	15
▁দুআ	15
▁Maha	15
▁জে	15
▁সংগঠন	15
J	15
▁সংগীত	15
▁বিদ্যালয়	15
▁পাঁচ	15
গৰাকী	15
▁দেশত	15
▁পৰ্যন্ত	15
▁নিশ্চয়তা	15
▁নথকা	15
▁English	15
▁পুঁজি	15
ংগ	15
▁মেশিন	15
▁বাহিৰেও	15
te	15
▁কাৰ্টুন	15
ad	15
▁পো	15
▁সভাপতি	15
▁পুৰণি	15
▁চিকিত্সা	15
▁কেইবা	15
▁বিষয়বস্তু	15
▁সূচী	15
▁কৰোঁ	15
▁বয়সৰ	15
▁অনুমোদ	15
▁উপদেশ	15
▁আদালত	15
ৰঞ্জন	15
protect	15
▁বীণাবিশেষ	15
▁চলি	15
▁প্রো	15
দা	15
MY	15
DY	15
el	15
▁IP	15
▁স্প	15
▁-'	15
▁নিউজ	15
▁কপি	15
▁ৰাইট	15
್	15
▁উন্নয়ন	15
র়	15
▁ৰক্ষাকৰ্ত্তা	15
▁অটো	15
▁হট	15
▁ভৰ্তি	15
▁চিকিৎসাৰ	15
▁O	15
▁মোক	15
ue	15
▁ইমান	15
▁ফোন	15
▁দুই	15
▁যথ	15
ive	15
▁এফ	15
▁কন্ট	15
েন্টৰ	15
pages	15
▁জনাব	15
▁সম্ভাৱনা	15
–	15
ল্	15
€	15
▁AN	15
▁ওচৰত	15
▁অনন্য	15
▁ধাৰণা	15
▁বিজেপিৰ	15
▁জয়	15
▁প্ৰতিবেদন	15
▁অন্যতম	15
▁জনোৱা	15
▁শিক্ষনবীশ	15
▁অনুবাদক	15
▁ৰিস্ক	15
▁গণ	15
▁Cra	15
▁বঙালী	15
ংকা	15
▁লিখিব	15
▁ফ্ল	15
▁গ্রহণ	15
▁মৃত	15
▁আব	15
▁ৰঞ্জি	15
ৰিক	15
▁Ch	14
▁নামেৰে	14
▁আশা	14
াইল	14
▁বৈশিষ্ট	14
▁Frame	14
contributions	14
▁জনলৈ	14
▁অত্য	14
মু	14
▁সকলে	14
ীৰ	14
দী	14
▁সৰল	14
▁July	14
াধীন	14
▁শিকক	14
▁কোঁ	14
▁২৫	14
ago	14
nad	14
াত্মক	14
স্থান	14
▁Da	14
▁নোৱাৰিব	14
টোত	14
▁আনুষ্ঠানিক	14
▁ইফালে	14
এক্সপ্ৰেছ	14
ুলি	14
▁All	14
▁সক্ৰিয়	14
▁৯	14
▁মেন	14
৪৯	14
NCB	14
▁নিৰাপত্তা	14
ফাওজান	14
▁কৰোতে	14
▁গাণিতিক	14
▁ঘৰত	14
বান	14
▁সফল	14
মাহা	14
▁যুৱক	14
▁বিষয়ত	14
লণ্ড	14
▁Nav	14
▁Science	14
other	14
▁'''	14
hide	14
rc	14
▁মেম	14
▁দুৰ্ঘটনামূলক	14
org	14
▁চোৱা	14
▁তেজপুৰ	14
▁শিশুসকল	14
▁বাৰণ	14
▁চেক	14
হেতু	14
▁একো	14
▁হ্ৰাস	14
ফালে	14
▁সহায়ত	14
▁ভগিনীসংঘ	14
যুক্তি	14
▁≥	14
▁Bo	14
▁ইণ্টাৰনেট	14
history	14
kg	14
N	14
▁গুৰুতৰ	14
▁হলে	14
▁উপভোক্তা	14
▁সকলক	14
▁নথি	14
▁ৰোধ	14
▁পূৰ্বে	14
▁বাহিৰ	14
▁সভা	14
▁ঠাইত	14
▁আৰোপ	14
िन	14
ी	14
যান্ত্ৰিক	14
দান	14
▁সঁজুলি	14
▁সবের্াচ্চ	14
▁গড়	14
ন্চিঅ	14
▁ৰোগী	14
উ	14
▁পুস্তিকা	14
রেল	14
image	14
▁দিনত	14
▁உ	14
▁ৰেঞ্জ	14
জিস	14
Videos	14
বাইল	14
▁হয়তো	14
▁যেন	14
▁ইউৰোপ	14
▁Microsoft	14
▁টো	14
▁ফা	14
▁পৰিষদ	14
▁ত্ৰুটি	14
স্ত	14
টকিয়	14
▁মাত্ৰা	14
▁চিনাক্ত	14
▁খৰছ	14
▁পুলিচ	14
▁সংকট	14
☠︎	14
▁INDIA	14
▁বৰঙণি	14
পূৰ্ণ	14
ৱান	14
াইট	14
▁ক্ষয়	14
▁মেপ	14
▁ৰু	14
▁হোম	14
▁ৰাখি	14
▁ৰাজনীতি	14
help	14
▁বিচাৰ	14
মতে	14
পথ	14
▁মেল	14
▁ৱেব	14
▁পৰিসংখ্যা	14
+)	14
শ	14
▁অনেক	14
▁Mi	14
০	14
▁শ্ৰেণী	14
▁নিৰ্দেশ	14
▁সংক্ষিপ্ত	14
▁কৰিবলগীয়া	14
▁মেয়ে	14
▁windows	14
▁চিৰিয়াখানা	14
ঙগ	13
▁কেডব্লিউ	13
▁প্ৰতিবাদ	13
▁সঘন	13
▁ক্ষেত্ৰসমূহ	13
▁মিডিয়া	13
▁কৃপ	13
▁GA	13
ONE	13
▁পাছ	13
▁প্ৰশ্নৰ	13
▁বাহ্যিক	13
iks	13
▁ক্ষেত্	13
▁pronunciation	13
▁And	13
ashion	13
iaries	13
▁উৎসৱ	13
বিশ্বাস	13
▁ওজন	13
IV	13
ডি	13
show	13
▁অক্	13
▁Mo	13
▁Kan	13
জুৰি	13
▁অসুবিধা	13
▁প্ৰদানকাৰী	13
▁ইলেকট্ৰনিক	13
▁উদ্ভূত	13
*	13
▁যোগ্যতা	13
নো	13
▁পৰামৰ্শসমূহ	13
▁নাছিল	13
▁উত্থাপন	13
ord	13
▁ধনৰ	13
▁কঠিন	13
▁পাঠ্য	13
int	13
▁কাৰীম	13
▁সম্	13
▁জৈৱ	13
▁প্ৰদূষণ	13
▁নগদ	13
▁উত্তম	13
▁Channel	13
▁পাইছে	13
▁পূৰ্বাঞ্চল	13
বিজ্ঞান	13
▁More	13
obs	13
▁ৰূপত	13
▁হাতত	13
বাহী	13
▁দেহ	13
▁অধিন	13
▁সংখ্য	13
▁যাওক	13
with	13
সদস্য	13
wiki	13
বছৰ	13
▁দান	13
▁সমস্যাৰ	13
▁নহওক	13
ভুক্ত	13
▁আইডি	13
▁ছেটিংছ	13
▁বিলোপ	13
▁সুখ	13
▁ৰাম	13
▁পৰিৱেশ	13
ium	13
▁২১	13
▁BO	13
▁উৎপাদ	13
▁কেজি	13
▁উপসমষ্টি	13
SE	13
▁আশ্ব	13
য়ী	13
▁পুনঃ	13
▁লিঙ্ক	13
▁ঘোষ	13
▁Free	13
talk	13
ies	13
▁ঘ	13
▁জাকাত	13
ह	13
्	13
द	13
ಕ	13
ಡ	13
সকলো	13
▁গরম	13
▁ফাউণ্ডেশ্যন	13
▁সীমান্ত	13
▁দুখন	13
ন্দী	13
▁তাপ	13
▁আহিলা	13
ভগ	13
▁সুজু	13
▁নাচ	13
▁১৫	13
ame	13
▁আহিব	13
▁বাতিলকৰণ	13
ণ্ড্রু	13
▁সবিশেষ	13
▁Sco	13
অঙ্গুলিসঁচালন	13
▁পালে	13
▁বিতৰণ	13
ধিক	13
নিশ্চিত	13
▁সাংখ্যিক	13
▁পদক্ষেপ	13
েণ্ট	13
▁পু	13
লাৰ	13
▁লোকচানৰ	13
▁Al	13
▁অংশীদাৰ	13
▁১১	13
ম্প্ৰদায়	13
▁২০১৮	13
▁বহি	13
▁প্ৰজাতি	13
ইন	13
▁পাবলৈ	13
able	13
▁শীৰ্ষ	13
▁আলোক	13
▁b	13
▁ডেটাবেছ	13
▁বিপৰ্য্যয়সমূহ	13
▁Bhar	13
হৰ	13
▁কৰ্মশালা	13
▁ইন্টাৰনেট	13
recentchanges	13
▁g	13
▁ঘূৰ	13
▁আহ্বান	13
▁সন্দেহ	13
▁মহানগৰী	13
▁শুল্ক	13
▁ডাই	13
▁sex	13
and	13
▁কাষত	13
▁সালসলনি	13
▁অসাম	13
কেইটা	12
োন	12
▁পূৰ্ব	12
▁New	12
▁চকু	12
▁নিৰ্ভৰশীল	12
▁সন্তান	12
▁পেকেজ	12
▁মোৰে	12
en	12
▁পৃথিৱী	12
▁পোষ্ট	12
▁কাৰ্ড	12
সকলক	12
য়ঃ	12
▁বজা	12
▁পাঁচমিশাল	12
▁Make	12
োৱাৰ	12
ab	12
▁ব্যক্তিত্ব	12
▁লি	12
▁Fun	12
password	12
▁সংস্থাৰ	12
▁বিমানবন্দৰ	12
▁বিৰল	12
arp	12
▁Bur	12
hain	12
▁অৱলোকন	12
জ্যোতি	12
▁ব্যৱহাৰকাৰী	12
▁স্থানত	12
▁নোৱাৰে	12
▁খোলা	12
বতৰা	12
▁ডিস্ক	12
nav	12
ca	12
▁বছৰত	12
▁কালি	12
▁হিমন্ত	12
▁প্ৰত্যেক	12
ঞ্চ	12
▁শাস্ত্ৰ	12
▁আধুনিক	12
▁সদস্যপদ	12
▁Rec	12
▁বাট	12
▁পাঠ্যক্ৰম	12
▁কৰিছো	12
▁আপ	12
▁অব্যাহত	12
▁মাৰ্চ	12
▁চাই	12
▁<	12
▁ম্যাদ	12
▁সংজ্ঞা	12
গৃহীত	12
▁একমাত্	12
▁চাইট	12
▁বহিষ্কৰণ	12
▁মানুহে	12
▁প্রয়োজন	12
▁জ্যামিতি	12
▁সম্ভৱ	12
▁আগবঢ়াব	12
মেয়ে	12
চাঁচা	12
%)	12
▁লিখনী	12
▁ভৰি	12
▁গ্ৰেপ্তাৰ	12
▁অঁ্যা	12
▁বহন	12
▁Coun	12
try	12
▁ডাইৰেক্ট	12
ঞ্চলি	12
▁অব	12
এইচ	12
প্তাহ	12
url	12
▁ৰাখে	12
▁ধনাদায়	12
▁HD	12
bies	12
▁নানা	12
▁স্তৰ	12
▁Ubuntu	12
▁স্বৰূপে	12
▁নৱ	12
▁কৰোনা	12
▁EUR	12
▁হাই	12
ৰ্ট	12
▁স্বাধীনতা	12
▁দিৱস	12
ীয়াই	12
▁থিয়েটাৰ	12
কেই	12
▁দূৰ্ঘটনা	12
new	12
▁কুশল	12
▁কোঁৱৰ	12
▁লিখি	12
▁অগ্নি	12
▁নামস্থান	12
▁ফতোৱা	12
▁you	12
▁সমস্যাটো	12
▁সাফল্য	12
নী	12
▁অধ্যক্ষ	12
\"	12
▁আন্তৰ্	12
সম্প	12
time	12
য্	12
▁চহৰ	12
পক্ষ	12
▁প্ৰতিষ্ঠানৰ	12
▁ইংলেণ্ড	12
▁খুলি	12
▁Zhong	12
৬	12
েষ্ট	12
▁চৰ্ত	12
ুম্	12
▁শক্ত	12
ফু	12
▁যত্ন	12
āra	12
আতৰ	12
▁চালক	12
▁ফুল	12
▁নোহোৱাকৈ	12
▁কলিতা	12
▁পঞ্চম	12
▁ৰুকন	12
সম্পাদনা	12
খ্যাত	12
▁REC	12
▁প্ৰতিযোগিতা	12
▁চৰিত্ৰ	12
▁প্ৰডাক্টসমূহ	12
▁মংগল	12
বাচক	12
ুৱা	12
▁ব্লগ	12
net	12
কেডব্লিউ	12
▁কাৰখানা	12
▁ক্ৰিকেট	12
info	12
নীয়	12
▁আইআৰডিএ	12
▁কু	12
এল	12
▁পৰিস্থিতি	12
▁সঁচায়ক	12
▁বিশদ	12
▁গঠিত	12
▁দম্পতি	12
▁চুক্তিৰ	12
▁ধান	12
▁অসমত	12
▁বাধ্যতামূলক	12
createacc	12
▁অবৈধ	12
▁তিলাৱাত	12
▁ঘূৰ্ণীবতাহ	12
▁ৰাব	12
ব্ল	12
▁আগবাঢ়ি	12
▁পদবী	12
э	12
▁চেল	12
▁ID	12
▁দয়া	12
Assam	11
বাদী	11
▁দিছিল	11
গ্ৰহণ	11
▁ওমৰা	11
▁স্বাগতম	11
ক্	11
ধান্য	11
deleted	11
he	11
▁আখিৰাত	11
▁মাথোন	11
▁এজ	11
িব	11
▁বাগিচা	11
▁ভিন্ন	11
ion	11
ড্ৰ	11
▁পূৰ্বৰ	11
short	11
▁অৱদান	11
কালত	11
▁দেখুওৱা	11
▁ইচ্ছাকৃত	11
▁বৃত্তিধাৰী	11
jt	11
ৰিয়াম	11
ecent	11
▁পেশী	11
▁পূৰ্ণ	11
▁বিচাৰক	11
▁হেল	11
▁ধাতু	11
▁ষ	11
privacy	11
▁অস্থায়ী	11
▁অনুপাত	11
জনে	11
▁বৈজ্ঞানিক	11
▁পঢ়ি	11
ৰোনা	11
ঁ	11
পাত	11
▁স্থিতি	11
▁MIUI	11
চিয়ান	11
ishvas	11
▁পৰিৱৰ্তন	11
েলিং	11
ঁক	11
html	11
form	11
ভিড	11
▁উল	11
▁ডেটা	11
II	11
▁লোগো	11
▁বৰুৱা	11
reason	11
সমূহক	11
▁জাপান	11
▁পৰিমাণৰ	11
▁প্ৰতিষ্ঠাপক	11
▁m	11
▁যুক্ত	11
েনা	11
▁বিনামূলীয়া	11
▁পায়ু	11
্স	11
▁সতে	11
▁১০০	11
▁ডেকা	11
▁সদস্যভুক্তি	11
▁আচ	11
▁ডে	11
▁কামৰূপ	11
▁অপৰাধ	11
▁অঞ্চল	11
▁অনুসৰণ	11
▁Ka	11
▁সম্প্ৰসাৰণ	11
:[	11
view	11
▁আন্তঃৰাষ্ট্	11
▁খোজে	11
▁চলিব	11
▁সত্য	11
▁জগত	11
▁ফেষ্টিভেল	11
▁বিশ্লেষণ	11
▁Hard	11
ness	11
এইটো	11
▁বন্ধু	11
▁মানক	11
জয়	11
াৱী	11
ওৱা	11
চূড়	11
▁সেয়া	11
▁আহ	11
▁জামা	11
▁জাহাজ	11
স্থ	11
▁সেইবোৰ	11
▁অৱগ	11
ly	11
দ্বাৰা	11
জাতিক	11
▁সংশয়	11
▁বিচাৰিছে	11
▁কীলক	11
?]	11
ণ্ড	11
▁পৰীক্ষাৰ	11
▁পৰিকল্পনাকাৰী	11
▁বিহু	11
▁পৱিত্ৰ	11
Class	11
▁স্বীকাৰ	11
▁নৱেম্বৰ	11
েশ্বৰ	11
▁Films	11
▁২২	11
▁শিৰোনাম	11
▁বুদ্ধি	11
▁ৰাজ	11
▁disk	11
▁বিনামূলীয়াকৈ	11
▁বাহুসন্ধিমূল	11
▁ছুন্না	11
▁ফল	11
▁দিনটোৰ	11
▁স্বাক্ষৰ	11
▁গোচৰ	11
▁বিষ্ণু	11
▁বিষাক্ত	11
▁হু	11
watch	11
▁চেনেল	11
▁মো	11
▁Dev	11
▁শে	11
▁প্ৰতিক্ৰিয়া	11
▁Dec	11
category	11
▁আম	11
▁ব্ৰেণ্ড	11
▁ব্য	11
▁ভাই	11
পাৰ	11
ছবি	11
▁হাজাৰ	11
Islam	11
ation	11
upload	11
▁কৃষ্ণ	11
ত্	11
▁চে	11
▁প্ৰত্যক্ষ	11
▁খচৰা	11
▁নিষিদ্ধ	11
▁গেছ	11
ভূমি	11
▁খাই	11
one	11
▁এনেদৰে	11
িট	11
নাৰ	11
▁মুনাজ্জিদ	11
▁মিডিয়াৱিকি	11
▁জিন	11
চিয়েল	11
yan	11
কী	11
▁কাৰ্য্যক	11
▁দাম	11
▁বল	11
▁নালাগে	11
পৃষ্ঠা	11
▁ৰিয়া	11
▁ফিত	11
▁গ্লেজ	11
▁ট্ৰেডিং	11
▁পৃথিবী	11
▁চৰকাৰৰ	11
ya	11
▁Dhar	11
▁নিষেধ	11
▁ৱেবচাইটত	11
▁ধৰণে	11
▁কৃষক	11
▁কাইলৈ	11
িয়াম	11
▁নাৰ্লিকাৰ	11
▁তালিকাত	11
▁কৰ্মচাৰীৰ	11
▁ভূঁইকপ	11
▁অৰ্থনীতি	11
▁কাৰ্য্যকলাপ	11
ম্প	10
▁চলাই	10
▁চিকিৎসালয়ত	10
oz	10
▁কন্দ	10
▁মাছ	10
চা	10
সূচী	10
▁এবাৰ	10
▁শৈক্ষিক	10
▁পৰিসৰ	10
▁স্বাৰ্থ	10
▁দৃঢ়	10
ধিকাৰ	10
▁ব্যৱস্থাপনাঃ	10
▁জীৱিকা	10
sp	10
▁উৎসাহ	10
শীল	10
..	10
▁সেয়ে	10
▁ৰাছুল	10
▁ৰাছুলুল্লা	10
▁হত্যা	10
▁মানসিক	10
▁অস্ত্ৰোপচাৰ	10
▁পৰামৰ্শদাতা	10
ate	10
▁মিৰ্জাখানী	10
▁Posts	10
ir	10
▁Award	10
▁সপোন	10
ুজু	10
list	10
▁মেইল	10
▁দফা	10
▁অংশগ্ৰহণ	10
▁ৰাতি	10
▁অংকটো	10
ৰজি	10
▁ৰি	10
ik	10
ৱাৰ্ড	10
https	10
▁পৌৰ	10
▁নিগম	10
▁সূত্ৰ	10
ওক	10
▁২০১৭	10
ney	10
ঙ্গ	10
▁Corr	10
▁Tuber	10
াক	10
exis	10
▁চাইন	10
▁পৃথক	10
▁Chen	10
▁বৰ্ষৰ	10
▁প্ৰকৃত	10
▁ঈশ্বৰ	10
▁তকৈ	10
▁শুক	10
▁কেব	10
▁গু	10
▁যোগ্য	10
▁সভ্যতা	10
▁নষ্ট	10
▁or	10
▁আলোকচিত্ৰবিদ্যা	10
▁জটিল	10
▁May	10
▁দায়বদ্ধ	10
▁p	10
▁তুলি	10
▁খালী	10
)="	10
▁বাক্য	10
▁বিনিয়োগ	10
▁সেইবোৰৰ	10
▁অবৰোধ	10
▁মন্ত্ৰালয়	10
▁প্ৰতিনিধি	10
ৰ্ড	10
▁শিকাৰু	10
▁নাছিৰ	10
AR	10
্ব	10
▁ব্ৰাউজ	10
▁মিমি	10
▁উলিওৱা	10
জা	10
▁বিন্দু	10
▁ন্যায়	10
▁লা	10
▁আগত	10
▁কী	10
▁লো	10
▁প্ৰেম	10
▁Ma	10
▁সদস্যক	10
▁তাৰপিছত	10
submit	10
▁পুৰস্কাৰ	10
▁খা	10
AP	10
▁দলত	10
▁শেহতীয়াকৈ	10
▁অল	10
▁ইটালিয়ান	10
পৃষ্ঠাৰ	10
এন	10
টাৰ	10
দাৰী	10
▁ভাইৰেল	10
nd	10
▁"$	10
▁পুনঃস্থাপন	10
ph	10
▁নাথাকে	10
▁দৃশ্য	10
▁লুট	10
▁জব্দ	10
▁ML	10
your	10
চিল্কচ	10
ৰেচম	10
▁ঘন্টা	10
sub	10
▁ব্যৱহ	10
সে	10
▁মহান	10
য়াম	10
▁Go	10
কৰন	10
days	10
display	10
চ্	10
▁আক্ৰমণ	10
নাং	10
▁মাদ্ৰাজ	10
▁চন্দ্ৰ	10
▁মেকানিক	10
▁ছা	10
▁ৰেডিঅ	10
র্	10
▁August	10
▁অসমখন	10
▁পৃথিৱীখন	10
়	10
▁থিয়	10
▁গৰ্ভাৱস্থা	10
ালী	10
▁শুনিব	10
▁উন্নীতকৰণ	10
▁সম্ভাৱ	10
কৌশল	10
▁ৰমজান	10
▁ৰোজা	10
▁যন্ত্র	10
▁লিংক	10
▁ৰহস্য	10
▁টক	10
it	10
Social	10
▁নিষ্পত্তি	10
iv	10
▁শংকৰদেৱ	10
▁অৰুণাচল	10
▁পৰ্যালোচনা	10
ns	10
▁চৰকাৰী	10
▁টেন্র্ফ	10
মত	10
▁জুই	10
▁বেঙ্ক	10
▁হিল	10
▁থাকিবলৈ	10
▁উদ্যোগী	10
েনেদৰে	10
▁ৰূপে	10
▁চিত্ৰ	10
▁২০০	10
▁উথ্থাপ	10
▁অনুদ	10
▁সফলতাৰ	10
গা	10
▁দৰ্শনাৰ্থী	10
▁বিবৃতি	10
▁উত্পাটন	10
▁যাত্ৰী	10
▁নিৰ্ধাৰণ	10
▁কালো	10
▁কমিটি	10
▁পৰ	10
▁আধাৰত	10
াইভেট	10
▁নগ	10
▁As	10
External	10
▁হয়৷	10
▁পাৰোঁ	10
▁একেলগ	10
সমূহত	10
▁বেমাৰ	10
▁বিশেষকৈ	10
নেকুৱা	10
▁প্ৰতিষ্ঠানসমূহ	10
▁Mission	10
AB	10
▁mov	10
ie	10
িঅ	10
মাহেকীয়া	10
▁গাড়ীৰ	10
▁নতুনতম	10
arba	10
▁ভূমিকা	10
যোৱা	10
ষ্টৰ	10
▁গ্ৰন্থপঞ্জী	10
▁চিনাক্তকৰণ	10
▁গৱেষক	10
▁ব্যক্তিক	10
যোগে	10
▁সোমবাৰ	10
ীকৰণ	10
েচ	10
▁ঘৰৰ	10
▁Me	10
তু	10
বী	10
▁গভীৰ	10
দেন	10
▁নৰ্থ	10
ইষ্ট	10
ی	10
Man	10
Ø	10
▁উষ্ণতা	10
য়ত	10
▁ছিমছাম	10
▁শত্ৰু	10
ভাৰতীয়	10
▁শিৰোনামা	10
▁মন্দিৰ	10
·	10
▁এলপিভিডি	10
da	9
▁ছাত্ৰী	9
▁দাঁত	9
োচ্চ	9
ার্ড	9
▁অধি	9
▁বাৰেমহীয়া	9
▁উদযাপন	9
সেৱা	9
▁ঘাই	9
bit	9
▁যাকাত	9
▁অগ্রাধিকাৰ	9
▁Khabar	9
▁ন্যাস	9
াঃ	9
ক্ষ	9
মাতৃ	9
▁সদ্	9
ব্যৱহাৰ	9
▁মোবাইল	9
▁নমুনা	9
খনত	9
বাৰী	9
▁চাহ	9
ুদ	9
বিশেষ	9
ফাতহ	9
▁সাক্ষৰতা	9
▁খোৱা	9
▁সেইটো	9
too	9
▁নিৰাপদ	9
▁উপাৰ্জন	9
▁মিনিট	9
'''$	9
▁অপব্যৱহাৰ	9
▁আগুৱাই	9
ুষ্ঠি	9
if	9
▁সকল	9
gar	9
▁প্ৰতিভা	9
▁Savera	9
▁তো	9
www	9
▁সামগ্ৰীসমূহ	9
ফাৰ	9
▁Part	9
▁December	9
▁Puneet	9
http	9
▁এপ	9
▁অবাঞ্চ	9
▁দোকান	9
বিধ	9
default	9
▁পোহৰ	9
▁পঠাব	9
▁চেংদু	9
▁কোং	9
শ্ব	9
▁ধ্বংস	9
▁ধুমুহা	9
▁অসুবিধেও	9
াৎ	9
▁পৰিবহণ	9
▁ভিতৰতে	9
▁অভিজ্ঞতাৰ	9
বিশুদ্ধ	9
▁পৃষ্ঠাখন	9
▁মঞ্চ	9
▁গোপন	9
▁তেনেহল	9
▁বাগান	9
▁এশ	9
▁নাৰী	9
ৰিয়েল	9
ৰেন্স	9
▁টাও	9
ৰু	9
▁তুলিব	9
ortal	9
▁প্ৰফেচ	9
একাকী	9
▁as	9
create	9
চ্চ	9
▁ৱারি	9
header	9
w	9
▁ইমাম	9
তেল	9
▁অকল	9
]]"	9
▁প্রকল্প	9
▁আকৌ	9
▁কেইটা	9
▁ইনফিল	9
▁যিসকল	9
amil	9
▁মূল্যবান	9
েক্স	9
▁ব্যাস	9
ছাত্ৰী	9
▁চাবলৈ	9
from	9
গণ্য	9
▁ব্যবহাৰ	9
▁জাপািন	9
▁নোট	9
িতা	9
▁ৱা	9
উন্নয়ন	9
▁বিভাগত	9
▁সৰ্বাত্মক	9
▁ঠিকনাৰ	9
▁নামত	9
▁সতেজ	9
নৱমুছলিম	9
▁App	9
▁যথাযথ	9
▁সহযোগত	9
▁বজাত	9
▁এইচকি	9
▁স্বামী	9
▁আলফা	9
▁যু	9
▁চনলৈ	9
▁শ্রেণী	9
▁Des	9
▁স্তম্ভ	9
▁টেব	9
ন্তি	9
▁শ্ৰীগুণম	9
▁বিভাগে	9
▁চাঁওক	9
এছ	9
vani	9
▁সপ্তাহৰ	9
options	9
ite	9
খ	9
▁বসন্ত	9
▁FI	9
▁বৃহস্পতিবাৰ	9
চলিত	9
▁Trad	9
="	9
েণ্ডাৰ	9
▁Y	9
▁দোষ	9
▁প্ৰমাণপত্ৰ	9
▁কীচেন	9
WD	9
▁মাধ্যমে	9
▁ষ্টক	9
▁Sex	9
U	9
▁স্বাভাৱিক	9
▁বৃত্তি	9
▁শ্ৰেণীসমূহ	9
▁আৱিষ্কাৰ	9
▁প্ৰদানকাৰীসকল	9
▁সুৰক্ষতা	9
▁বিপদাশংকাৰ	9
▁লাইব্ৰেৰী	9
▁পাকিছ	9
▁যাক	9
ৱিক	9
১০	9
▁ইন্	9
▁হি	9
▁’’	9
RA	9
▁জনতা	9
▁দিছে	9
▁মূল্যত	9
▁প্ৰদৰ্শনী	9
▁মুম্বাই	9
▁ভগ্নী	9
▁আঁতৰ	9
▁গ্	9
লোক	9
ৰূপে	9
▁সংকেত	9
▁Con	9
▁আশ্বুৰা	9
▁ছোৱাব	9
বক	9
▁লুঠ	9
্ৰমে	9
পিএ	9
cer	9
▁শ্ৰীমন্ত	9
▁মৃতদেহ	9
▁দশক	9
▁পুৰুষ	9
ষ	9
▁long	9
▁শুদ্ধ	9
▁নিৰ্মান	9
াৱলী	9
▁মূলধন	9
সম্পাদনাৰ	9
III	9
▁ব্ৰ	9
▁নিৰ্ধাৰ	9
কু	9
▁CIN	9
▁স্কাইপ	9
▁দৰ	9
count	9
অপেশাদার	9
পূৱ	9
ঙৰ	9
▁পিকিউ	9
▁জিতেন্দ্	9
▁গোস্বামীৰ	9
▁ভিতৰ	9
▁ব্ৰাউজাৰ	9
▁তাৰিখৰ	9
▁অভিধান	9
version	9
▁তুমি	9
▁ঘণ্টা	9
ধৰণৰ	9
▁ছাৰ	9
▁ডাল	9
tree	9
▁শুভ	9
▁৷	9
▁শতিকা	9
▁কাহিনী	9
▁সৈকত	9
▁ব্যাকল	9
▁ৰা	9
▁২০১৫	9
▁প্ৰতিবন্ধকতা	9
merge	9
▁Day	9
stry	9
▁হিচাপ	9
▁পৰিৱৰ্ত্তন	9
▁চৰ্চা	9
aze	9
ফা	9
▁পৰিবৰ্তন	9
}}_	9
▁প্ৰচেষ্টা	9
▁ভাষণ	9
▁আকীদা	9
▁ডিগ্ৰী	9
▁পৰিচালিত	9
▁প্ৰব	9
▁ভূমিস্খলন	9
▁\	9
▁মাজে	9
▁হিন্দি	9
▁ভংগ	9
▁CT	9
▁সীমাবদ্ধতা	9
▁বাবেই	9
▁উল্লেখযোগ্য	9
▁বোজা	9
ওম	9
ত্ৰী	9
▁For	9
▁দ্বা	9
িডা	9
মাই	9
▁হেকাৰ	9
▁ৱাই	9
ানো	9
▁দ্ৰুত	9
▁La	9
▁হিউম	9
▁ৰিচ	9
▁টেবুল	9
▁গেৰেজ	9
▁সমিতি	9
▁উন্নতি	9
▁লেন	9
▁আক্বীদা	9
▁র	9
▁d	9
▁প্ৰকৃতিৰ	9
BD	9
▁ইউৰো	9
▁থানা	9
ধা	9
▁ছফ্টৱেৰ	9
▁টীম	9
▁i	9
pcs	9
^{	9
▁ক্ল	9
▁এলেকা	9
▁ইসিজি	9
বল	9
▁কুকিজ	9
▁সচিব	9
lbar	9
লয়	9
▁এজেন্টৰ	8
▁ভৰিব	8
▁Mans	8
▁পল	8
▁পথৰ	8
জাত	8
▁ৰজ	8
▁স্ট্যান্ড	8
▁Ad	8
▁মছলা	8
ত্ত	8
▁পঠিত	8
▁সীমালৈকে	8
▁বড়	8
▁আছো	8
▁আগ্ৰহ	8
▁মাধ্যম	8
▁ৰাজ্যত	8
▁শাক	8
▁পঠিওয়া	8
▁একাউন্টত	8
▁প্ৰবেশ	8
দিনীয়া	8
দং	8
চ্ছ	8
▁আত্মীয়	8
▁আগে	8
▁চুষা	8
▁ক্	8
▁ফালি	8
▁চশমা	8
▁নেদেখুৱাব	8
▁জাতি	8
▁Number	8
▁অন্বেষণ	8
▁কোনোবা	8
ফাৰেন্স	8
য়তে	8
▁একেবাৰ	8
▁প্ৰশ্নোত্তৰ	8
ুদ্দিন	8
▁বীমাধীন	8
তলত	8
▁ওৱা	8
▁অপ	8
লীনা	8
CM	8
▁দক্ষ	8
৯০	8
▁কোঠা	8
▁হাজি	8
hyme	8
পূৰ্ব	8
”।	8
▁ওৱাহ্হাব	8
ah	8
▁কেম্ব্ৰিজ	8
▁প্ৰশাসক	8
ext	8
▁নী	8
▁পশু	8
▁দুগুণ	8
▁কোনে	8
▁গোলকীয়	8
▁ব্যৱসায়ী	8
▁বহল	8
▁স্থল	8
▁পৰিসীমা	8
▁শৰ্মাই	8
▁বক্তৃতা	8
▁দুৰ্যোগ	8
▁ন্যূনতম	8
▁বিৰোধিতা	8
▁কৰোনাত	8
৮৭	8
প্ৰতি	8
বস্তুৰ	8
কালীন	8
▁কৌশল	8
▁ঊ	8
গ্রহ	8
▁সংশ্ল	8
▁জীৱনত	8
▁সংবাদ	8
▁দণ্ড	8
বস্তু	8
▁অস্তিত্ব	8
▁জলসেচন	8
প্রনোদ	8
▁মেচিন	8
▁কাৰ্যকলাপ	8
▁মোৎজাৰ্ট	8
blocked	8
▁বাধ্য	8
▁শিক্ষাৰ্থী	8
চমকানো	8
▁প্রস্তুত	8
বনে	8
▁আৱশ্যক	8
▁নিশা	8
পিং	8
য়োগি	8
▁জৰিমনা	8
▁উপদেষ্টা	8
িম	8
▁Ha	8
andi	8
িয়েল	8
▁গীত	8
খৰ	8
▁দিক	8
নিৰ্দেশনা	8
লিচিত	8
▁টিপিএ	8
▁নোৱাৰা	8
▁অপ্ৰত্যাশ	8
▁আগবঢ়াই	8
$	8
do	8
▁ৰেকৰ্ড	8
নাম	8
▁মাইক্ৰ	8
▁আহম	8
িয়াল	8
▁নেন	8
প্র	8
▁সোণোৱাল	8
▁ডাক	8
এক	8
▁সংক্ৰান্ত	8
পুস্ত	8
▁পঢ়া	8
▁লক্ষ্মী	8
▁স্কো	8
▁কোৰ	8
▁সংখ্য়	8
▁অভাৱ	8
ome	8
▁পৰ্যটন	8
▁VA	8
ANI	8
AME	8
▁গুদ	8
▁n	8
▁জুবিন	8
েস	8
ৱিকি	8
▁সময়সীমা	8
তঃ	8
رد	8
و	8
▁খিনি	8
▁ইঞ্চিউৰেন্স	8
▁অধীন	8
PF	8
▁Can	8
▁লাল	8
ইউ	8
চো	8
exists	8
▁সন্মতি	8
▁দায়বদ্ধতাৰ	8
▁বিষ	8
▁দহ	8
▁t	8
ual	8
▁সোনকালে	8
▁কেমেৰা	8
টিভি	8
▁সন্মিলন	8
▁পাচ	8
আমাৰ	8
▁সৌন্দৰ্যৰ	8
▁বাই	8
▁দুয়োটা	8
▁Ne	8
প্ৰযুক্তিগত	8
▁হওঁক	8
▁এপ্রিল	8
▁ভাৰতবৰ্ষৰ	8
▁মূখ্য	8
▁সঞ্চয়	8
▁পদাৰ্থ	8
তান	8
ৰাত	8
▁Sta	8
▁আহাৰ	8
▁উত্তেজনা	8
▁কথাটো	8
▁একেই	8
স্ট	8
▁শিৱসাগৰ	8
▁Swa	8
▁কুচ	8
invalid	8
nbsp	8
জ্ঞাত	8
▁চিৰ	8
▁Com	8
হী	8
▁সহযোগিতা	8
▁উপলক্ষ	8
▁সাধন	8
▁Black	8
all	8
বাত	8
▁সংসাধন	8
specialpages	8
▁পলিচি	8
টেব	8
▁প্ৰতিৰোধ	8
▁চাহিদা	8
যেনে	8
়্	8
▁উপর	8
▁উইলি	8
▁Tweet	8
▁ট্ৰেই	8
ৌ	8
▁খাদ্যৰ	8
বিডব্লিউ	8
সামান্য	8
▁জানে	8
▁পঠোৱা	8
▁Change	8
ng	8
ন্গ্	8
▁চিঠি	8
▁মুহ	8
▁বিদ্যুত	8
ীপ	8
চিত্ৰ	8
▁বুজি	8
▁হাউছ	8
▁গ্ল	8
আ	8
৞	8
#	8
বোৰে	8
জে	8
▁প্ৰদেশ	8
▁শক্তিশালী	8
▁মাংস	8
োদন	8
Nam	8
▁৩৫	8
▁ডিজিট	8
▁এমএল	8
▁পাম্প	8
জু	8
▁ভৰালী	8
ma	8
গভৰ্নেন্স	8
▁[[	8
▁সাধাৰণতে	8
▁ব্যৱস্থাৰ	8
▁পৰিস্থিতিত	8
▁ঘটাব	8
▁আদৰ্শ	8
▁কাৰিকৰ	8
▁সাগৰ	8
DL	8
▁বিদ্বেষপ	8
▁ইথি	8
▁বছৰে	8
▁SunPorno	8
▁স্যাঁতসেঁতে	8
▁মাৰ্কেটিং	8
ায়ান	8
▁ভাবি	8
tiya	8
▁ইঞ্জিন	8
▁পাকিস্তান	8
মে	8
preview	8
ােে	8
ঢ	8
ভা	8
▁কুইজ	8
্দ্ধিত	8
▁টাইপ	8
▁মছজিদ	8
▁মানুহজন	8
মেন	8
);	8
▁মত	8
▁গোস্বামী	8
▁উভত	8
িৰ	8
▁আকাৰ	8
▁পৰিচালক	8
▁অভিলেখ	8
▁পাই	8
▁সম্পর্কে	8
প্ৰৱেশ	8
▁!	8
▁গুনাহ	8
▁দুচকীয়া	8
▁উপভোগ	8
▁Mini	8
▁Affairs	8
▁ৰাষ্ট্ৰ	8
নিষ্পাপ	8
▁কাৰনে	8
▁উম	8
▁পৰিস্থিতিৰ	8
▁বিতং	8
▁Life	8
ড়	8
▁ওচৰ	8
▁ৰো	8
▁জা	8
▁গ্ৰুপ	8
ET	8
▁Home	8
▁ধৰিছে	8
▁যাৱ	8
Porn	8
▁ইস্লংদ্	8
▁আডা	8
▁বাইৰন	8
▁বজ্ৰপাত	8
▁কাৰ্য্যৰ	8
ty	8
▁ৰেস্তোৰা	8
▁চেতন	8
আমি	8
▁মংত্র	8
▁টেংক	8
ছো	8
▁হস্তান্তৰ	8
ৰীয়	8
▁ছেপ্তেম্বৰ	8
redirect	8
ষ্ঠ	8
▁ভৰণি	8
[[:$	8
ঁজ	8
সাধাৰণ	8
▁বালসমেত	8
৫০	8
▁পৰীক্ষাৰ্থীৰ	8
দুধ	8
▁সুচী	8
লী	8
▁সাজু	8
▁তফছীৰ	8
▁তিল	8
াব	8
▁সম্পাদক	8
▁সীমাবদ্ধ	8
বয়	8
▁কাটি	8
ানি	8
িয়্যাহ	8
েগ	8
▁জয়ন্ত	8
োৰ্চ	8
.....	8
▁সিং	8
▁ইউনিট	8
▁মাত্ৰ	8
▁বিদ্যা	8
▁বঢ়োৱা	8
▁Apr	8
দিয়া	8
▁কৰ্তৃপক্ষই	8
▁বহুল	8
▁শৈলী	8
▁অমুছলিমসকল	8
▁আয়োজন	8
স্তুতি	8
ن	8
▁আহে	8
▁বাজেয়াপ্তকৰণ	8
▁প্ৰসাৰ	8
▁স্ক	8
ы	8
▁ক্ষতিক	8
▁সংযোজিত	8
ধ	8
য়ন	8
▁নেশ্য	8
ry	8
▁সিহঁত	8
▁লুণ্ঠন	8
▁শাৰী	8
▁পেমেন্ট	8
▁ফাতাৱা	8
▁স্নাতক	8
তিৰ	8
▁এনা	8
▁আখৰ	8
ভ্যন্তৰীণ	8
▁ঋতুস্ৰাৱ	8
hol	7
▁পেতিতে	7
▁১৬	7
▁বাছ	7
▁পৰ্যায়ত	7
▁দেখুৱাব	7
test	7
▁ফ্রেমৱৰ্কটো	7
▁হস্তমৈথুন	7
anson	7
মাদাগাচকাৰ	7
▁ago	7
হস্তমৈথুন	7
ৱর্	7
▁উপায়সমূহ	7
▁System	7
চন	7
▁উইন্	7
▁সোণ	7
পাচলি	7
▁সত	7
▁স্মৃতি	7
▁স্মাৰক	7
me	7
ীচ্	7
▁পঠিয়াব	7
মেন্ট	7
▁মৌখিক	7
▁একাকী	7
AT	7
▁আবু	7
পুথিসমূহ	7
▁ঈদ	7
পোহ	7
▁ডিষ্ট্ৰিবিউটৰ	7
▁চিনাক	7
▁কিস্তি	7
▁সাক্ষ	7
▁Facts	7
ode	7
▁সীমাৰ	7
▁অনুজ্ঞা	7
▁ঘটা	7
এইচকিউ	7
▁আৰোগ্য	7
ঈশান	7
চন্দন	7
Ta	7
অৰুণ	7
ners	7
ৰো	7
▁অৱস্থিত	7
▁ভাৰততে	7
▁বয়লাৰ	7
কাম	7
▁মুল্য	7
▁মধ্য	7
চৌ	7
লগীয়া	7
কার	7
িমাস্	7
resetpass	7
▁প্রৱেশ	7
▁months	7
অসীমিত	7
ভূত	7
▁মানসিকতা	7
▁অনুশীলন	7
▁নাগৰিকৰ	7
mar	7
েক	7
অগ্নিকাণ্ড	7
ত্বৰ	7
▁নগদধন	7
▁হেল্পলাইন	7
▁সংঘটন	7
row	7
▁পদক	7
▁জড	7
number	7
project	7
শালী	7
▁তুলিবলৈ	7
▁al	7
▁ব্যাটারি	7
▁কোম্পানীবোৰ	7
▁চিয়াম	7
▁আপোনালোকে	7
news	7
▁মেচ	7
েজ	7
▁শানতুং	7
▁নিয়মিত	7
▁এপ্প	7
শীৰ্ষক	7
GB	7
▁পৱিত্	7
রতা	7
▁Bio	7
▁পৰাগ	7
▁নিৰ্দ্দিষ্ট	7
▁সমন্বয়	7
micro	7
▁মাজেৰে	7
▁আজিৰ	7
শ্ৰেষ্ঠ	7
আন	7
▁দলটো	7
minor	7
সামগ্ৰী	7
▁ছেট	7
▁প্	7
▁সঙ্গে	7
“	7
▁সংৰক্ষণ	7
▁বুজিব	7
চিতা	7
▁ফেচবুক	7
▁আনন্দজনক	7
▁কৰ্মৰত	7
▁বিৰোধ	7
ilak	7
আব্	7
▁ছাইট	7
▁মনি	7
▁নিদিব	7
/$	7
চাদী	7
▁বেজ	7
মুখগত	7
▁পৰ্টেল	7
BC	7
AD	7
▁পৰ্যায়	7
▁উপস্থিতি	7
ুং	7
▁এপ্লিকেশ্বন	7
▁ইনষ্টল	7
▁সংযোজন	7
▁ভূ	7
Email	7
▁সাংবাদিক	7
বাহ	7
লু	7
▁থাকি	7
▁Radio	7
▁দৃ	7
টোৱেই	7
▁কিলো	7
▁US	7
▁খুলিবলৈ	7
সী	7
▁পাৰিম	7
tani	7
▁পদত	7
▁ডাঃ	7
age	7
▁হৃদয়	7
গ্ৰাফ	7
▁শত	7
উৎস	7
▁কাকত	7
েখে	7
▁ঢোকানো	7
feed	7
▁সাপেক্ষে	7
▁দুৰ্ভাগ্য	7
ER	7
▁গৱেষনা	7
▁অনুমোদনসমূহ	7
▁You	7
▁উৰ্দু	7
▁e	7
▁নিয়মাৱলী	7
▁virgins	7
▁স্যাম	7
▁গ্ৰাফিক	7
▁পৰিব	7
or	7
▁আত্মা	7
কোমল	7
AA	7
▁পৰম্পৰাগত	7
▁দৰকাৰ	7
createaccount	7
▁($	7
▁উঠি	7
▁জুল	7
জীৱ	7
▁ৰাখিছে	7
match	7
ষ্টিক	7
▁অন্তত	7
চীনদেশীয়	7
▁April	7
▁লোৱাৰ	7
categories	7
▁বার্ষিক	7
মূল্য	7
pt	7
▁সম্বন্ধে	7
▁Ta	7
িচ	7
▁কামকাজ	7
ৰীড	7
▁নিৰ্ম	7
▁Book	7
▁II	7
নীত	7
▁আলোচনী	7
▁চিহ্নিত	7
Movies	7
▁গবেষনা	7
ards	7
▁উদ্দেশ্যৰ	7
▁মূলনীতিসমূহ	7
▁ড্ৰ	7
▁week	7
য়ু	7
▁প্লাষ্টিক	7
▁হেৰাই	7
gers	7
▁ইউনিক	7
▁থাই	7
ধ্য়	7
width	7
সম্পূৰ্ণ	7
▁ঐ	7
▁ঢ	7
SS	7
▁সাব	7
▁ৱিকিমিডিয়া	7
▁পত্ৰিকা	7
বেদন	7
স্ক	7
▁তিনিমাহ	7
▁Education	7
▁links	7
জৰা	7
support	7
কৃষ্	7
▁কেনে	7
োকৈ	7
What	7
▁EP	7
যি	7
▁গৱেষণাৰ	7
▁উদ্দেশ্যত	7
▁সমুখ	7
▁সেইবাবে	7
▁ইসলাম	7
▁ইহ	7
চে	7
▁ফিনিটি	7
▁ছাহাবী	7
▁সদায়	7
eaut	7
▁অধিকাৰসমূহ	7
ণ্ণে	7
অন্য	7
▁ঘো	7
▁AC	7
Hindi	7
দালি	7
শিক্ষক	7
পিপি	7
re	7
ৰীতা	7
▁মূল্যহ্ৰাস	7
▁ভাট্টা	7
ক্ষতি	7
▁ja	7
▁আংশিক	7
ুলিৰ	7
▁ব্যবসা	7
▁স্বাদহীন	7
▁machine	7
সঁচ	7
আপ	7
▁নো	7
▁কৰ্মচাৰীসকল	7
স্তৰ	7
ডেল	7
▁বুজ	7
▁অপাৰেটৰ	7
ol	7
টাও	7
▁শইকীয়াৰ	7
▁সাংস্কৃতিক	7
house	7
▁ৰংগনাথন	7
▁আয়াৰ	7
সং	7
▁বেয়া	7
qb	7
▁ধৰণ	7
▁ভগ্ন	7
tional	7
▁চীনা	7
rate	7
▁পৰিচিতি	7
▁জনাওক	7
▁উদ্ভ	7
▁গৰু	7
▁অধিকাৰী	7
▁লৈকে	7
▁হয়নে	7
সাৰাংশ	7
▁যুক্তি	7
▁আৱশ্যকীয়	7
▁চিবিআ	7
▁পদত্যাগ	7
▁নিধি	7
ent	7
পাছা	7
▁ত্ৰুটিপূৰ্ণ	7
▁ফৰাচি	7
▁হাইস্কুল	7
▁সঁফুৰা	7
▁Bong	7
iga	7
ত্মক	7
Ma	7
▁বাস	7
next	7
ফুল্ল	7
▁একাউণ্টৰ	7
▁উলংঘন	7
▁Lin	7
▁বিজ্ঞানীৰ	7
▁আইনষ্টাইন	7
to	7
ডু	7
▁OneNote	7
▁অছি	7
▁কাৰ্যালয়	7
▁কটা	7
বাৰণ	7
▁কপিৰাইট	7
▁পৰিবেশ	7
ски	7
সহ	7
▁দৈতসম্ভোগী	7
▁কুল	7
▁হাছা	7
▁প্ৰণালী	7
পুৰুষ	7
▁সেয়েহে	7
অন	7
revision	7
us	7
লচুদাচুদি	7
▁সঞ্জীৱ	7
▁নেতা	7
pov	7
সু	7
User	7
▁ইহঁত	7
▁বাস্তৱ	7
first	7
ci	7
থা	7
[{{	7
মিক	7
{{	7
▁ৰাইজ	7
তাং	7
▁পুন	7
▁ৰাহিমাহুল্লাহ	7
তীয়	7
\	7
▁ওৱাক্	7
▁ভোটদান	7
▁হিচাবে	7
▁অগ্ৰ	7
▁সঙ্গীত	7
▁common	7
publisher	7
াদা	7
▁পুষ্পম	7
▁কম্প	7
▁অক্ষমতা	7
নাছ	7
▁অনুজ্ঞাপত্ৰ	7
ার	7
▁আকস্মিক	7
াতীত	7
জ্ঞান	7
:'''	7
iya	7
▁তীব্ৰ	7
সৎকাম	7
▁অসৎকাম	7
▁আনন্দ	7
▁নাট	7
▁ফো	7
চাই	7
ast	7
৯	7
খবৰ	7
▁ভালে	7
▁ন্যায়াধীশ	7
োদ	7
▁কব	7
াত্	7
▁প্ৰকৃততে	7
▁মহিলাই	7
▁বস্তুৰ	7
OT	7
▁বিকিউ	7
॥	7
▁লিথ	7
ts	7
গুপ্তশব্দ	7
▁থলুৱা	7
শক্তি	7
তৰোৱা	7
▁সমাপ্ত	7
াইন	7
সিদ্ধ	7
▁ভগভগ	7
ান্ব	7
▁কৰ্মী	7
▁সময়ছোৱাত	7
▁নথিপত্ৰ	7
▁যুৱ	7
out	7
ক্বাৰ	7
▁Feb	7
▁মেনু	7
▁সদৃশ	7
ৱাহ	7
TR	7
▁প্ৰাসংগিক	7
ীৰেন্দ্ৰ	7
▁বুঢ়া	7
গোহাঁই	7
ا	7
▁কৰ্ত্তৃপক্ষ	7
▁নিৰ্দ্ধাৰ	7
г	7
з	7
▁মন্তব্যসমূহ	7
▁বিহাৰ	7
CCI	7
▁নামটো	7
▁কৈছিল	7
লসন	7
▁আয়োজ	7
▁স্থাপিত	7
▁Google	7
▁অৰ্হতা	7
iaomi	7
▁চৰ্তসমূহ	7
৫৫	7
▁বিয়পি	7
▁ডকাইতি	7
▁বিদআত	7
ড়ি	7
▁দৃষ্টিকোণ	7
ong	7
▁Prett	7
▁পাৰ্ছ	7
▁বহিৰাক্ৰমণ	7
যুদ্ধ	7
▁গৃহযুদ্ধ	7
▁কৰাতো	7
ছা	7
▁ইনচ	7
per	7
প্প	7
তেই	7
▁দী	7
্ঘ	7
ঘৰ	7
▁teen	7
যুগ	7
েকজ	7
েমিং	7
PM	7
▁শৰীৰ	7
ees	6
▁আণ্ডাৰৰাইট	6
োৱা	6
▁ইভেন্ট	6
▁২০১২	6
▁অক	6
▁সর্ব	6
▁দুৰ্ভাৱনা	6
নিকা	6
▁কর্ম	6
▁নিৰীক্ষণ	6
atsu	6
▁হেৰুৱা	6
▁নিষ্পাপ	6
ৰেখা	6
▁বিছ	6
ৰোনাতংক	6
shar	6
ক্ষেপণ	6
▁ফীজ	6
▁য়ো	6
▁বৈ	6
▁গণেশ	6
▁স্	6
পেলিন	6
ind	6
rome	6
▁পান	6
▁উলিয়াব	6
▁বালি	6
▁vscoop	6
▁সদ	6
▁দুৰ্বলতা	6
▁গৰ্ভধাৰণ	6
▁সুৰা	6
▁মাচুল	6
lone	6
▁Ber	6
ward	6
নত	6
নু	6
▁গেট	6
▁স্বাধীন	6
ভাগ্য	6
rights	6
PE	6
₦	6
▁v	6
▁সাঙুৰ	6
▁জোতা	6
লিং	6
▁জাতীয়	6
▁শৰ্মাৰ	6
▁সংবিধান	6
▁উপৰি	6
▁প্ৰাচী	6
hiv	6
▁Telef	6
▁Sur	6
▁সুবিধাৰ	6
tip	6
▁র়	6
র়ু	6
▁ইব	6
▁খান	6
ছেলে	6
▁খেলুৱৈ	6
৭৫	6
জয়ী	6
az	6
han	6
▁বৰ্গ	6
▁বুটাম	6
ector	6
চিন্তা	6
▁বিত্তমন্ত্ৰী	6
▁texas	6
▁সৰঞ্জাম	6
▁Music	6
মানৰ	6
ন্ট	6
▁ৰাইটিং	6
▁পৃষ্ঠ	6
▁সন্নি	6
ৱিষ্ট	6
দিন	6
►	6
ুলভ	6
change	6
▁আও	6
iology	6
▁এইবোৰৰ	6
▁জৰুৰী	6
▁আদান	6
পূর্ণ	6
▁অপৰিহাৰ্য	6
উত্তৰ	6
▁আদিত	6
িঙ	6
▁পুৰণ	6
pro	6
▁প্ৰেৰ	6
▁তথাপিও	6
▁শাৰিৰ	6
ঞ্জী	6
ra	6
▁টেলিভিছন	6
▁কেবল	6
▁ফুসসিলাত	6
▁চৰ্তাবলী	6
্ভপাত	6
▁নৃত্য	6
lix	6
▁।'''	6
▁সাম	6
ৰ্ন	6
▁অধ্যয়নৰ	6
▁বিৰতি	6
▁দেওবাৰ	6
▁Interview	6
▁চেণ্টাৰ	6
ার্ট	6
▁ছলচ	6
▁বিদ্যুৎ	6
▁অপাৰেট	6
▁এডব্লিউজি	6
▁শিশুটি	6
মুখো	6
▁বান	6
▁বাইবেলে	6
নীৰ	6
ip	6
▁লাগিছে	6
▁শশ	6
▁ক্ৰীম	6
▁মহিলাসকল	6
▁সেক্স	6
▁ত্ৰিভূজ	6
ীত	6
▁লিখন	6
▁তিনিচুকীয়া	6
▁অতিক্ৰম	6
▁ব্যৰ্থতা	6
দিনা	6
uli	6
▁অভিসূচনা	6
তালিকা	6
বীজ	6
▁উপকাৰী	6
▁অগ্ৰাধিকাৰ	6
▁স্কেল	6
Å	6
▁কৰিছোঁ	6
▁su	6
▁কথাখিনি	6
▁সোৱাদ	6
▁নাথাকিব	6
▁সঁচাকৈ	6
▁তেনেহ	6
▁আয়	6
▁আঁতৰা	6
গ্ৰ	6
▁কৰ্পোৰে	6
▁পদ্মশ্ৰী	6
▁ফালৰ	6
▁৬০	6
▁কুৰি	6
▁ভাষাসমূহ	6
▁পংচ	6
▁উদ্ভাৱন	6
১৫	6
▁খোল	6
block	6
মোক	6
▁যাত্ৰীসকল	6
▁কংগ্ৰেছ	6
্যাগ	6
▁কমিট	6
▁প্ৰসাশন	6
ছৌদ	6
▁শেষৰ	6
▁অহ	6
click	6
prev	6
▁অধিনিয়ম	6
▁গজা	6
▁ভোজন	6
▁CR	6
nai	6
▁Ab	6
KI	6
▁Co	6
▁সম্পৰ্কত	6
▁অসুস্থতাৰ	6
▁ন্যায়ালয়	6
াক্ষি	6
▁Cha	6
▁নইথাৰ	6
▁বিকিৰণ	6
▁প্ৰস্তাৱকাৰী	6
ছি	6
মৰ	6
▁কাপোৰ	6
ডব্লিউ	6
▁ব্যৱসায়ক	6
▁আগবঢ়াইছে	6
▁l	6
ow	6
▁Of	6
▁w	6
▁পঢ়িবলৈ	6
▁কোনোবাই	6
▁দ্বীপ	6
▁Love	6
▁বিচনা	6
▁শনিবাৰ	6
▁মুদ্ৰণ	6
▁ভাষাসমূহত	6
asha	6
Ber	6
▁পাত	6
AC	6
ful	6
▁anal	6
ব্যথা	6
▁NX	6
ভুল	6
▁আপন	6
▁যিখন	6
▁শিকা	6
▁প্লে	6
ai	6
▁HRC	6
সুং	6
▁ষান্মাসিক	6
▁প্রথম	6
▁লৈছে	6
▁ইত্যাদিৰ	6
▁প্ৰকাশক	6
▁ৰূম	6
▁গগৈ	6
▁ফাইলটো	6
▁চলোৱা	6
▁স্ক্ৰী	6
▁hard	6
ops	6
▁সৰ্বস্বত্	6
▁পিয়া	6
▁তেও	6
▁Ho	6
▁মেধা	6
▁মাদা	6
ৰুল	6
:\$	6
ভিযান্ত্ৰিক	6
েঙনী	6
▁তাহা	6
dn	6
▁মেট্ৰিক	6
নীয়া	6
▁দহনকারী	6
AN	6
▁Style	6
▁দেখি	6
caption	6
align	6
left	6
প্ৰ	6
ম্ভ	6
গিন	6
একাউন্ট	6
confirm	6
▁ভ্ৰান্তি	6
ুক	6
াং	6
্যস্ত	6
▁virtual	6
▁ভাবিব	6
▁ঘটনাৱলী	6
▁শিকো	6
▁পাপ	6
িল্	6
মধ্যে	6
ভগভিজা	6
RO	6
rench	6
▁co	6
▁বুধবাৰ	6
▁ki	6
CU	6
▁সমস্	6
মাত্ৰ	6
▁ৰেখা	6
JJ	6
▁সঁচা	6
▁March	6
▁বিপণন	6
▁ma	6
্ক	6
▁নব	6
▁চাল	6
াপ্ত	6
কন্যা	6
KD	6
▁কার্যসূচীঃ	6
▁গেঁ	6
ww	6
▁Sum	6
৩৪	6
▁জিম্মা	6
ভাৰিষ্ট	6
▁মূল্যায়ন	6
তাৰে	6
ল্লিশ	6
▁কিয়নো	6
গাথা	6
hen	6
▁আচবাব	6
FT	6
▁বীমাধাৰীৰ	6
▁শিকিবলৈ	6
ুৰু	6
ংত্	6
▁দিনে	6
▁কৈছে	6
[	6
বেল	6
Hz	6
▁বাক্স	6
▁ক্যাড	6
বন	6
▁Tumblr	6
▁বিয়পা	6
▁জাৰ্মান	6
▁স্টেথোস্কোপ	6
▁টাবু	6
na	6
gress	6
আল	6
ইছলাম	6
▁আহত	6
ৰ্ণ	6
▁দিল	6
▁January	6
▁Dr	6
▁ৰং	6
▁ঘোষণাৰ	6
▁নিয়াৰ	6
▁কাৰক	6
▁২০১৬	6
শু	6
▁হোৱাটছএপ্প	6
িতে	6
দাতা	6
ইট	6
settings	6
diff	6
৩১	6
▁East	6
▁প্রতিটো	6
▁ততা	6
দো	6
▁আৱিস্কাৰ	6
▁বীজটো	6
▁এইচটি	6
▁উজবেকীয়	6
ৱাৰী	6
comment	6
dis	6
▁সন্ত্ৰাসবাদ	6
কাৰণ	6
▁ইৰাণী	6
menu	6
▁তোমা	6
ঁতসেঁতে	6
dated	6
▁নগ্নতা	6
শ্ৰেণী	6
▁মঘাই	6
▁সফলতা	6
▁মণিপুৰ	6
▁বৌদ্ধ	6
▁বাদে	6
OS	6
চন্দ্ৰ	6
▁উদ্ধ	6
শে	6
▁বিনামূল্যে	6
ীদ	6
▁ছয়	6
ī	6
ight	6
কোঠা	6
▁সন্থা	6
▁খেলা	6
▁টেপ	6
লং	6
কাৰীক	6
▁কোড	6
months	6
▁ৱায়াৰ	6
▁উপাস	6
১৬	6
▁কঢ়িয়া	6
আৰু	6
ুন	6
▁ক্ষমা	6
▁বীমাকৰ্তা	6
▁ইনফিনিট	6
পূব	6
big	6
▁ইনফোকম	6
ity	6
▁প্ৰতিশ্ৰুতি	6
▁লিঙ্গ	6
▁হবে	6
▁নাটনিৰ	6
links	6
:{{	6
▁সমীক্ষা	6
dra	6
▁আৰক্ষীৰ	6
hidden	6
তালিকাত	6
▁ন্যায়ালয়ৰ	6
▁বেংগাল	6
MediaWiki	6
▁সৰ্বোত্তম	6
full	6
▁কাছাৰ	6
▁ৰাজনিতী	6
▁বিতৰ্ক	6
▁পাতি	6
স্থাপন	6
▁বিপৰ্য্যয়	6
▁যুগ	6
াৰ্থ	6
CK	6
▁Sah	6
▁টকালৈকে	6
unknown	6
▁দেখিব	6
সৈকত	6
▁প্লাৱন	6
▁জনসাধাৰণ	6
▁গৃহিণী	6
▁শব্দকোষ	6
মূল	6
▁বৰ্ণ	6
▁পোনপটীয়া	6
▁একত্ৰিত	6
ঞ্চিত	6
সজ্জা	6
▁গাড়ীখন	6
▁নকৰিলে	6
লো	6
▁ইনকো	6
নিক	6
Dr	6
▁ৰাখক	6
অধিক	6
▁সামৰণ	6
▁কাৰ্যসূচী	6
▁সদস্যসকল	6
▁কঢ়িওৱা	6
Share	6
▁দুষ্ট	6
বিদ	6
াইছ	6
ي	6
▁অসতৰ্ক	6
▁দুজন	6
▁Christ	6
▁কিলোগ্ৰাম	6
▁আঠ	6
▁দীৰ্ঘ	6
প্লাছ	6
ডেস্ক	6
▁সংৰক্ষনাগাৰ	6
ভাষিক	6
▁কভিড	6
দৰ্শন	6
রুম	6
▁আজ	6
▁টিপ	6
▁টিকট	6
বাদ	6
▁পাইকাৰ	6
▁মহন্ত	6
▁কুকিসমূহ	6
▁ইন্ধন	6
ফাতিহ	6
▁শব্দটো	6
মায়া	6
এফ	6
▁আৱশ্যকতা	6
রো	6
▁ছেপ্টেম্বৰ	6
▁হাজৰিকা	6
▁ৱেবছাইটত	6
▁যৌনতা	6
▁বিজেপি	6
০০	6
মেথামফেটাম	6
গৈ	6
গু	6
লক্ষ্য	6
rollback	6
▁ৰাশি	6
▁বন্য	6
▁বৰষুণ	6
▁চুলি	6
▁পৰ্য্যন্ত	6
িটি	6
পোৱা	6
িছে	6
দৰ	6
▁সমূহত	6
▁ৰন্ধা	6
ls	6
েন্স	6
▁ঠাই	6
ৰায়ণ	6
▁দত্ত	6
▁Sa	6
▁অংগ	6
গো	6
িনে	6
▁থাকোতে	6
▁কুৰ্	6
س	6
▁দলীয়	6
nologin	6
▁সহজে	6
▁ল্যাটিনা	6
▁লকডাউন	6
▁চিকিৎসীয়	6
▁Online	6
▁ওলমি	6
▁Cord	6
▁কৰ্তৃপক্ষ	6
cket	6
েৰকে	6
А	6
д	6
б	6
▁ভূমি	6
▁বিফলতা	6
▁ইতি	6
আশ্চৰ্যজনক	6
পুৰ	6
▁আনিব	6
Pragya	6
▁উদ্বোধন	6
▁দিম	6
▁Quiz	6
een	6
▁আচৰণ	6
add	6
▁অসমতা	6
ING	6
▁কিতাপখন	6
userrights	6
ary	6
summary	6
▁ৰাজ্যসভা	6
ver	6
▁কাৰ্গো	6
▁শিখ	6
▁ফোনটো	6
খেতি	6
SM	6
▁ভিটামিন	6
।"	6
ৰেন্দ্ৰ	6
কর	6
▁২৮	6
▁Kids	6
power	6
▁বেডমি	6
▁কাউচ	6
angle	6
***	6
সাময়িক	6
▁ইঞ্চি	6
▁উত্তৰাধিকাৰ	6
ুলিন	6
ৱৰ	6
▁আত্মহত্যা	6
reset	6
বাসী	6
▁লক্ষণ	6
নিয়মিত	6
▁ধৰনৰ	6
নিৰপেক্ষ	6
৩০	6
ঈক্ষণকামী	6
ba	6
▁অনুবন্ধ	6
▁নোটবুক	6
শ্যন	6
ইলাৰ	6
▁পিছৰ	6
▁অতীত	6
▁ঐতিহ্য	6
মোচন	6
▁হেল্	6
esty	5
ervers	5
▁পুর	5
▁কিনা	5
প্ৰথম	5
▁পৰিদৰ্শন	5
▁ধৰ্ষণ	5
▁নিৰ্	5
▁ছাত্ৰীগৰাকী	5
edits	5
সলনী	5
▁show	5
▁Sep	5
▁পৰীক্ষণ	5
পৃষ্ঠাসমূহ	5
▁পুৱা	5
▁দুৰ্ঘটনাত	5
▁খৃ	5
▁নৱবৰ্ষ	5
নিয়া	5
▁গ্ৰাম	5
ীণ	5
ৰ্দ্ধ	5
▁মেনেজমেন্ট	5
type	5
▁আগ্ৰহী	5
ণ্ডা	5
▁প্ৰাৰম্ভ	5
▁বেদ	5
▁আমল	5
▁যাকাৰিয়্যাহ	5
▁প্ৰৱন্ধটো	5
▁পঢ়ক	5
ন্যূনতম	5
▁হিম	5
▁সহনীয়	5
Pal	5
▁৩৬০	5
▁একাউণ্টত	5
আয়ন	5
▁লিফ	5
পো	5
▁মানৱাধিকাৰ	5
েকিং	5
বদৰ	5
▁প্ৰাধিকৰণ	5
❯	5
▁প্ৰাপকসকল	5
পীড়	5
▁জীৱ	5
▁আৰকান	5
▁স্মৰণ	5
▁Tim	5
Lee	5
▁Tur	5
▁Or	5
▁VM	5
▁দুবাৰ	5
▁আক	5
▁j	5
▁মনোভাৱ	5
▁চু	5
▁পঢ়িব	5
▁শিক্ষাগ্ৰহণ	5
মুখী	5
▁বৰঙণিসমূহ	5
▁যন্ত্ৰপাতি	5
কাজ	5
▁দৈত্য	5
▁ঠকাই	5
্বিশ	5
▁ভাড়াৰ	5
ł	5
▁অংশীদাৰী	5
▁আধাৰিত	5
্তী	5
নফো	5
▁অংশীদাৰসকল	5
েট	5
কৰ্ত্তা	5
LO	5
▁সক	5
▁৪২	5
▁কৰ্তব্য	5
mit	5
▁Ku	5
ilms	5
▁ভবা	5
▁ফেল	5
▁উদ্ধৃত	5
▁বাৰ্তালাপ	5
াণ	5
▁কাৰ্যক্ষমতা	5
▁স্বৰ্ণ	5
exp	5
ected	5
namespace	5
▁সীতাৰমণে	5
▁টকাকৈ	5
মিটে	5
▁গেইম	5
▁ac	5
▁cum	5
ল্ট	5
▁ভাবা	5
▁চুম্বক	5
▁contact	5
▁নাম্বাৰ	5
opyright	5
rved	5
←	5
▁চনদ	5
▁part	5
▁টোকা	5
ভাগ	5
▁চান	5
বিক	5
টাইট	5
▁ঔষধি	5
▁নিৰ্ণয়	5
াৰ্ছ	5
▁ফন্ট	5
▁ডিশ	5
▁চমক	5
কাণ	5
ৰ্ত্তি	5
লোৱা	5
▁সুন্দর	5
▁জীৱবিজ্ঞান	5
Mathematic	5
mathematics	5
▁কিলোমিটাৰ	5
▁দূৰত্ব	5
▁স্থলপথ	5
irc	5
▁ga	5
▁খ্ৰীষ্টপূৰ্ব	5
▁বৈঠক	5
▁আচল	5
ডিং	5
▁উপভোক্তাসকল	5
পৰ	5
ভিজা	5
▁নিয়মীয়া	5
ance	5
▁বেট	5
Ⱡ	5
▁বতৰা	5
▁যীচু	5
কাৰ্য্য	5
▁অপহৰণ	5
াৰে	5
▁দিছপুৰ	5
▁FS	5
▁ষ্টেট	5
hamp	5
▁ছিল	5
▁সদস্যনাম	5
বেচি	5
সমূহে	5
gend	5
মৌলিক	5
▁চেমি	5
▁মেডিয়া	5
auto	5
▁KO	5
▁নামভৰ্তি	5
▁মালিতা	5
হুৰ	5
ভেদ	5
স্পাই	5
সংকলন	5
াধীশ	5
▁ছাৰ্জ	5
কৰা	5
টোৱা	5
▁প্ৰকাশকৰ	5
▁অন্তৰ্গত	5
▁ভোগ	5
article	5
▁'"[[	5
ut	5
গুলি	5
ছনি	5
ীম	5
▁ইজ	5
▁পথত	5
▁ছিষ্টেম	5
ণ্ট	5
verb	5
▁তম	5
▁ছলমান	5
মুখ	5
▁বিদ্যালয়সমূহ	5
চিটি	5
জিয়ে	5
াঘর	5
৭৮	5
পতি	5
রী	5
সংক্রান্ত	5
▁প্রকাৰ	5
▁টুকুৰা	5
▁কওঁ	5
কৃষি	5
▁সাম্প্ৰতিক	5
▁শূন্য	5
▁ভিঢি	5
▁আলু	5
ট্র	5
▁নিযুক্তি	5
সাল	5
▁উত্সাহ	5
৭১	5
▁Jun	5
the	5
sis	5
▁ভয়	5
▁সাহস	5
▁শেষত	5
▁ধৰিব	5
▁আকাৰৰ	5
▁সংকলিত	5
▁ণিৰ্ণয়	5
⁠	5
▁চোদা	5
ll	5
োতে	5
▁বন	5
▁নোলোৱা	5
▁পছন্দসমূহ	5
বিয়ান	5
কর্ম	5
preg	5
▁আউট	5
Aw	5
▁ফট	5
▁গ্ৰীক	5
▁দলং	5
▁PV	5
▁LT	5
CTN	5
▁দৈত্যকৃষ্ণকায়	5
years	5
পেথ	5
see	5
template	5
▁page	5
পৰিৱৰ্তন	5
▁অর্ডাৰটো	5
▁সজাগতা	5
▁ছুন্নত	5
▁কার্ড	5
▁মাউন্ট	5
▁প্রকাশ	5
▁চৰ্ত্ত	5
▁xHamster	5
▁Ba	5
mail	5
▁লু	5
▁Media	5
▁শিতান	5
▁অভাৱনীয়	5
▁আহমেদ	5
েউজীয়া	5
▁De	5
শুদ্ধ	5
▁দূষিতকৰণ	5
▁ক্লাউড	5
্যাধি	5
▁\"	5
▁আন্তৰ	5
▁আতৰা	5
▁শণ	5
▁ব্যক্ত	5
▁মাতি	5
▁বৃহত্ত	5
▁পৰ্যায়ৰ	5
্তি	5
▁USD	5
ments	5
ro	5
swa	5
▁হভার	5
▁উচ্চতা	5
global	5
▁লোকক	5
▁ব্যতিক্ৰমতা	5
সাৱধান	5
▁Us	5
ē	5
▁নাবালক	5
anda	5
মন	5
▁প্ৰকল্পসমূহ	5
পাঠ	5
▁গাঞ্জাখিনি	5
▁মেঘালয়	5
whatlinkshere	5
▁হস্ত	5
বাস্তব	5
▁লাইন	5
adjective	5
▁ব্যাপকতা	5
▁কমিছন	5
▁১০০০	5
পায়	5
ẏa	5
মুক্ত	5
পুতুল	5
▁ট্ৰেড	5
▁এৰি	5
RWBCIS	5
▁পুনৰগঠ	5
প্ৰেছাৰ	5
ানাং	5
▁দুখ	5
▁বিধ	5
▁To	5
▁ডাটাবেছ	5
▁প্ৰকাশন	5
▁ষ্ট্ৰং	5
▁বেগ	5
▁কোট	5
মন্ত্ৰী	5
েছেন	5
▁পৰামর্শ	5
▁চেন্টাৰ	5
▁উদ্দ	5
▁ভূখণ্ড	5
▁Author	5
▁ওঁম	5
ব্যক্তিগত	5
▁Sri	5
▁খোজ	5
▁আৰম্ভণি	5
▁প্ৰয়াস	5
▁লক্ষ	5
▁লিম্ফোমা	5
▁ভক্তি	5
▁সদস্যজন	5
▁ভাস্কৰ	5
▁কল্কিম	5
▁ধৰে	5
hair	5
▁শুনি	5
ipb	5
▁দুয়ো	5
ৰ্	5
var	5
FE	5
▁আল্লা	5
হু	5
▁বিজ্ঞানীগৰাকী	5
▁সম্পর্ক	5
chool	5
▁সম্পাদন	5
▁id	5
atta	5
▁অক্সফ	5
ashi	5
নুমান	5
▁স্বয়ং	5
▁বছৰেকীয়া	5
▁ইতিহাসৰ	5
য়ৰ	5
▁ঝ	5
▁ভো	5
্যান	5
▁টায়াৰ	5
mission	5
▁মীড	5
▁FAQ	5
▁বোতল	5
সান	5
▁Man	5
ষুধ	5
অনুচ্ছেদ	5
▁স্বেচ্ছাসেৱী	5
শিত	5
রামি	5
▁পঠন	5
Ā	5
▁হাৰত	5
▁আসন	5
▁উদাহৰণস্বৰূপে	5
▁তথাপি	5
▁পৰীক্ষাত	5
▁প্ৰচলিত	5
▁গনুহ	5
▁সংগ্ৰহণ	5
▁বাবেহে	5
▁ৰূপায়ন	5
ক্ত	5
▁পৰ্য্য	5
ডমিন	5
স্টিক	5
ৈঃ	5
▁সৰ্বসাধাৰণ	5
▁নিউক্লিয়েৰ	5
▁Kidney	5
▁Sing	5
▁আহক	5
নিমা	5
▁উলকি	5
মখোমুখী	5
নিহিত	5
▁‘‘	5
প্ৰাণ	5
▁জ্যোতিৰ্	5
▁সত্তা	5
ঁৰা	5
▁আৰ্কাইভ	5
▁স্পেনিচ	5
▁ফ্ৰী	5
▁মিটিঙ	5
জীৱন	5
▁চাং	5
▁দধুমপান	5
▁editor	5
চলতে	5
▁প্ৰতিস্থাপন	5
▁অনুপাতত	5
▁language	5
▁সৈ	5
▁সাই	5
▁অং	5
ধীন	5
▁নাৰীসকল	5
▁কাৰ্যত	5
স্বত্ব	5
▁সম্ভাব্য	5
বোৰত	5
▁জাৰী	5
ইমাম	5
media	5
▁শ্ৰেণীৰ	5
▁Ele	5
base	5
▁কাযা	5
▁ধীৰে	5
▁৪০	5
▁জু	5
স্প	5
▁এবেল	5
▁দোকানত	5
▁সতৰ্ক	5
ano	5
দ্যোগ	5
Inde	5
▁দেখুৱাই	5
▁মিল	5
▁CG	5
তিথি	5
▁ঘটিল	5
▁দেয়	5
▁পৰিকল্পনাঃ	5
▁সাপ	5
্য়ং	5
ঠাঁচ	5
▁har	5
ish	5
ৰণ	5
▁অভ	5
▁ব্যক্তিসকল	5
▁হাৰ্ডি	5
▁ফ্ৰে	5
▁আগবঢ়ায়	5
▁কাটিব	5
পাল	5
াসিক	5
কর্ষণ	5
ব্যাপ	5
▁বক্তব্য	5
মোজা	5
পায়ু	5
টম	5
▁তত্ব	5
_{{	5
▁খৰ	5
হাই	5
▁সুৰ	5
টিক	5
▁এইচভি	5
▁গেলাৰী	5
▁caught	5
ন্ধ	5
▁আকৃতি	5
ক্ষ্ম	5
▁নিয়া	5
ম্পত	5
▁দিয়াটো	5
▁অৱহেলা	5
leate	5
▁অনি	5
সংগ্ৰহ	5
▁অলী	5
▁২০১০	5
livepreview	5
JavaScript	5
line	5
id	5
বুক	5
▁উপপত্নী	5
CAD	5
be	5
▁তুলিছে	5
▁প্ৰেৰণা	5
▁মানুহক	5
এয়া	5
ঙ্ক	5
▁স্বীকৃতি	5
▁বেংকটেশ	5
্বোধন	5
কম	5
ঈ	5
▁তত্বাৱধান	5
▁কানভা	5
nocookies	5
▁নিশ্চয়	5
▁vid	5
lus	5
িকেল	5
অশ্বচালনা	5
р	5
▁পচন্দ	5
▁দীপ	5
স্থিত	5
▁আপলোড	5
ars	5
▁নিষ্ক্ৰিয়	5
▁নিব	5
ή	5
▁শীতল	5
▁অসীম	5
মাধ্যম	5
▁উৰাজাহাজ	5
▁পোষণ	5
িবেশন	5
▁ISO	5
▁মহানগৰ	5
বিলোপন	5
▁ঠিকাদাৰ	5
▁কাণ্ড	5
underline	5
▁আগ	5
▁o	5
▁সিঙ	5
▁MR	5
পযুক্ত	5
▁Director	5
‘‘	5
▁Jul	5
▁ূান	5
▁সৌ	5
▁ৱিকিপিডিয়া	5
▁Che	5
▁খাপ	5
ছ্	5
reb	5
▁চুমানো	5
▁চফটৱেৰ	5
াট	5
▁অতুল	5
▁গাখীৰ	5
▁তাল	5
মেল	5
▁আপোনালোকৰ	5
জিবলৈ	5
▁ভেনিজুৱেলা	5
▁মাৰ্ক	5
▁বেচৰকাৰী	5
ata	5
▁SB	5
▁পূজা	5
▁বান্ধবী	5
▁ৰাশ্ব	5
▁অস্ত্ৰ	5
বলা	5
▁বিলম্ব	5
у	5
с	5
▁ভৱিষ্যত	5
জ্যেষ্ঠ	5
▁পাইপ	5
▁মাৰ্কেট	5
লিচিধাৰী	5
▁আগতীয়া	5
নিৰ্বাচিত	5
▁সম্পদসমূহ	5
▁বিধায়ক	5
▁সংবাদমেল	5
▁জটিলতা	5
পন্থী	5
টিপা	5
অনুগ্ৰহ	5
▁শৌচ	5
▁পিছতে	5
▁গৈছিল	5
▁চেইন	5
▁Health	5
q	5
খণ্ড	5
▁User	5
▁ডক্টৰেট	5
▁ইঞ্জিনিয়াৰ	5
▁বতাহ	5
got	5
quest	5
▁পিঁয়াজ	5
▁মানদণ্ড	5
িত্	5
viewsource	5
▁চকুৰ	5
গেলৱে	5
হা	5
▁Li	5
▁বুজোৱা	5
ৈল	5
▁লগইন	5
▁all	5
▁পিক্সেল	5
▁ঘনত্ব	5
pi	5
ine	5
ED	5
াক্ট	5
▁পাহৰি	5
▁মাক	5
।...	5
▁সুৰজি	5
▁চৌধুৰী	5
▁এপ্ৰিল	5
▁দাসে	5
▁বিশ্বাসী	5
হয়	5
▁এস	5
ভিল	5
▁এয়াৰ	5
▁তত্ত্ব	5
hub	5
▁স্বত্ব	5
Download	5
▁তৎক্ষণা	5
▁ক্ৰমবিকাশ	5
▁অবস্থা	5
▁চেহেৰা	5
▁খুব	5
▁গাণিত	5
বাতিল	5
▁কেপি	5
▁চফঘব	5
account	5
▁সেউজ	5
gl	5
▁ৰূপাভ	5
▁অইল	5
▁দৃশ্যমান	5
▁মাধৱ	5
▁অভ্যাস	5
▁বাঢ়িব	5
িঞ্চি	5
ছিন	5
▁পিটিক	5
▁Pitik	5
কীয়	5
▁বিস্তৃত	5
▁গৃহীত	5
লেট	5
▁পং	5
কজ	5
▁অনুচিত	5
▁নিবিচাৰে	5
▁পৰিপূৰ্ণ	5
▁Ki	5
hil	5
▁মাজুলী	5
বচন	5
▁Kz	5
▁দুগৰাকী	5
▁ধাৰক	5
তুং	5
▁শিক্ষাদান	5
▁চমুকৈ	5
▁চিত	5
▁গৰ্ভ	5
রুহ	5
ym	5
▁উৎসৰ	5
কথাবতৰা	5
▁ফেব্ৰিক	5
বোধ	5
▁কৃত	5
ج	5
▁পৰিকল্পনাৰ	5
▁উপযোগী	5
▁পৰিসৰত	5
▁জন্তু	5
▁স্নান	5
▁প্ৰাণ	5
▁আলোচনীখন	5
খোজ	5
▁কল্যাণ	5
▁১৯১	5
▁কুকিটো	5
Autodesk	5
▁তত্বাৱধানত	5
ৰ্ছ	5
talkpage	5
ending	5
▁ভাঙি	5
▁Sach	5
▁শতবৰ্ষ	5
▁ৰাধিকা	5
মোহন	5
▁টেক্সট	5
▁উত্তোলন	5
▁ডেলিভাৰী	5
yo	5
edia	5
▁do	5
▁প্ৰত্যাহ্বান	5
▁পঠ	5
▁কেন্দ্ৰৰ	5
খোকামনিহ	5
▁মুক্তি	5
এইচসি	5
ছোঁ	5
োস্	5
loginreq	5
▁মোদী	5
IME	5
activeusers	5
ঠ	5
▁HTML	5
ড্ৰাইভাৰ	5
বাবে	5
▁ব্ল	5
▁নাৰায়ণ	5
▁নু	5
▁উদ্বেগ	5
দেৱ	5
▁মগজু	5
▁দৃঢ়তা	5
নক	5
িবলৈ	5
Hug	5
ك	5
ۆ	5
export	5
▁Q	5
▁এগ্ৰ	5
warning	5
দ্য	5
▁পুথিভঁৰাল	5
{	5
▁ট্ৰেডমাৰ্ক	5
্বা	5
result	5
irst	5
কাৰ্য্যৰ	5
▁উকলি	5
▁যুক্তিসংগত	5
▁তলা	5
▁আহিছিল	5
▁ক্ষেত্ৰখন	5
▁উত্তৰণ	5
Website	5
লফাইড	5
ের্	5
post	5
বও	5
প্ৰাসংগিক	5
▁অনন্যা	5
▁গোপনীয়	5
sig	5
▁শ্বা	5
▁ফলসমূহ	5
▁ষ্টেডিয়াম	5
▁নকল	5
পত্র	5
ৰাই	5
▁চেচ	5
ৰামত	5
কেৱল	5
আলোচনা	5
▁বুক	5
য়নৰ	5
▁বিশ্বত	5
▁অর্থ	5
▁প্ৰতিষ্ঠা	5
▁মাৰি	5
▁সন্মুখ	5
রা	5
▁কেচুৱাৰ	5
▁Ro	5
▁ফুটবল	5
▁ঠিকনাটো	5
▁অপাৰেছন	5
▁সাহিত্যিক	5
▁শতকৰ	5
▁আস	5
▁কাৰ্য্যসূচী	5
▁প্ৰৱণতা	5
▁মনোন	5
▁শিক্ষানুষ্ঠান	5
༒	5
▁কৰ্তৃত্ব	5
noun	5
Internet	5
্য়	5
▁প্রধান	5
জান	5
sysop	5
▁Android	5
▁লক	5
▁প্ৰযুক্তিবিদ্যা	5
▁cam	5
▁অৰিহণা	5
ল্ডাৰ	5
▁ফুকন	5
▁ফাইলসমূহ	5
পথৰ	5
▁প্ৰসা	5
▁বছ	5
▁Pi	5
▁Hottie	5
UBE	5
etta	5
acker	5
▁বৈৰিতা	5
▁ৰবীন্দ্ৰনাথ	5
▁সৱিশেষ	5
▁can	5
badtitle	5
}$$	5
▁গুণমান	5
সেক্স	5
লিকে	5
▁খাম	5
▁অগ্ৰগ	5
▁খতিয়ান	5
▁আয়াত	5
▁প্ৰকৃতি	5
াৰ্ড	5
▁গুগল	5
▁বৃত্ত	5
▁ইনষ্টিটিউট	5
▁ঘটোৱা	5
AX	5
িদ্ৰ	5
ক্ষেপ	5
▁XP	5
মুকুট	5
লেজ	5
যদিহে	5
▁লোটো	5
▁আঁৰত	5
▁লোটোখেলা	5
▁ঢোল	5
▁পাঞ্জা	5
ৰঙা	5
▁প্রদান	5
▁সত্যাপন	5
▁পেলায়	5
▁ফতোৱাটো	5
▁API	5
▁পঠনীয়	5
▁ইউনাইটেড	5
▁পইণ্ট	5
▁ক্ৰিয়া	5
▁কাৰন	5
▁করা	5
į	5
▁ম্যাপ	5
▁বিধেয়ক	5
েশ	5
▁হো	5
▁পূৰ	5
▁সৰ্বা	5
▁বিগ	5
▁সেঁতু	5
ii	5
ā	5
সন্ধান	5
▁প্ৰৱেশাধিকাৰ	5
▁সেনা	5
▁জুউ	5
▁চাবি	5
▁আফাৰ	5
▁ৰাধা	5
▁ভৌগোলিক	5
▁MPa	5
▁আভ্যন্তৰীণ	5
▁উদ	5
কেয়াৰ	5
▁নিউট্ৰি	5
▁ৰোমান	5
▁tits	5
rki	4
▁Rev	4
description	4
▁স্মৰ	4
্তব্য	4
▁২৩	4
▁নিৰ্ভয়া	4
▁ত্যাগ	4
লত	4
▁নগ্ন	4
অষ্ট্রেলিয়া	4
▁Mac	4
▁ব্যক্তিজন	4
tri	4
low	4
▁নিউট্ৰিফ্ল	4
▁কণ্ড	4
ত্তৈ	4
ণ্ডু	4
▁নথকাকৈ	4
ৰোদ	4
▁পার্থক্য	4
▁ভাৰ্	4
Windows	4
bad	4
▁টকাত	4
▁বাচনি	4
contribs	4
স্তু	4
IRDA	4
▁কবি	4
▁সমালোচক	4
▁প্ৰতিবছৰ	4
ুষ্মা	4
▁বীচি	4
ুটেন	4
▁dr	4
্চ	4
▁আমোদজনক	4
▁শ্বাফাআত	4
meta	4
data	4
ধৰ্ম	4
মিন	4
▁চুম্বকীয়	4
াউচ	4
▁ৰৈ	4
জটিল	4
ɛ	4
এজন	4
▁অযোগ্য	4
▁অসমৰ্থ	4
▁প্ৰতিষ্ঠাত	4
পুৰী	4
▁ক্ৰেতা	4
▁বিকাৰ	4
cle	4
▁VirtualBox	4
সা	4
ালো	4
▁মুৰী	4
▁স্কুলগার্	4
▁আবেগ	4
▁কোম্পানীটো	4
পে	4
▁বিজনে	4
▁দিনপঞ্জ	4
▁বোটানিক্স	4
▁বুজাব	4
▁বাহিৰত	4
মান্য	4
GD	4
PR	4
চিৰ	4
▁আনা	4
▁ms	4
str	4
পঞ্চাশ	4
▁উপস	4
▁চেপ্তেম্বৰ	4
▁উদ্	4
ō	4
ōra	4
▁শি	4
ইন্	4
▁কিউ	4
▁ভূমিকম্প	4
▁নিজামুদ্দিন	4
▁অৱলম্বন	4
▁উলিয়া	4
েচা	4
জুমুআ	4
১৯১৮	4
▁ট্ৰ	4
▁তেনেদৰে	4
▁পাউণ্ড	4
▁চিকিত্‍সা	4
ীলৈ	4
▁Election	4
▁pu	4
lls	4
অফ	4
েডে	4
িডিও	4
▁খেলো	4
▁ৰূপৰ	4
াকাৰ	4
▁ইলেকট্ৰি	4
▁পিছে	4
বিজ্ঞাপন	4
quire	4
▁guy	4
▁প্ৰাপ্য	4
সম্মুখ	4
allmessages	4
▁চৰ্ত্তাৱলী	4
▁ৱাপচাপ	4
ights	4
Rese	4
▁কৰক৷	4
▁কৰে৷	4
▁কনটে	4
▁বাংলাদেশী	4
▁১৭	4
কালি	4
▁অতিথি	4
েন্দ্ৰনাথ	4
▁অব্	4
▁ভু	4
▁সমস্যাসমূহ	4
▁বিজুলী	4
এইচভি	4
▁হিমা	4
▁লং	4
াংক	4
▁কাৰণসমূহ	4
▁তাৰবীয়	4
ৰিয়ান	4
▁পূর্ব	4
PRO	4
▁GOLD	4
প্ৰদান	4
প্	4
▁কোনটো	4
দুঃখিত	4
▁বিচাৰিলে	4
▁Ama	4
▁মনল	4
▁পৰিণত	4
▁ত্ৰ	4
নিটি	4
▁প্ৰাপ্তি	4
▁সন্তুষ্ট	4
▁পায়খানা	4
▁আৰ্জন	4
▁প্ৰথমে	4
▁ফিল্ড	4
পৃষ্ঠাটো	4
্যাকৰণ	4
▁শ্ৰদ্ধা	4
িলং	4
▁বিসংগতি	4
▁অমিত	4
াভ	4
ভিডিঅ	4
ছেটেলাইট	4
ডিজিটীয়	4
▁সামগ্ৰীবোৰ	4
বছৰতকৈ	4
▁ফেক্স	4
▁আনুষংগ	4
খান	4
ংহা	4
ntm	4
বিষয়ে	4
▁নীতিসমূহ	4
▁গ্ৰন্থসমূহ	4
▁আচঁনি	4
▁অস্থিৰ	4
▁পুনৰীক্ষণ	4
▁নবীকৰণ	4
▁কাষ	4
▁চাপি	4
টোক	4
▁টান	4
▁পৰিহাৰ	4
▁উদ্যম	4
চনেল	4
▁ইউনিভাৰ্চিট	4
মেটিক	4
▁RE	4
ES	4
▁গৌৰৱ	4
blockip	4
ssa	4
দীপ	4
▁পার্ট	4
▁উইণ্ডো	4
▁১৯৬	4
SU	4
সৰ্বো	4
শ্যকীয়	4
কামোত্তেজকতত্ত্ব	4
চুক	4
▁কুং	4
▁ফেক্ট	4
নোযোগ	4
▁আনুবংশ	4
nger	4
▁লম্ব	4
▁$$\	4
▁লাগি	4
▁সামগ্ৰীখিনি	4
▁AO	4
modified	4
▁ফ্ুলপাছ	4
িণ	4
▁কোম্পানীসমূহ	4
ইড	4
ব্য	4
▁ফিল্মফেয়াৰ	4
▁পৰিয়ালে	4
▁দীঘল	4
▁শিক্ষায়তন	4
▁SMS	4
ঠাই	4
▁বই	4
▁এইবিলাক	4
তিনি	4
▁সহায়তা	4
▁Pal	4
▁সুস্থ	4
▁মজ	4
▁উঠে	4
ফাফ	4
▁ডিচ	4
▁কেন্সাৰ	4
▁ৰক্তপৰীক্ষা	4
Ř	4
Ä	4
▁মৃতক	4
▁৩৬	4
story	4
▁৪ৰ্থ	4
▁আকৰ্ষ	4
▁কাঠ	4
▁দৃষ্টিভংগী	4
▁ফলস্বৰূপে	4
▁বৰ্জন	4
বাড	4
▁Har	4
▁গেল	4
indian	4
▁পঁ	4
ja	4
▁সাঁচ	4
▁ছাইন	4
ndro	4
▁Deca	4
▁ex	4
server	4
▁ইসোগ	4
দ্যা	4
close	4
▁ফিটাৰ	4
▁বিপৰ্য্যয়ৰ	4
▁বিবাদ	4
▁অনুমান	4
▁Digital	4
▁প্ৰাগ	4
▁আমীন	4
োমিঅ	4
উনানী	4
িধা	4
▁will	4
pager	4
▁নিয়াম	4
▁বস্তুটো	4
য়ং	4
▁লিমিটেডৰ	4
▁কৃতকার্যতা	4
খোকামনি	4
▁ৰাজস্থান	4
▁পঞ্চ	4
▁সৃষ্ট	4
মার	4
মাথা	4
েণ্ড	4
▁ছবিখন	4
নুষ্ঠানিক	4
▁ডা	4
ির	4
িদ	4
জেন্ট	4
দাগ	4
▁পৰিস্কাৰ	4
▁উজ্জ্বলতা	4
▁Group	4
উদ্যোগ	4
▁ক্ষতিপূৰ	4
▁নদী	4
▁হেৰোৱা	4
▁সূৰ	4
urs	4
even	4
▁Time	4
mi	4
nt	4
▁দুৱাৰ	4
িজ্জা	4
িৎ	4
▁বু	4
▁বিজু	4
!'''	4
ingo	4
ran	4
▁উঠিব	4
▁খোজেঁ	4
বঢ়াই	4
খেলনা	4
man	4
▁ৰপ্তানী	4
▁ঘটনাস্থলী	4
▁Paras	4
▁ঢেকীয়াখোৱা	4
level	4
pa	4
di	4
ৱৰ্তী	4
▁ৰাণী	4
ৰীয়া	4
▁clos	4
HRC	4
lur	4
দ্দিষ্ট	4
▁অৰ্থবিজ্ঞান	4
▁প্ৰ্তি	4
▁গ্ৰাহকে	4
গাধা	4
▁নগল	4
PMFBY	4
▁ফচল	4
▁সেইখন	4
ৱলী	4
li	4
িয়াৰ	4
▁প্লাণ্ট	4
▁পতন	4
▁দহন	4
▁বাছি	4
ভাৰেজ	4
পবিষয়শ্রেণীসমূহ	4
শান্তি	4
▁ৰন্ধ	4
▁পৰম্পৰা	4
▁দূ	4
মেলা	4
▁লণ্ডন	4
▁অৰুণ	4
বেক	4
externally	4
▁কেন্দ্ৰসমূহত	4
থানল	4
gun	4
▁শিক্ষকতা	4
ন্নত	4
▁সৃজনীশীল	4
▁সাক্ষাৎ	4
̷	4
ave	4
▁পুষ্প	4
বাস	4
site	4
তথ্যকোষ	4
pul	4
লীয়া	4
▁Bre	4
▁সকলোবোৰ	4
▁WF	4
স্বীকাৰ্য্য	4
▁day	4
স্য়	4
চাব	4
▁বেংকসমূহ	4
z	4
Mpa	4
▁নিটোল	4
raā	4
▁তথ্যকোষ	4
▁এতিয়াৰ	4
▁বৃ	4
্য়া	4
▁১৮৯	4
গৃহিণী	4
▁ভে	4
অতিৰিক্	4
▁মুল্যৰ	4
▁ঈ	4
ঞ	4
ati	4
▁থৈ	4
ঝাৰ	4
পথত	4
ুৱেল	4
▁পাৱাৰ	4
ling	4
▁NEWS	4
াল্	4
▁কক্ষ	4
▁চতুৰ্থ	4
ana	4
section	4
▁সাহিত্যৰ	4
▁TE	4
▁▶	4
nocreate	4
▁থাকক	4
groups	4
▁ভাড়া	4
বিদা	4
▁space	4
ডাল	4
ূৰ্ণ	4
▁সহযোগীসকল	4
▁পক্ষসমূহে	4
▁বিধিসন্মত	4
নিৰ্দিষ্ট	4
▁প্ৰদানকাৰীসকলে	4
▁অধিকাৰক্ষেত্ৰ	4
▁যথোচিত	4
নিয়ত	4
িয়ে	4
ঈদ	4
▁কাহতানী	4
▁উভয়	4
▁চুৰিৰ	4
ংকৰ	4
মেস	4
▁ডায়	4
▁Click	4
থাই	4
▁পৰিপূৰ্ণতা	4
যা	4
খ্যা	4
বৃন্দ	4
াছিক	4
ky	4
▁মালিকানা	4
▁নিষ্	4
জাল	4
▁Porn	4
দালিৰ	4
▁মিশ্ৰ	4
▁আনি	4
▁সোণালী	4
▁বিয়া	4
▁ইঙ্গিত	4
editing	4
▁খলপ	4
▁নেলাগে	4
▁খানা	4
▁ক্ষীপ্ৰ	4
▁সম্পাদিত	4
▁Recipe	4
▁Ze	4
টেক	4
failure	4
userpage	4
▁কাৰ্য্যবাহী	4
▁চম	4
▁উভকামী	4
▁স্বচ্ছতানপুংসক	4
▁কাক	4
pan	4
ese	4
▁মোহা	4
▁ব্যৱধান	4
▁তাব	4
▁মধু	4
▁এতে	4
▁জায়	4
েয	4
▁লওঁক	4
▁ধাৰণ	4
▁ছয়মাইল	4
Pri	4
▁কিনিব	4
▁এদিন	4
▁ইউক্লিড	4
▁আৰ্	4
▁সঞ্চালকসকল	4
▁ধাৰাসমূহ	4
Ba	4
▁চাইকেল	4
▁অপেক্ষা	4
▁চিকিৎসালয়ধিন	4
▁কদ	4
াংগ	4
char	4
▁বেংকাৰ	4
▁স্নাতকোত্তৰ	4
▁কোৱালিট	4
▁আনিছে	4
remember	4
mode	4
▁ৰেল	4
রুৰ‍্	4
▁২৫০০	4
▁সীমিত	4
স্থায়ীভাৱে	4
▁অক্ষম	4
▁সাতটা	4
জেলা	4
▁বেই	4
▁প্রত্য	4
▁পোক	4
▁আকৰ্ষণ	4
োক্ত	4
্বিত	4
▁কৃষম	4
নাশ	4
ব্যাক	4
▁ছাবস্ক্ৰ	4
াইব	4
বাঁওফাল	4
▁নাযাব	4
cre	4
red	4
১৯১৪	4
▁ঐতিহ	4
ic	4
▁ঘন	4
▁Virtual	4
PD	4
ৰেদ	4
উদ	4
▁পেকেট	4
▁পঠিয়াই	4
▁পাঠ্যপুথি	4
ene	4
▁সঞ্চাৰ	4
▁চিকি	4
▁ডায়ে	4
▁গ্রীষ্ম	4
▁আৰ্থ	4
▁বুদ্ধিমত্তা	4
ুকি	4
▁অকপটভাবে	4
কীয়া	4
▁শ্লোভাকীয়া	4
▁চমত্কার	4
▁প্ল	4
িয়	4
▁সংক্ৰমণ	4
▁মূ	4
▁ডিঙি	4
▁এন্টিবায়	4
▁ফাইন	4
সংস্কাৰ	4
▁বিজ্ঞানমনস্কতা	4
মুম্বাই	4
permission	4
আপুনা	4
▁কষ্ট	4
[[	4
▁বাৰ্মা	4
ায়ণ	4
ni	4
▁Ac	4
▁ধ্বংসাৱশেষ	4
▁দেখিছো	4
▁অৱগাঁঠনি	4
ত্তে	4
EO	4
col	4
▁কাকীমা	4
▁বোনাচ	4
MMMM	4
ita	4
দণ্ড	4
▁Win	4
▁স্ট	4
use	4
পৰীক্ষামূলক	4
পীনস্তনী	4
▁ব্যাক	4
▁ধঁপাত	4
খলা	4
ার্	4
়তা	4
লাই	4
▁ৰিনিউ	4
▁যাদু	4
িন্ন	4
▁খিতাপ	4
▁অধিষ্ঠিত	4
▁AQ	4
আচল	4
লাব	4
জাতিয়ে	4
copyright	4
▁মেকুৰী	4
▁CAD	4
▁মন্ত্ৰীগৰাকীয়ে	4
গামী	4
▁তাসখন্দ	4
▁শব্দাৱলী	4
দিক	4
▁গাম	4
ছী	4
selected	4
ভাল	4
মংগলাষ্টকম	4
▁সুচ	4
াৰু	4
▁পেশা	4
▁প্ৰকল্পত	4
▁Thi	4
ck	4
▁নির়	4
লগ্	4
Ē	4
মোদী	4
গ্	4
▁Sibora	4
▁মাম	4
জাৰ	4
ject	4
শিৰোণামা	4
▁সাক্ষ্য	4
বিনামূল্যে	4
▁লুকা	4
▁ভাৰা	4
▁বিক	4
▁পৰীক্ষাসমূহ	4
সমষ্টি	4
ণ্ডার	4
িংচি	4
▁সংমিশ্ৰণ	4
ান্তৰ	4
Yox	4
this	4
অধ	4
▁বীচ	4
▁স্পেইন	4
▁ইংলণ্ড	4
▁যোগে	4
WF	4
▁বাহ	4
▁মুকেশ	4
▁টুইটাৰ	4
▁বুজায়	4
▁ল্যাব	4
▁৮০	4
▁বৰনামঘৰ	4
movedto	4
alway	4
ন্তু	4
▁ভৌ	4
তিক	4
েড	4
RY	4
CO	4
জ্ঞা	4
পাৰ্চ	4
ত্ৰুটী	4
▁দিও	4
▁Pension	4
িকিউৰিটি	4
PA	4
▁Art	4
▁আনক	4
▁শিৱেন্দ্ৰ	4
ead	4
▁লাগ	4
NKC	4
▁চলমান	4
▁কেন	4
▁Flash	4
for	4
▁স্বচ্ছতা	4
▁আপলাইন	4
▁বিতৰক	4
art	4
der	4
eca	4
▁linares	4
সংস্কৰণ	4
ফাই	4
▁"[[	4
SI	4
▁পৰোক্ষ	4
▁আকাশে	4
▁বিমানৰ	4
▁বস	4
▁ৰূপাঙ্ক	4
যুৱতী	4
প্ৰেৰণা	4
▁লোকজন	4
▁বলিভাৰ	4
▁তৈয়ব	4
EMA	4
ALA	4
▁পৰিপক্ক	4
ample	4
exas	4
▁চাৰ্	4
▁শিল্পী	4
▁তৰমুজ	4
▁নগদধনৰহিত	4
গড়	4
বাড়ি	4
▁ষ্ট্যাম্প	4
ফী	4
ৰুম	4
▁pro	4
▁ভেদ	4
▁প্ৰৱ	4
▁অন্ত	4
▁ফাগুন	4
দ্ৰব্য	4
▁ৱিকিপিডিয়াৰ	4
▁হিতাধিকাৰসমূহ	4
▁পদ্ধতিৰ	4
▁খুতবা	4
MPa	4
নফোস	4
▁কৰিমগঞ্জ	4
সময়ৰ	4
▁দিওতা	4
▁দেখোৱাওঁক	4
িজ	4
▁'"	4
িয়াই	4
▁অশুদ্ধ	4
▁মাৰক	4
▁পৰ্টেলৰ	4
▁blondes	4
▁ইতিবৃত্ত	4
▁At	4
▁১৯৮	4
▁লেন্সসমূহ	4
math	4
পৰিচিত	4
▁কর	4
_{	4
▁বছেৰেক	4
more	4
▁শিলাবৃষ্টি	4
▁খৰাং	4
▁অভিযুক্ত	4
▁ৰায়	4
ions	4
ণী	4
Р	4
й	4
se	4
▁প্ৰতিদিনে	4
ষাইট	4
রুৰা	4
▁অত	4
▁তোলে	4
▁সুবিধাসমূহ	4
▁হাণ্ডা	4
▁ফজ	4
ক্ষী	4
og	4
▁ছি	4
▁হাস	4
▁মজু	4
▁সাজ	4
জমা	4
els	4
মূল্যৰ	4
▁অগ	4
▁প্ৰশ্নবিলাক	4
▁Has	4
oy	4
আইডি	4
▁স্বয়ংক্ৰিয়	4
▁বীমাকাৰী	4
▁ক্ৰে	4
▁আৰ্হি	4
ছচি	4
▁কেলেংকাৰী	4
▁জামিন	4
▁মনোনীত	4
▁ৱিক্সনেৰী	4
▁শষ্য	4
▁চাইকেড	4
কানি	4
সংস্থাপন	4
েইন	4
▁III	4
▁GGN	4
▁KUN	4
ুত	4
▁গ্ৰাহকসকল	4
্রবা	4
িডি	4
এছটি	4
২৯	4
মাম	4
▁বাঢ়ি	4
nata	4
▁শ্ৰেষ্ঠত্ব	4
▁সাঁথৰ	4
▁বিত্ত	4
▁আদৰণি	4
▁জনাই	4
▁সংৰোপণ	4
াবে	4
berg	4
▁লিঅ	4
▁ভাগত	4
▁মীনা	4
et	4
▁অপচন	4
▁CA	4
ru	4
▁সিংহ	4
কলেজ	4
▁এড	4
▁TED	4
▁সংস্থাপনা	4
▁Support	4
প্ৰকাশিত	4
windows	4
▁স্ক্ৰীণ	4
▁ফেটিশ	4
▁নাম্বা	4
বাদাম	4
▁San	4
ক্সক্সক্সক্স	4
হণ	4
▁Oct	4
lv	4
▁নন্	4
ুৰ	4
▁শিক্ষাবিদ	4
Do	4
▁এন্টাৰ	4
▁অ্যাপ	4
বার	4
▁ৰাজনৈতিক	4
▁দ্য	4
কাৰৰ	4
▁স্বচ্ছ	4
ীমৰ	4
▁দুৰ্বল	4
سامي	4
▁কবিতা	4
ontent	4
ner	4
▁MRO	4
▁Writ	4
্যাপ্ত	4
▁অৰ্থো	4
▁পৃথিবীতে	4
▁উত্তেজিত	4
▁গ্ৰাহকজন	4
▁আশ	4
াকা	4
মিলি	4
▁অন্যথা	4
ಸ	4
▁জিহ	4
িলী	4
▁গান	4
▁গাভৰু	4
Statistics	4
tatus	4
▁মনস্তত্ব	4
▁চিকিৎসালয়ধীন	4
বীমা	4
▁সংকটজনক	4
rator	4
ৱতী	4
▁শিকণ	4
▁Aug	4
সের	4
▁টোনার	4
▁এলান	4
▁সমৰ্থ	4
ঢ়	4
▁এক্সপ্	4
▁সেট	4
ative	4
সদস্যৰ	4
৫৬	4
ইলেক্ট্ৰনিক	4
শিল্পী	4
▁বাংলাদেশ	4
২২	4
▁তদুপৰি	4
ায়ূদ	4
▁আঁট	4
▁সোমাই	4
د	4
ه	4
চত	4
▁পোৱালি	4
abha	4
▁কিয়া	4
৫৪৯৯	4
▁০	4
টী	4
বুব	4
▁অপৰি	4
মেয়	4
চমত্কার	4
▁boobs	4
লুপ্ত	4
NG	4
▁(‘	4
▁বাজাজ	4
▁প্ৰশংসা	4
▁প্ৰসংগ	4
নাইলন	4
iji	4
দৃষ্টিকোণ	4
ইটি	4
▁ট্রে	4
েমে	4
টিকেল	4
চাইটি	4
▁ফায়াৰ	4
▁অভিন	4
াসে	4
▁অনুষ্ঠানটো	4
▁মাধৱদেৱ	4
‍	4
▁শ্লোভাক	4
▁অর্থা	4
যোগ	4
▁দেৱ	4
▁ভাবুকি	4
▁অত্যাৱশ্যকীয়	4
▁অচল	4
▁বার্তা	4
▁এচি	4
কিমি	4
বেশাধিকাৰ	4
($	4
▁সুবিধাজনক	4
▁চলচ্চিত্ৰ	4
duplicatesearch	4
▁ভব	4
▁গান্ধী	4
▁ব্ৰহ্ম	4
`	4
▁স্বশ	4
জন্ম	4
▁তাঁৰ	4
▁উৰণ	4
নিয়ৰ	4
েদি	4
গাৰ	4
▁গাফিলতি	4
াজু	4
লস	4
জিকা	4
ṭ	4
ক্ষিত	4
ীশ	4
▁ফৰ্ম	4
ting	4
num	4
rvi	4
▁নোড	4
look	4
▁Ass	4
চিয়ে	4
▁উত্স	4
▁লোকসংগীত	4
▁অন্তৰ্ভূক্ত	4
িও	4
▁চলায়	4
স্থায়ী	4
asket	4
λ	4
ι	4
ά	4
প্লাৱন	4
▁প্ৰবন্ধটি	4
ora	4
▁লেখাটো	4
▁জনাইছে	4
▁ব্যবহাৰকাৰী	4
▁উইপ্ৰ	4
২৫	4
▁টিউট	4
▁ন়	4
▁হৃদযন্ত্ৰ	4
শ্চ	4
icated	4
▁সহকাৰী	4
▁যুক্তৰাষ্ট্ৰ	4
পাৰস্প	4
▁এনডি	4
▁দুগ্ধপান	4
▁ছিয়াম	4
সৰল	4
▁অনুৰাগ	4
▁বৰ্ত্তমান	4
de	4
▁লওঁ	4
▁গৰাকীয়ে	4
▁আঁতৰোৱা	4
▁ব্যৱস্থাপন	4
play	4
ট্ৰেডমাৰ্ক	4
▁Table	4
▁পাঞ্জাৱ	4
aker	4
▁প্ৰথা	4
▁সমন্বয়ৰ	4
▁এবছৰ	4
হাম্ম	4
▁সিংৰ	4
তাত	4
▁মন্ত্ৰীৰ	4
দৰং	4
▁অংগীকাৰবদ্ধ	4
▁CAS	4
▁কেৰেলা	4
rite	4
▁Kil	4
bra	4
▁Sat	4
nja	4
▁কিলাকুটিটো	4
▁দলটোৱে	4
js	4
▁এর	4
▁বিধেয়কখন	4
াৰ্থে	4
রন্	4
মুঠ	4
▁খু	4
▁সঞ্জয়	4
▁জগৰীয়া	4
▁ধাৰণাৰ	4
▁শুই	4
▁লাভালাভ	4
▁মহাৰাষ্ট্ৰ	4
▁হাৰিয়ানা	4
াগত	4
▁সমূখ	4
▁পৰিপ্ৰেক্ষিতত	4
ভেদন	4
▁শুভক্ষণ	4
▁ইঞ্জিনিয়াৰিং	4
▁ৰিজ	4
উশা	4
▁কিপ	4
্ৰাহী	4
▁k	4
▁Perfect	4
পেতে	4
ers	4
▁উৎসসমূহ	4
ীকৃত	4
কল্প	4
▁সমক	4
▁প্লেন	4
ce	4
▁বিব	4
▁কেলকুলেট্যৰ	4
েশ্বন	4
▁Stor	4
▁Set	4
erf	4
▁VP	4
▁ৰেটিং	4
▁পুচ	4
▁গুঁতা	4
▁Ja	4
চোন	4
তিোন	4
মেথ	4
নুম	4
▁দশম	4
▁নীতিত	4
েলেন্ট	4
▁অঙ্গুলিসঁচালন	4
▁গোবিন্দ	4
▁কেচুৱাটি	4
▁শুনক	4
সময়ত	4
▁Si	4
▁কমি	4
▁গণিতজ্ঞা	4
ৰ‍্ৰ	4
▁চিৰি	4
▁দায়িত্বৰপৰা	4
▁সমৃদ্ধ	4
▁যো	4
ুম	4
▁বেশ্যা	4
wed	4
▁কৰ্মচাৰীয়ে	4
বৃত্ত	4
▁মিথেন	4
ant	4
▁সংস্থান	4
▁প্ৰাধ্যাপক	4
▁নেহ	4
▁কালছোৱাত	4
▁আশ্ৰয়	4
fail	4
বস্তুবোৰ	4
▁শ্লোভাকিয়া	4
▁ক্রোৱেচিয়া	4
▁হাঙ্গেৰী	4
▁উপদ্ৰৱ	4
এফবি	4
▁বসুমতাৰী	4
▁মেথান	4
files	4
▁গাৰ্গ	4
▁নমনীয়	4
mediawiki	4
▁ভাষ্য	4
▁অতিমানৱ	4
বৈ	4
▁আলোচনাত	4
▁মুনি	4
চালিকা	4
▁কৃষকসকল	4
oti	4
▁মেধি	4
▁Am	4
▁বিদ	4
▁হাৰ্ডৱেৰ	4
▁ভোট	4
xxxtrasmall	4
▁অক্টো	4
Di	4
কৰণীয়	4
▁গোপীনাথ	4
পীঠ	4
ৱাল	4
▁হৈছো	4
হাৰি	4
uru	4
▁অভ্যুত্থান	4
▁দখল	4
নিখুঁত	4
▁১৯৪	4
ম্য	4
ৰ‍্	4
পাছৱৰ্ড	4
িকেন	4
▁যৌৱন	4
▁na	4
▁যোৰহাট	4
ল্লৈ	4
কেটৰ	4
নহওক	4
▁১৯৯৮	4
ণ্টন	4
জ্বল	4
▁dildo	4
▁সন্ত্ৰাসবাদী	4
ft	4
▁হেনৰি	4
▁ছলাহ	4
যাত্ৰা	4
▁জ্ঞাত	4
▁সূচকীয়	4
▁প্যান্টিহস	4
ever	4
▁ঘৰতে	4
▁উক্তি	4
▁ছিম	4
ম্বার	4
▁চাকৰিত	4
েৎসু	4
▁ال	4
▁অইলাৰ	4
▁নকৰিব	4
▁আঁতৰাব	4
▁আভাস	4
▁ভণ্ড	4
▁ছোৱালী	4
ংচি	4
▁ভট্ট	4
▁সম্পা	4
ওঁক	4
দাৰ	4
▁ফিৰ্কা	4
▁মোডী	4
▁ৰাভা	4
▁প্ৰতক্ষ	4
▁ছল	4
▁কন	4
cookies	4
▁ঘটিছে	4
▁উলংঘা	4
৩২	4
লপতি	4
▁এম্বুলে	4
▁বাদ্যযন্ত্ৰ	4
▁বাদ্য	4
▁http	4
hd	4
▁সংস্থাপন	4
গুণ	4
ুদ্ধ	4
▁সিদ্ধ	4
UC	4
▁পৰিয়ালবৰ্গ	4
কাল	4
শক্তিপীঠ	4
il	4
ক্ষমতা	4
সন্মত	4
▁ধৰনে	4
▁মুছল	4
ology	4
▁উপলব্ধি	4
▁বন্দবস্তি	4
নিত	4
ৰাণী	4
▁দেউতাক	4
▁গুণাগুণ	4
▁পূব	4
নেছ	4
লাখ	4
▁ততো	4
চুন	4
▁Office	4
বে	4
▁narrow	4
▁CHF	4
▁October	4
▁উপা	4
হনা	4
▁কাম্য	4
♚	4
▁পৃষ্ঠালৈ	4
▁বিস্তাৰ	4
▁নম্ব	4
চুৰ	4
▁অর়িৱ	4
▁২০১১	4
▁কোহলী	4
▁GBP	4
ওখ	4
▁পৰিচৰ্য্যা	4
▁পদ্ধতিবোৰ	4
▁জনায়	4
বৰ্ধ	4
▁Kushuberu	4
তাবাদ	4
▁থা	4
removed	4
▁থে	4
মাৰ	4
ূদ	4
মুদ্ৰ	4
▁খুটা	4
▁খালি	4
▁৮০০	4
ial	4
rie	4
▁পূৰ্বাহ্ণ	4
বেৰ	4
▁ইটছ	4
▁হেমাহি	4
▁Hot	4
▁কীম	4
box	4
▁CTN	4
▁স্বীকৃত	4
▁দলংখন	4
raw	4
উলকি	4
মজ্জ	4
▁পাৰ্কিং	4
দূৰ	4
▁ইঞ্জিনীয়াৰ	4
▁বায়োডাটা	4
▁অধিহাৰ	4
▁মুৰব্বী	4
▁অষ্ট	4
databaseerror	4
▁আঙুলি	4
▁বিকলাংগতাৰ	4
watching	4
ফাইলিঙ	4
missing	4
▁ভঙা	4
নুশাসন	4
ঙ	4
ঢোল	4
পত্ৰসমূহ	4
▁আতংক	4
ice	4
ম্ব	4
▁বিৱৰ্তন	4
Hom	4
ank	4
ফলাফল	4
▁বহুমুখী	4
▁ক্লাছিক	4
▁স্কিন	4
▁সত্যতা	4
▁পানীয়	4
▁পৰ্টে	4
টিল	4
লোৱাটো	4
π	4
▁সংখ্যাবোৰ	4
ä	4
দামত	4
শাহ	4
▁যতনটো	4
▁বাহু	4
▁গুৰু	4
চুদাচ	3
হদি	3
বিঘিনি	3
বায়	3
োঁ	3
▁চল	3
▁২৯	3
শ্বাস	3
▁ইঞ্জি	3
▁las	3
শাসন	3
চুদাচুদি	3
▁কোংড	3
CHT	3
নিৰ্দ্ধাৰ	3
ষ্টীয়	3
াৰাত্মক	3
▁Nu	3
▁ভাৰচুৱেল	3
▁মুড	3
েছে	3
▁সুৰুঙ	3
timezone	3
scre	3
Custom	3
▁মণ্ডল	3
▁গাঁঠনি	3
নীতি	3
access	3
▁ফতোৱাত	3
ৰোনাত	3
▁ষ্টাইল	3
ৰুণ	3
▁সম্ভাৱনাপূৰ্ণ	3
active	3
tab	3
▁সন্নিধৌ	3
▁ক্রিয়া	3
▁মুশ্বৰিক	3
▁তৌহীদপন্থী	3
ধাৰিত	3
▁কুঠ	3
বিষয়	3
▁উম্মাহ	3
মিমি	3
দিয়াৰ	3
▁অভিভাৱক	3
চুটি	3
ঘড়	3
▁বন্দৰ	3
পৰিকল্পিত	3
▁fa	3
▁mature	3
_'''	3
জিব	3
ৰুৱা	3
সংলগ্ন	3
▁উৰ্বৰ	3
▁অৰ্ধ	3
▁আসক্ত	3
▁নিশ্চ	3
েতক	3
▁দুৱ	3
গনি	3
শ্	3
োল	3
ore	3
▁জলপো	3
▁দুৰ্গ	3
▁দুর্	3
বশত	3
▁বাকচ	3
contri	3
▁সুৰক্ষাকবচ	3
▁Ci	3
egion	3
▁Euro	3
gin	3
ালাই	3
▁হয়ঃ	3
▁ছারত্ী	3
স্চো	3
▁Ar	3
men	3
▁আমহাৰিক	3
ছালত	3
▁সাহাৰ্য্য	3
▁তাই	3
জুই	3
▁৫২	3
বৈজ্ঞানিক	3
▁মানৱীয়তা	3
শীলতা	3
▁কৰ্তব্যৰ	3
▁দিছো	3
▁২৫০	3
▁ব্ৰণ	3
বাহিৰ	3
ৱ্ৱা	3
▁নিৰ্বাচনৰ	3
▁শিল	3
▁বেল	3
রং	3
নম	3
দ্য়	3
FIC	3
▁ওপ	3
▁য়ু	3
▁হেজাৰ	3
প্ৰকল্প	3
▁৬৩	3
gr	3
চালিত	3
শাইয়	3
লিগাম	3
▁ৰাচিয়া	3
sian	3
▁ছেটিং	3
▁স্বাভা	3
▁বিনিয়ম	3
চক্ৰ	3
▁পূন	3
▁আয়তন	3
▁নির্মা	3
▁অনুষ্ঠানটি	3
সৃষ্ট	3
ায্য	3
▁পোছাক	3
পৰিচ্ছ	3
▁স্পাউট	3
মূহ	3
▁তফ	3
▁কুকী	3
পুনি	3
বর্তী	3
KE	3
▁ৰেলপথ	3
▁ৰাজ্যখন	3
▁স্লট	3
▁নিষ্ঠা	3
েঃ	3
▁হাফিজাহুল্লাহ	3
▁তুলা	3
▁scene	3
▁সৈকতসৈকত	3
▁মেয়েরা	3
bel	3
SK	3
BL	3
▁গুণগ	3
▁মানদণ্ডৰ	3
▁হেৰুওৱা	3
▁sl	3
uts	3
মন্ত	3
সাত	3
▁তাৰোপৰি	3
দৃষ্টি	3
▁ল্যা	3
লিন	3
▁পাছতে	3
▁নিউজিলেণ্ড	3
Ɇ	3
▁নহব	3
দেশনা	3
▁ৱাৰ্ড	3
▁ধাৰ	3
▁হানি	3
▁দায়ী	3
▁খিল	3
চাৰ	3
▁উত্থাপ	3
▁শুকুৰব	3
▁আকাশ	3
▁ধাৰাত	3
▁কাৰণতে	3
াষ্ট্	3
▁আশী	3
্বাদ	3
▁Net	3
ছাইট	3
▁সৃজনশীল	3
▁নিয়োগকৰ্তা	3
▁শ্ৰম	3
দ্যাগতগতিবিজ্ঞান	3
▁ডাইৰেক্টৰ	3
▁নিৰ্বা	3
▁ফস	3
চ্যুত	3
▁আহিলে	3
roject	3
সম	3
▁Wee	3
SO	3
▁জাপাি	3
Ori	3
▁আলবানী	3
VP	3
newuserlog	3
entry	3
স্বয়ংক্ৰীয়	3
MR	3
tatistics	3
্যজনক	3
▁স্বপ্ন	3
ুঁৱৰ	3
▁ওজা	3
▁কেতবোৰ	3
টীয়া	3
প্ৰজাতি	3
▁দৃষ্টান্ত	3
▁থাৰুৰ	3
লকিম	3
▁ৰোজ	3
▁গোলাপ	3
▁দ্বি	3
MN	3
বড়ো	3
▁ঘটে	3
▁মুল	3
▁আশংকা	3
▁দুৰ	3
▁ৰদ	3
▁চোল	3
▁icon	3
▁Sh	3
▁সূচক	3
▁প্রশ্ন	3
সঙ্গ	3
xz	3
WA	3
▁সংকল্প	3
পৰ্য্যৱেক্ষনকাৰী	3
অভিযন্তা	3
▁স্থিতিৰ	3
য়োও	3
watchthis	3
পেন	3
▁৬০০	3
▁চৰ্তবোৰ	3
▁উপযোগিতা	3
▁জাহেৰ	3
▁ডিজিটা	3
ga	3
▁হৈম	3
haima	3
ika	3
ভঁৰাল	3
মেরি	3
▁৫৬	3
বাওঁফালে	3
বৰ্তমান	3
ৰাষ্ট্র	3
মুহূৰ্ত্ত	3
▁কালোউদ্ভট	3
▁সেইসকল	3
▁জিল	3
তাল	3
বুত	3
▁ফ্ৰি	3
▁২০১৩	3
Ŕ	3
▁ফাক	3
▁Comment	3
▁প্ৰাৰ্থ	3
▁উপাসনা	3
▁৯৯	3
MW	3
াৱি	3
▁NO	3
ec	3
▁নৰওৱে	3
▁উত্‍স	3
লেহে	3
▁জন্মা	3
▁নিদিয়ে	3
দেও	3
tha	3
longpage	3
▁অৱৰোধ	3
▁নমন	3
summ	3
\'	3
join	3
▁উদ্ধৃতি	3
গুৰুত্বপূৰ্ণ	3
েৰী	3
এডি	3
লেণ্ড	3
▁টেৰি	3
▁কোণ	3
▁Kshit	3
kar	3
▁মাতৃভাষা	3
ত্ত্ব	3
▁Ser	3
▁ছাৰ্	3
▁Fl	3
োপচা	3
▁স্বাস্থ্যখণ্ড	3
▁সব	3
হৈ	3
setu	3
২০১৪	3
স্মিত	3
▁মাস্ক	3
rse	3
▁গাৰ্গৰ	3
▁ইয়োম	3
সভা	3
▁প্ৰতিদ্বন্দ	3
▁আগবঢ়াইছিল	3
▁অনুৰাগী	3
▁খানকি	3
▁Desk	3
শ্বা	3
াচী	3
েশ্যন	3
ৰ্ল্ড	3
▁ট্ৰেক্টৰ	3
▁দীক্ষিত	3
▁আয়ুৰ্বেদ	3
▁af	3
table	3
▁box	3
▁ا	3
sho	3
MO	3
▁ইনভইচ	3
▁সকলোবোৰে	3
▁সূচায়	3
▁চিনি	3
ষা	3
▁প্যান	3
নাল	3
বিবেচনা	3
▁এজেন্সী	3
▁চুক্তিপত্ৰ	3
▁ভারতীয়	3
▁কাস্টমাইজ	3
▁প্ৰাৰ্থীজন	3
▁Ltd	3
ক্ষা	3
▁চফট	3
্ওৱ	3
▁Contact	3
যান	3
▁চিল্কচ	3
লৈস্ত	3
raj	3
▁ড্যা	3
লোট	3
▁বিক্ৰিয়া	3
cant	3
উপ	3
▁ভুৱা	3
▁চিংক	3
▁ফাংচন	3
\$	3
▁কোমল	3
র্তি	3
▁পৰিচালনাৰ	3
▁পেছা	3
প্যাড	3
iver	3
▁শব্দবোৰ	3
কাশ	3
▁সহস্ৰ	3
ৰৱ	3
▁হাঁহি	3
▁Version	3
▁Search	3
▁words	3
est	3
▁অক্সিড	3
vials	3
▁ফিতৰ	3
বাই	3
শুভতা	3
জন্তু	3
▁ছয়টা	3
▁বেচ	3
Kē	3
▁পেটেন্ট	3
▁দানা	3
সম্পৰ্কীয়	3
▁চাকৰিটো	3
▁তদন্ত	3
ey	3
▁গাঞ্জা	3
▁চকী	3
▁পুৱতি	3
▁অভিমুখ	3
পিছৰ	3
▁নেতাসকল	3
▁পৰিসীমিত	3
▁দেশখন	3
মনসা	3
css	3
▁একেদৰে	3
▁ৰামে	3
▁নবীকৰন	3
পৰবৰ্তী	3
▁মাইকেল	3
Ki	3
ামৰ	3
বলিত	3
▁নমস্	3
▁ভাৰ	3
▁কৈবল্য়ম	3
পদ্ধতি	3
সংখ্য	3
▁ভভেদন	3
stri	3
ease	3
মৃত্যু	3
▁কেশ্ব	3
▁অৱশ্য	3
়ে	3
গাঁও	3
▁গর্ভ	3
details	3
ংদা	3
▁মংদা	3
রি	3
▁কাচমণি	3
মিথাইল	3
▁নল	3
sext	3
▁সীতাৰমণ	3
suppress	3
▁মিলা	3
লোকৰ	3
পনা	3
▁জগাই	3
▁সস্নেহ	3
▁চিত্ত	3
হস্ত	3
▁ভট্টাচাৰ্য্য	3
▁Chlo	3
▁Inte	3
aks	3
▁সেইকেইটা	3
▁আগলৈ	3
▁মিক্স	3
ণ্টা	3
▁hour	3
▁month	3
▁year	3
inf	3
কং	3
US	3
............	3
.............	3
▁বৰ্ড	3
টেবল	3
▁PT	3
▁Autodesk	3
readonly	3
্ত	3
argument	3
▁হতাশা	3
▁ক্লিন	3
্যাঁ	3
[/	3
্ডন	3
স্কট	3
শৰীৰ	3
বিজ্ঞানী	3
থলী	3
▁অক্সফোৰ্ড	3
বিচল	3
moved	3
▁ওলাইছে	3
▁Ra	3
jeev	3
▁সহনশীল	3
▁ধৰোঁতা	3
▁নহওঁক	3
▁ঙ	3
টু	3
জহু	3
customcss	3
▁IDSA	3
▁Cer	3
োক	3
cal	3
physic	3
older	3
পাশ	3
ea	3
ON	3
▁ভগভিজা	3
▁আঁৰ	3
শ্বিদ্দী	3
ন়	3
রুন্দ	3
high	3
broken	3
ভঙা	3
্হ	3
িনী	3
াম্	3
▁মুমিন	3
▁উদ্দেশ্যসমূহ	3
বাঘ	3
▁কার্য	3
দক্ষতা	3
▁শিক্ষাৰ্থীসকল	3
▁মাদ্ৰাছা	3
▁সহায়িকা	3
▁MediaWiki	3
▁কাণ	3
ভাষা	3
tack	3
haus	3
ted	3
▁বড	3
বুদ	3
▁অগ্রগতি	3
ধি	3
read	3
HTTP	3
tits	3
▁Foot	3
HUB	3
ষ্টবোৰ	3
▁আগ্রহী	3
ানী	3
āma	3
ভাড়া	3
▁আক্	3
▁প্ৰী	3
মিয়াম	3
hree	3
▁সংহত	3
ৌজ	3
▁অপবাদ	3
০৬	3
ক্ৰান্ত	3
তীৰ্ণ	3
▁পিচ	3
▁কাৰো	3
▁মহাকাশ	3
▁মঙ	3
োগাল	3
▁চিষ্টেম	3
▁মুখা	3
▁তাতো	3
▁স্পষ্টৰূপ	3
_”	3
মেং	3
▁নির্বাচ	3
nē	3
▁নামে	3
াংসাৰ	3
▁apt	3
get	3
ho	3
redirects	3
▁পরি	3
িকাত	3
▁১২০	3
১২৪	3
২০১৯	3
▁নম্বৰত	3
▁চাৰ্জ	3
▁সিল	3
এক্টিভ	3
▁বিষ্ফোৰ	3
ফত	3
tion	3
▁Care	3
▁Common	3
▁Disease	3
▁লাগিলে	3
লেও	3
▁সম্প্ৰচাৰ	3
গোসল	3
▁খাতি	3
▁সূচি	3
▁অন্তৰ্	3
hook	3
গ্ৰস্ত	3
▁ছে	3
যুত	3
ৱাৰ	3
য্য	3
▁রাস্তা	3
▁তেঁ	3
▁গেল্	3
আৰ্কাইভ	3
▁স্কুলগা	3
bha	3
ীড়	3
▁তৈরি	3
▁পিপ	3
্ৰ	3
নাৱ	3
▁বিদ্যাৰ্থী	3
ীয়ে	3
▁done	3
▁আগবঢ়া	3
▁উচ্ছলা	3
৩৯	3
▁পিজ্জা	3
ষী	3
▁বিচাৰিব	3
▁Sc	3
▁জীৱনসংগী	3
▁ভ্ৰ	3
ুদা	3
▁কিছূ	3
োটে	3
LN	3
▁সহজলভ্য	3
▁বিলাকত	3
▁Artisan	3
▁পেলোৱা	3
▁Tok	3
UTO	3
▁পাও	3
▁পিছলা	3
বৃত্তি	3
▁দ্ৰ	3
▁য়োগ	3
▁অলিম্পি	3
য়ূ	3
▁বিচাৰো	3
▁ৰাখিলে	3
▁চুদা	3
▁পৰম	3
▁তালিকাৰ	3
ধানী	3
▁উত্ত	3
▁পৰিছিল	3
▁ৰূপান্তৰিত	3
▁পাৰ্ট	3
▁হুছেইন	3
▁ইষ্টা	3
▁হিমালয়	3
মেষ	3
▁ঊন	3
▁কাপ	3
▁ধৰ্মৰ	3
পুৱা	3
▁প্ৰত্যাহবান	3
ার্ফ	3
অকপট	3
ngli	3
Pran	3
ks	3
Experi	3
▁ছেলিঙ	3
লাইন	3
ষ্মিক	3
াইছে	3
ফ্	3
ñ	3
▁জমেটোৱ	3
▁আকাংক্ষাৰ	3
▁লানি	3
▁প্ৰডাক্টৰ	3
োক্সি	3
ello	3
সহায়	3
▁শীঘ্ৰে	3
▁পিট	3
তুভ	3
▁পংচব	3
্রায়	3
▁বিভক্তি	3
্র	3
▁রাজা	3
লোম	3
▁নিৰ্মাণত	3
▁পতংগ	3
ভোজী	3
▁ছাল	3
অদ্ভুত	3
▁জাপানি	3
েটৰ	3
▁ৰাসায়নিক	3
▁কীট	3
▁সাৱধান	3
▁প্ৰেছ	3
জিপ্লাছ	3
▁ফৰৱাৰ্ডাৰ	3
ডেটিং	3
▁পৃথিৱীজুৰি	3
▁মাজতে	3
গ্ৰন্থ	3
পর্	3
ছিঅ	3
ফ়ো	3
াওনা	3
▁বোধ	3
frac	3
▁এডি	3
ডত	3
let	3
▁খণ্ডত	3
▁মট	3
▁স্কেন	3
▁অভিজ	3
▁Machine	3
▁কৰিলো	3
ina	3
▁CNH	3
▁মার্ক	3
▁পৰ্য্যবেক্ষ	3
▁তৎক্ষ	3
নাত	3
▁সংস্কাৰ	3
ar	3
▁shemales	3
্তত	3
▁উণর্ৱ	3
does	3
মাৰ্চ	3
ncolo	3
োগ	3
ডবো	3
sed	3
Preferences	3
▁পছন্দ	3
▁ট্রান্সফাৰ	3
▁সাময়িক	3
ge	3
▁বেক্টেৰিয়া	3
▁কান	3
ontinue	3
▁সংৰক্ষক	3
▁ডিলাৰ	3
eed	3
▁গেল্ওৱা	3
▁শিকিলেহেঁতেন	3
▁ভুমিক	3
▁জিৰণি	3
ইফক	3
▁পঠাওক	3
▁অপসাৰ	3
▁পাৰা	3
▁বর্তমান	3
▁বাহিনী	3
▁নিয়মনিষ্ঠা	3
▁বিষ্ফোৰন	3
gical	3
ীল	3
▁শুক্ৰবাৰ	3
্যাসি	3
ক্লেইম	3
োভে	3
▁জুচ	3
▁ফ্লেভাৰ	3
▁বাৰ্তাটো	3
ফুট	3
key	3
words	3
▁ৰস	3
have	3
▁প্রত্যেক	3
▁Pranam	3
▁Kalita	3
▁ইলম	3
াবেশ	3
০৩	3
▁সময়সূচী	3
balsa	3
▁Cross	3
হুয়া	3
যৌন	3
▁QTP	3
▁আশ্চৰ্য	3
▁উলিয়াইছে	3
ইয়াৰ	3
টোলৈ	3
দ্বিতীয়	3
কেৱাইচি	3
as	3
index	3
ৱিক্স্যনেৰী	3
▁রঙ	3
▁কাজিৰঙা	3
EMEN	3
ডবল	3
বফ	3
▁অত্ত	3
ফেয়াৰ	3
▁ওজাৰ	3
▁পল্লৱ	3
blank	3
খালী	3
▁আগেয়ে	3
▁কাস্টম	3
▁এনআৰচি	3
▁দ্বাৰস্থ	3
▁নিৰৱ	3
▁চেম্পিয়ন	3
▁মেৰীকম	3
▁শীৰ্ষস্থান	3
▁উৎ	3
প্ৰেমী	3
জেন	3
লবাৰ্ট	3
▁সজুঁলি	3
▁প্ৰক্ৰিয়াত	3
লৈন	3
ass	3
bigass	3
▁কিডন	3
▁ডায়েলাইছিছ	3
কিনি	3
▁ম্যা	3
NR	3
াৱলীৰ	3
▁সৃজন	3
▁ধনী	3
PS	3
▁প্ৰপত্ৰখন	3
▁TN	3
▁বিজুব	3
িংচ	3
▁গ্যা	3
কেট	3
▁সিলি	3
▁হেড	3
▁পেপার	3
ডিঅ	3
ipblocklist	3
যুম্	3
▁ওরি	3
that	3
▁cal	3
iṭō	3
▁Pv	3
©	3
জী	3
ইণ্ট	3
▁বিচ	3
▁এক্সচেঞ্জ	3
ধেমালি	3
কল	3
▁চলাইছে	3
▁বিেয়	3
দৌ	3
С	3
п	3
▁সতৰ্কবাণী	3
য়তি	3
▁অসং	3
▁ব্যৱ্হাৰ	3
▁ভেকুলী	3
বাজী	3
▁দিশটো	3
elect	3
অটোক্যাড	3
দশ	3
▁Sud	3
rom	3
▁ফাটি	3
▁বিকল	3
▁বিফল	3
ক্ক	3
bug	3
১৭	3
▁মহ	3
label	3
▁নিহিত	3
▁মাথো	3
িবর্তন	3
▁নিপ	3
▁চফ্টৱেৰ	3
প্ৰতিষ্ঠা	3
▁হেৰা	3
২৮	3
বৃক্ষ	3
েচ্ছা	3
English	3
▁যোগোৱা	3
ৰোৱান	3
▁হেমিল্টন	3
▁ঘৰলৈ	3
▁অপৰাধী	3
▁বৈধতাকৰণ	3
UL	3
ইন্দোনেচি	3
▁বৃষ্টিপাত	3
পুল	3
মুদ্র	3
long	3
▁বৈঠকত	3
▁সভাপতিত্ব	3
▁কুমাৰে	3
স্বতন্ত্ৰ	3
হসি	3
▁সুধি	3
াগাৰ	3
▁আন্ত	3
function	3
▁যথো	3
তত্ত্ব	3
জিং	3
নিবেশ	3
ঔ	3
াতি	3
emis	3
স্মৰণ	3
▁মেডি	3
▁ফে	3
▁চৌধুৰীৰ	3
▁Language	3
▁Fact	3
ache	3
২০৫	3
ছু	3
েন্দ্ৰ	3
▁গন	3
পরি	3
▁ৱন্দ	3
▁Sudha	3
ddy	3
সম্মত	3
▁নির্দেশি	3
ison	3
mber	3
▁ra	3
▁পৰিণাম	3
▁নীলা	3
▁মুখগুদ	3
▁কোম	3
▁নায়ক	3
▁পৰিৱৰ্ত্ত	3
reate	3
০৪	3
IDS	3
▁হয়েছে	3
ছাইটত	3
▁শ্বেয়াৰ	3
nu	3
▁ছত্ারী	3
সাংবিধানিক	3
হাট	3
▁অভিযান্ত্ৰিক	3
ৰঙ্গ	3
চ্ছাকৃত	3
▁অস্বীকৃতিজ্ঞাপণ	3
▁নোটবুককেইটা	3
▁পৃষ্ঠাবোৰ	3
rosi	3
licate	3
চনল	3
▁দুৰ্বৃত্তটো	3
ভিয়া	3
▁time	3
▁পৰিসংখ্যাবিদ	3
▁Av	3
▁প্ৰতিষ্ঠানত	3
▁মুহূৰ্তত	3
মন্ছ	3
লতা	3
শিল	3
require	3
▁উপকৰন	3
৭২	3
ন্ধি	3
▁ৰোড	3
item	3
▁Key	3
▁স্ম	3
▁বদলি	3
▁১৮০০	3
৪৩	3
▁সত্য়	3
▁সাৰণী	3
▁লেই	3
}}]]	3
▁সংসদ	3
▁নিদিয়াকৈ	3
▁Simp	3
present	3
▁টপ	3
noarticletext	3
FULLPAGENAME	3
▁জুমা	3
edge	3
▁ইউক্ৰেনিয়ান	3
refixindex	3
▁মায	3
▁দেব	3
ৄ	3
...’	3
▁নকৰো	3
▁লিখনি	3
▁নাটক	3
▁th	3
allpages	3
আগৰ	3
▁হাইলাকান্দি	3
▁ট্ৰেফিক	3
▁সংশোধনসমূহ	3
▁বিজেপিয়ে	3
জপ	3
max	3
মেথোক্সেথ	3
▁মূল্যবোধ	3
শেষ	3
তিভাধৰ	3
BA	3
irang	3
ৰফ	3
▁বেমেজালি	3
lex	3
▁Mathematics	3
fit	3
ুঙ্	3
৯৭৮	3
ণ্ড্রি	3
ouse	3
āla	3
াণক	3
▁প্ৰহাৰ	3
নল	3
বক্সটোত	3
ংপ	3
উম্	3
UI	3
FN	3
nsta	3
▁গ্ৰন্থখন	3
▁মেন্ট	3
▁চাৰ্ভিচ	3
▁File	3
ocation	3
বেশ	3
▁টাই	3
কথা	3
▁নতু	3
▁মোটামুটি	3
▁আমদানি	3
▁পলিচীসমূহ	3
স্তিত	3
ঘ	3
▁কথ	3
▁চতুর্	3
ম্মুখ	3
▁ষাট	3
Press	3
are	3
োল্	3
▁নন	3
▁অভিজ্ঞ	3
সূচনা	3
▁Di	3
press	3
▁skl	3
অক্ষৰ	3
▁gal	3
▁আফ	3
▁ফাউণ্ডেছন	3
উইং	3
▁শুভাৰ	3
▁প্ৰগতি	3
▁কলিমা	3
ীলত	3
▁উপকাৰিতা	3
চিত	3
floating	3
▁নেওগ	3
lay	3
▁পশুধন	3
▁সৰব	3
▁TRAD	3
▁ad	3
▁অট্টালিকা	3
▁ভূমিষ্খলন	3
▁h	3
প্ৰবন্ধক	3
▁জৰ্জ	3
তেতিয়া	3
াস্ট	3
gothic	3
▁প্যাক	3
▁নিম	3
▁সচ	3
াকে	3
▁খোজা	3
ডিট	3
▁প্ৰস্তুতি	3
▁পুনৰা	3
KW	3
▁শ্ৰব্য	3
▁গেলা	3
▁হীৰ	3
▁যৌনদণ্ড	3
আঙুল	3
চিত্র	3
হাৰী	3
▁কৰ্মসংস্থান	3
জাক	3
▁নিউটন	3
▁পিক	3
LAN	3
স্ত্	3
▁top	3
▁গোটা	3
▁নামঘৰ	3
ুড	3
▁অপাৰেটৰসকল	3
াৱশেষ	3
▁দক্ষিণ	3
ZE	3
▁DE	3
অৱদানকাৰী	3
cl	3
▁আলিম	3
এক্স	3
Pradhan	3
▁পাইছিল	3
▁হৈছে৷	3
sha	3
▁ক্ষুধ	3
ধান	3
▁ছেমিফাইনেল	3
ع	3
ب	3
মটৰ	3
ৱাচ	3
phone	3
▁Full	3
গৰাকীক	3
▁হিস	3
specialpage	3
▁৪৮	3
▁কুমাৰী	3
ori	3
▁পুৰুষসকল	3
ণাৰ	3
▁জীৱনকালত	3
দায়ী	3
▁সঞ্চালি	3
▁Ca	3
জেল	3
▁দৈব্যঘটনা	3
খী	3
▁শেহ	3
▁দলবদ্ধ	3
▁কিছুদিন	3
▁িো	3
▁প্ৰগ্ৰাম	3
alk	3
টেগসমূহ	3
প্ৰিণ্ট	3
আমীন	3
শ্বানক্বীতি	3
ংজু	3
বেই	3
▁ভাওনা	3
চিনে	3
▁গ্ৰ্	3
দৈত্য	3
▁Era	3
▁install	3
▁এঅস্ত	3
ংদ্	3
Enter	3
▁উইণ্ড	3
▁এপল	3
কেশ	3
▁অভিনেতা	3
▁অসুবিধাবিহীন	3
▁ক্ষিপ্ৰ	3
▁কভাৰ	3
স্বাভাৱিক	3
▁হৈছেঃ	3
▁ৰাজ্	3
াক্ব	3
▁প্ৰত্যাহাৰ	3
▁ক্ষুদ্ৰ	3
▁বেটুপাত	3
ay	3
▁Intern	3
▁Festival	3
▁বৌ	3
▁সহন	3
▁Do	3
▁ৰাজ্যবাসী	3
▁আখ্যা	3
কোৰআন	3
▁অসমীয়	3
নুব	3
▁ইনষ্টলেচন	3
চত্	3
চৰিত	3
▁আপো	3
মাণ	3
Tube	3
১১	3
▁পুনৰ্নিৰ্দেশন	3
াৱাহ	3
▁ছবিৰ	3
হুদি	3
▁Promot	3
gan	3
সমস্	3
▁একোখন	3
▁উদ্যোগটো	3
▁শাখাৰ	3
▁([[	3
pipe	3
▁কেগ	3
রফ	3
▁সুস্বাস্থ্য	3
বৰ্দ্ধ	3
▁নিচি	3
VI	3
DE	3
COM	3
Ro	3
▁Pe	3
newimages	3
islam	3
▁ব্ৰাউজিং	3
▁[[:$	3
]]-	3
স্ব	3
▁অভিগমন	3
▁Scott	3
ist	3
▁ফরাসি	3
▁অব্যৱ	3
▁আয়ুস	3
▁পেনেল	3
▁বাচন	3
টিটি	3
▁চিত্র	3
interr	3
▁হন্ত	3
▁কেই	3
▁পাঠক	3
জৰী	3
tal	3
শৰণ	3
▁গেচ	3
▁Mun	3
▁practice	3
ইচা	3
▁তুলনামূলক	3
xh	3
amster	3
▁GKP	3
▁সংস্থাসমূহ	3
সোন	3
শ্বকে	3
পাত্ৰ	3
▁চেফ	3
ংচিতি	3
EX	3
১০৩	3
UP	3
▁জানি	3
▁সোমা	3
লূক	3
তাব	3
▁সংগঠ	3
▁দশমিক	3
▁পৌ	3
▁সৎ	3
▁le	3
▁বেজবৰুৱা	3
▁পিন	3
গোচৰ	3
▁vin	3
▁মন্ত্ৰীগৰাকী	3
▁চটি	3
▁গলপ	3
▁গুডম	3
▁কাৰ্য্যলয়	3
▁পিছলৈ	3
▁অভিভাবকসংবঁধীয়	3
▁ৰেষ্টুৰেণ্ট	3
▁আপত্তি	3
▁আন্দোলন	3
▁Mar	3
afe	3
desc	3
বজ	3
িত্‍	3
▁শইকীয়াই	3
▁পুখুৰী	3
▁ফিট	3
▁চিগাৰেট	3
BT	3
▁অন্তৰ্ভুক্তি	3
▁লেখ	3
▁পৰমান	3
▁মাছুল	3
▁য়োু	3
হাত	3
র্তী	3
▁অন্ততঃ	3
▁ধৰ্মম	3
▁উদ্যান	3
▁Park	3
▁শিক্ষাত	3
▁ৰীতি	3
▁আপোনা	3
▁লগোৱা	3
ুপার	3
hta	3
স্নাতক	3
Under	3
▁BRA	3
▁গুজৰাট	3
▁উপত্য	3
চেনি	3
চীন	3
▁কেন্দ্ৰই	3
ুৰা	3
▁বালতি	3
assam	3
Power	3
TPA	3
▁প্ৰসংস্কৰণ	3
▁সমুদ	3
চিকিৎসীয়	3
জিঅ	3
yth	3
▁প্ৰতিনিধিৰ	3
নান্দ	3
app	3
▁পৰ্ট	3
▁অন্তৰ্দেশীয়	3
▁প্ৰত্য	3
ৰ্পণ	3
▁ধা	3
ক্ষম	3
কাৰখানাত	3
মাছ	3
▁Form	3
▁হনুম	3
atiya	3
নাবা	3
বীৰ	3
▁ভঙ্গ	3
rel	3
▁পাথ	3
▁চুৱে	3
raē	3
▁গ্রাম	3
▁একচ	3
চনৰ	3
▁এলাহ	3
▁ক্ষতিশংকা	3
▁লোকগীত	3
মাত	3
board	3
▁কলাক্ষেত্ৰ	3
▁বছৰলৈ	3
মাদ	3
▁কাজ	3
স্ক্ৰীণ	3
▁Coat	3
▁আবাস	3
দীৰ্ঘ	3
ME	3
সংঘ	3
টৰ	3
কম্পক	3
▁শিকি	3
▁মন়্	3
▁ঠাইখিনি	3
বড়	3
▁কপাট	3
▁বিভা	3
▁উৎপাদনকাৰী	3
কানাডা	3
▁উত্তীৰ্ণ	3
▁শ্লোগান	3
প্ৰচেছ	3
কেফে	3
▁ল্যাটভিয়ান	3
ষ্টফ	3
asswordremindert	3
▁উপশ্রেণী	3
▁চেণ্টাৰৰ	3
▁cas	3
ুড়া	3
▁হায়েনাটো	3
▁অসুস্থ	3
ঠি	3
সাবধান	3
চক্ষ	3
ন্নতা	3
▁FR	3
ানা	3
▁উজবেক	3
▁লোগ	3
▁গোটসমূহ	3
▁মাউন্টযোগ্য	3
▁এন্ড্ৰ	3
rss	3
▁ফিড	3
may	3
▁বিবেচ	3
▁প্ৰমান	3
▁বিপ	3
দ্	3
▁দায়	3
aja	3
▁বুলগেৰিয়া	3
▁হিৰা	3
▁Fi	3
ামিনী	3
প্ৰদৰ্শন	3
▁ধৰণেৰে	3
▁গুরুত্বপূর্ণ	3
▁ইণ্ডিয়	3
কাযী	3
ureaucra	3
▁তালিকাখন	3
▁বন্ধনী	3
▁অধিবক্তা	3
▁Pho	3
ke	3
jumpto	3
দাচুদি	3
ez	3
▁অক্ষয়	3
▁ধাৱান	3
▁ৰাজকুমাৰ	3
▁ৰাও	3
াহ্ন	3
ৱী	3
ডা	3
▁কৰ্তৃত্বহীন	3
লংঘন	3
বিলম্ব	3
▁অধিসূচ	3
▁কমেডি	3
fan	3
স্বাক্ষৰ	3
▁বিষয়বোৰ	3
▁৫জন	3
দগ্ধ	3
ral	3
▁খুন্দা	3
▁দিনটোত	3
▁ফাৰ্মা	3
▁জনাম	3
জ্বলি	3
াল্ট	3
▁লিখিছিল	3
▁গৃহনির্মীত	3
▁exhibitionist	3
▁exhibition	3
াৰ্ট	3
াজী	3
▁ঘনিষ্ঠত	3
কেল	3
ক্ট	3
▁প্ৰেক্ষাগৃহ	3
বন্ধু	3
▁পুঁচকে	3
▁মঙল	3
▁গণেশগুৰি	3
কেইখনত	3
▁অস্বাস্থ্যকৰ	3
▁৩৪	3
▁Tense	3
কাৰাত্মক	3
কলন	3
Kin	3
▁ভ্ৰমন	3
▁তীব্ৰতা	3
▁তেজষ্ক্ৰিয়তাৰ	3
পেক্ষি	3
▁দান্তাওৰাম	3
▁মোটা	3
▁নথিভুক্ত	3
▁বৰঙ্গনি	3
ফ়	3
াৰ্ভিছ	3
▁প্রাশিঅ	3
ould	3
▁কাঁচ	3
itle	3
েহে	3
▁অসৎ	3
▁তেতিয়াৰ	3
▁Bora	3
utta	3
▁সমলসমূহ	3
▁video	3
▁With	3
▁Quality	3
▁মৈ	3
চুষা	3
import	3
ৰূপবম	3
▁পুনৰুদ্ধাৰ	3
go	3
এমএজি	3
▁ওন	3
জো	3
BE	3
▁থি	3
aksh	3
hojto	3
স্তোত্রম	3
▁এনডব্লিউ	3
prefsnologin	3
ুৎ	3
িমা	3
ৃ	3
▁Em	3
pf	3
▁ফিল	3
বিলোপ	3
অনুবাদক	3
▁ফেৰ	3
ওঁতে	3
▁মাতৃসকল	3
▁জীপ	3
▁টাইড	3
ইটাৰ	3
▁নূ	3
মাহৰ	3
▁অভাৱত	3
lon	3
ss	3
▁০০৯১	3
১৫৫	3
৫১	3
হূ	3
▁AVE	3
▁অৰণ্য	3
success	3
≥	3
কিমাস্	3
▁মুকু	3
▁দেখুৱায়	3
▁জানো	3
ক্ৰম	3
ওপৰ	3
▁জিয়া	3
বহুল	3
▁Ve	3
blr	3
গৰাকীয়ে	3
▁দাবীবোৰ	3
sql	3
▁༒	3
্দমা	3
▁বুলু	3
▁লোচন	3
প্রশাসক	3
just	3
▁settings	3
▁জালিয়াতি	3
ontributions	3
চমৎকার	3
র্থ	3
▁প্ৰজনন	3
▁অনুকৰণ	3
গমন	3
▁টোট	3
▁গাল	3
▁Get	3
▁ret	3
ard	3
ীয়াৰ	3
▁টাৱাৰ	3
ছেটিংছ	3
দুয়োটা	3
▁চকুত	3
▁আইছ	3
লেশ্যন	3
ীজ	3
Sankaradeva	3
োগ্ৰাম	3
▁জাত	3
▁ব্যৰ্থ	3
▁উহুদ	3
▁ছালা	3
▁সন্মত	3
সুবিধা	3
▁মিল্	3
▁ক্র	3
▁অণু	3
▁ঠিকনাত	3
▁ৰোমানিয়া	3
▁চাইবেৰিয়া	3
▁হাউচ	3
▁যোগাই	3
inal	3
▁number	3
▁বৰ্হি	3
▁পোৱাটো	3
▁অক্সিজেন	3
missingcomment	3
ত্ৰিক	3
ভঙ্গী	3
▁মৃত্যুত	3
▁চৰ্তাৱলী	3
▁Gaura	3
nga	3
▁বাজে	3
▁পৰিৱেশন	3
editor	3
ত্র	3
লছ	3
▁চেন্	3
▁মহলা	3
pornstars	3
মুন	3
▁ভৱিষ্যদ্বাণী	3
▁ওমৰ	3
বিল	3
মন্ত্রণ	3
পলি	3
্য্	3
টকিঅ	3
▁উৎপাদসমূহ	3
▁কষা	3
ø	3
▁চৌ	3
▁খ্ৰীষ্টাব্দ	3
ভাণ্ডাৰ	3
▁মোদীয়ে	3
▁মূঠ	3
ব্যৱস্থাৰ	3
▁Boy	3
▁স্বশাসন	3
বৰ্তী	3
আটাই	3
▁ট্যাগ	3
▁আইডিয়া	3
udha	3
▁Word	3
ean	3
পোৰ্ট	3
▁বিশ্বতে	3
▁উপস্থাপন	3
ô	3
লিঅ	3
▁সঁ	3
▁ইনপুট	3
utorial	3
অভ্যুত্থান	3
▁সৃষ্টিশীল	3
▁মিশ্ৰণ	3
▁নকৰি	3
▁শ্ৰেণীটো	3
▁শৃঙ্	3
▁Big	3
প্ৰিয়	3
▁বৰদলৈ	3
তুষাৰ	3
about	3
sta	3
▁সোণা	3
▁বিষ্	3
পঞ্জী	3
বালিগাঁৱ	3
▁যন	3
▁গাডকাৰী	3
▁ঘাইপথ	3
কালৰ	3
fil	3
Install	3
▁AP	3
▁Game	3
কট	3
GH	3
▁চেম্পিয়নশ্বিপ	3
▁এখ	3
ABC	3
EC	3
}=	3
▁নৱজাতক	3
বিশাল	3
▁সাধু	3
▁শ্লৈষ্মিক	3
▁ড্ৰাগছ	3
▁সুৰাসক্ত	3
▁প্লা	3
▁হিংস	3
▁ধৰ্ণা	3
নামা	3
ানুপাত	3
▁সেইখিনি	3
ট্ৰ	3
▁মহিলাগৰাকী	3
▁Relat	3
▁জুম	3
▁অবিৰত	3
BN	3
শোণ	3
ওঁ	3
▁IM	3
OM	3
ষধ	3
VU	3
▁Team	3
প্ল	3
▁উপাদানসমূহ	3
▁সুত	3
▁ভৱন	3
সাম্প্ৰতিক	3
accmailt	3
▁নম্ৰ	3
▁November	3
মতা	3
▁বিবিধ	3
▁Stud	3
▁লিখিছে	3
শাস্ত্ৰ	3
▁প্ৰ্শ্ন	3
LA	3
স্বৰূপ	3
▁বাবাটো	3
▁ঘনশ্য	3
▁শ্ৰৱ	3
▁jol	3
ized	3
▁Barkotoki	3
▁PM	3
Office	3
India	3
▁পাবল	3
▁পোন	3
pre	3
Excel	3
▁কাৰ্যক	3
▁ৰাষ্ট্ৰীয়কৰণ	3
ন্ময়	3
কৰ‍্	3
লজি	3
বিধি	3
▁CD	3
▁ৰক্ত	3
▁ট্ৰেইন	3
মণ	3
▁উপদ	3
▁ৰাহুল	3
▁সঠিকতা	3
ফালৰ	3
▁চৈ	3
▁'[[	3
গ্ন	3
Purauṣa	3
▁আঁচনিয়ে	3
▁লোকচানক	3
Tool	3
ৰীক	3
third	3
▁ডকাইতিৰ	3
গহনা	3
লাইফ	3
সংৰক্ষিত	3
▁আয়ুক্ত	3
▁অধিশাখা	3
মষ	3
অখিল	3
▁কেবা	3
হেজাৰ	3
▁ঢেঁক	3
▁গেরো	3
avigation	3
capt	3
▁বজ	3
▁মিছন	3
₹	3
ম্মু	3
▁পেৰা	3
▁কৰেনে	3
▁বন্ধ্যাত্ব	3
▁অস্কাৰ	3
▁প্ৰকাশকৰণ	3
▁বিকিনি	3
গোপনীয়তা	3
বই	3
▁দপ্তৰ	3
SC	3
HA	3
ধী	3
োৰে	3
▁যাদুকৰ	3
▁প্ৰাপক	3
▁ন্যায়ালয়ে	3
▁বায়	3
েংজু	3
▁সিটি	3
xxx	3
ৈত	3
vali	3
▁কাৰ্ট	3
রএইচ	3
▁বচন	3
মৰ্মে	3
▁আৱেদনকাৰী	3
▁দেশলৈ	3
দৈব	3
▁cm	3
▁তুৰ্কি	3
Period	3
গীবিল	3
যে	3
▁থাকিল	3
▁মদব	3
▁ত্া	3
঩	3
▁পেন	3
▁এন্টি	3
▁পুতেক	3
▁উদ্যো	3
কূল	3
▁নিহ	3
ম্পেৰ	3
▁চাইনা	3
ś	3
ify	3
ব্যাংক	3
▁নিলে	3
▁মাত	3
পু	3
ঙা	3
▁চোৱাৰ	3
▁বৈকল্পিক	3
▁পৰিকল্পনাত	3
▁অভিম	3
লোডিং	3
source	3
▁কৌ	3
▁schoolgirl	3
▁এইয়া	3
▁ৱেবচাইটটো	3
Ad	3
▁যুগ্ম	3
▁সংস্কৰণসমূহ	3
▁car	3
▁কাৰ্যাৱলী	3
▁মুলত	3
▁খ্	3
ীষ্ট	3
▁man	3
ব্র	3
▁'''\$	3
হাগ	3
▁জীওলাইট	3
▁Tag	3
▁মাৰ্টিয়ান	3
▁দৃষ্ঠি	3
▁ৰেংক	3
তোৱে	3
ডিজিট	3
▁বৰাই	3
tting	3
▁দ্বাৰ	3
▁পাইথাগোৰাচ	3
▁নির্দেশ	3
▁নলবাৰী	3
▁সুৱ	3
▁ক্লীক	3
▁বিকলতা	3
▁Keychain	3
যিটো	3
realname	3
▁ডিম্বাশয়	3
articles	3
▁সুমি	3
▁ফ্ৰান্স	3
alle	3
কক্ষ	3
▁শ্বে	3
▁জয়ন্তী	3
েলৰ	3
▁ছীল	3
▁নিৰ্মিত	3
▁পিতা	3
দেউতাক	3
thumbnail	3
ম্বন	3
▁প্ৰাচ্য	3
▁ভাইৰাচ	3
ৰ্চ	3
▁শ্ৰেণীত	3
হম	3
াঢ়ি	3
▁BIOS	3
▁মন্ত্র	3
●	3
▁জান্নাত	3
▁জাহা	3
▁কোৰান	3
ূলীয়	3
▁জিঙ্ক	3
গৰি	3
▁সোমালী	3
গুন	3
▁বীমাদায়ী	3
▁মূর্তি	3
▁ঘভঘভগভঝ	3
ন্ঠন	3
▁দূৰদৰ্শ	3
context	3
▁সন্দর্ভ	3
▁সম্পুৰ্	3
▁চোৰ	3
গ্ৰাহী	3
▁জিৰাফ	3
▁কেনেকুৱা	3
iff	3
▁বৃক্ষ	3
hā	3
▁Car	3
▁হায়দৰাবাদ	3
▁ফেচ	3
▁দেৰি	3
াংলা	3
নিধিত্ব	3
▁গ্রহন	3
ografia	3
▁হোৱাটো	3
▁আগবঢ়াওক	3
বিভাগ	3
০৭	3
্ৰিম	3
▁সেনাপ্ৰধানজনে	3
ক্ষৰ	3
▁বিশ্বকাপ	3
▁শিখৰ	3
auth	3
▁বৰপেটা	3
▁গাঁও	3
ল্লা	3
▁ষ্ট্ৰীট	3
▁মহত্ব	3
eo	3
ুরৈ	3
filehist	3
▁OS	3
কোণ	3
---	3
▁টাইম	3
▁উগ্ৰ	3
তাৰা	3
▁পৰুৱা	3
ধৰণে	3
কোষ	3
▁রন	3
▁মাগী	3
তাৰিখ	3
লুক	3
▁অভি	3
▁little	3
▁যোন	3
pantyhose	3
▁সমস্যাই	3
ৱচ	3
কেপি	3
জাভা	3
▁দিনটো	3
▁সচেতনতা	3
▁গৃহশৌৰ্যম	3
▁ধোৱা	3
▁উলিয়াই	3
েছি	3
াপ্তিস্	3
্চা	3
লিগাঁও	3
ডিয	3
▁খন্ডন	3
▁φ	3
▁Events	3
▁Stick	3
▁লোকালয়প	3
উড	3
▁ভিতৰতেই	3
▁স্থাপনা	3
▁bu	3
▁asian	3
েশ্যে	3
▁সম্ভাব	3
MS	3
ৰ্ম	3
▁মূৰ	3
জিয়া	3
▁বিশ্বাসযোগ্য	3
টেড	3
পন্ন	3
▁মৰ্যদা	3
▁ফীড	3
▁বেলা	3
▁ইলে	3
ramework	3
তিক্রম	3
কুশলী	3
গতিক	3
▁আণ	3
▁ৰমন	3
▁পৰিঘটনা	3
ঁটা	3
গৃহ	3
▁অৱ্	3
▁চেভ	3
▁ঘুৰ	3
ার্চ	3
কোণী	3
▁নোটবুকখন	3
▁সম্পদনা	3
‐	3
lable	3
▁চিন	3
▁বাৰে	3
▁ব্যৱহাৰকৰ্তা	3
▁ৰ্নি	3
ুডু	3
▁পুণ্য়	3
েশ্	3
▁la	3
চিন	3
la	3
প্ৰফেচ	3
উলিয়া	3
▁পূণ	3
star	3
্ডিং	3
▁দৰকাৰী	3
ন্ধু	3
▁বাণী	3
চুল	3
নাথ	3
▁অসামঞ্জস্যতা	3
▁শিক্ষিত	3
সৃষ্টি	3
▁উন্মুক্তি	3
▁পৰিস্থিত	3
▁এক্সক্সক্স	3
▁চাৰিও	3
▁হাতী	3
bl	3
▁প্ৰথমবাৰ	3
▁সকলোবিলাক	3
লফি	3
▁প্ৰদূষ	3
▁নামঘৰটি	3
▁ঠিকা	3
▁লিওন	3
▁সমাদৃত	3
▁ভৰ	3
ST	3
▁ভেকচিন	3
থেৰাপ	3
ৰ়িন্দ	3
ারা	3
▁Network	3
▁শিক্ষাক	3
ঠিয়া	3
্টিফিকেট	3
বুল	3
▁সবল	3
▁উত্তৰাধিকাৰী	3
▁য়ৌ	3
▁বশ	3
▁নেকী	2
mainpage	2
▁বীণাবাদক	2
▁কথাৰে	2
ায়ন	2
▁যৌ	2
▁সন্নিব	2
▁ট্ৰান্সফ	2
থ্য	2
যাত	2
▁ছিংগাপুৰ	2
▁জম	2
কালো	2
▁সাংবাদিকতা	2
▁আখু	2
yca	2
▁গোপ	2
চডিঅঙ্গুলিসঁচালন	2
▁বাবাক	2
▁Share	2
minutes	2
ভৰি	2
ঘনিষ্ঠ	2
▁WC	2
VirtualBox	2
▁করুম	2
চহৰ	2
চার্ভাৰ	2
▁আছা	2
▁ইটো	2
▁নিছা	2
▁ডলাৰত	2
ৌৰাত	2
বৰঙণিসমূহ	2
▁নাট্যকাৰ	2
▁১৯৯৫	2
লেখিকা	2
▁কৰিছে৷	2
▁প্ৰতীক্ষ	2
▁ষড	2
▁স্তোত্র	2
ASM	2
Tuber	2
stockings	2
মােক	2
োতি	2
▁তস্ম	2
বুলু	2
▁বীমাকৃতজন	2
▁আহোম	2
গাওঁ	2
লগতে	2
্যার	2
চোদাচ	2
▁সামগ্ৰ	2
▁ফিন	2
কিদা	2
াদৰ্শ	2
▁সংমিশ্ৰ	2
িয়ানা	2
▁autoscroll	2
েক্সক	2
োণাল	2
▁কাবীৰ	2
⇝	2
ɖǟռɨ	2
ʟ	2
⇜	2
▁শিশুটিয়ে	2
িপ	2
▁ALL	2
ভার	2
▁বনাব	2
▁person	2
▁Adjective	2
▁ধুবুৰী	2
▁আজমল	2
বৰ্ষৰ	2
▁বীমাধাৰী	2
▁ধাৰী	2
দাদ	2
▁কেটেল	2
টোপ	2
results	2
▁বিশ্ৰাম	2
াণু	2
▁ঘাত	2
দৈ	2
▁ড্ৰাগচ্	2
▁নিচা	2
কৰ্ম	2
▁সুব্ৰ	2
▁Tren	2
▁Enan	2
▁কডুপু	2
▁প্ৰতিষ্ঠাতা	2
োপ	2
▁পৰিষেবা	2
জানে	2
▁আইজ	2
অধিকাৰসমূহ	2
ুজি	2
পতাকা	2
EEA	2
▁প্ৰদ	2
▁অচলাৱস্থা	2
yr	2
দ্ধ	2
~	2
▁Vir	2
aper	2
ture	2
lue	2
₳	2
▁চোতা	2
▁দূৰৱৰ্ত	2
▁সক্ষমতা	2
ধাৱন	2
মেনি	2
জুউ	2
মাস্	2
vast	2
▁খ্ৰীষ্টীয়	2
▁অলংকাৰ	2
▁জোকাৰ	2
▁Ah	2
Me	2
িয়নী	2
তান্ত	2
লায়	2
নাই	2
▁অতীজ	2
▁ভাৰতবৰ্ষত	2
▁তেৱে	2
শ্বিপ	2
▁সৰ্	2
▁এৱ	2
▁ফ্ৰেব্ৰুৱাৰ	2
▁পুংসাং	2
পাখি	2
বত্স	2
িয়ার	2
গী	2
▁গেমছ	2
▁ব্ৰঞ্জ	2
rba	2
thursday	2
বৃহস্পতিবাৰ	2
▁করে	2
▁আনুষ	2
▁gran	2
▁hun	2
our	2
★	2
হিছে	2
োৱাত	2
ডিফ	2
বেগ	2
▁বন্দুক	2
▁পট	2
▁জ্ঞাতব	2
inc	2
▁Xbox	2
▁Pass	2
▁চলচিত্ৰ	2
▁শ্ব	2
▁ট্ৰেন	2
পচন	2
▁পাৰ্	2
▁বিবেক	2
▁গাম্ভীৰ্য্য	2
▁লেট	2
▁পঢ়ুৱৈ	2
চিতি	2
লীলা	2
বোন্	2
োন্গ্	2
▁নেপেলায়	2
ute	2
ইচ্ছাৰ	2
▁এনিমে	2
▁চন্দন	2
▁কুঙ্কুম	2
ডল্ৱি	2
▁সুধিছ	2
মুনাজ্জিদ	2
▁উপপাদ্য	2
▁চার্ভাৰ	2
pr	2
zing	2
▁We	2
▁were	2
চৰৰ	2
▁সমীকৰণ	2
িকোণম	2
িতিৰ	2
▁Ko	2
▁ৰছিদ	2
▁পৰাগমন	2
ংগা	2
▁জেউ	2
প্ৰান্তিক	2
ourna	2
port	2
াহুত	2
▁দুৰ্	2
ভিন্ন	2
smalltitse	2
abet	2
'''।	2
▁অবশ্যে	2
▁পূণঃনির্	2
ুৱাওক	2
▁৪৪	2
সমূহৰপৰা	2
images	2
▁বেন	2
▁বাবদ	2
▁মৰ্	2
▁নালাগিব	2
▁Ya	2
ov	2
lev	2
াউচিং	2
ঈশ্ব	2
্কিন	2
▁আমে	2
োগ্	2
জস্ব	2
অভিযান	2
▁ঠিকণা	2
ত্তৰ	2
সাম্প্	2
▁অগুৰুত্বপূ	2
▁WFDSA	2
▁ফেডাৰেশ্যন	2
ৰ্বজন	2
▁ৰণকৌশল	2
▁শিক্ষাকাল	2
▁খণ্ডক	2
▁ঘটাও	2
▁ঘটিব	2
▁কেলেণ্ডাৰখন	2
▁পুণৰীক্ষণ	2
ৃষ্ট	2
▁তেনেকৈ	2
▁ৱিক	2
OO	2
LS	2
UR	2
▪	2
▁টুথপেষ্ট	2
সামঞ্জস্য	2
▁নপুংসক	2
wikipedia	2
ৱিকিপিডিয়া	2
গৱেষণাৰহিত	2
ফিনিশ	2
কাৰক	2
olish	2
mag	2
ifica	2
▁উত্পাদন	2
▁দেউল	2
▁কমলা	2
কুচ	2
▁চূ	2
মতো	2
▁পিছুৱালে	2
▁রহ	2
HDFC	2
▁গুজ	2
DS	2
▁নাহৰ	2
▁চিক	2
▁গোঁ	2
সাই	2
▁পদ্ম	2
পালি	2
পানীৰ	2
range	2
large	2
ভিন	2
র্ফ	2
▁ইষ্ট	2
▁swi	2
▁বাং	2
EBC	2
▁সমদ্বিবাহু	2
িনা	2
▁জিকি	2
▁নমো	2
▁সমাপ্তি	2
▁দ্বায়িত্ব	2
▁কৰ্মৰ	2
▁বন্ধুবৰ্গ	2
িয়াকৈ	2
্পত্তি	2
▁পৰিমান	2
▁দূৰভাষ	2
▁নেগেৰা	2
পলিচীখন	2
▁নলয়	2
▁power	2
উলুম	2
▁Pan	2
crea	2
▁চেত	2
▁পাচৱৰ্ড	2
▁স্থপতিবিদ	2
▁পাৰিতোষিক	2
▁SDK	2
▁নেদেখ	2
▁kg	2
▁টেই	2
ফ্লু	2
িক্স	2
▁লিকছন	2
▁পৰিল	2
▁কিশোৰৰ	2
▁মেটে	2
oil	2
জিচি	2
এলপি	2
▁আনুগত্য	2
ডুডু	2
dudu	2
াগা	2
aghara	2
▁হাহা	2
▁হৈমন্ত	2
haimant	2
▁প্ৰতিষ্ঠাপ	2
উসু	2
মাহ	2
notice	2
▁ট্রাম্পৰ	2
ৈশ	2
ভোজ	2
▁মুখ্যমন্ত্	2
▁সর্বা	2
▁পেঞ্চন	2
২০	2
▁চর্ত	2
▁me	2
rist	2
▁Vid	2
আব	2
▁দিমঃ	2
য়স	2
ছয়	2
Communication	2
▁গার্ডেনীয়ার্চ	2
▁Indonesia	2
বাব	2
▁হিজা	2
mer	2
মেট	2
▁নবৱী	2
buttfuck	2
ঢ়িছে	2
▁সান্ত্	2
বনা	2
assamese	2
▁Aca	2
cia	2
▁amy	2
ophyll	2
▁নৱবৰ্	2
উদযাপন	2
booksources	2
গ্রন্থ	2
▁বিৰক্তি	2
ree	2
proxyblocker	2
ret	2
riev	2
ৱক	2
চলোৱা	2
▁স্বত্	2
তেও	2
মথি	2
▁ধৰ্ম্ম	2
মূ	2
▁কালাৰ	2
▁In	2
bian	2
চুূ	2
▁vi	2
দাচূদ	2
▁নাল	2
▁লোহা	2
▁মিহি	2
ষট্	2
▁মাইমাই	2
টোৰে	2
▁দাতব্য	2
হো	2
▁পিয়ল	2
▁লজ্জা	2
sr	2
▁Bit	2
esh	2
েশী	2
রিণ	2
সোমবাৰ	2
ন্দিত	2
বরি	2
timezoneuse	2
চাৰ্ভাৰ	2
▁ডিফ	2
োও	2
SR	2
ARS	2
HAN	2
▁প্ৰিকঞ্চেপষ্যন	2
▁up	2
▁আৱেদন	2
▁হোটেলত	2
ভিনেত্ৰীগৰাকীয়ে	2
▁উৰ্মিলাই	2
▁কেন্দ্ৰী	2
YA	2
▁স্হা	2
▁চটকান	2
ছেন	2
▁Un	2
manage	2
▁ব্যৱস্থাৱলী	2
▁বিয়ে	2
expand	2
পূৰ্ববৰ্ত	2
▁ভোগে	2
▁পেলাওঁ	2
▁ৰখাটো	2
দায়	2
সন্তুষ্টি	2
▁কামবোৰ	2
আত	2
▁দধীচিকুলসম্ভূ	2
ভুক্তি	2
মুক্তি	2
▁জার্	2
▁ফেব্ৰু	2
▁বৈশিষ্টসমূহ	2
▁দিনলৈ	2
ckli	2
উদ্ধাৰ	2
▁CII	2
▁Kh	2
▁TO	2
▁আগৰৱালা	2
নিবেদন	2
fb	2
▁গৃহভূমি	2
▁জনাইছিল	2
▁জয়পুৰ	2
▁কার্যক	2
কন্দ	2
ঢু	2
মুদ্	2
krab	2
▁ডব্ল্যু	2
উণ	2
পৰিয়াল	2
PTD	2
▁একতা	2
হাতত	2
▁সমাৰ্থ	2
loginsuccess	2
শৈক্ষিক	2
গাঢ়	2
তৃতীয়	2
▁Rainy	2
ইনী	2
BS	2
ন্ধ্য়া	2
াদিত	2
গৰী	2
The	2
▁Mur	2
▁bir	2
ost	2
▁spe	2
▁milli	2
ching	2
eep	2
less	2
night	2
!’	2
▁gol	2
den	2
sun	2
▁sm	2
ৱাদ	2
▁আনু	2
▁থাকেঃ	2
্যাংচ	2
েনগ	2
▁কোপ	2
▁Applica	2
খনক	2
▁নিফা	2
ravel	2
▁শাও	2
KK	2
পোহন	2
▁challenge	2
▁বোনাসসমূহ	2
▁Ann	2
ব্যৱসায়	2
iẏā	2
dhā	2
গছে	2
▁অভিন্ন	2
▁চস্তিল্ল	2
▁যেনেকুৱা	2
▁Bar	2
চিবান	2
▁চিচিটিভি	2
▁বন্দী	2
▁চিচ	2
▁জুৱেলাৰ	2
▁ইণ্ডো	2
জাপান	2
▁mad	2
alaya	2
ক্ষীণ	2
dap	2
এখন	2
▁তামিলনাডু	2
মেঘালয়	2
▁মেক্সি	2
মো	2
▁মাচ	2
▁উলকিমোটা	2
▁carbide	2
▁লিকুইদ	2
▁masculine	2
▁ভায়েক	2
কেইজন	2
▁কমবয়স	2
▁পত্নী	2
▁উচ্চমান	2
চবো	2
▁টকালৈ	2
▁ফর্ম	2
ds	2
ৰ‍্ৰা	2
▁password	2
▁টেকস্ত	2
▁১৯৫	2
থিয়	2
ড্	2
েংদো	2
জ়	2
▁ৰাজ্যসমূহ	2
▁কেউ	2
▁ইউৰোত	2
▁শল্য	2
ą	2
ভোগী	2
▁বিদ্যাৰ	2
▁পুষ্টি	2
▁বিদ্যাবাগীশ	2
ন্ট্রা	2
searchresults	2
অনুসন্ধান	2
▁কঢ়িয়াব	2
▁চন্দুক	2
▁ফ্ৰ	2
েংকিং	2
▁জেটলী	2
ধাৰণ	2
▁বিস্ময়	2
্রাজ	2
▁Per	2
	2
মেথক্স	2
ube	2
জেট	2
সংশ্ল	2
▁তিৱা	2
জিও	2
▁আভ	2
▁সম্ভৱতঃ	2
বৃ	2
dg	2
kin	2
র্ম	2
▁পেলাওক	2
▁অৰিহনা	2
vert	2
१	2
_'''\$	2
▁লঘ	2
nse	2
▁দিনৰে	2
▁মুদল	2
ায্	2
ন়ৈত্	2
▁বৰ্ধিত	2
▁লীনফিট	2
ঘ্	2
অনির্দি	2
পঠেদ	2
িষ্টদং	2
▁দিফল্ট	2
▁পেল	2
▁ডায়েৰী	2
▁ডেটো	2
ocarp	2
onica	2
▁আহা	2
▁শনি	2
ৰাতি	2
ti	2
▁সঁজুলিৰ	2
▁লিপিৰ	2
▁সমকামীচুম্বন	2
বালিকাআঙুল	2
▁চোৱ	2
▁পিছ	2
▁সধাৰণ	2
▁ক্রম	2
্যম	2
▁ডিছ	2
ইনফেক্ট	2
▁রথ	2
▁য়ুদ্ধ	2
▁ভূৱন	2
ুইজা	2
স্ফ	2
স্থানান্তৰ	2
য়জ্ঞ	2
▁শু	2
▁চহ	2
পৱিত্ৰ	2
িকৰণ	2
é	2
▁অপচ	2
াৰোপ	2
▁ঋ	2
ঌ	2
▁পৰিৱৰ্তে	2
▁বাক্সা	2
▁ওদালগুৰি	2
▁জ্বল	2
▁একাডেম	2
tific	2
▁opti	2
প্পো	2
▁কেচি	2
ুঃ	2
পর	2
Bible	2
NECTOR	2
fing	2
ering	2
ৰ্য্যকৰ	2
OD	2
HAMI	2
PUR	2
ৱিন়ৈ	2
▁যান়	2
ন়িল্	2
light	2
াঁও	2
▁অম	2
ইয়া	2
▁উত্তোল	2
বিদ্যা	2
▁মৌচ	2
mati	2
▁জাপনাি	2
তোন্	2
লৈস্	2
▁মাধ	2
▁গুয়া	2
নজু	2
▁সৎকৰ্ম	2
▁বিষয়াদি	2
▁Spokesman	2
▁কন়ৱ	2
DI	2
▁অনুস্থান	2
▁অজু	2
ংট	2
কপো	2
মংচু	2
চুদি	2
খন্তেক	2
zech	2
▁comment	2
▁নাপাহৰিব	2
▁বাইচাইকেল	2
ভৌ	2
▁নায়	2
▁ওজৰ	2
▁মটৰগাড়ী	2
োবৰ	2
▁আসনখন	2
▁ত্ৰি	2
িটোৰ	2
েলি	2
▁কিয়ামত	2
▁মানহানি	2
চায়াপ্পা	2
▁পাচত	2
বিচ	2
▁কেইবছৰ	2
ববীয়া	2
▁ৰোগত	2
▁জন্তুটো	2
▁কেন্দ্ৰসমূহ	2
সংসাধ	2
▁ass	2
মিডিয়াৱিকি	2
ভেল	2
▁বর্	2
দ্ধিত	2
োত্তম	2
অভিজ্ঞতাৰ	2
▁how	2
▁মুসল	2
nbur	2
িষ্কা	2
থে	2
সময়	2
▁শো	2
▁নয়	2
াক্ত	2
▁সন্ত্	2
্মকাণ্ড	2
▁নিহত	2
ৰ্মিন	2
update	2
LV	2
rium	2
তাম	2
ল্ক	2
▁কাৰোবা	2
▁দণ্ডবিধি	2
১২	2
▁বুদ্ধিজীৱী	2
▁Dai	2
এমআৰ	2
ৰাচ	2
াউ	2
শোধ	2
▁Pr	2
বৃক্ক	2
শ্ৰ	2
ষাত	2
▁তালং	2
▁নিদি	2
▁অনাব	2
▁ঠেং	2
▁সথ	2
▁বিহীন	2
abort	2
▁প্ৰত্যা	2
ইথ	2
িনি	2
▁বাল্	2
▁তোলাত	2
ipbreason	2
▁ড্যান	2
▁পঠনী	2
trand	2
ako	2
▁ছলচাত	2
▁লীজ	2
RL	2
▁Innocent	2
nnocenthigh	2
malltits	2
ঘাতক	2
▁cou	2
▁কং	2
ফ়্ফ়	2
☠︎$	2
▁এন্টাৰপ্ৰাইজ	2
▁সমৃদ্ধি	2
▁মিশ্বন	2
▁হাতখন	2
▁ডলাৰ	2
▁এইবোৰত	2
▁কৰিবলগা	2
▁সমানুপাতিকভাৱে	2
return	2
প্রন	2
খলপ	2
াবিলা	2
▁কার্যকা	2
▁গাঁথনি	2
▁ভোজ	2
▁দায়িত্বশীল	2
▁সংগতি	2
নিপুণ	2
ংগাল	2
ccm	2
eon	2
RIV	2
▁থোমস্	2
▁ট্ৰে	2
▁শতাংশৰ	2
nosuch	2
লেই	2
andal	2
hong	2
সন্তান	2
▁ভতিজ	2
▁বয়োজ্যেষ্ঠ	2
▁Ban	2
ging	2
▁Angelic	2
▁অনগ্ৰ	2
▁সময়ৰপৰা	2
মুদ	2
সাগৰ	2
চুষাধোন	2
▁অৱনতি	2
▁মধুকৈটভ	2
্রী	2
▁ৰাজবংশী	2
▁নেটৰ্ৱক	2
▁বিলয়	2
▁কংপো	2
pc	2
▁spac	2
পৃ	2
▁জন্মভুমি	2
▁উপযোগ	2
▁উপহা	2
ছুফ	2
▁নুহ	2
▁Pure	2
▁আৰম্ভণ	2
মেডিয়াৱিকি	2
▁মতবাদ	2
▁নিয়	2
োজিত	2
▁Mait	2
্ৰম	2
▁প্ৰতিবাদত	2
ক্ষোভ	2
▁জলক্ৰীড়া	2
▁হোৱ	2
াটৰ	2
▁বিজয়ীসকল	2
নিজম	2
Poly	2
carb	2
onate	2
▁অৱসৰ	2
লভ	2
▁অয়লাৰ	2
▁বুজা	2
▁লওঁতা	2
ionate	2
পস্	2
▁Ava	2
নাকা	2
achi	2
▁Guide	2
lines	2
▁কেৰা	2
Place	2
▁place	2
▁পৰিত্ৰাণ	2
spa	2
▁চিপ	2
সেট	2
OX	2
▁অঙ	2
▁বাইবলগী	2
দম	2
▁sac	2
CG	2
ায়ক	2
পাক	2
ফিট	2
▁ব্লে	2
▁আয়ত	2
▁দাদা	2
নানা	2
বং	2
▁তেৰাং	2
▁তাতে	2
▁দিনট	2
▁চংদ	2
▁লসত	2
চারু	2
▁কৃ	2
▁খান্দ	2
বাক্য	2
োকেট	2
ভাড়	2
▁চেক্টৰ	2
ভক্ষণ	2
বিন্দু	2
▁প্ৰাণী	2
ুলকৈ	2
▁কোন্নাল্ল	2
▁বিজ্ঞ	2
anv	2
esha	2
▁সৌভাগ্যৱান	2
▁তেঁও	2
ুতি	2
▁লেহন	2
▁লৈছিল	2
▁১৯২	2
▁ওলাই	2
ৰ্তমান	2
▁ফৰৱাৰ্ড	2
fixed	2
▁কালছোৱা	2
acct	2
throttle	2
hit	2
▁মাধুৰী	2
AH	2
▁নেই	2
▁যুটীয়া	2
▁সম্বৰ্ধনা	2
আংশিক	2
▁অৱকল	2
▁ডেভেল	2
girlfriend	2
facebook	2
mobile	2
meter	2
▁মিটাৰ	2
▁Slut	2
▁ব্লু	2
যঙ্	2
গৰ‍্	2
ুক্কু	2
▁ফাইলত	2
▁পৰিৱর্ত	2
▁ৰূপস	2
সূচক	2
▁mode	2
▁ইচি	2
▁দৃষ্ট্ব	2
▁স্বজন	2
ুপস্থিত	2
▁কাশ্মীৰ	2
▁সাংহাই	2
ctr	2
uth	2
▁মূৰ্গী	2
মাংস	2
gī	2
▁Sci	2
▁মর্ফ	2
▁ভগ্নাংশ	2
বস্ত	2
▁স্বত্বাধিকাৰ	2
পৰিক্ৰমা	2
Garau	2
hōm̐	2
▁গোষ্ঠী	2
টিভ	2
▁নজনা	2
▁পঠা	2
exist	2
▁he	2
▁নিৰ্বাপ	2
▁পানীয়ে	2
▁Ny	2
ষে	2
ark	2
▁perver	2
ms	2
স্পেচ	2
▁সহনীয়তা	2
লিম্প	2
োসল	2
▁নাপাহৰ	2
▁বাকেট	2
softcore	2
▁গুৰ	2
১২২০০১	2
▁ফ্ৰেঞ্চাইজী	2
lynn	2
▁চোষা	2
লীৰ	2
ুৰণি	2
▁নিৰাম	2
▁কাৰ্য্যক্ষমতা	2
▁এন্টিবায়টিক	2
▁ভয়াবহতা	2
▁আৰ্ট	2
ala	2
▁Sr	2
hara	2
শনি	2
দিনটোৰ	2
serrorstext	2
কাৰণসমূহ	2
▁গ্ৰহন	2
▁সম্ভৱনা	2
দিনবোৰ	2
▁EURZAR	2
গ্রাফ	2
▁ইত্যাদিক	2
ect	2
বর্হ	2
াপীড	2
ফণি	2
ক্রীড	2
▁ডুবা	2
▁পৰিত্	2
যক্ত	2
▁ঢৌ	2
ৰাজি	2
▁Product	2
Ś	2
aturday	2
Śa	2
currentevents	2
▁se	2
Ï	2
▁নিষ্কাশন	2
▁পৰিমাণতকৈ	2
ৰেঞ্জ	2
াকৃতিক	2
▁অদুৱ	2
িদু	2
ণ্ড্রর়ি	2
▁অশেষলোকৈক	2
াভ্য়া	2
কচ	2
▁installation	2
▁গঠনপ্ৰণালী	2
ৈযি	2
িট্ট	2
োৱনল	2
▁ফোৰ্ম	2
dberrortext	2
query	2
nta	2
িনহো	2
▁Gua	2
▁জেঠ	2
must	2
▁don	2
▁সংক্ষেপ	2
▁insert	2
চ্ছেদ	2
▁দৃঢ়ীকরণ	2
mea	2
শয়নকক্ষ	2
▁ক্যাম	2
অংশ	2
ara	2
▁jay	2
▁স্ততে	2
ফ়্	2
নিঅ	2
ml	2
যেতিয়া	2
head	2
php	2
তাঃ	2
▁সাইড	2
কেউকাষ	2
vil	2
cascade	2
সুৰক্ষা	2
মছ	2
঴	2
বট	2
নেচ	2
▁নেট	2
নামত	2
▁উৎসৰ্গা	2
fore	2
ীষ	2
ṣa	2
▁উচ্চশিক্ষা	2
▁username	2
▁গুৰুগ্ৰাম	2
▁ডিৰাক	2
▁ফাৰ্ম	2
▁ছফটৱেৰ	2
▁আওতাত	2
▁z	2
▁ট্ৰা	2
ফ়ু	2
▁সদা	2
▁সম্মোহ	2
লেদু	2
▁CADJPY	2
▁উজ্জ্বল	2
hole	2
phat	2
pawg	2
bigbutt	2
আমেৰিকা	2
বিশেষজ্ঞ	2
▁ভাণ্ডাৰ	2
▁ডেটাবেছৰ	2
FK	2
▁ডেলিকে	2
▁করুন	2
▁জনগোষ্ঠী	2
▁জনজাতিকৰণ	2
pare	2
ণ্টেণ্ট	2
ক্রিয়	2
▁টোকিয়ো	2
ṁ	2
raājī	2
▁ফৰাচ	2
ক্ব	2
▁ডিজেল	2
ন্ডার	2
গাস	2
▁CIIL	2
▁তদা	2
অভাৰ	2
ustful	2
llow	2
▁খোৎবা	2
অন্যান্য	2
ডুম্	2
ত্তুক্	2
মেজ	2
led	2
īẏā	2
▁মেেয়	2
লেখা	2
বিজয়	2
ষ্ট্ৰ	2
▁বিভগ	2
▁ঘটনাবোৰ	2
▁মণ্ডলী	2
▁fem	2
▁Lo	2
ilos	2
হাউস	2
NO	2
▁কৰ্ত্তৃত্ব	2
▁সমীপৱ	2
ৰ্ত্ত	2
▁আৱিষ্ক	2
নুকূল	2
▁clima	2
cte	2
content	2
allowed	2
▁'[[$	2
▁বৰষা	2
▁আৱিস্ক	2
▁প্ৰজাতিটো	2
▁আট	2
্ধাৰ	2
ategory	2
বিবৰণী	2
টেল	2
সমৃদ্ধ	2
▁পৰবৰ্তী	2
ৱলি	2
াড	2
গল	2
▁জাম	2
▁ভেনচিত্ৰ	2
ষ্টে	2
▁অভিনেত্ৰী	2
▁বািল	2
▁অভিপ্ৰ	2
▁সমৰ্পিত	2
▁ঢাকা	2
▁সুংসগতি	2
▁আটাইকেইগৰাকী	2
▁পাৰিবা	2
▁Nov	2
Hub	2
▁সীমালৈ	2
af	2
▁অশ্লীল	2
নিছিল	2
▁স্পিৰুলিনা	2
ডাক	2
টেব্	2
▁ফ্ৰেঞ্চাইজ	2
▁বৰ্তনী	2
▁চম্প	2
▁বৰবৰা	2
কামৰূপ	2
োউ	2
বোউ	2
প্ৰথমেই	2
▁মৰণপন	2
▁শুশ্ৰুষাকাৰীৰ	2
▁সংগ	2
ামা	2
▁পুণৰ	2
স্থাপিত	2
▁মুছ	2
ৰফে	2
ক্ষাৰ	2
▁স্থগিত	2
ফটো	2
▁কেবি	2
Follow	2
েডিন	2
▁ST	2
▁আইচি	2
▁এইদৰে	2
▁নিৰ্মাণকাৰী	2
▁ডেস্ক	2
▁ৰোগীক	2
ahasa	2
[[$	2
▁ধাৰাস	2
▁পট্টে	2
▁কূট	2
▁দিবস	2
▁পেৰ	2
▁চক	2
ping	2
পাতলা	2
উপাধ্যক্ষ	2
মহীয়া	2
▁জোহ	2
য়াং	2
▁কর্ত	2
pars	2
▁হুক	2
৯৯৯	2
JEE	2
BB	2
▁ছিব্বাৰ	2
হাল	2
▁বাধ্যবাধকতা	2
▁তগিলি	2
নকু	2
LI	2
▁ব্যতিৰকে	2
অতিমানৱ	2
সৰ্ব	2
rievance	2
Help	2
▁san	2
toli	2
▁পিকেট	2
পৰ্যন্ত	2
▁কোনোধৰণ	2
▁অন্তৰ্বস্তু	2
▁humi	2
চবুক	2
▁ইংগিত	2
▁লেখিকা	2
ze	2
▁হৰণ	2
▁বলৱৎ	2
▁বিশ্বকোষ	2
ami	2
তিয়াল	2
▁ঘণ্ট	2
ব্ৰাউজাৰ	2
▁বিলিয়ন	2
anna	2
▁Nud	2
▁অম্মৈযপ্পর্	2
নপুংসক	2
কুল	2
▁প্ৰাইভেচ	2
▁মিঃ	2
▁Sin	2
cked	2
▁Gu	2
▁sniff	2
lou	2
lā	2
gā	2
▁খননকারক	2
হতীয়া	2
ভাৰতত	2
brush	2
ধিক্য	2
▁Movie	2
অধ্যাপক	2
▁গোহাঁই	2
▁উৎপৰিৱৰ্ত্ত	2
▁অস্ত্	2
▁টেক	2
▁বৈক	2
২০১৮	2
গিৰি	2
মণ্ডল	2
্ত্ৰা	2
▁ৰাছেল	2
গাল	2
▁শৰণীয়া	2
▁বিনাশ	2
▁পুষ্পমুকুট	2
▁ডাক্তৰ	2
▁অৰি	2
cturi	2
▁Yor	2
AIG	2
ife	2
▁Alli	2
ool	2
〈	2
〉	2
▁মিডিয়াযোগে	2
▁খেলপথাৰ	2
▁চানমাৰি	2
▁খেলপথাৰত	2
▁শিল্পীগৰাকীয়ে	2
লহি	2
▁ৰক্তচাপ	2
Heart	2
বৈদ্যুতি	2
▁দুৰ্গা	2
স্তা	2
▁Polish	2
▁খ্যাতি	2
হজ	2
কিন	2
ম্ফন	2
mypreferences	2
শিশু	2
ধাৰী	2
২৪	2
utton	2
▁Lea	2
ings	2
েদার	2
▁প্ৰতীক	2
▁স্টক	2
াপগ	2
হং	2
▁মামক	2
ীনস্ত	2
্বম	2
চস্তে	2
িষ্টি	2
কেজি	2
স্তের্	2
day	2
▁অনাহ	2
▁মাধ্যমিক	2
▁মানব	2
িশিষ্ট	2
▁নিৰ	2
▁কৰেঃ	2
স্বাস্থ্য	2
▁আন্তঃ	2
গাঁঠনি	2
▁ট্ৰিবিউন	2
icrosoft	2
к	2
সৰ্গ	2
Jan	2
হাব	2
ুলপল্ল	2
এইখন	2
প্ৰয়োজনীয়	2
▁যাওঁতে	2
▁চালি	2
জাৰি	2
সাৱধানতা	2
▁পৰিবহক	2
▁পইন্ট	2
▁জব	2
showhide	2
▁পুৰ	2
▁Portugu	2
▁বিদ্যাৰ্থীসকল	2
শিক্ষয়িত্ৰী	2
jump	2
▁বিধে	2
কৈঃ	2
ters	2
▁আপদকাল	2
▁পৰিকল্পনাৰে	2
ln	2
জীৱনৰ	2
▁মৰম	2
হলি	2
ুকুৰ	2
▁উঠিছ	2
ওজাৰ	2
তামত	2
যোগাযোগ	2
▁Anup	2
iyan	2
trix	2
সম্পদ	2
▁Ice	2
bt	2
হীয়েক	2
cade	2
body	2
ুদল	2
৮৬৬	2
ৰ়িল	2
uc	2
▁ছাহিৰ	2
▁যুৱকজন	2
িটো	2
োস্টা	2
sof	2
ne	2
},	2
▁প্ৰদৰ্শ	2
▁Account	2
▁Control	2
োপো	2
▁সন্তুষ্টি	2
▁February	2
place	2
para	2
???	2
▁ana	2
nosuchaction	2
▁ইউআৰএল	2
▁সহনশীলতা	2
সাঁচ	2
▁নেে	2
সন্যাসী	2
▁Fer	2
▁বিশ্ববি	2
▁উকীল	2
▁শিকাই	2
▁ক্লা	2
nder	2
▁size	2
▁কেম	2
▁টৰ্ন	2
▁ৱেবছাইটো	2
৬৩	2
িমুদ্দিন	2
শ্বী	2
▁ফাঁচী	2
▁আকাংক্ষ	2
িছোঁ	2
Questions	2
প্ত	2
retype	2
▁গুপ্ত	2
ley	2
ants	2
unre	2
gni	2
word	2
rine	2
▁ওপৰলৈ	2
▁উছাইমীন	2
ুণর্	2
▁ফলস্বৰূপ	2
schaaTscheiTs	2
ুক্	2
▁নিষ্পাপমাই	2
ͣ	2
ͫ	2
▁porn	2
বিলাকত	2
ৰিকান	2
্ছ	2
▁ৰেচপনচিবিলিটী	2
▁ছিব্ব	2
▁মৰ্য	2
সোঁফাল	2
▁লাইভ	2
▁কৱা	2
য়ুসংক্রান্তগাধা	2
ophie	2
βЃҼӱЛЁ	2
▁বিক্ৰেতা	2
হকাৰী	2
ণ্ডি	2
▁যথাযথতা	2
ALE	2
NT	2
িঙ্	2
ুৰ‍্ৰ	2
zone	2
▁গুদাম	2
▁ফিটিং	2
▁বাগৰা	2
এছটিচি	2
▁খাটনিয়াৰ	2
▁আবণ্টন	2
াম্ভ	2
টাউন	2
▁কিশোৰ	2
▁এডভ	2
শ্রেণীসমূহ	2
গোলাপী	2
উলকিঅপেশাদার	2
লাইট	2
▁প্লাস্টিক	2
▁পুষ্পদ	2
▁আয	2
লোঁ	2
→	2
☣	2
Juan	2
▁braces	2
হুজাইফী	2
ৰূপায়	2
শিশ্ন	2
জোন	2
▁ঢাপ	2
ship	2
▁Sar	2
dhar	2
Kat	2
Months	2
▁বাতিলকৰন	2
▁legs	2
emale	2
muscle	2
▁দ্বারা	2
▁গজ	2
▁শব্দৰ	2
sa	2
urus	2
con	2
ক্ষেত্ৰ	2
▁আটাইকে	2
▁পুতনগুহা	2
ranscript	2
নকল	2
মোহা	2
প্রেৰণা	2
▁যোগাব	2
ঁওক	2
এম্বুলে	2
মুখিতা	2
ছান	2
▁বুক্	2
োক্স	2
GN	2
ৱসান	2
▁ক্ষণ	2
▁কৱালেস্কি	2
জগতলৈ	2
▁Kovalevsky	2
▁কনক	2
কণ	2
▁বেনাম	2
FO	2
স্থিৰ	2
▁ওপঙি	2
▁মূল্যতকৈ	2
ros	2
ivity	2
উছী	2
▁দায়লুপ্তি	2
▁ইউনিভাৰ্ছিটী	2
টাইম	2
ukh	2
davi	2
▁গিয়ার	2
ৰকাজুল	2
▁Superlative	2
none	2
▁মাথোঁ	2
▁বঁটাত	2
সফলতাৰ	2
▁অসম্মত	2
▁বায়ো	2
ফিড	2
ষিত	2
▁ৰান	2
▁nud	2
▁আহৰ	2
▁দিশটোক	2
ৱেজ	2
▁মৰ্ণিং	2
▁ভিন্নতা	2
▁ফেনা	2
▁গড়কাপ্	2
▁আশ্চ	2
▁ভয়া	2
ৱহ	2
entation	2
▁কৰ্মক্ষেত্ৰ	2
▁গ্ৰু	2
মিং	2
য়েল	2
্ৰীনিবাস	2
ড়াল	2
▁হাজী	2
same	2
পরীত	2
dellogpage	2
▁দেখ	2
্কে	2
▁spread	2
▁স্ক্ৰিনত	2
Sta	2
▁আবেদনকাৰী	2
▁Be	2
ps	2
মেহ	2
মিটাৰ	2
মেডিকেল	2
সজুলি	2
▁স্বকামী	2
শন	2
মুল্য	2
▁array	2
পাথো	2
AI	2
▁পিন্ধ	2
ভেন্ট	2
্ৰি	2
▁উদাৰ	2
▁ডব্	2
▁প্ৰতিবন্ধ	2
▁ডু	2
াংসি	2
▁ISTN	2
▁Standard	2
▁Translat	2
▁মািহ	2
▁পৰিমা	2
ৰ্জনা	2
▁অসহ	2
▁pussy	2
▁বুধ	2
▁সতৰ্কীকৰ	2
দোনিঅ	2
▁সুধিব	2
▁want	2
য়ি	2
িকেশ্যন	2
▁স্টো	2
▁মহোত্সৱ	2
▁বেদী	2
▁খুল	2
▁ডেভি	2
▁যশ	2
ধৰ্মী	2
▁মিছ	2
ione	2
▁সূৰ্য	2
▁লীলা	2
্বেদ	2
▁সত্যক	2
▁ধৈ	2
▁ঋতু	2
▁পৰিপূৰ	2
▁কৰ্ত্তন	2
▁দহনকক্ষ	2
▁রাণী	2
জাপানি	2
tat	2
▁শাস	2
▁সংক্ষেপত	2
ৰিট	2
েনিয়ান	2
▁ঔগুইয়া	2
▁Unit	2
Ess	2
▁Raj	2
▁Film	2
▁ঊনসত	2
▁পশ্চিমীয়া	2
াশয়	2
মানি	2
ঞ্চনা	2
▁অসাংবিধানিক	2
ভিতৰুৱা	2
▁গণ্ড	2
শ্বৰী	2
▁Red	2
▁রাড	2
▁ফেং	2
▁ইমিউন	2
২০১৩	2
urbo	2
Double	2
edirects	2
ಅ	2
ಾಮಿ	2
লিয়ে	2
যাপন	2
াদৰ	2
ুকুম	2
▁ঈক্ষণকামীজাপানি	2
অংগীকারঝলকানি	2
hr	2
bury	2
ক্ৰিছ	2
rish	2
▁শিক	2
ITP	2
▁North	2
Statistic	2
▁তাৎপৰ্য	2
▁বিজ্ঞানক	2
মাতেউস	2
ঠিকাদাৰ	2
pg	2
ধ্যাত্	2
▁টেকন	2
▁উল্লেখনীয়	2
▁পৰিশ্ৰম	2
▁লাখতকৈ	2
\'\'\'	2
▁আইডল	2
▁খায়	2
কথন	2
▁যত	2
াম্বাৰ	2
CS	2
থী	2
nolinkshere	2
▁কৰিছেনে	2
▁পাতনি	2
▁টাস্কফ	2
চকীয়া	2
▁কাৰখন	2
script	2
▁উদ্যোগবিলাক	2
▁লী	2
ails	2
াসক্ত	2
▁Lee	2
▁মুষ্টি	2
পালিত	2
▁Update	2
▁তজ	2
হৃত	2
▁ডীলাৰ	2
▁শাওকুছি	2
▁গাত	2
ৃষ্ণ	2
রৌ	2
▁ঋতুৰাজ	2
▁symbol	2
shu	2
ঞ্চি	2
▁ক্ষতিগ্ৰস্থ	2
▁মৰ্মে	2
▁প্ৰতিবাৰ	2
ଓଡିଆ	2
আলোচনী	2
বর্তমান	2
সেকচ	2
▁খানাপাৰা	2
▁গৌল	2
বীণ	2
অপ্ৰকাশ	2
mind	2
▁world	2
resent	2
▁ধৰিলে	2
জিপি	2
কেঁচা	2
ological	2
ura	2
▁স্বৰুপে	2
▁পগ	2
রাট	2
▁দেহা	2
▁ভালুক	2
ইতালি	2
▁Date	2
▁Ex	2
ংজ	2
াইটি	2
▁ডিস্	2
▁অর্ডার	2
▁HR	2
OF	2
ধায়	2
কজন	2
Mass	2
স্বৰ্গ	2
▁দুষ্টু	2
▁গুৱা	2
▁একবিংশ	2
▁পঠেত্	2
▁সিবিলাক	2
ঞ্জলি	2
বোৰেই	2
▁গুলীয়া	2
▁সাহসী	2
▁কুমিল	2
arn	2
rant	2
viewdeleted	2
▁ফণীমনসা	2
▁দ্বিভাষ	2
▁অমল	2
মলা	2
াইদেউ	2
▁সমালোচনা	2
▁একাকীঘনিষ্ঠ	2
views	2
▁মোহ	2
১৯৭২	2
▁লগ্	2
নজ	2
noemail	2
▁ঠিকানা	2
▁অদ	2
হনীয়তা	2
পত্ৰখন	2
▁ফাৰ্	2
ঞ্জে	2
▁সময়খিনিত	2
▁তম্মিল্	2
ুশ্ব	2
অভিধান	2
▁Marathi	2
▁gh	2
nifer	2
ৰূপা	2
abb	2
সদস্যতা	2
চী	2
জোৰা	2
▁বিয়	2
▁উন্মোচন	2
▁গোবিন্দগিৰী	2
▁দেৱী	2
লিয়া	2
শুনা	2
TC	2
secure	2
ঊনি	2
added	2
▁নবন	2
মূৰ	2
ত্ৰৰ	2
ত্ৰাধিকাৰ	2
▁হাদ	2
▁তহে	2
▁পোলিচয়	2
anontalk	2
▁লিটাৰ	2
পাঁচ	2
uhavenewmessages	2
multi	2
োনে	2
▁অফাৰ	2
▁হিন্দী	2
▁শ্রে	2
প্ৰযুক্তিবিদ্যা	2
yourpassword	2
▁আলোকপাত	2
▁তোলাটো	2
▁নিবাৰণ	2
িয়াওক	2
▁খুজি	2
পৰি	2
ভাড	2
▁কুর়ি	2
▁অপাং	2
এনা	2
লোটো	2
▁Shi	2
NDE	2
▁BA	2
▁গাড়ি	2
মসৃ	2
পুত্ৰ	2
জল	2
▁গৱেষণাটো	2
▁পেলাব	2
▁পুনঃভোটগ্ৰহণ	2
▁চৌপাঈ	2
দাবী	2
▁তথাভগ	2
▁দিশে	2
▁চালে	2
▁গৰিষ্ঠ	2
এতিয়া	2
োঁৱা	2
বতৰ	2
rub	2
rum	2
▁সমীপ	2
▁বিল্ডিং	2
OR	2
hout	2
্তিলৈ	2
চালে	2
▁মোদ	2
▁গোটে	2
quirt	2
▁নাযায়	2
▁নোপোৱা	2
NC	2
▁সংহিতা	2
োচাই	2
▁আইড	2
dic	2
tionary	2
▁Web	2
address	2
মোবাইল	2
্গা	2
aro	2
gya	2
review	2
▁লখিমপুৰ	2
▁পথাৰত	2
▁বয়বস্তু	2
পৰ্ট	2
গম্য	2
পুর	2
▁সুব্যৱস্থা	2
▁আছোঁ	2
ণিৰ	2
▁Su	2
alia	2
▁wi	2
ska	2
বানজাৰমেচিন	2
fas	2
cina	2
nit	2
▁mon	2
▁আৰম	2
েনিয়া	2
titles	2
▁যন্ত্রাংশ	2
▁MB	2
ettings	2
ecur	2
▁নিকট	2
roo	2
tuser	2
ৰুট	2
▁ৰাজু	2
▁কপাৰ	2
প্রবেশ	2
dep	2
devi	2
style	2
ঝে	2
Cu	2
▁৫০০	2
rn	2
ciation	2
▁মডাৰ্	2
▁লেং	2
▁দিহা	2
▁key	2
▁ধনমূলম	2
▁জনজাতি	2
▁প্ৰামাণ্য	2
নেকেটভিড	2
▁হঠাতে	2
বস্তুক	2
▁কোণগুলি	2
Ε	2
ην	2
κ	2
▁ভৱনটো	2
▁হাজৰিকাই	2
▁পুসো	2
▁সুহৃদ	2
▁বংধ	2
দেওবাৰ	2
ভিজুৱেল	2
ব্যৱহাৰকাৰী	2
▁হাতপুথি	2
For	2
ৰিয়েলটোত	2
▁Operat	2
▁মান়	2
দিল্ৱ	2
▁ৱাৰ	2
▁দুটি	2
▁লোমশ	2
▁নীলো	2
abr	2
awing	2
▁নাকাল	2
gp	2
ssp	2
▁পৰিচিত	2
▁Nam	2
অর	2
ডিডি	2
sor	2
ár	2
ï	2
তানি	2
ফৰ্মূলে	2
থি	2
▁দুৰ্ঘটনাথলী	2
urab	2
▁হুইছ	2
▁নাপাল	2
▁বিনিয়োগকাৰী	2
▁ঔত	2
র্কি	2
▁ফাউণ্ডেচন	2
এইপ	2
IS	2
▁ল্যাট	2
ছত	2
চৰ	2
▁ছাত্ৰই	2
▁উঠিবলৈ	2
▁লওঁতে	2
কোনোবাই	2
হয়তো	2
subcat	2
্টান	2
ifer	2
turi	2
▁কৃতি	2
▁দুপৰীয়া	2
শেষত	2
চিকিৎসা	2
▁নীতিতো	2
হাৰৰ	2
▁মিলাই	2
▁অনব	2
iversity	2
ডিজিটাই	2
▁এছিয়া	2
বেমাৰ	2
▁চোপ্ৰা	2
অসতীপতিঅ	2
▁প্ৰফেছ	2
mac	2
flash	2
<	2
}}{	2
▁ভুক্ত	2
Ασ	2
μ	2
▁Pa	2
mem	2
▁ভেজা	2
ebruary	2
ফোন	2
চায়ক	2
▁আ্য	2
প্লিকেচন	2
লাগ	2
জ্ঞাপন	2
▁গীতা	2
▁গোপানীথ	2
▁প্ৰত	2
▁ৰিপ	2
▁চদা	2
্র্	2
▁চেন	2
▁পৃ	2
^	2
ump	2
▁অধিবাসী	2
সীমা	2
▁উপচাৰ	2
▁Taylor	2
▁মপ	2
▁ব্রুম	2
চিজিএল	2
▁ভয়াত	2
টিং	2
▁সুকীয়া	2
▁Confe	2
গ্লে	2
▁তথ্যসমূহক	2
▁মাপদণ্ড	2
▁এইছ	2
োবেল	2
▁মিলাইছে	2
অর্ধ	2
ইণ্ডিয়া	2
▁বিশ	2
ations	2
▁dia	2
▁GQ	2
▁ইণ্ডিয়াই	2
▁এইবছৰ	2
মুখে	2
কিউ	2
▁উন্মুক্ত	2
▁Rhodi	2
ডিয়া	2
▁Vape	2
gy	2
▁ইং	2
ভাৱ	2
▁কেবিনেট	2
▁আফগানিস্তান	2
▁হাৰ্	2
তত্ব	2
সম্পাদন	2
Cho	2
▁বৰ্ষ	2
▁তাৰকাসকল	2
▁পাট	2
্তিক	2
নবী	2
▁চতুৰ্	2
▁আলি	2
▁কাপুৰ	2
▁আপ্ত	2
▁পাণ্ডে	2
▁পান্নু	2
স্বৰূপে	2
পূৰ্বে	2
▁সহায়ে	2
চাৰি	2
টেক্সট	2
▁ট্ৰেংকুলাইজ	2
ডেন	2
▁টিকাকৰণ	2
তিনিশ	2
ষষ্ঠ	2
uk	2
▁বৈশিষ্ট্যসমূহ	2
▁এতিয়ালৈ	2
▁চেণ্	2
▁ইরুৰ	2
ৰিয	2
হেন	2
পুনৰ্	2
অনা	2
উৎপাদন	2
▁প্ৰমেয়	2
▁বঙাইগাঁও	2
▁গ্ৰিফিথ	2
নবেম্বৰ	2
▁পূ	2
ণু	2
tags	2
অৰ্থ	2
▁সহযোগ	2
ালছ	2
স্মল	2
▁মহিন্দ্ৰা	2
▁মহোৎসৱ	2
ঙি	2
▁স্প্ৰ	2
local	2
ডিষ্ট্ৰি	2
▁Dis	2
▁Image	2
াহত	2
বাৰে	2
▁পৰিৱেশত	2
▁টিকটক	2
State	2
শব্দসমূহ	2
সঙ্	2
allow	2
▁গেংকি	2
ত্তা	2
▁শৃ	2
▁ইন্ধনৰ	2
ংগন	2
▁Ud	2
dhab	2
নুসংগিক	2
লিযন	2
তিনিচুকীয়া	2
আলিয়া	2
ক্কা	2
▁গোল	2
▁১১০	2
▁মার্চ	2
▁স্কীম	2
়ত্	2
▁বনোৱা	2
▁নিযুত	2
▁ক্ষতিঃ	2
▁উদ্যোগটি	2
▁খুচ	2
lim	2
last	2
ঘাট	2
িচুষা	2
ailey	2
▁কৰিছিলো	2
েংগা	2
roje	2
admi	2
▁general	2
alad	2
JP	2
কৰ্তাৰ	2
ক্লিক	2
▁মটোগুজিজ	2
▁স্বকামীখেল	2
hannel	2
Watch	2
ধে	2
NS	2
▁গবেষণাগাৰ	2
▁স্ত	2
াপন	2
ছাত্ৰ	2
য্গণ্ড	2
ণ্ড্রো	2
▁sa	2
ednesday	2
has	2
ib	2
একত্ৰীকৰণ	2
▁উইৰুবা	2
কৰিবলগীয়া	2
▁ফলপ্ৰসূ	2
▁উন্মোচ	2
▁সংখ্যাতত্ত্ব	2
▁Theory	2
▁আগলৈকে	2
▁শুনা	2
▁শব্দতালিকা	2
লেচ	2
িুম	2
▁দাই	2
মিজু	2
▁আম্ম	2
িজু	2
lers	2
হিতং	2
বচ	2
▁জন্মদিন	2
আউটৰ	2
PCS	2
wi	2
tter	2
▁।]	2
IVE	2
গর্ভ	2
▁মহি	2
স্তম্ভ	2
চাক	2
As	2
▁লিংগ	2
প্রৱেশ	2
▁এডিংটন	2
ঁহ	2
member	2
▁গোটবোৰ	2
brow	2
▁নিশাই	2
▁here	2
▁আঁতৰাওক	2
▁ডক	2
▁ব্রা	2
ণ্টে	2
▁শক	2
▁গগৈয়ে	2
▁অৰ্থাত্	2
▁Super	2
▁karm	2
asu	2
▁ভেড়া	2
esult	2
▁ৱেবছাইত	2
▁CB	2
▁RH	2
লাফে	2
▁শড়া	2
acial	2
াশ্বৰ	2
ন্নিধ	2
▁মুহূৰ্ত	2
জেড	2
▁পুষ্পং	2
▁Waiter	2
aē	2
iṭ	2
▁অপৰিহাৰ্য্য	2
▁ডায়েৰিয়া	2
▁দেশবোৰ	2
গতিশীল	2
gging	2
▁নিবেদ	2
▁তুম্হারা	2
▁লিখে	2
▁ষোল	2
cholo	2
sixt	2
addcat	2
্ড	2
recreate	2
ডাঙৰ	2
ঈক্ষণকামীসৈকত	2
য়াৰ	2
▁উপলদ্ধ	2
▁Mpa	2
▁তাৰমানে	2
▁যোগফল	2
▁প্ৰথ	2
▁Cop	2
▁বহ	2
▁পেজ	2
▁dis	2
tribution	2
▁সামৰে	2
▁ঐচ্ছিক	2
িন্	2
▁কণ্	2
▁আপেল	2
▁তাৰপিছ	2
▁সঞ্চালকৰ	2
পেতিতে	2
ঠিক	2
▁নিয়ন্ত্ৰ	2
গুৰি	2
▁SA	2
Gr	2
▁TP	2
▁বাইচ	2
িলিন	2
▁প্ৰতিদিন	2
▁থাকোঁতে	2
▁মোহন	2
unny	2
দাল	2
Ra	2
āh	2
▁একাডেমি	2
templatesused	2
}}:'	2
▁ইমালসন	2
হায়ত	2
▁পৃষ্ঠাহমুহ	2
▁মক্কা	2
▁list	2
āta	2
ṭha	2
হিষ্ক	2
াননং	2
▁৩৭	2
Market	2
bot	2
▁গুগ	2
ize	2
ontrol	2
Options	2
▁Bon	2
ookies	2
▁খুলিব	2
Exceptions	2
lle	2
▁Lindberg	2
stin	2
alf	2
ouble	2
▁হকি	2
linktext	2
▁ইস্পাত	2
▁অষ্ট্রেলিয়া	2
াউথ	2
▁তান	2
▁পৰিচা	2
▁িুব	2
▁ড্র	2
▁ষাড়	2
ীৰ্য্য	2
্যুতি	2
▁ডমেইন	2
ুইছ	2
▁একোকে	2
▁নাজানো	2
োৱেই	2
বিদসকল	2
▁ভাবিছিল	2
icki	2
▁উৎকৰ্ষ	2
সাধন	2
মাচু	2
▁মচি	2
▁বিদ্যায়তনিক	2
▁কাৰ্য্যদলটো	2
▁২০০৬	2
▁ধেমাল	2
▁সৰুসজাই	2
লাল	2
▁কলিকতা	2
▁উপাচাৰ্য	2
▁Imp	2
েরি	2
▁পির	2
মক্	2
মদইতালিয়ান	2
▁ষ্টেচন	2
▁কুঠী	2
▁পূজ	2
দ্ৰোহ	2
▁AT	2
ribut	2
eTo	2
▁দেবী	2
মাইখেলনা	2
বেদ	2
পগ	2
প্রতিমা	2
gyno	2
ctor	2
▁spy	2
পূৰ্ববৎ	2
▁মদীনা	2
▁পাহাৰ	2
▁শ্বহীদ	2
▁কৰ্তন	2
▁পত্ৰখন	2
ঢ়ী	2
tru	2
▁কিলোজ	2
▁দূৰবী	2
নীড়পাতা	2
▁এচটোনিয়া	2
ন্টেন	2
্রো	2
▁পোল	2
ান্ড	2
▁খাদ্যশস্য	2
▁পথাৰ	2
্ৰীণ	2
▁কাৰ্বন	2
ক্সাইড	2
▁পৰিৱৰ্ত	2
▁পঢ়িছে	2
▁দিয়	2
▁মুং	2
▁উন্নীত	2
▁ছাড়া	2
ড়া	2
▁ডেভেলপ	2
▁অথৰিটি	2
▁প্ৰক্ৰিয়াকৰণ	2
ৰেং	2
ategories	2
Tag	2
াঙ্গ	2
▁Pranama	2
▁হিটাচি	2
▁পুষ্পহীন	2
▁কুফৰ	2
wanted	2
কাম্য	2
মঃ	2
▁IT	2
বৃদ্ধি	2
▁অঞ্চলত	2
ট্ৰেল	2
▁ঐক	2
▁উৎপ	2
দায়ক	2
▁কৰ্মজীৱন	2
external	2
▁[//	2
▁মাপ	2
▁উত্	2
পদ্ম	2
বেজ	2
▁পশ্	2
▁প্ৰতিযোগী	2
▁mil	2
▁বহুমুখিতা	2
march	2
মুক্	2
ালয়ৰ	2
জিল	2
েঞ্জ	2
▁কৰাতকৈ	2
▁বাস্কেট	2
সিদ্ধা	2
anon	2
changepassword	2
ᴀτ	2
▁Pra	2
▁Medhi	2
names	2
▁this	2
▁tr	2
enab	2
olic	2
টেলিফোন	2
াদান	2
▁দাটি	2
DF	2
save	2
সংৰক্ষণ	2
ble	2
porn	2
ঈক্ষণকামীচমকানো	2
▁পুমা	2
োকড	2
▁টাইট	2
mma	2
ucks	2
জলকীয়া	2
▁প্যাট	2
▁কেলেণ্ডাৰ	2
▁বিপদাশংকাসমূহৰ	2
ক্কালুম্	2
ন়ত্তা	2
লুম্	2
▁ভাবো	2
▁পৰিৱেশৰ	2
আৰোহণ	2
preferences	2
▁Oc	2
overed	2
restrict	2
▁ভোটগ্ৰহণ	2
ুবেই	2
ric	2
Tr	2
ike	2
হিন্দী	2
▁সতী	2
▁read	2
▁প্ৰেজে	2
▁নৈতিক	2
▁কেশ	2
▁ধাৰ্য	2
▁টেবলেট	2
নগাওঁ	2
য়াও	2
র্ড	2
চৰ্চা	2
িস	2
ৱন়ে	2
▁পাহৰিলে	2
▁শিলস্খলন	2
বাবা	2
বিছানা	2
Neighbo	2
সেই	2
দেখোৱাওক	2
আলাপ	2
▁MD	2
▁প্ৰছেছ	2
▁এভ	2
▁্ৰিথিং	2
▁দৈনি	2
▁Kazir	2
▁pronounce	2
zir	2
▁park	2
ag	2
st	2
ৱন়	2
▁হাদি	2
পৰিবৰ্তিত	2
▁ভাৰতী	2
▁ৰয়	2
print	2
movenotallowed	2
Login	2
▁ধনৰাশিত	2
▁ৰাগবী	2
Girlfriend	2
অনভিপ্	2
য়ামা	2
▁নিগ	2
াতা	2
toggle	2
একো	2
▁তুলনা	2
patrol	2
হল	2
▁ডায়েগ্ন	2
nskar	2
▁নাৰাখে	2
▁পঠেন্	2
circ	2
▁নির্দ	2
TU	2
তের্	2
ধ্য়া	2
বো	2
▁উদ্ভাসি	2
▁fra	2
▁ঝিল্লী	2
▁নীল	2
▁মুদ্দ	2
▁অঞ্চলটো	2
ব্যাহত	2
আৰক্ষী	2
ীকৰন	2
newbies	2
▁সভ্য	2
কোটি	2
▁প্ৰসৱ	2
মুনা	2
বোল্	2
▁ন্যায়ধী	2
▁মংানিজ	2
ensi	2
tivity	2
▁Ji	2
্যাট	2
▁কামটো	2
▁হোৱাকৈ	2
▁পূৰ্ববৎ	2
▁টেইল	2
স্নান	2
▁এনি	2
▁মাছখোৱা	2
▁হোটেলখন	2
কেন্দ্ৰত	2
মৰিগাওঁ	2
বৰপেটা	2
প্লে	2
▁সক্ৰিয়কৰণ	2
শ্বন	2
▁লেন্স	2
শিল্প	2
সৈকতেসৈকত	2
▁সৈন	2
▁Rupa	2
ধ্বনি	2
▁Subscri	2
▁Feedback	2
▁দালাল	2
▁স্থা	2
▁বন্ধন	2
যোগানকাৰীৰ	2
▁অস্থায়ীভাৱে	2
HS	2
কনফার্ম	2
সকলোবোৰ	2
চমন	2
redir	2
▁ষ্	2
▁প্রজাতি	2
No	2
CC	2
ش	2
▁সমমিতি	2
বিপণন	2
িগ্ৰহ	2
াছি	2
sea	2
▁জালত	2
দেৱতা	2
locked	2
nish	2
▁da	2
▁ডেনি	2
▁Prepositions	2
▁চলিছে	2
▁MLOP	2
▁উই	2
ল্ল	2
ুডৈয	2
▁মাননী	2
লন	2
▁GB	2
▁গি	2
র়িদ	2
▁ঘাহঁ	2
ক্ষণ	2
রাক	2
▁Miscellany	2
াইভ	2
á	2
উচ	2
▁নিৰীক্ষ	2
▁বৰ্তনীটো	2
thre	2
chan	2
লানি	2
▁পাণ্ড	2
রিব	2
কীনা	2
▁স্প্ৰেড	2
▁৩০০	2
আবাসগৃ	2
▁ভেনচিত্ৰটো	2
মাধান	2
▁ভেংকটচালা	2
▁ধাৰাবাহিকখন	2
পেক্ট	2
ভিনেতা	2
▁শিৱ	2
▁ছেট্টি	2
তাস	2
▁জ্বাল	2
▁ব্য়াপ	2
▁fo	2
বোল	2
▁ফাং	2
াৰক	2
▁CXZ	2
▁এনাচথেচি	2
▁অপাৰে	2
তুন	2
পুন	2
নিৰ্দেশক	2
খ্ৰীষ্টান	2
▁ঘটি	2
কাৰীৰ	2
▁লেব	2
▁পুস্ত	2
ুখ	2
▁থীম	2
▁পুনর্	2
▁সৈকতদ	2
▁ষণ্মুখ	2
াঞ্জলি	2
▁regex	2
▁পৰিৱৰ্ত্তনসমূহ	2
▁WOR	2
াদে	2
CD	2
$$.	2
▁উৰ্ধ	2
zz	2
আনকাবুত	2
▁জমেটো	2
▁Ver	2
▁তেলুগু	2
ছফ্ট	2
Ã	2
▁Options	2
▁শ্লাই	2
ডাৰটো	2
▁কেটেগ	2
dvanced	2
্ট্ৰল	2
ঠাইৰ	2
▁অবদানে	2
interface	2
▁ইণ্টাৰ	2
ফে	2
যতি	2
▁ঊৰ্ধ	2
▁বিভাগটো	2
igh	2
▁সংস্থাপ	2
▁দাউন	2
জ়ু	2
▁শিম্পো	2
▁under	2
icense	2
▁মুখি	2
▁বাছখন	2
▁ফাইলতো	2
▁ইউনিয়ন	2
▁ফৰেইন	2
▁নজৰ	2
ৰ্গ	2
গ্ৰাম	2
▁জাগ	2
ৰোড	2
▁যী	2
েন়্	2
প্তি	2
ller	2
ready	2
ure	2
সদস্যজনলৈ	2
▁ডেনমা	2
ইজী	2
Save	2
▁Swi	2
টাৰী	2
▁প্ৰক্	2
িষ্টত	2
শালম	2
ইনা	2
োঁহা	2
অত্য	2
▁ভুগিছে	2
▁শীঘ্রে	2
ৰোগ	2
▁ডায়েবিটিজ	2
ভাস্কু	2
▁গর্ভাৱস্থা	2
▁ৰকষ্টাৰ	2
▁system	2
সমৰ্পন	2
▁কেডাৰ	2
▁পৰিয়ালক	2
▁কালসমাপ্তি	2
▁পৰৱৰ্ত	2
▁অধ্যয়	2
LT	2
▁প্ৰবন্ধক	2
জড়ি	2
ুৰ্ব	2
▁SX	2
▁দত্তই	2
VC	2
▁দুশ্চিন্তা	2
lary	2
▁ধুম্ৰপান	2
▁জৰিমণা	2
▁ভেণ্টিলেশ্যন	2
▁চিত্	2
▁স্পি	2
fts	2
ডাটাবেচ	2
▁হঠা	2
▁মূখ	2
▁উঠিল	2
হেম	2
▁যিজন	2
রংগ	2
উলকিচশমা	2
▁লেপটপ	2
▁ভিলানি	2
জিয়াং	2
▁di	2
uit	2
ন্যায়	2
ল্যান্ড	2
ধৰি	2
পুট	2
▁আৰোপকৰণ	2
▁দ্ব	2
প্রদান	2
▁কৰিলোঁ	2
▁ছিৰাপ	2
▁MAX	2
প্ৰবেশ	2
▁ৱাৰেণ্টিসমূহ	2
▁ক্লায়েন্ট	2
▁নোৱ	2
কষ্ট	2
▁নিধন	2
স্ত্রি	2
▁সহকাৰ	2
▁ভৰাওক	2
▁ব্যৱহাৰে	2
৯২	2
▁পৰিগ	2
পেছা	2
▁নিয়োগকৰ্তাৰ	2
▁সংক্ৰম	2
▁বীজাণু	2
▁blue	2
▁ডিভাইচসমূহ	2
ানগৰ	2
নগাঁও	2
তলা	2
▁কৰ্ত্তব্য	2
ণ্ডিত	2
্বক	2
ত্‍	2
▁এজনক	2
▁সায়িনা	2
ুৱাৰ	2
ew	2
▁problem	2
ids	2
▁Hal	2
▁Surveys	2
▁ব্যাঘাত	2
▁পৰ্যা	2
▁মূৰক	2
blocklog	2
দ্দ	2
▁কুৰ	2
বানী	2
	2
▁রব্ব	2
ব্	2
▁অগপ	2
em	2
▁১৯০	2
যৌনাংগ	2
clos	2
▁সজ্জা	2
ফন	2
▁জেষ্টেষ্যন	2
ক্ৰিয়া	2
▁কোষ	2
▁ব্যয়সায়	2
▁সদায়ে	2
▁আমন্ত্ৰ	2
▁উপকৰণ	2
¤	2
ওলি	2
নাইট	2
rus	2
▁মিত্ৰতা	2
মীলা	2
noexactmatch	2
।'''	2
্রফ	2
▁বিউট	2
▁চোপ	2
▁দুয়োকাষ	2
inten	2
ভাইৰাছ	2
▁Got	2
ear	2
কানী	2
jo	2
▁কনপ	2
িতৌ	2
▁কোপদৃষ্টি	2
▁আলোচ	2
াদ্দা	2
ণ্ড্র	2
ঙ্	2
▁চুইজাৰলেন্ড	2
feedback	2
▁প্রতিফল	2
গিলে	2
rown	2
▁বান্দৰ	2
পুথি	2
গ্ৰাঃ	2
▁ইয়োও	2
প্ৰমাণ	2
ক্রম	2
▁CHFJPY	2
▁ব্ৰাউজাৰটো	2
▁বেগান	2
▁hal	2
LOP	2
bi	2
▁ৰচি	2
▁স্কেলডাল	2
▁শ্র	2
ীনিবাস	2
▁তিরু	2
সৈ	2
ৰ়িয	2
▁Scar	2
▁সংয	2
▁ven	2
▁প্ৰশ	2
▁ইছ	2
তিছ	2
▁পালোঁ	2
শত্	2
▁ধী	2
্ণ	2
▁নায়িকা	2
ন্তে	2
message	2
used	2
▁তাফছীৰ	2
হৈছে	2
▁স্ত্রী	2
ম্যাসেজ	2
গ্ৰস্থ	2
ন্গ্জু	2
ʝ	2
Thi	2
▁মানচিত্র	2
▁টাউন	2
সূত্ৰ	2
HK	2
▁Sports	2
উচ্চাৰণ	2
▁বোলছবি	2
heading	2
ফর্ম	2
▁প্লেটফৰ্ম	2
Pharm	2
▁বুদ	2
▁দৈব্য	2
Spic	2
নিৰ্বাচন	2
▁তুলনাত	2
▁সিনহা	2
▁কন্ন	2
▁গুছল	2
bbw	2
▁face	2
si	2
যদি	2
▁যাওঁক	2
▁পলি	2
oba	2
▁মিথ	2
্যা	2
ত্ৰিছ	2
নাগ	2
▁মিশ্	2
▁সুবিধাক	2
ব্যাপ্তি	2
🥀	2
▁ডাম্পাৰ	2
▁লাইট	2
চল	2
▁অধীক্ষক	2
throttled	2
▁সুখবৰ	2
ৱালী	2
▁শিহ	2
▁ক্লাৱ	2
▁মাৰ	2
▁দৌৰ	2
opa	2
▁চৌপা	2
আপলোড	2
আমাল	2
Full	2
raditional	2
ব্ৰী	2
Lad	2
্যকৰ	2
lank	2
eable	2
expiry	2
অনিৰ্দি	2
▁খাৰি	2
▁বৰ্ত	2
্যতা	2
প্ৰকৃত	2
▁সহানুভূতি	2
▁মার্	2
▁ডিম্ব	2
সাদা	2
নথিপত্র	2
সংখ্যা	2
স্থিতি	2
বৈকল্পিক	2
▁অনিশ্চয়তা	2
একাকীচাঁচা	2
▁GBPJPY	2
Hu	2
band	2
▁android	2
activity	2
you	2
চনাত্মক	2
▁ctn	2
▁girl	2
▁পাওক	2
đę	2
▁অইন	2
▁প্রয়োগ	2
▁বুল	2
বুলি	2
▁শিক্ষকসকল	2
ার্স	2
▁বৈদ্যুতি	2
ৎস	2
কুশ	2
▁কিস	2
▁cr	2
▁নিউট্রি	2
্রাস	2
▁বছৰটো	2
▁PA	2
ত্রৈ	2
▁কাৰ্যসূচীৰ	2
স্বচ্ছতানপুংসক	2
Jo	2
Sin	2
▁নথীভুক্ত	2
েইল	2
ND	2
self	2
▁হেকাৰে	2
▁Reference	2
▁Libr	2
▁ট্ৰাষ্ট	2
▁বিজয়ী	2
▁সংগ্ৰাম	2
▁সৰ্বত্ৰ	2
▁চেতি	2
DN	2
beh	2
evin	2
▁খহনীয়া	2
▁ম্যান	2
▁শাহুয়া	2
▁প্ৰতিকিলোগ্ৰাম	2
উপদ্ৰৱ	2
লকু	2
▁দো	2
BAL	2
▁ফিলি	2
select	2
জড়া	2
▁পৰোক্ষ্য	2
িন্গ্	2
ধাৰ	2
▁কঠোৰভাবে	2
▁যিতো	2
▁Kitten	2
নিৰীক্ষণ	2
ষ্টাৰ	2
▁ভক্তানাম	2
কীর্ত	2
hua	2
tai	2
▁পাল	2
পূজ	2
রু	2
cheng	2
▁দৈত্য়	2
ক্বাছ	2
▁তিন	2
▁ভৱিষ্য	2
▁মিলিলা	2
▁মেৰুদণ্ড	2
otk	2
হিছ	2
াপে	2
trol	2
সদৃশ	2
▁সাক্ষাৎকাৰটি	2
▁ৰূপালী	2
প্রতি	2
Firefox	2
▁Kutir	2
ভে	2
ংস্	2
▁ধু	2
জিজি	2
ীতি	2
▁অসাম্য	2
বার্তা	2
▁প্ৰতিষ্ঠিত	2
▁প্ৰক্ৰিয়াক	2
▁নিৰূপণ	2
▁স্বাহাস	2
▁Cali	2
▁পৃষ্ঠাটোত	2
ৈণ	2
▁৮০০০৮৪০০	2
▁পূৰ্বাহ্	2
▁Cas	2
tle	2
▁Cl	2
লিচ	2
৪৮	2
ান্	2
▁মহাবাহ	2
▁জানাযা	2
▁লিপি	2
▁খোদ	2
▁সংস্থাই	2
▁ৰান্ধনি	2
্যাল	2
▁প্ৰবাহ	2
▁তোও	2
▁টিজিং	2
মাতাল	2
▁আলহী	2
ফুল	2
▁মী	2
ৰাছ	2
লিমাজীন	2
tool	2
▁এণ্ট	2
দর্শ	2
ঠাক	2
▁চেম্প	2
▁মাত্র	2
cannotdelete	2
▁সম্ভ	2
▁জীবনে	2
▁হিসেব	2
▁blog	2
▁বিপৰীত	2
▁বেলুন	2
▁সাঁকো	2
▁কণ্ঠ	2
ব্যাগ	2
ডব্লু	2
বিদ্যুৎ	2
▁ডী	2
য়সমূহে	2
ape	2
▁বিজেতা	2
২০১৫	2
▁ছেলি	2
▁আচাৰ্য্য	2
▁ৰচনাৰ	2
ppm	2
▁ৰাজ্যবাসীয়ে	2
▁বৰঙ	2
▁সামৰ্থ্য	2
▁নংদি	2
▁তামিল	2
িস্থিত	2
ন্যাশ	2
▁সাজি	2
▁সার	2
ērai	2
ংচন	2
Virtual	2
▁নির্দেশনা	2
▁অসমবাসী	2
▁ধ্ব	2
বাহক	2
গুৰু	2
প্ৰসা	2
কোঁৱৰ	2
▁আঁহ	2
পদ্ধতিৰ	2
▁WLA	2
SG	2
assword	2
▁ৰাজ্যপাল	2
▁পোৰ্টেল	2
▁ইয়	2
eze	2
pression	2
▁ভিআইডি	2
trings	2
▁ডাউন	2
▁মাল্টি	2
ছিছ	2
পিডিয়া	2
▁বিদ্য়	2
▁টুই	2
▁সোণোৱালে	2
▁বেলনা	2
▁সন্মিলিত	2
▁লখ	2
▁চালকজন	2
cam	2
Epi	2
্ৰিপ্লিকে	2
াঙ্	2
▁দুশ	2
▁বিজি	2
▁অহৰ	2
▁কূড	2
▁মুন়্	2
antil	2
ঙ্গিযৱা	2
trans	2
late	2
িফল্ট	2
▁লভ	2
size	2
▁দর্শন	2
টাৰ্ন	2
দুৱ	2
▁চিআইডি	2
method	2
শা	2
negation	2
graphic	2
মঁজিয়া	2
ভুৱ	2
ল্ড	2
▁`	2
▁ডিমা	2
▁সাতো	2
Đ	2
▁জীপেলিন	2
}/	2
street	2
▁Admi	2
nist	2
rof	2
▁েনবটিন	2
ঙর	2
ট্টা	2
বোৰ্ড	2
date	2
ff	2
▁দৈৰ্ঘ্য	2
▁Gay	2
▁ভৰণিসমূহ	2
▁বেতন	2
ৰাজ	2
জাগৰণ	2
▁লেখন	2
বানান	2
tra	2
ৰ্টেল	2
▁পৰ্দা	2
▁নথিসমূহ	2
হস্তা	2
▁নংদ	2
dildo	2
heel	2
▁কমোৱা	2
ন্য	2
numbers	2
rotected	2
েৰা	2
▁সূক	2
ুংগ	2
মংগল	2
▁অনুৰ্ধ্ব	2
▁বিতৰন	2
▁numbers	2
▁Apply	2
িস্তান	2
র্য	2
chi	2
▁Sanj	2
lu	2
thr	2
সস্নেহ	2
▁অপৰ	2
াহ্ণ	2
uploaded	2
policies	2
oogle	2
▁ব্ৰাউজি	2
▁বিমানখনৰ	2
টে	2
সেনা	2
তথ্য	2
▁সংশ্লেষণ	2
io	2
toolbar	2
স্ক্ৰিপ	2
্টৰ	2
স্মাৰক	2
▁বলীউড	2
▁সোন	2
▁এচএমএচ	2
ভির	2
▁কাৰিক	2
ুলাম	2
▁pin	2
▁SI	2
IM	2
চব	2
advanced	2
উচ্চত	2
▁অব্যৱসায়	2
▁ৰকষ্টাৰ্ছ	2
▁সভাই	2
urba	2
▁কাৰ্য্যব্যৱস্থা	2
▁ক্লীনাৰ	2
▁লোককেইজন	2
▁এম্বুলেন্স	2
cot	2
▁শেষলৈ	2
▁তীক্ষ্ণ	2
ল্প	2
ভিডিও	2
মণি	2
ç	2
▁তথ্যসূত্ৰ	2
উপক	2
সাপেক্ষে	2
▁Spea	2
rs	2
▁নাট্য	2
জিৎ	2
▁বৰকটকীয়ে	2
▁ৱিরৱি	2
▁GBPDKK	2
একছ	2
PG	2
inter	2
্যেৰে	2
sing	2
ular	2
কাংক্ষিত	2
italia	2
tu	2
▁ইকিমাস্	2
▁চুৰিকাৰ্য্য	2
▁afa	2
মাচ	2
Ind	2
ṅ	2
UG	2
gf	2
গোটা	2
fro	2
mo	2
্লা	2
▁______	2
িৱেশ	2
▁AD	2
babes	2
▁কিতাব	2
▁খাও	2
dea	2
dend	2
▁নৃ	2
▁শ্বাফা	2
▁কাৰাদণ্ড	2
▁পূৰা	2
টত	2
▁বিচ্ছ	2
fix	2
ম্ভাৱ	2
accountcreated	2
▁আগৰে	2
গাঠনিক	2
ফালা	2
atchlist	2
▁ব্ৰিটি	2
ওঠৰ	2
বৰ্তন	2
▁জাক	2
aj	2
▁মন্দিৰটো	2
▁ক্লিনিক	2
▁পৰীক্ষাগাৰ	2
▁লিমফ	2
▁Gree	2
uri	2
▁সাদা	2
▁Sha	2
▁সময়কাল	2
whatsapp	2
▁গাওঁ	2
wa	2
ৰিছে	2
▁Hi	2
▁give	2
▁my	2
ভেজ	2
eric	2
▁বিদ্বেষপৰায	2
্ট	2
ভেটৰ	2
ৰেজ	2
▁ছফ্	2
▁beach	2
▁ঘুৰি	2
▁গ্ৰহণযোগ্য	2
বঃ	2
▁সৃজনীমূলক	2
▁প্ৰয়োগক	2
▁শিৱাঙ্গী	2
ৰমণে	2
▁বিচ্ছুৰণ	2
▁দেখুৱালে	2
▁পৃষ্ঠপোষকতা	2
চিকিৎসক	2
▁Officer	2
▁webs	2
ট্ট	2
▁দেখিছ	2
ংদ	2
aga	2
চুদী	2
live	2
চর্বি	2
▁ৰেফ	2
্ৰিজ	2
াৰেটৰ	2
▁সংগ্ৰহালয়	2
▁তাৰকা	2
▁খি	2
▁জলবায়ু	2
▁পবিত্র	2
্কো	2
▁ষ্ট্ৰ	2
eet	2
▁সমূ	2
দ্ৰম	2
▁অংশধাৰকসকল	2
▁পুনঃস্থাপ	2
শয়	2
▁তোমালোক	2
ইতিহাস	2
১৯৯৮	2
▁ভ্যা	2
▁সন্তোষ	2
▁সাম্প্	2
▁পইন	2
▁দুৰ্ঘটনাটো	2
েষজ	2
lassic	2
yl	2
াউদাৰ	2
emi	2
পোত	2
ইমেইল	2
torm	2
uz	2
▁প্ৰয়োজনীতা	2
▁এজেন্সি	2
editmyuser	2
িযা	2
▁আচৰন	2
▁তৰিব	2
entrypoint	2
▁ছাৰ্ভাৰ	2
▁কাষ্টম	2
দ্ব	2
অভিভাৱক	2
্য়াস	2
▁বিয়োগ	2
bs	2
undelete	2
▁পিকি	2
▁বৈচিত্ৰ	2
▁Phone	2
fields	2
▁দুডাল	2
▁বাৰ্	2
▁Install	2
BY	2
▁মণ	2
▁বর্তমানে	2
মানো	2
▁ব্যবস্থাপনা	2
▁চাও	2
ব্যক্তিত্ব	2
▁ব্যক্তিসকলক	2
মহম	2
্মদ	2
▁পৰ্য্যায়	2
▁সমানে	2
▁GAI	2
▁চিণ্ট	2
▁গ্রাহ	2
▁লিম	2
▁ত্রা	2
াংছা	2
নিয়ন্ত্ৰিত	2
▁আইডলে	2
শিব	2
▁পাং	2
▁শস্যসমূহ	2
▁তৈ	2
imgmultipage	2
VA	2
yout	2
▁ডিয়	2
্যু	2
▁ডেট	2
▁সায়ং	2
▁উল্ফ	2
▁ৱার	2
▁Lust	2
▁খুচৰি	2
▁আৱশ্যকীয়তা	2
ignorewarning	2
▁কোনখিনি	2
চুদাচদি	2
▁pronoun	2
▁ইণ্ডি	2
▁প্ৰযুক্তিসমূহ	2
্যবান	2
পৃষ্টা	2
▁ভাৱ	2
▁button	2
▁দাবি	2
সচিব	2
দেহা	2
▁তেৰ	2
previous	2
েংত্	2
▁সমান্তৰাল	2
▁ইফঅ	2
▁মাইমুখগত	2
mas	2
▁দৈত্	2
ddress	2
▁অকাডেমি	2
▁ভয়াবহ	2
▁নিবনুৱা	2
ইউআইডি	2
আলা	2
▁মখ	2
▁বিশ্লেষ	2
▁উপন্যাস	2
▁অজ	2
▁জ়	2
▁পাডকাষ্ট	2
▁আবিষ্কাৰ	2
imper	2
▁কৰায়	2
▁ছুটী	2
▁ভোক	2
টিপিএ	2
নুউ	2
▁এপ্পটো	2
ুইডেন	2
ক্র	2
▁হুদ	2
▁চতুর্দয়ীচু	2
ন়ৈ	2
▁Instruct	2
▁ৱিৰক্ক	2
▁কেচুৱা	2
▁HUNT	2
▁মঙ্গোলিয়া	2
হভ্দ	2
ö	2
scu	2
unblock	2
▁তলাভঙা	2
ণালী	2
ession	2
▁কৃতকাৰ্য	2
▁জোন	2
▁লিন	2
mine	2
পাচ্চ	2
াৰ্কৰ	2
▁ডিষ্ট্ৰিবিউ	2
ৰ্ণিং	2
øm	2
▁হেণ্ডিমেন	2
▁আঁচনিসমূহ	2
aan	2
Sa	2
রুৰ‍্গ	2
ৰ্ষিক	2
লিল	2
movepage	2
eli	2
▁পর্	2
▁কৰিলো৷	2
লো৷	2
▁লাই	2
▁আদিক	2
▁পুর্ব	2
উল	2
ger	2
ization	2
Group	2
▁ৰাষ্ট্ৰপতি	2
ᴋ᭄	2
steel	2
▁গতিশীল	2
নতুনত	2
sak	2
▁অধ্যাপিকা	2
▁ছত্ৰ	2
▁তুৰ‍্ৰ	2
ংত	2
ল্ফ	2
▁মোন	2
▁ৰাইড	2
দেখা	2
▁খেলাচাঁচা	2
▁সন্তানটো	2
▁নিশ্চিতকৰণ	2
ালি	2
▁টেংকাৰ	2
▁অংশটো	2
▁জনসম	2
াগ	2
্লু	2
▁গেহলট	2
▁গুলি	2
হৰণ	2
েন্ড	2
সন	2
▁সম্ভাৰ	2
▁বিনা	2
▁vocabulary	2
▁খ্ৰ	2
বিষয়বস্তু	2
أ	2
ة	2
▁আৰ্দ্ৰতা	2
কিতা	2
▁প্রজা	2
বতি	2
▁লেন্	2
কবচ	2
▁সায়	2
নটাই	2
▁তু	2
▁পঁচকোণ	2
্ষণে	2
▁সেলস	2
▁অল্ল	2
ত্ৰাস	2
shk	2
▁তাৰে	2
▁ৰহমত	2
▁তরুম	2
▁Quanti	2
▁ডিভি	2
সেনাবাহিনী	2
পুলিশ	2
▁কৌশলবোৰ	2
▁পুনৰু	2
ত্ন	2
ীচ	2
্ত্তি	2
▁আইআইটি	2
ছাৰ	2
▁বিষহ	2
▁Languages	2
office	2
Explorer	2
$$।	2
cks	2
▁শ্রী	2
ভৱন	2
turbo	2
েঁত	2
can	2
▁নাপায়	2
▁নেথাকে	2
চটে	2
র়ি	2
িণী	2
ef	2
▁চার	2
শি	2
গান	2
্ৰহ্মাণ্ডবিজ্ঞান	2
▁Cent	2
▁Astro	2
KeezMovies	2
োমাস	2
rivate	2
ছেট	2
▁IBA	2
ন্দি	2
▁ke	2
পেশী	2
▁ভগনিষ্পাপ	2
▁ট্ৰিবিউনেল	2
াঁড়	2
▁কন্	2
পরাজয়	2
লোমশ	2
▁KH	2
▁স্পনছ	2
▁ডাউনলাইন	2
শিক্ষাৰ	2
ষ্টিভ	2
▁জৱ	2
▁==	2
▁ইদ্দত	2
▁বাহনক	2
▁বাচ	2
▁টেক্স	2
▁মায়	2
▁ৰাজাপাৰা	2
ুকী	2
▁সমর্থ	2
স্থা	2
▁প্ৰিয়া	2
▁মিথা	2
িমিয়া	2
▁Sheburu	2
▁দিছিল৷	2
▁ৰবীন্দ্ৰ	2
▁বিছাৰ	2
☆	2
শালা	2
▁ছাবি	2
▁ইনফোটে	2
▁টেৰ	2
▁গোৱালা	2
▁মুল্যত	2
ংবো	2
বাৰ্তা	2
}+	2
▁few	2
য়াসে	2
▁প্ৰসূতিজনিত	2
মূকলৈ	2
▁সমাজখন	2
কানাডাৰ	2
▁Prag	2
▁ধ্ৰ	2
্ৰুৱ	2
▁সিল্ক	2
▁পৰ়	2
়ু	2
TDIL	2
্ৰশ্নবোৰ	2
▁কায্যৰ্	2
arab	2
▁৮০ডি	2
edito	2
একেলগ	2
▁তাদে	2
▁সাধনা	2
বুদ্ধ	2
▁ষ্টাডিজ	2
▁প্ৰ্তিস্তান	2
ব্যক্তি	2
▁করু	2
▁জলধি	2
সফলতা	2
কুছি	2
▁টুৰি	2
ইকন	2
ক্ষণকা	2
▁jerking	2
কাক	1
নেতাসকল	1
াইনমেন্ট	1
েশৰ	1
▁ৰাখ	1
▁ছাউথ	1
▁পেলাই	1
বর	1
্ধিত	1
সুচী	1
পূর	1
হার	1
থঃ	1
লকৈ	1
▁লেদা	1
▁প্রতিদিন	1
▁SHR	1
OTP	1
Chat	1
টঈক্ষণকামী	1
কৰ্মচাৰীৰ	1
িত্ত	1
UT	1
ঘণ্টাত	1
▁স্ক্ৰিন	1
▁Setup	1
প্ৰণালী	1
ৰাজ্য	1
কুৰি	1
▁সাৰি	1
দুৰ্ঘটনা	1
▁পঠে	1
sban	1
হিণ	1
▁আমাল	1
▁কৃষ্ণকায়প	1
শম	1
▁কাগজৰ	1
▁অনিৰ্	1
াকিব	1
অপু	1
lla	1
pse	1
▁বৃদ্াধ	1
ল্পন	1
সঁচা	1
▁হাদী	1
IAN	1
▁Master	1
▁নিক্ষ	1
ক্রমণিকা	1
▁কৃতিত্ব	1
পূৰ্ণতা	1
bo	1
য়ুডু	1
▁দুয়োজন	1
দলৰ	1
▁উচ্চা	1
কাংক্ষা	1
তদো	1
ওঁলোক	1
ব্যাপ্ত	1
কোণে	1
▁EU	1
▁থাকো	1
ties	1
ডিৰ	1
aya	1
উণ্ম	1
েষ	1
eld	1
থত	1
ul	1
িমিয	1
কেন্দ্ৰী	1
āb	1
polic	1
nounce	1
▁প্ৰশাসনক	1
▁প্ৰচল	1
▁পাইথ	1
গোৰীয়	1
িনিটি	1
ঁই	1
▁নিশ্ব	1
▁নিণ্ড্রৱ	1
সিন	1
ৈক	1
▁নাশ	1
মুং	1
▁পুষ	1
িন্দে	1
াখিব	1
▁স্পৰ্শ	1
নাবড়	1
সহায়ক	1
গোটসমূহে	1
herma	1
▁পৰিষ্কাৰ	1
কবিত	1
param	1
পেটেণ্ট	1
▁গাৰ্	1
স্থ্য	1
lud	1
▁Groove	1
▁ফৰ্মূলা	1
KB	1
১৮	1
পূৰ্ণভাৱে	1
তেখেত	1
ল৷	1
▁অকলে	1
▁it	1
gi	1
কাৰ্টুন	1
পুষ	1
বিলম	1
োকাস	1
▁অংশগ্ৰহণকাৰী	1
মুণ্	1
রুমা	1
▁স্প্যানডেক্স	1
ুসন্ধি	1
▁pornh	1
▁স্পুনলাস	1
wo	1
ven	1
▁Fab	1
eu	1
▁বিচৰ	1
ব্দত	1
বিলিয়ন	1
▁মন্ত	1
ৱ্য	1
iss	1
▁চিচি	1
▁Soci	1
ety	1
Science	1
Res	1
দান্ত	1
িঙত	1
▁শংক	1
▁স্বাস্	1
হ্য	1
উলকিঅ	1
স্কুল	1
liz	1
hinnocenthigh	1
innocenthigh	1
অগুৰুত্ব	1
▁লুক	1
▁বিপৰ্য্য	1
▁Br	1
amh	1
put	1
েলিভিছন	1
ৰিছি	1
সিবিলাক	1
সৰঞ্জাম	1
স্তুল	1
(“	1
▁মধ্যবি	1
▁উধা	1
বাধকতা	1
্যৰ্থ	1
▁৫৯	1
জনো	1
সাইন	1
চিম	1
েষ্টাৰ	1
র্য্য	1
দৃঢ়	1
▁চৰাই	1
▁ফেঁচা	1
সূচীঃ	1
▁সময়খিনি	1
▁উৎক	1
জুৱা	1
ইনফ	1
ৰসায়ন	1
▁নিৰামিষ	1
▁নয়ন	1
▁কেঁচা	1
ইন্ধন	1
ঘটক	1
▁পিছল	1
▁অস	1
িয়ত	1
জার্মান	1
িনট	1
most	1
popular	1
▁শিশুট	1
▁ধনৰা	1
▁কিস্তিত	1
বেংক	1
▁ভ্ৰম	1
▁ধেম	1
েলিয়া	1
▁প্ৰতিবন্ধক	1
dberr	1
▁ৱিকিট	1
▁অৰ্	1
েবুল	1
খণ্ডক	1
Del	1
▁কৰ্মস্থলী	1
ধনৰ	1
▁পোনপ	1
▁নিস	1
▁গ্ৰাহ	1
াৱস্থাৰ	1
▁ব্রি	1
তিশ্	1
বিঅ	1
▁Down	1
▁অপচনটো	1
▁চিং	1
ফৌ	1
শ্নোত্তৰ	1
▁শিক্ষাব	1
র্ষ	1
▁আভ্যন্তৰ	1
essage	1
িক্কি	1
▁সুম	1
উদাহৰণ	1
negati	1
ve	1
▁mod	1
lash	1
গ্ৰহণযোগ্যতা	1
গেচ	1
পানী	1
▁হাৱ	1
াশ্বী	1
umin	1
▁EURPLN	1
ৱাত	1
▁হাডু	1
hadu	1
hai	1
bata	1
▁হজ	1
haja	1
ম্পো	1
কোড	1
৬৭	1
▁ধৰণত	1
ract	1
শাখা	1
ematic	1
চ্যু	1
▁আখ	1
চিশ	1
নিৰ্ধাৰ	1
▁প্রতিষ্ঠ	1
িবিউটৰ	1
মছজিদ	1
Ű	1
Î	1
ŞÝ	1
åð	1
öý	1
বাট	1
ঙিয়া	1
▁ৰিমঝিমঅন্যান্য	1
▁litera	1
rture	1
idop	1
ica	1
লগা	1
▁ইয়াকে	1
োটো	1
▁ঘটনাক	1
ঁহিয়	1
▁দৃষ্টিভংগীৰ	1
▁Jos	1
eph	1
▁উপশ	1
minat	1
প্ৰক্	1
rmal	1
শিৰোনামা	1
িমান	1
ৱেল	1
rasa	1
▁গেৰা	1
ণ্টি	1
বাংলা	1
▁বিটি	1
ৰিজন	1
লাভ	1
িচূ	1
▁নাঙল	1
▁শাল	1
াওঁতে	1
ডালে	1
◦	1
ুণা	1
ija	1
সেক্সি	1
aved	1
২০০১	1
▁পংচম	1
হলে	1
figur	1
▁টিপি	1
পাঠ্য	1
্ৰু	1
▁পৰী	1
▁unif	1
orm	1
▁শোক	1
▁ফ্লাই	1
সৰ্বাধিক	1
ৱশ	1
নিৰ্বচন	1
অশ্লীল	1
OK	1
▁PO	1
িটাইজ	1
াবীহ	1
নার	1
লিচিধাৰ	1
▁প্ৰায়ে	1
▁উপচা	1
ংগীত	1
▁প্ৰকল্পটো	1
ৰীট	1
চিৎ	1
▁দধীচি	1
▁Gen	1
▁Ins	1
▁চেক্	1
▁ৰয়েলছ	1
াবাদৰ	1
সন্মান	1
▁পিআই	1
এলো	1
📗	1
ৰাজনীতি	1
শস্য	1
তৰংগ	1
▁কেয়া	1
্ল	1
arti	1
▁তেজষ্ক্ৰিয়	1
▁সোঁ	1
বাক	1
▁চুদাচু	1
ৰ্য্য	1
▁কাঢ়	1
তেৰা	1
COT	1
TO	1
tton	1
▁সংগী	1
খীৰ	1
▁উজা	1
়তাৰ	1
!'	1
▁অস্ত	1
মিত	1
ুণ্ঠন	1
▁fl	1
sky	1
▁mo	1
▁Sl	1
iles	1
▁Hear	1
▁mu	1
rm	1
any	1
▁ধন্য	1
▁হায়ে	1
ealth	1
Pa	1
onia	1
lba	1
▁Radi	1
▁প্রতিভা	1
নশীল	1
ভেট	1
▁ল্যাটিন	1
abbi	1
▁বিনামূল্	1
▁লিকুই	1
উপপত্নী	1
bā	1
Sā	1
েওন্	1
পত্নী	1
াবালক	1
▁Para	1
পৰমান	1
▁বৰ্	1
▁কালা	1
পাহাৰ	1
▁আশ্ৰ	1
▁ওচৰৰ	1
্ছত	1
▁দুৰ্বৃত্ত	1
▁চলাইছিল	1
hemale	1
▁Refer	1
▁Eve	1
deed	1
lam	1
▁এডব্ল	1
SF	1
নিশা	1
্টো	1
নিৰ্মিত	1
▁দুটাক	1
▁pa	1
▁Cat	1
erp	1
illar	1
বছৰে	1
১০০০	1
onfirm	1
বক্স	1
▁পাচৱৰ্দ	1
▁এক্সটেনচ	1
▁বাৰ্ম	1
িংহ	1
ৱাট	1
চনে	1
প্ৰত	1
▁অনিশ্চয়তাৰ	1
্জিন	1
পুঞ্জ	1
▁তুম্হার	1
▁উইপ্ৰো	1
▁কল্প	1
প্ৰেক্ষাগৃহ	1
▁সুবিধ	1
ü	1
Ğ	1
াদি	1
acco	1
▁অই	1
▁ৱেই	1
ষ্ট্	1
ুন্না	1
▁নির্	1
▁ঠু	1
ৃষ্	1
ৰেংকিং	1
পাছত	1
াংচী	1
▁সন্মানী	1
গবোৰ	1
xy	1
trop	1
tere	1
ken	1
বিয়্য	1
আগবঢ়া	1
সাহসী	1
পৰিপ	1
াতী	1
▁এখনী	1
▁খাদ	1
স্তন	1
গলৈ	1
নির্বাচ	1
▁ওলো	1
girl	1
stat	1
stext	1
tensi	1
মজ	1
বিপণ	1
▁টোপ	1
পঢ়িলে	1
▁নোৱাৰো	1
▁অণ্ড	1
তৈয	1
▁মুট্	1
িংক	1
াষ্ট	1
▁কিন	1
পযোগী	1
ইউন	1
গঢ়া	1
Āji	1
ইউনিক	1
GE	1
কৃষ্ণকায়পেতিতে	1
▁গৃহশৌৰ্য	1
স্মিন্ন	1
ইকেল	1
িজ্	1
়হন্	1
▁নিৰ্ভ	1
েজাল	1
unc	1
▁নিশ	1
ভং	1
নিষ্	1
▁mos	1
õõ	1
ৠ	1
ৡ	1
ঽ	1
po	1
▁প্ৰান্তত	1
▁সমৰ্থনকাৰী	1
ভাৰ্ছ	1
▁এনগ	1
ন্স	1
ক্ষিপ	1
ীঃ	1
স্তথা	1
PH	1
সবের্াচ্চ	1
▁বৃদ্ধা	1
▁HT	1
AY	1
NE	1
▁তান়	1
ুমো	1
▁সংযোগসমূহ	1
্তাহ	1
জ্জ্ব	1
▁মিন	1
ীন্	1
▁স্পাইচ	1
ইনষ্টলেচন	1
▁চং	1
িষ্ঠ	1
▁কাণ্	1
দাম্	1
পঞ্জীয়ন	1
▁ক্ৰমবিক	1
াদুলি	1
ুনি	1
তেন্তে	1
টিজিং	1
আঁট	1
▁তৌ	1
▁হন্	1
মূদ	1
লীল	1
ছাৰী	1
▁name	1
dim	1
ension	1
▁ইন্ট	1
ists	1
ামত	1
যশ	1
▁স্থপতি	1
ত্তীৰ্ণ	1
▁হতাশ	1
েলা	1
▁পলিচীখ	1
▁যুৱতী	1
▁সাপে	1
▁নেউ	1
ssage	1
▁বাঁহ	1
সাধাৰণতে	1
▁বয়োজ	1
েষ্ঠ	1
▁পর্য	1
বেক্ষণ	1
াস্তা	1
্ষে	1
াতে	1
াসবাদ	1
াসী	1
div	1
িতাতে	1
েলত	1
▁লাটভিয়	1
▁Th	1
▁থো	1
পুনৰ্নিৰ্দেশ	1
তুষ্টা	1
্বং	1
ুকূল	1
ক্ৰমণ	1
▁পঠিতঃ	1
গনে	1
▁আল্ট্	1
আদি	1
তালং	1
▁সমকামীআঙুল	1
▁ৱাৰেণ্টি	1
ব্যক্ত	1
িকতা	1
▁সমষ্	1
users	1
▁পদম	1
▁ৱি	1
দিয	1
লব্ধ	1
Pu	1
lica	1
▁ভাড়াত	1
হাদ	1
Bro	1
▁এজেন্টসকল	1
প্ৰত্যেক	1
কৃতজ্ঞ	1
bhi	1
ple	1
ৌসেন	1
®	1
▁বিশ্বজ	1
ালিকা	1
ভাষ্য	1
▁স্বৰূপ	1
▁উচিৎ	1
▁ইন্টাৰেক্টি	1
▁বঢ়ায়	1
▁নিৰ্দ	1
▁প্ৰতিলিপ	1
▁SO	1
RE	1
IMI	1
TED	1
পঞ্চম	1
়ংব	1
েজ়িঅ	1
াতৃ	1
▁পৰিচ	1
pac	1
ific	1
প্ৰশান্ত	1
ৈনন্	1
▁বাসিন	1
▁জোক	1
▁স্পে	1
▁লাউ	1
ঞ্জ	1
▁Kos	1
ন্সট	1
▁পায়খ	1
দাউন	1
লাউড	1
স্পীকা	1
চদাচ	1
ৌদি	1
▁আদ	1
মী	1
▁কাউন্সিল	1
াহিৰ	1
বিপদ	1
▁RS	1
▁নেশ্যাৰ	1
মিক্স	1
ইকো	1
ফেমি	1
বিংশ	1
জুলাই	1
ডিচেম্বৰ	1
▁২০০১	1
টকীয়ে	1
লেখ	1
কিমিডি	1
াউছ	1
▁গণিতজ্ঞসকলৰ	1
▁Pro	1
▁শস্	1
্্্্	1
র্দ্	1
ible	1
▁চাইকেলে	1
eral	1
▁Direct	1
▁Sel	1
nglish	1
map	1
🌍	1
rticle	1
প্রাশিঅ	1
▁বয	1
▁AW	1
▁মিলিয়ন	1
▁প্ৰিমিয়া	1
▁নিৰ্ণ	1
▁বেনে	1
ভংগ	1
ংকেট	1
জিএল	1
▁অণ্ড্র	1
স্থলী	1
পৰিমাণৰ	1
ফাং	1
▁দেহম	1
▁নির্ধ	1
ৰ্বৰ	1
মেৰুদণ্ড	1
াস্থি	1
▁সুতুল	1
য়পুৰ	1
ডিব্ৰুগড়	1
লবানী	1
▁খানক	1
▁আহিল	1
নাহে	1
জনলৈ	1
ক্ষমা	1
prefer	1
বাঞ্	1
মিয়া	1
ভিলে	1
কৰোঁ	1
enti	1
প্ৰশিক্ষ	1
▁ৰাণ	1
▁অষ্ট্ৰেলিয়া	1
▁খোকামনি	1
াঘাত	1
cub	1
▁Lan	1
▁বিভক্ত	1
▁সাৱ	1
োম্	1
্রৈ	1
ৃস্তি	1
bb	1
bro	1
drig	1
ortug	1
ern	1
▁Asia	1
মং	1
▁শিমা	1
ū	1
ānsa	1
▁ঈক্ষণকামীমাই	1
XXXXXX	1
▁বন্দ	1
▁Tabl	1
ado	1
▁Gui	1
স্তৰত	1
▁কাৰ্য্যদল	1
ৰিফ	1
ৰ্মচ	1
▁প্ৰস্ত	1
▁পৰিবেশন	1
ুসূ	1
ডন্দ	1
নভ	1
েম্ব	1
EE	1
ēk	1
শোক	1
▁কোলা	1
উপদেষ্টা	1
োধিতা	1
▁মানু	1
▁নেভি	1
ida	1
আন্তঃৰাষ্ট্	1
▁জার্ম	1
েনী	1
''\$	1
''\"	1
গাও	1
▁নিষ্ক্র	1
fa	1
llback	1
▁দৈত	1
▁এণ্	1
টিবায়টিক	1
ত্ৰ	1
ংক	1
াইটিছ	1
ৰ্মেশ	1
▁ট্ৰান্স	1
▁অৱশিষ্ট	1
াংশৰ	1
প্ৰতিৰোধ	1
ৰিবলৈ	1
reading	1
নায়	1
ফণিরাজ	1
ভূষণায়	1
▁ভিক্	1
jv	1
▁কেম্পাছ	1
শশশ	1
▁কৰ্মদ	1
▁দীঘলবাক	1
▁Digholbak	1
conn	1
▁অপৰা	1
টনাট	1
▁তাৎক্ষণিক	1
▁ছাহাব	1
ৱাই	1
তিনিটা	1
নিটো	1
▁Catalogue	1
▁Fr	1
iday	1
ional	1
♀	1
▁উদৃ	1
বত্ত	1
সাংগি	1
▁বিশেষজ্ঞতা	1
▁complete	1
রৈ	1
atabase	1
▁sy	1
▁থক	1
স্কি	1
🕙	1
মীমা	1
াৰ্য্য	1
▁সুপথ	1
বাটা	1
য়েন্ট	1
ষ্টান	1
dress	1
▁চিহু	1
ফরাসি	1
atchers	1
▁ফী	1
▁এমপ	1
ইও	1
ৰিমান	1
▁ফাল	1
virgins	1
▁Exxxtra	1
Small	1
Be	1
ত্রা	1
িনতা	1
HAM	1
ICE	1
▁পোলি	1
রাইছ	1
▁কুক	1
খাবন	1
মখ	1
▁টাব	1
গভৰ্নে	1
▁পেলা	1
িয়াক	1
▁ve	1
arian	1
iraā	1
mī	1
hō	1
jī	1
▁একচে	1
টিয়া	1
পালন	1
▁বক্সাৰ	1
IBA	1
▁ৰেংকি	1
▁বক্সাৰগৰাকী	1
পেটেন্ট	1
সন্	1
ঙ্গো	1
▁লীনফি	1
হাৰ্ডৱেৰ	1
pec	1
জিঅন্	1
নায়া	1
▁নির	1
অপ	1
asses	1
নুং	1
▁শ্বাও	1
ক্বী	1
মৌ	1
▁অৱতৰ	1
ভগঅপেশাদার	1
▁ভইচ	1
ৰেশ্বন	1
▁সমাধা	1
▁ইবিলাক	1
▁কঠি	1
ৈযিরুৰ	1
তথ্যসমূহ	1
Ins	1
▁জুউন	1
এণ্টাৰ	1
▁জিআই	1
▁ছাৰ্জাৰী	1
েষ্টি	1
dom	1
▁কোচ	1
প্ৰয়োজন	1
▁সত্যাপ	1
সংগ	1
যম	1
here	1
🛳	1
▁ঋতুৰ	1
হানী	1
rank	1
▁পলিমেইড	1
▁বাসি	1
লপা	1
▁রাজ	1
াধম	1
▁Voca	1
মিডিয়া	1
▁প্রশাসন	1
ৰ্শ্ন	1
স্তৰলৈ	1
ছিটি	1
ৱস্থা	1
ⱥ	1
ђ	1
ংড্ল	1
ports	1
বাগ	1
▁ৰিপো	1
র্ট	1
Quality	1
উন	1
সুংসগতি	1
TA	1
▁Gam	1
orld	1
▁ফেব্ৰুৱাৰ	1
ocks	1
searchre	1
lated	1
সম্পৰ্কিত	1
prop	1
anol	1
সজ্জ	1
▁শুভাকাংক্ষী	1
▁সাগৰত	1
▁নেভ	1
▁মাৰ্চত	1
lb	1
alpha	1
▁পাটীগণিত	1
▁পোনপটিয়া	1
পক	1
ীয়াকৈ	1
year	1
▁দখ	1
্লে	1
অধি	1
▁খুজ	1
িলি	1
ভাৰা	1
▁নথী	1
ভূক্ত	1
▁ডলা	1
্টেড	1
▁ডকাইত	1
▁ৱাৰেণ্ট	1
▁নির্ভ	1
▁নির্ধাৰণ	1
▁ফাঁচ	1
াদেশ	1
▁জেপি	1
যাৰ	1
গ্রাম	1
▁বিচি	1
মোহিত	1
থলুৱা	1
▁টেষ্টি	1
▁সংবাদমাধ্যম	1
ভাৰী	1
কৰ্ত	1
সদায়	1
লভিন	1
▁শিপা	1
ক্যাড	1
তিমাল	1
পাদিত	1
তন্ত্ৰ	1
cn	1
uy	1
ao	1
▁Xia	1
▁উদ্ভা	1
সভাপতি	1
▁স্ফু	1
ֆ₳ֆ	1
ধিকাৰী	1
গতগুদ	1
▁অনুপালন	1
▁CH	1
HI	1
rtisan	1
▁অগু	1
মূল্যায়ন	1
▁বেং	1
য়ংবু	1
▁শিব	1
সম্প্ৰসাৰণ	1
ublic	1
▁মনস্	1
nifo	1
lia	1
store	1
▁পূৰ্বনিৰ্	1
difi	1
cation	1
!!!!!!	1
সিদিনা	1
vision	1
শূন্য	1
▁খোক	1
োজা	1
February	1
noc	1
▁নিষ্ক্ৰ	1
য়েন	1
দূত	1
▁হিৰাম	1
▁জী	1
▁So	1
fia	1
▁পুল	1
▁অপ্	1
প্পর্	1
kara	1
ধ্যে	1
▁John	1
▁pie	1
rce	1
yne	1
▁এইছআইভি	1
এইড	1
▁বিদ্	1
ৱৰ্কিং	1
▁Wh	1
▁সোফা	1
▁পুৰা	1
Fa	1
▁বনাইছ	1
now	1
বুদ্ধিজীৱী	1
▁হীৰেন	1
গুৱাহাটী	1
ermissionserrors	1
অনুমতি	1
🕊	1
▁উৰা	1
▁বুলিব	1
ল্লেখ	1
▁সেৱ	1
파일	1
타이틀	1
▁আগ্	1
βЃЄϳЛЁ	1
▁পুর্	1
জনজাতি	1
▁তৎ	1
▁কৰায়ত্ত	1
tj	1
ain	1
প্ৰতিষ্ঠানত	1
দৰ্শ	1
Nation	1
▁Survey	1
▁Statistics	1
▁বহুধৰণ	1
▁সেইদৰে	1
iva	1
▁Bi	1
rla	1
▁Sun	1
▁Sy	1
nonym	1
lang	1
▁ভড়ালী	1
▁সংশোধ	1
যন্ত্ৰ	1
জ্জা	1
▁কলস	1
gs	1
ddha	1
কিন্তু	1
ণাত	1
▁সৎকা	1
♡	1
লাহু	1
traine	1
লিশ	1
ͥ҉	1
҉	1
ͣ҉	1
ͫ҉	1
▁আফগান	1
▁নজ	1
পছন্দসমূহ	1
বেশ্যা	1
Ɛ๔นส	1
agged	1
▁ৰখ	1
▁inter	1
duct	1
ther	1
iB	1
▁বাটন	1
চবু	1
ম্পি	1
▁পক্ৰিয়া	1
▁৫৪৯৯	1
হঁত	1
▁পিৰিয়ডিকেল	1
mon	1
নিয়াৰি	1
searchresult	1
প্রকাশিত	1
ন্তৰ	1
চু	1
▁vs	1
প্যাক	1
Search	1
PAGENAME	1
protectedpage	1
аїн	1
ь	1
а	1
Da	1
▁বেংকট	1
ষ্ণ	1
▁শাস্ত্	1
়ডি	1
কাহিনী	1
বেলেগ	1
▁Xx	1
্ভাগ্যজনক	1
বিধিসন্মত	1
▁প্ৰৱেশক	1
▁পদক্ষেপসমূহ	1
▁কুম্বাকোনম	1
▁এসময়	1
▁উপস্থাপনে	1
▁nautica	1
orn	1
▁সদ্য	1
হতে	1
▁দিনবোৰ	1
▁আনবোৰ	1
▁নিচিনা	1
▁নিদিয়াক	1
আঁৰ	1
্তুগ	1
ged	1
্ৰীয়	1
দ্বিষ	1
াশং	1
িছো	1
ষ্প	1
ৰ্শ	1
ত্বাধিকাৰ	1
ঁচি	1
বিভিন্ন	1
▁প্ৰস্তাব	1
অনলাইন	1
ফুৰা	1
▁বন্ধুসকল	1
আদৰ	1
▁ভারত	1
জীয়	1
▁উপম	1
জৰুৰী	1
pid	1
hys	1
ফিল	1
▁অন্তর্	1
ৰ্থে	1
▁ইও	1
▁Yo	1
হট	1
▁নিষ্পাপহ	1
ডী	1
▁কণ্ণ	1
র়ৈয	1
রুৰি	1
র্ৱ	1
দিৱ	1
ালয়	1
ভোক	1
পিট	1
Ṫḣḕ៎ẅḕḝ	1
current	1
≦	1
▁Yes	1
ানুষ্ঠান	1
সিল	1
▁সঙ্গী	1
▁দুবছৰ	1
▁মাহে	1
টাৰনেশ্	1
চেচ	1
লিঙ্গ	1
dise	1
lin	1
drol	1
▁শিচি	1
ফেৰ	1
াৰী	1
▁Mon	1
▁Who	1
▁His	1
োলে	1
▁এলবা	1
▁বালংা	1
বৃষ্টি	1
্যক	1
ভূঞা	1
ফাৰ্ষ্ট	1
ট্ৰেক	1
:''	1
▁শ্ৰে	1
▁ইত্য	1
▁প্ৰি	1
ফিক্স	1
▁অনুপাতে	1
হাৰত	1
Gh	1
𐍉ຮ	1
ຮ	1
▁কম্পন	1
঱	1
▁Inc	1
redi	1
▁সেক্সি	1
▁Char	1
ৰিমি	1
কাৰসমূহ	1
চেং	1
tp	1
྄࿉ོིརཧཇདཟཙཉ྄	1
ix	1
▁দুখনক	1
়ুক্	1
রহ	1
ৰ়ুৱ	1
▁কুম্	1
ক্ল	1
skl	1
☽	1
An	1
ͥ†	1
☾	1
▁ইথিয়	1
পিয়া	1
ini	1
াধিকাৰ	1
hi	1
আমাক	1
ৱি	1
ৰাষ্ট্ৰীয়	1
dee	1
গিয়ার্	1
▁চক্ৰ	1
▁পূবাইল	1
▁আভ্যন্তৰী	1
নিয়াম	1
▁অধ্য	1
ুইট	1
তাকৰ	1
েঞ্	1
একক	1
▁und	1
র্চ	1
CB	1
াফা	1
আদ	1
HT	1
tell	1
rim	1
ming	1
▁জার্মান	1
লেখক	1
সময়ে	1
লভ্য	1
ৰুপে	1
বাহ্য	1
সাপেক্ষ	1
fuck	1
কাচোন	1
▁ৰক্ষণ	1
ণীয়	1
agent	1
edf	1
মহিলা	1
ফালি	1
rest	1
quare	1
yd	1
lexi	1
▁সজাগ	1
▁নোব	1
senta	1
▁জ্য	1
ুটীয়া	1
প্ৰশাসন	1
▁ক্য	1
িব্	1
জন্মা	1
কৱালেস্কি	1
টপ	1
▁সংগত	1
▁কৃষ্ণম	1
আলোক	1
▁নেং	1
cor	1
TER	1
GEN	1
▁টোল	1
শেহতীয়া	1
aim	1
erpage	1
▁ইন্টাৰন	1
্যাশ	1
ৱৰ্ক	1
▁পাঠ্যক্ৰমত	1
▁ঘন্ট	1
▁কিনাত	1
থোক	1
found	1
টোকা	1
▁স্মাৰকৰ	1
আৰম্ভণি	1
ায়ে	1
ক্রিয়া	1
সদস্যপদ	1
অনুযায়ী	1
▁রুন্	1
লতি	1
ena	1
▁জেট	1
▁মুনিহ	1
▁গুড	1
▁ছায়েন্স	1
বিবৃতি	1
▁পুত্ৰ	1
উইণ	1
▁ইপি	1
ভেজা	1
▁প্ৰথমভাগ	1
▁ইভে	1
ণ্টত	1
পদক	1
▁Bro	1
chin	1
tio	1
ides	1
ওনি	1
▁/*	1
্টিফ	1
▁Eli	1
▁ডন	1
বস্ক	1
▁অগ্র	1
নস	1
ক্ষুদ্ৰ	1
▁ভঁ	1
দর্শন	1
Se	1
treet	1
upp	1
▁চৰিত্	1
্গম	1
্যানে	1
্ষণীয়	1
িষদে	1
িধি	1
▁স্বেচ্ছা	1
rt	1
▁ইনফি	1
উজন	1
ঢ়া	1
wal	1
ker	1
tches	1
lts	1
▁Coll	1
spl	1
ints	1
tockings	1
▁মধ	1
ন্ডেল	1
ুকু	1
ম্যাদ	1
আইন	1
▁প্ৰত্যয়িত	1
ুগ	1
▁বেহ	1
্রুপ	1
▁োড	1
োডে	1
খ্যাতি	1
াজত	1
বাসন	1
▁চিয়	1
▁ৰিড	1
Indian	1
অন্বেষ	1
য়ুউ	1
েভিচ	1
▁অস্থায়	1
▁চুক্তিভিত্ত	1
▁ক্লি	1
▁কোকোন	1
েয়াৰ	1
logpage	1
تح	1
ى	1
ل	1
ق	1
іє	1
▁Mp	1
hort	1
▁দেও	1
▁সোম	1
▁মঙ্গল	1
▁শুক্ৰ	1
▁পলিথিন	1
প্ৰস্থ	1
▁অনাত	1
▁চেং	1
ত্রো	1
োজ	1
এর	1
▁তৈর	1
▁ৰচিত	1
স্বী	1
▁আমো	1
ছুৰ	1
লোকয়	1
কিংচন	1
াও	1
শৈলী	1
থাত	1
দুৰ্ভাৱ	1
▁আৰ্য	1
▁চুইজাৰলে	1
হবোৰ	1
মিশ্ৰিত	1
ট্যাগ	1
loo	1
shed	1
▁po	1
▁r	1
ecipe	1
▁Gov	1
▁ৰচন	1
Mark	1
থাভগ	1
▁গোটাই	1
▁Vic	1
toria	1
▁Chris	1
▁Are	1
বৰ্ধিত	1
ternal	1
গোল	1
ৌল	1
াকৃতি	1
▁হেনৰ	1
▁ব্রু	1
▁আদা	1
▁এপ্লিকে	1
চনটো	1
▁খাইছে	1
erc	1
ুত্তী	1
muk	1
▁nar	1
ula	1
▁ন্যা	1
নফ	1
▁পভট	1
▁হাইপাৰলিংক	1
bureaucrat	1
ব্যুৰোক্ৰেট	1
বিবাহ	1
roken	1
▁চয়ন	1
ঞ্জাৱ	1
▁ধুৱ	1
▁বিপৰ্য	1
ews	1
▁টেলে	1
ভিচন	1
▁বক্ত	1
▁সস্ত	1
▁গাব	1
Kr	1
mailerror	1
ypr	1
িতং	1
পঞ্চ	1
▁ফ়	1
▁প্ৰাধিকৰ	1
video	1
কৰ্পোৰে	1
▁বছৰতে	1
searchsubtitle	1
inks	1
ere	1
অপসাৰণ	1
▁ভেল	1
্কি	1
শিক্ষা	1
▁৭৪	1
▁ৰুপ	1
প্ৰচলিত	1
▁এনেক	1
Ф	1
ncil	1
▁অবজ	1
কোণীয়	1
▁সুস্বা	1
শতা	1
▁সোঁফাল	1
শং	1
এমএ	1
nod	1
ঘটন	1
িউ	1
preposition	1
▁মধুকৈ	1
▁জলজ	1
ভূ	1
ষ্টাব	1
প্তে	1
িবে	1
▁তত্ত্	1
ত্ৰসমূহ	1
▁অন্বেষা	1
▁কালেকচন	1
যোগেৰে	1
সিত	1
ানীশ	1
ਪੰਜਾਬੀ	1
Sep	1
ভেন	1
িন্দু	1
▁বেদনা	1
Liv	1
▁Barkotok	1
▁tens	1
▁বিশ্বক	1
কৃষ্ণ	1
ছিলো	1
arth	1
▁ডাক্ত	1
gyn	1
বিটি	1
পৰিমাণ	1
▁থাক	1
ring	1
omi	1
▁Wat	1
▁স্কু	1
ীজাপানি	1
▁চিনাক্তকাৰী	1
ষ্ঠাটো	1
মঞ্চ	1
GO	1
idden	1
▁সংক	1
ফিক	1
▁গালি	1
াজো	1
▁মুকুল	1
তিবার	1
দ্দিন	1
🤺	1
▁ক্ষেত্ৰখনত	1
োগড	1
নঃ	1
পাই	1
১৪	1
গুলী	1
ইছিল	1
বাধ্য	1
▁শিকাৰ	1
Spoke	1
ips	1
acti	1
▁রং	1
প্ৰকাশ	1
েক্টৰ	1
cho	1
sen	1
▁ডিস	1
কাউণ্ট	1
▁সম্ভাৱন	1
িয়তা	1
সম্ভৱ	1
path	1
TE	1
ম্বাই	1
▁কনফাৰেন্স	1
▁ৰেং	1
▁নাইট	1
▁উপাধি	1
▁বিভূষ	1
▁পঠিওৱা	1
▁হাৰা	1
শাস্তি	1
চনাৰ	1
▁তলৈপ্পডু	1
ুণর	1
lli	1
হীনতা	1
নিউজ	1
সংবাদ	1
বিতৰণ	1
▁ৰোমানি	1
غ	1
ري	1
অব	1
তৰণ	1
▁SAR	1
SING	1
▁গেইল	1
▁ভাগৱত	1
▁গ্ৰন্থকেইখন	1
Ò	1
Þ	1
è	1
à	1
৮৯	1
▁লেটেক	1
▁ভূঞা	1
▁মনোৰ	1
কালৈ	1
▁নিৰিখ	1
stic	1
পূৰ্বৱ	1
▁যাওঁ	1
▁অনুশ	1
নুস	1
নজো	1
য়েদ	1
▁কালদৈৰ্ঘ্যত	1
খনি	1
▁মাৰিল	1
ানুৱ	1
ন্মত	1
▁টয়	1
শল	1
▁উত্তেজ	1
আয়তন	1
▁ঢকা	1
সঁজুলি	1
▁বাংপলা	1
mina	1
▁প্ৰক্ৰিয	1
▁প্ৰভৃতি	1
াইলট	1
mbl	1
াঁথৰ	1
বিট	1
▁বী	1
িনাৰ	1
লম্বন	1
প্ৰতিলিপি	1
ংধুনকু	1
পাপ	1
পুণ্য়প	1
লংকে	1
▁ভাড়	1
মর	1
▁কূ	1
nosuchuser	1
raduat	1
▁Ti	1
নগৰ	1
ৰাইড	1
▁ইউৰেনিয়াম	1
ৰূপ	1
চমত্কারঈক্ষণকামী	1
▁নাগৰিকসকল	1
▁মানবি	1
▁ছিকি	1
গালেণ্ড	1
▁মিজোৰাম	1
▁ত্ৰিপ	1
বজ্ৰপাত	1
́	1
টাইল	1
NI	1
nor	1
▁off	1
▁Cour	1
son	1
▁উৎপত	1
▁বাওঁ	1
কেনেকৈ	1
▁অট	1
▁মূলত	1
▁প্ৰসাধন	1
▁ৰুট	1
▁ফাউ	1
▁CO	1
ইন্ট	1
বেঙ	1
talian	1
▁ইটাল	1
ṭā	1
īẏ	1
গীজ	1
Par	1
মাধ	1
▁হৃ	1
মাউন্ট	1
িচ্ছাৰ	1
্ৰেডি	1
ধাৰকসকল	1
ৱৰণ	1
▁কানাড	1
়া	1
▁মাৰাঠ	1
▁মংগ	1
▁mathematics	1
alum	1
▁Sub	1
িদ্দী	1
▁ফিল্টা	1
▁বেৱছাইট	1
লোচ	1
▁'[	1
▁ইউনি	1
হাইলা	1
▁ইনষ্টলিং	1
▁কনফিগাৰিং	1
চিৰি	1
ংচা	1
পেক্ষে	1
ounce	1
back	1
আইআৰ	1
Mode	1
America	1
ych	1
▁ৰোগসমূহ	1
▁গোৱালপ	1
সংগীত	1
চাইট	1
▁পৃথিৱীত	1
▁কলাক	1
ুবচন	1
ুয়	1
জাৰ্মানী	1
▁Mathemati	1
▁প্যা	1
▁সিট	1
▁স্কুটা	1
পূৰ্বপ	1
াসখ	1
পঠ	1
মরু	1
ঞ্	1
গঠিত	1
ত্প	1
▁মালা	1
বুদ্ধি	1
পৰীক্ষা	1
Pref	1
কিলোমিটাৰ	1
▁নিয়ামত	1
▁অংশী	1
reA	1
Assi	1
stant	1
▁Prof	1
Ô	1
ÈÔ	1
ডেলিভাৰীৰ	1
দূৰত্ব	1
ৰণা	1
▁এইট	1
স্থাসমূহ	1
▁Arc	1
RI	1
⇒	1
▁পর	1
বুওৱত	1
শৃংখল	1
ঞ্চল	1
৹	1
নিষ্ঠ	1
ামূলক	1
পিছত	1
▁আৰোহ	1
রেট	1
▁বাতা	1
শক্ত	1
উপশ্রেণী	1
তাঁৰ	1
▁কস্তুৰ	1
አማርኛ	1
ুষ্পদ	1
▁আচাৰ্য	1
▁গ্লা	1
▁বৰ্হ	1
▁তেজস্ব	1
স্বামীয়ে	1
▁চাৰিদিন	1
▁ইতিহাসত	1
Home	1
▁শৌৰ্য	1
পৰিস্কাৰ	1
ইছ	1
Un	1
llin	1
ois	1
চেম্প	1
পঁচ	1
িশ	1
্যামে	1
শ্বৰিক	1
ৰূপত	1
প্ৰসূতি	1
কাৱ	1
বিলাকে	1
Flash	1
জেক্ট	1
doc	1
▁এম্ব	1
তাৰো	1
▁CX	1
সলীল	1
▁শুকা	1
ংতি	1
▁সভাপতিৰ	1
▁অৰ্প	1
ফেব্রুৱাৰী	1
বেদনা	1
দ্ৰা	1
▁প্ৰতিষ্ঠানটো	1
▁তাৎপৰ্যপূৰ্ণ	1
াৰণাৰ	1
নীসমূহ	1
▁শ্ৰীম	1
ভাগৱত	1
হাত্ম্য	1
াদিনীয়া	1
বাহনখন	1
til	1
aylor	1
▁শিক্ষয়িত্	1
রীৰ	1
▁অমুছল	1
ীক্ষা	1
▁দেখু	1
NTM	1
▁ধাৰণাটো	1
প্ৰথমে	1
▁ছেম	1
্ৰডা	1
ssion	1
ery	1
▁পাউ	1
ডার	1
▁ব্যবহ	1
কুই	1
ক্ষণাত	1
▁TRA	1
▁বৈধতা	1
ুবন	1
▁Rh	1
েডিয়াম	1
▁কার্	1
ুজ	1
বাসগৃহ	1
টিংচ	1
Hot	1
নিজে	1
▁চ্যা	1
IP	1
টিউব	1
▁পাৱ	1
▁শুধ	1
♂	1
মুছল	1
▁শৰণী	1
ৰ্থীসকল	1
▁সংগ্ৰাহক	1
১০০	1
ang	1
ram	1
▁অধ্যা	1
▁বলী	1
ঊ	1
নিতী	1
প্ৰা	1
বেদী	1
▁সুৰজ	1
াঞ্চল	1
গ্ৰে	1
তাপ	1
▁ৰিচা	1
িলে	1
স্বয়ংক্ৰিয়	1
দহ	1
▁পলিচীবোৰ	1
খৰছ	1
ব্যয়ত	1
▁tag	1
pass	1
Or	1
phe	1
নমন	1
মিম	1
িকাৰ	1
ndel	1
▁তির	1
▁তাৰিখলৈ	1
ক্ষাৎকাৰ	1
▁ৱাইল	1
মূৰ্ত	1
▁আবিষ্ক	1
▁দেখুৱা	1
▁ধৰণসমূহ	1
▁সিহ	1
গুঁতা	1
boo	1
দিনৰ	1
▁আজিক	1
োপতি	1
▁ভৰা	1
▁আগমন	1
▁ভক্তসকল	1
াৰিত	1
গাঁঠ	1
বতাহ	1
▁দৃষ্ট	1
াইনছ	1
▁হস্পি	1
ান্স	1
▁ছাৰ্ভ	1
িঙে	1
াউণ্ড	1
▁টেবল	1
পুঁ	1
ক্লীন	1
লাম	1
orie	1
গোট	1
▁ৰেষ্টোৰা	1
▁লখিম	1
চাং	1
িগ	1
▁Kris	1
▁sw	1
▁who	1
res	1
▁অপদ্ৰব্যৰ	1
▁বিভ	1
ali	1
স্পী	1
ত্য়ায়	1
▁hy	1
০০১	1
▁অল্	1
্মদি	1
মুখি	1
▁Innocen	1
▁Mus	1
▁date	1
▁মেৰাম	1
ক্তিভ	1
ামিনেশ	1
▁ফিজি	1
▁ইনভ	1
▁Jo	1
ম্ম	1
গনম	1
সভ্য	1
▁বিছানা	1
prin	1
cess	1
FL	1
▁বিনিম	1
ফণ	1
ান়্	1
ুৱর	1
র়িন়	1
অস্ত্ৰোপচাৰ	1
eque	1
ira	1
▁cook	1
top	1
tif	1
lei	1
labe	1
Bu	1
hursday	1
Br	1
̥	1
pat	1
▁মাৰ্কেটি	1
▁HA	1
permi	1
অনুমোদ	1
অন্তিম	1
▁অগুৰুত্বপ	1
িঅংগীকার	1
ঘটনা	1
হাতে	1
ইচ্ছা	1
▁ফলশ্ৰুতি	1
ফাৰ্মাৰ	1
▁উপপাদ্যট	1
mran	1
গ্ৰাহক	1
সস	1
েদ	1
ীনত	1
ৰ্মস	1
▁ওফ	1
rad	1
hand	1
▁ব্যৱস্থাপ	1
▁বৃং	1
সাং	1
▁পুং	1
জং	1
ন্ধী	1
▁ট্ৰাষ্টৰ	1
শ্বাহ	1
Log	1
VE	1
ঠং	1
মনং	1
বাসসম	1
pe	1
tre	1
ভক	1
▁Mason	1
ৌহ	1
acy	1
েচিং	1
▁বৃত্তিৰ	1
▁১৯৯৬	1
টবোৰে	1
াখ্যা	1
bcat	1
▁মুহা	1
ৰ্ৰাম	1
য়োটাতে	1
▁নিয়োগকৰ্	1
▁প্ৰক্ৰিয়াটো	1
্ৰুট	1
▁তীব্	1
রবে	1
সফল	1
▁মাৰিব	1
গোটৰ	1
গোটবোৰৰ	1
▁মেনেজমে	1
ত্তোলন	1
▁সৈত	1
ottie	1
sick	1
stha	1
▁de	1
cla	1
▁Resu	1
nic	1
▁ঈক্ষণকামীচ	1
▁ক্যা	1
পচা	1
▁মং	1
কৰাসমূহ	1
ন্যতম	1
িলা	1
▁Alex	1
五十铃	1
ইসুজু	1
তৌহীদ	1
এলসি	1
lub	1
▁বহুভাষিক	1
▁wiki	1
▁সহযোগিতাৰে	1
uba	1
DC	1
োণ	1
▁বাংলাদে	1
warn	1
বিদ্	1
roove	1
ান্দ	1
মৰ্ম	1
মঙ্গলবাৰ	1
ye	1
aku	1
Ç	1
ĮŠŢÎĄŇ	1
℧	1
যশা	1
ernic	1
পাৰ্	1
ছিয়াম	1
▁নথিপত্ৰসমূহ	1
▁বাপ	1
ূণ্য	1
হ্ৰাস	1
aver	1
▁pri	1
mes	1
▁খাল	1
▁তিনিট	1
▁জগ	1
ন্মা	1
ত্রে	1
মংগলং	1
ণ্ডার্	1
▁সূত	1
▁মেদ	1
অস্বাস্থ্যকৰ	1
▁স্থ	1
ূল	1
ৰ্ভৰ	1
নগ্নতা	1
skar	1
▁অংকত	1
দন	1
▁Wind	1
Bat	1
sign	1
নিৰাপদ	1
▁কালাম	1
্বু	1
িবহ	1
}}]].	1
ЌΐŇĞ	1
তেওঁ	1
কাৰ্	1
▁হাৰাম	1
To	1
ব্যৱস্থাসমূহ	1
▁সঁজুল	1
▁লোকপ	1
▁জেড	1
য়েনা	1
▁আচম	1
ন্তব্য	1
▁Ope	1
▁অসাধ	1
▁"'''[[	1
▁বর্ত	1
ামান	1
শ্লোভাকিয়া	1
লেন্ড	1
ফ্র	1
▁সংগ্র	1
াহক	1
▁**	1
ণে	1
গৰু	1
▁জানিছিল	1
▁পিতৃযুগ	1
▁মনোকাম	1
▁কৰ্মপদ্ধতি	1
অৱৰোধ	1
▁জেক	1
ডমাৰ্	1
ভৱিষ্যত	1
▁স্বাদ	1
▁নোৱাৰোঁ	1
▁নুবু	1
▁প্ৰত্যয়	1
▁কট	1
মেণ্ট	1
▁An	1
asia	1
▁Qu	1
াচি	1
দ্বা	1
▁এডব্লিউ	1
▁হেৰায়	1
পচাৰ	1
চৰকাৰী	1
তাত্বিক	1
নুষ্ঠিত	1
চলন	1
▁নায়াৰ	1
▁ইনস	1
্টিটিউট	1
নিৰ্বা	1
▁ঢ়া	1
▁সম্পৰ্কী	1
▁কিৰ়	1
ত্তিযো	1
াসেজ	1
লাদেশী	1
শ্ৰী	1
স্তুব	1
বৃংদ	1
▁মিটা	1
▁ঈক্ষণকামীউদ্ভট	1
ষম	1
▁চেহ	1
াৰাত	1
স্থানত	1
registration	1
▁দুৰ্য	1
্যোগ	1
অলংকাৰ	1
▁ফটোগ্ৰাফ	1
ীক্ষণ	1
▁সাংগ	1
খাদ্য	1
াদশ	1
প্রজাতন্ত্র	1
▁মন্	1
ডিও	1
ৰেপৰ	1
▁চিন্ত	1
কাৰ্বন	1
ধৰোঁতা	1
ৱৰ্ত	1
ভ্ৰমণ	1
▁Fu	1
অনু	1
প্লি	1
মেণ্টে	1
আধাৰিত	1
▁অভিগম	1
সাধ্য	1
গৌ	1
▁প্ৰগ	1
েছিভ	1
ৈমাৰী	1
ইঞ্চুৰেঞ্চ	1
তিপী	1
ৱদান	1
্যায	1
▁গৌৰ	1
▁প্ৰণাম	1
এইয়া	1
ager	1
eS	1
PO	1
আয়োজন	1
▁আৰম্ভনি	1
▁একা	1
গ্ৰতা	1
দক্ষ	1
ুচি	1
ায়ত	1
▁বালং	1
▁Str	1
fed	1
tsch	1
enk	1
oan	1
▁কম্পিউ	1
ূষ	1
বছৰৰ	1
লিখনী	1
দৃষ্টিকো	1
নসমূহ	1
fs	1
gen	1
▁একত্ৰীকৰ	1
rack	1
ount	1
▁হেই	1
্ত্	1
▁লিও	1
ীকা	1
▁সাংস্কৃত	1
▁ড্ৰাইভ	1
গদু	1
thing	1
তালি	1
িত্ব	1
অভিলেখ	1
▁একত্ৰি	1
yg	1
▁comm	1
unis	1
Sus	1
als	1
সত্যক	1
জৈৱ	1
▁দিগন্ত	1
দ্বীন	1
নপু	1
visi	1
বিমানবন্দৰ	1
▁লাহ	1
াপেক	1
weets	1
▁Crea	1
▁ভুম	1
ড্ৰাইভাৰৰ	1
▁অৱস্	1
স্থাত	1
▁উঠো	1
▁হিংসাত্মক	1
▁বোন	1
▁শ্	1
স্য	1
থব	1
▁একাকীখেলনা	1
▁চুল	1
asc	1
হুম	1
▁কৃষিৰ	1
▁অস্থি	1
তিশীল	1
প্ৰভাৱ	1
র্বা	1
▁প্ৰতিবিধান	1
বন্ধুসকল	1
👬👭👬👭	1
❤️	1
share	1
▁শূ	1
পেতিতেপা	1
exxxtrasmall	1
চনলৈ	1
Bhar	1
কল্কিম	1
শ্ৰীগুণম	1
গৃহশৌৰ্যম	1
কৃষম	1
▁আপ্ল	1
▁পেঁচ	1
শ্ববিদ্যালয়	1
▁স্যাঁত	1
িহা	1
ংস	1
হৃদ	1
বংশিক	1
াবাদক	1
school	1
off	1
set	1
চেট	1
▁ঘৰটো	1
▁বিপি	1
শিৱসাগৰ	1
▁ধেমা	1
▁গোৱালপাৰা	1
▁নিষ্ঠুৰ	1
▁সময়সূচ	1
গৰ	1
এনি	1
▁ডিল	1
▁১৮৬	1
ৰ্শন	1
▁আগ্ৰ	1
৮৪০	1
▁জানুৱাৰ	1
ইউক্লিড	1
ধন্য	1
▁প্ৰশান্ত	1
বিশে	1
▁কছ	1
স্বত্বা	1
মেশ	1
ফেব্ৰুৱাৰী	1
▁wh	1
সেইটো	1
পঢ়িব	1
▁বাব	1
াবোন	1
teen	1
▁ব্লক	1
▁ৰেট	1
ctn	1
anga	1
ɔŋ	1
ɔ	1
ud	1
▁Gol	1
hat	1
▁distri	1
cts	1
গিল	1
▁বৰ্ণন	1
শ্ৰীমতী	1
তাক্ষৰ	1
returnto	1
▁অংকটোত	1
▁পীয়ু	1
চয়	1
▁এপ্ৰি	1
▁স্ক্ৰ	1
tedpa	1
▁প্ৰসাশ	1
▁সাহাৰ্য	1
কলীয়া	1
▁ৱেবচা	1
লাপ	1
চিজি	1
▁গোষ্ঠ	1
প্ৰতিক	1
▁মুদ্রা	1
▁জ্ব	1
মিল	1
নিয়োগকাৰী	1
▁কেলে	1
ser	1
✅	1
িৰপৰা	1
DKK	1
LC	1
ORL	1
▁অপ্ৰ	1
ীতিকৰ	1
পদক্ষেপ	1
▁সমবে	1
আইনী	1
য়ুক্তগৰাকীয়ে	1
ুটি	1
onu	1
স্বীকাৰ	1
▁অংকবি	1
ইনষ্ট	1
্ৰুমে	1
ারি	1
▁জুব	1
▁উত্‍	1
▁ডিম	1
nm	1
োমিটাৰ	1
dgu	1
▁Ram	1
▁Kri	1
pal	1
VAT	1
TIN	1
etc	1
এবি	1
কেতিয়া	1
৯৯	1
▁পাছলৈ	1
৮৫২	1
কবি	1
▁প্ৰথমা	1
ৱস্থাত	1
নলবাৰী	1
▁বঙাইগা	1
▁নৱীকৰ	1
▁GAID	1
pace	1
▁কীপ	1
েডৰ	1
▁চিপি	1
াৰীৰ	1
লিউ	1
্যবহাৰক	1
্যসমূহ	1
この間	1
▁Hazarika	1
৮০	1
▁লক্ষণসমূহ	1
▁monspessulanu	1
que	1
ontains	1
▁পবিত	1
▁মহো	1
ত্‍স	1
urrent	1
▁Is	1
sue	1
▁বিপিএ	1
▁অস্থা	1
▁আতৰ	1
ঠিকনা	1
ফুসসিলাত	1
পূণঃনির্	1
নিব	1
listed	1
জ়ি	1
ৰোৱা	1
কাছা	1
▁আসাতেল	1
ola	1
ঘন	1
়াম	1
▁স্বয়	1
যজ্ঞ	1
OLA	1
TOR	1
স্বয়ংক্	1
▁চমকা	1
▁পঞ্চায়ত	1
allin	1
পুনৰগঠ	1
▁কার্যসূচী	1
colum	1
ঠিয়	1
য়াত	1
ালন	1
জৈ	1
নুভৱ	1
য়েছে	1
▁শিং	1
▁সভ	1
্চে	1
▁মেজি	1
alita	1
ন়ৱি	1
▁নণ্ণ	1
▁মুন়	1
ৈৱ	1
▁শিলচৰ	1
ফল	1
▁ন্যায়া	1
নুগ	1
ফলদা	1
▁Cal	1
eta	1
▁Inter	1
▁Gar	1
িবাচ	1
ক্রান্ত	1
জেণ্ড	1
বীমাকৃত	1
গল্প	1
▁বার	1
প্ৰথমবাৰ	1
▁Rama	1
Mad	1
ras	1
▁Mathematic	1
ference	1
▁বাগ	1
ডুম	1
ust	1
hiddencat	1
ছাত্ৰীসকল	1
db	1
ৰ্ডা	1
গোছ	1
▁পহ	1
্যুম্	1
▁ইনস্	1
িৎৰ	1
▁আদিত্য	1
বাস্তৱ	1
xa	1
▁তেৰা	1
▁সন্ম	1
্তা	1
▁পদ্মভ	1
▁পিডি	1
▁আণ্	1
িজেন	1
▁নিৰীক্ষা	1
অর্	1
আতী	1
পথাৰ	1
ইণ্ড	1
শিখ	1
▁জৈ	1
ুপী	1
হন্ত	1
নিটোল	1
চিন্তন	1
▁সমস্যাবোৰ	1
লোকে	1
থো	1
িশে	1
LD	1
▁আচাৰ	1
বেক্	1
▁অৱিৰ়	1
del	1
▁Te	1
ide	1
হওক	1
DA	1
▁বোলে	1
▁কল্পন	1
▁ক্বু	1
ᴋ	1
᭄	1
ส	1
α	1
গছ	1
perator	1
scoun	1
▁মহিল	1
▁সেইদৰেই	1
omain	1
মেইন	1
hya	1
াফ	1
▁নৃতাত্বিক	1
তৈয়	1
▁জনসংখ্যা	1
ৱলম্ব	1
বাণী	1
তেজ	1
প্ৰস্ৰাৱ	1
অবিৰত	1
LP	1
মেট্ৰ	1
▁দ্র	1
work	1
license	1
▁Creat	1
Al	1
ৰ্ষ	1
ন্দাৰ	1
বন্দী	1
সস্য়	1
▁বিষম	1
ট্রু	1
হিল	1
য়াদি	1
পূজা	1
▁সন্মুখত	1
হওঁতে	1
ছুদ	1
Ɫ	1
Ƙ	1
Jane	1
las	1
ৰ্ক	1
শ্চন	1
▁অভ্যন্তৰ	1
হোৱা	1
প্ৰশাসক	1
কাশ্মীৰ	1
hibit	1
▁HB	1
তুল	1
proxyblock	1
স্ত্রী	1
	1
৮৬	1
ৎসু	1
খোৱা	1
লিঅঙ্গুলিসঁচালন	1
▁মজি	1
▁মোজ	1
▁হস্প	1
টেলত	1
▁জং	1
পিন	1
অভিযান্ত্ৰিক	1
AGE	1
ADJ	1
▁par	1
etf	1
জমেণ্ট	1
▁স্তন	1
়ো	1
তীত	1
▁শত্ৰুতা	1
ধৰ	1
▁উত্থা	1
▁বাজেয়াপ্ত	1
▁ফলশৃতি	1
নহ	1
SX	1
সভাখন	1
▁dress	1
legs	1
ধুমপান	1
࿗Շαɾ	1
σร࿌	1
ভেণ্টিলেশ্যন	1
▁Indi	1
▁টেল	1
ব্যত	1
▁নঘট	1
োৱাকৈ	1
▁শতাব্দী	1
▁কাললৈ	1
াঢ়ে	1
সো	1
কায্	1
়রুৰ‍্	1
bus	1
কাৰ্ড	1
বজাৰ	1
▁হাতীগা	1
ওঁৰ	1
▁ভাড়াঘৰ	1
২০১০	1
▁চন	1
▁এগৰা	1
▁প্ৰস্তাৱক	1
মেট্ৰিক	1
▁ডিভিড	1
IE	1
tch	1
changes	1
Ї	1
graph	1
toni	1
সপ্তম	1
▁সন্দ	1
ুদ্ধা	1
গ্ৰা	1
▁উপায়ে	1
▁কিনি	1
চিনবোৰ	1
▁অৰ্থব	1
▁সংখ্যাটি	1
▁হেৰ	1
চাম	1
▁প্ৰজ	1
েছিক	1
ফ্ৰে	1
▁বট	1
▁কফ	1
৫০০	1
নীশ	1
চাইত	1
wrong	1
emp	1
ESE	1
UB	1
▁বার্	1
▁বুসি	1
apor	1
▁Pte	1
therlan	1
▁কোম্পানীসমূহে	1
Xiaomi	1
ক্ৰি	1
ডেশ্যন	1
▁দুদিন	1
▁উন্ন	1
▁প্ৰপ	1
▁পৰিবৰ্ত	1
স্পন	1
ুহান	1
azi	1
▁ফিক্স	1
▁AI	1
IMS	1
কৰ্ত্তব্য	1
▁ভক্ত	1
▁মানৱী	1
লনি	1
tass	1
▁Applied	1
▁St	1
▁On	1
mos	1
eoff	1
rey	1
ics	1
নাৰায়ণ	1
▁উদ্দে	1
ষ্টদ	1
কীচেইনে	1
বানা	1
অহা	1
মিল্	1
দুন্	1
্মাতা	1
হ্হা	1
বিজেপিৰ	1
mat	1
▁Theor	1
খিনিত	1
orat	1
issi	1
mus	1
rang	1
▁কৰিবলগ	1
dh	1
ada	1
▁হৃদ	1
বণ্ড	1
▁ডায়েবেটি	1
গৰ্ভাৱস্থা	1
▁পৰিমাণত	1
utch	1
যদিও	1
যৱসায়ক	1
oni	1
▁অসমীয	1
▁চলচ্চিত্	1
oct	1
অক্টোবৰ	1
▁হ্ৰস্ব	1
▁He	1
▁Fe	1
▁কিয	1
dig	1
its	1
vi	1
sca	1
nner	1
ভাইৰাচ	1
▁আটা	1
▁চাউল	1
ঘৰতে	1
টিচি	1
▁লোককে	1
▁আপুন	1
লিখিব	1
ür	1
লাটো	1
din	1
bhak	1
nā	1
আনন্দ	1
▁চমত্কারফালা	1
ডিঙ	1
ুর	1
িন্গ	1
তত্বাৱধান	1
জীও	1
EGA	1
▁Mu	1
▁মাতে	1
নন্দন	1
সঞ্চালক	1
▁asa	1
বিষাক্ত	1
▁উৰ্মিলা	1
বুধবাৰ	1
▁শিলা	1
পোন্ধৰ	1
পোনা	1
টাইকেইটা	1
োঁতে	1
▁কেচু	1
▁আনিছিল	1
োটা	1
▁মালিগাওঁ	1
দৰ্শী	1
পাথ	1
▁আলোচনাচক্ৰ	1
tub	1
hold	1
▁দৃঢ	1
মিতি	1
প্ৰদায়	1
ামী	1
▁ডিগ্	1
South	1
ত্তম	1
দুক্	1
ৈযে	1
্যঃ	1
delet	1
চাইটটি	1
▁অগ্রাধ	1
ীকাৰ	1
জাতিয়	1
▁কৈব	1
aquel	1
▁বাইবল	1
▁জনাইছো	1
cs	1
▁Neo	1
▁Mov	1
ement	1
imanta	1
▁কিঃ	1
Kā	1
ṇ	1
▁Fre	1
sher	1
FR	1
লাইদা	1
মনা	1
▁রু	1
zar	1
▁আয়ে	1
ঙ্গা	1
িলম্	1
resse	1
deline	1
দ্দেশ্য	1
মস্ত	1
KPR	1
▁শিৰোণামাত	1
▁পুতলি	1
▁Fra	1
nç	1
ais	1
▁বিন্দুত	1
▁প্ৰফে	1
িবা	1
ুত্বপূ	1
দেখে	1
স্তুত	1
〖	1
〗	1
▁মহান্	1
▁ব্	1
িণাম	1
কৰ্মক্ষম	1
ifest	1
জনসাধাৰণ	1
▁Stack	1
cient	1
▁অকীক	1
FW	1
ব্যৱহ	1
ছুলু	1
▁মূলনীতি	1
ӄ	1
ʀ	1
ঊন	1
▁Gau	1
tam	1
shya	1
ইজ	1
▁মেছ	1
▁বিৱৰি	1
মাল	1
gener	1
▁অসফল	1
ক্সিয়া	1
▁চাকৰ	1
▁ঢ়	1
lop	1
▁সাংহ	1
▁ফুজ	1
▁ভগা	1
হোৱাল	1
যাদু	1
▁tube	1
𓆩	1
RK	1
𓆪	1
ld	1
চামচ	1
বালিকা	1
▁কথোপ	1
▁অংশগ্ৰহণৰ	1
▁গোল্ড	1
োকে	1
তিভ	1
SSU	1
দিনাখন	1
ট্ৰন	1
ভাষাত	1
মেক্সি	1
কান	1
▁ভ্র	1
limit	1
গতি	1
▁AV	1
লাইচেঞ্চ	1
av	1
সহযোগ	1
্যাম্প	1
শ্বিদ	1
▁আফা	1
ভট	1
MI	1
INE	1
াৰ্থক	1
Frank	1
▁ইনডি	1
▁টাস্ক	1
▁খেলি	1
▁খেলত	1
ical	1
তেম্	1
঳	1
ূচনা	1
াথন	1
োলস	1
bd	1
ঢকা	1
▁আৱ	1
offic	1
▁চেয	1
াৰমেন	1
▁Kno	1
wl	1
broke	1
ষন	1
git	1
ুৱ	1
▁প্ৰয়োজনসমূহ	1
▁মধ্যস্থতা	1
▁নোপ	1
েৱা	1
বিত্তীয়	1
▁মধ্যস্থতাকাৰী	1
▁থাকোঁ	1
▁কঠিনত	1
▁নিৰূপ	1
আর্	1
▁ইন়	1
সচেতন	1
গুর	1
cance	1
▁নাগ	1
াওঁ	1
লিট	1
পাৱলী	1
সতৰ্কতা	1
▁পুনঃনির্	1
দেশ	1
img	1
cha	1
ওপৰত	1
▁অর়িৱি	1
সূচ	1
িপত্ৰসমূহ	1
▁SU	1
MIT	1
▁গেৰান্ট	1
▁ৰোমা	1
ণ্টৰ	1
▁মিতা	1
িপুণ	1
▁mom	1
▁কেলেকুলেট্যৰ	1
▁বিলয	1
▁অঙ্	1
কুৰিত	1
দিব	1
টেক্স	1
মএইচ	1
মোহ	1
নিধ	1
ভূজ	1
বাহু	1
শাসিত	1
নিয়ন্ত্ৰ	1
নিৰ্মাণকাৰী	1
▁ইন্টাৰফে	1
্যাক	1
জীৱি	1
শিং	1
াহী	1
san	1
ied	1
য়েট	1
্ভ	1
ীবন	1
ফিউজ	1
▁পৰ্	1
েৰামি	1
কেৰে	1
▁আঁচ	1
োৰৰ	1
্মশালা	1
মাসিক	1
অংগীকার	1
ó	1
▁সাংস্কৃ	1
োডা	1
▁কৰ্প	1
ৰেশ্যন	1
▁দিনতে	1
▁দেশপ্ৰ	1
▁সাইক	1
োকেল	1
ͥ	1
▁বিলাককে	1
ভড়াল	1
splay	1
▁Swe	1
ater	1
temp	1
অস্থায়ী	1
যুক্তিবিজ্ঞান	1
▁বোমা	1
▁চিনাক্তকৰ	1
নযোগ্য	1
▁Res	1
Centr	1
লকাতা	1
েইস	1
▁নামিব	1
▁খোজক	1
কাডেমী	1
▁গুৰুৰ	1
▁ৱেবছাইটসমূহ	1
▁MS	1
▁পুংখানুপুংখ	1
hist	1
▁অভিলেখাগাৰ	1
▁বিজয়	1
▁৫৪	1
gus	1
গবেষণা	1
Alg	1
ebra	1
gori	1
Chi	1
▁উপক	1
৯৮	1
OC	1
▁মংদ	1
সামগ্ৰীবোৰ	1
চুৰিৰ	1
RB	1
TI	1
▁উপাৰ্জ	1
option	1
▁ঈক্ষণকামীজ	1
িন্স	1
ces	1
▁ক্যাট	1
স্কৃ	1
ৰমাণ	1
▁সৌন্দৰ্যসমূহ	1
ত্স	1
ছেহ	1
▁চুদাচুদ	1
িংহোমত	1
দেশ্যে	1
গীচা	1
স্বত্বাধিকাৰ	1
বিংচি	1
দাস	1
ুংড	1
▁ড্য	1
িৱ	1
▁ঘটনাটো	1
িশ্চ	1
িতঃ	1
তিটো	1
লৈপ্পডু	1
▁Lu	1
ভয়া	1
▁মৃত্য	1
নামস্থান	1
যো	1
লেহন	1
পেজ	1
আহম	1
বক্তা	1
▁হিজ	1
ৰীৰ	1
▁আৱে	1
গিক	1
▁অন্যা	1
্ন্য	1
▁তুম	1
▁মের	1
শ্রেণী	1
▁মোনা	1
স্থানীয়	1
feb	1
ফেব্ৰু	1
ালিগাঁও	1
▁মিলিল	1
▁ঠন	1
▁প্ৰচেষ্টাৰ	1
▁বেস	1
িষ্যদ্বাণী	1
অৰ্থাৎ	1
▁ছায়াছবিঅ	1
▁পেট	1
্লংদ্	1
ঊদ	1
isambiguations	1
দ্ব্যৰ্থতা	1
win	1
বিকল্পসমূহ	1
꧁	1
ভাঙি	1
▁এন্ট	1
েটেলাইট	1
ুৱাবলৈ	1
▁আঁটভগ	1
সহযোগিতা	1
ৱেন	1
▁সুজ	1
াথাক	1
▁জনালো	1
ৱন্ধ	1
▁ফায়াৰফ	1
▁ওৱেব	1
▁বৰ্জ	1
llen	1
▁gu	1
▁প্ৰতিনিধিক	1
▁গুৱাহাটীতে	1
বিশ্ব	1
পুৰুষসকল	1
▁কৃষ	1
িজীৱী	1
ren	1
Pir	1
ax	1
▁কস্তুৰী	1
নেই	1
▁বাতি	1
ষ্ফ	1
পক্ষই	1
◤	1
xs	1
͢͢͢ђ	1
◢	1
ৰিহনা	1
▁সাক্ষা	1
তকাৰ	1
▁অশেষ	1
নুসৰি	1
blowjob	1
vale	1
▁kay	1
▁পৰিম	1
▁শুক্	1
বৈদ্য	1
জনী	1
▁টুইট	1
▁-“	1
জিৰাফ	1
হালক	1
▁স্বা	1
চ্ছন্	1
বাহ্যিক	1
ুঠ	1
▁চামিল	1
▁আকাংক্ষা	1
▁ৰূপান্তৰ	1
পোষকতা	1
▁তৃ	1
▁হেতু	1
bers	1
বাতি	1
▁stor	1
কিট	1
▁হুক্	1
আল্	1
্নী	1
▁জাপানিঅ	1
▁ডায়েল	1
prot	1
▁Ag	1
nev	1
aden	1
blue	1
▁epidermis	1
▁sp	1
ines	1
▁Bea	1
ashing	1
ton	1
tah	1
ড়ান	1
৩৬	1
োপণ	1
▁বৰক	1
ইলা	1
ভোগ	1
ভাবি	1
▁ভাগৰ	1
চুং	1
▁ঠা	1
Ṭ	1
ṇḍ	1
Gara	1
▁সংন্য়াসস্	1
▁দুঃখ	1
মাপ্ত	1
য়োগ	1
মালৈ	1
▁দধীচিকুল	1
ালিনী	1
▁সম্ভাৱনীয়তা	1
্ধত	1
ৃষ্টিপাত	1
▁নিষ্কা	1
ষণ	1
▁সোও	1
েজত	1
ব্ৰিজ	1
poly	1
meg	1
acep	1
hala	1
ব্যাং	1
ন্যাস	1
▁Del	1
▁sch	1
mal	1
Bee	1
DIN	1
▁বেক্টেৰিয়	1
▁ক্লী	1
ঞ্জা	1
কলাপ	1
ভেটি	1
ownload	1
মাথোন	1
▁কংগ	1
ৱেবচাইটত	1
▁সংগৃহ	1
▁লেত	1
min	1
length	1
MIC	1
ipu	1
▁পাওনা	1
▁ক্লেইমত	1
িয়তাৰ	1
োচন	1
❡	1
য়োজন	1
ভু	1
ুবি	1
শাস	1
▁এক্সক্স	1
tan	1
▁টদ	1
হিচাপে	1
▁লাট	1
▁ব্য়া	1
খ্য়াত	1
ষ্টকমি	1
নুষ্	1
▁ৱেল	1
িংটন	1
▁সংঘৰ	1
▁হেঁ	1
পাহ	1
▁animal	1
rd	1
🦃	1
▁টাৰ্	1
Que	1
▁Vu	1
lva	1
▁br	1
ফিজ	1
বোতল	1
▁ভৱ	1
▁বডি	1
▁সংজ	1
ন্ত্ৰাসবাদ	1
olin	1
কাৰীয়ে	1
পত্ৰস	1
ষ্টত	1
▁আগবঢ়াইছো	1
▁নৌ	1
▁পেঁ	1
গুৰ	1
মেব	1
rma	1
▁পৰীক্ষ	1
▁তৰু	1
▁ধৰাৰ	1
শাল	1
পৰিষ্কাৰ	1
ম্বে	1
়াৰ	1
োপন	1
▁অগ্	1
ংহ	1
▁Fair	1
▁Tale	1
বাহিনী	1
রুহা	1
লৈঃ	1
ām	1
araā	1
ichōm̐	1
মানক	1
পগুলি	1
এজেন্টৰ	1
য়ায়	1
▁পাৰ্টনাৰ	1
ঙ্গুলিসঁচালনক	1
ign	1
dy	1
নৰ্থ	1
লপথ	1
▁চার্ভ	1
STN	1
▁বৰুৱাই	1
বিষ্ণু	1
াকৰণ	1
পাবল	1
▁লৈছিলো	1
▁ফলা	1
▁পৰ্যবেক্ষণ	1
ঙে	1
ক্ৰেট	1
াৰীলৈ	1
▁উল্	1
চিঠি	1
▁বৃংদ	1
▁ইয়ো	1
tube	1
▁ফেব্রু	1
চর	1
▁আং	1
দৃ	1
চ্ছিক	1
অনুষ্ঠান	1
পল	1
স্বচ্ছ	1
বাসীয়ে	1
FB	1
জুলিয়া	1
bon	1
ৰাৱী	1
অস্থি	1
োনিয়া	1
্দুৰ	1
▁খট	1
্টৰৰ	1
isab	1
▁দাও	1
চামি	1
মাদ্ৰাজ	1
জহী	1
বন্ধন	1
▁দলট	1
নতকৈ	1
ফ্ৰেনচাইজ	1
▁এইসকল	1
▁নাথাক	1
▁অর	1
▁পাড	1
▁ৰাখিছ	1
▁এনাল	1
▁was	1
」	1
〟	1
ৣ	1
ž₭ץ〟	1
কোম্পানী	1
যোগ্যতা	1
প্রাপ্	1
▁নিল	1
USD	1
পৰৱৰ্তী	1
আজ	1
যিবোৰ	1
▁অপসাৰণ	1
বন্ধ	1
যাওক	1
ঙু	1
চালি	1
ৰ়ু	1
ম্বু	1
্গৰ‍্	1
▁বাইব	1
একচ	1
েতু	1
েশং	1
▁দুচকু	1
▁আইপিএল	1
▁মহল	1
▁প্ৰসং	1
ইয়	1
▁Info	1
ৈতে	1
ধাতু	1
▁মূৰ্তি	1
প্ৰাপ্য	1
৺	1
ঞ্জন	1
▁আড	1
Ƚ	1
︎ঔৣ	1
ফাংচন	1
▁Comp	1
ound	1
▁per	1
▁ঈম	1
▁বনাই	1
▁লগিন	1
খানকি	1
î	1
ķą	1
সোউ	1
mbo	1
ম্বো	1
▁অপে	1
▁নিত	1
মচত্র	1
ফআ	1
ভৰিৰ	1
্পর	1
িত্রাণ	1
হৃদয়	1
লীলৈ	1
বয়সীয়া	1
▁চক্র	1
▁গাঁ	1
বের্	1
োং	1
গেলা	1
চফট	1
ণত	1
পত্ৰিকা	1
stu	1
dded	1
TT	1
পৰিসৰ	1
▁Hu	1
▁চলন	1
▁এনক	1
বিপ্লৱ	1
radha	1
hava	1
েকনিক	1
mā	1
ডিঅঙ্গুলিসঁচালন	1
haru	1
▁sana	1
ocabulary	1
ক্ষাং	1
▁কৃত্	1
ন্তর	1
মাৰ্ক	1
▁পঞ্জীভু	1
পঞ্জীভু	1
▁বিবৃত	1
▁BT	1
GQ	1
▁হিলবাৰ্ট	1
্য়াদ	1
থায়	1
ায়া	1
সব	1
রে	1
▁NK	1
ৰোজা	1
specialp	1
্ত্ত	1
সংস্কৃতি	1
▁বৈচিত্ৰৰ	1
▁মানচিত্	1
নুজ	1
▁পবন	1
অইল	1
ধিমিদ্ধিমি	1
দ্ধিম	1
িধ্বন	1
মৃদ	1
ংগত	1
☋☈♗☈	1
⌘	1
োণী	1
চক্র	1
Fo	1
▁Tr	1
uck	1
tag	1
টেগ	1
▁আধা	1
্খ	1
ান্তিক	1
▁ব্যৱহা	1
নায়ক	1
শঙ্কৰ	1
ত্তিত	1
নামঘৰ	1
elan	1
uta	1
▁তোল	1
▁লও	1
AM	1
rkotoky	1
eave	1
mycustom	1
ভগিনী	1
ৰাং	1
▁ছিয়া	1
▁গাঁৱ	1
▁বিমানখন	1
ৰেক্টৰ	1
িৰে	1
সমাজ	1
জ্ঞাবদ্ধ	1
দণ্ডিকা	1
লান	1
▁হেৰুৱালে	1
▁মটোগ	1
টাকা	1
▁চাইটত	1
▁ত্য়ক্ত	1
ত্মান	1
সমাপ্তি	1
▁অসুখ	1
▁পাছৱ	1
▁অঙ্ক	1
েৰিফ	1
প্রাপ্ত	1
কেবল	1
▁কলিত	1
মংদা	1
কুটা	1
▁প্রম	1
lookup	1
চাওক	1
ডকাইতি	1
▁ডকা	1
হকা	1
ূচি	1
নব্ব	1
▁উপেন্দ্ৰ	1
হাটৰ	1
াঁ	1
খাও	1
ীয	1
▁ৰয়েল	1
লাম্বা	1
মিত্ৰ	1
িকিপিডিয়া	1
▁পিএইচপি	1
▁কথাক	1
বিৰুদ্ধ	1
▁বিৰুদ্ধ	1
▁ভৰ্	1
নাও	1
jh	1
▁এফচি	1
▁বিভিন্নতাৰ	1
্প	1
Mast	1
▁চক্	1
চকে	1
ংশ	1
িংদু	1
▁প্ৰতিদ্বন্দ্ব	1
▁স্থানতে	1
▁দুৰ্ঘটনাগ্	1
রস্থ	1
গাড়ী	1
▁চিকিৎসাল	1
লিপ	1
আপত্তি	1
It	1
▁method	1
ves	1
১৮০	1
১৮২৯	1
▁ক্ষন্তেক	1
zens	1
▁চুদাচুদি	1
মোট	1
ৰিমা	1
কৈর	1
পশ্চিম	1
rabhakoirpaschim	1
wt	1
▁tea	1
rece	1
ives	1
তং	1
কিংচ	1
▁মুক্তা	1
▁Türk	1
▁আৰম্	1
জঁ	1
▁কামকো	1
rand	1
দিও	1
উনল	1
Vid	1
Brit	1
দিৱস	1
▁মিলন	1
জ্জ্বল	1
▁ইন্দ্ৰ	1
▁আঁত	1
ONG	1
বঙাইগাঁও	1
পিএফ	1
নেত্ৰী	1
্যাটার	1
নিণ্ড্র	1
ুন্দ	1
ীবর	1
ঘাত	1
▁আয়েংগাৰ	1
▁চৰিত	1
▁প্ৰবাদ	1
ৰামানুজন	1
বুঢ়ী	1
templates	1
▁ভাব	1
▁প্রাপ্য	1
▁পুৰস্ক	1
চতুর্	1
eople	1
cascad	1
▁বিষয়টোক	1
▁উপস্থাপ	1
্ৰুপ	1
▁প্ৰতিহত	1
▁অৰ্থত	1
আমা	1
েয়	1
▁Eas	1
VD	1
▁নিৰ্নয়	1
ইএ	1
বিকিনি	1
অধিবাসী	1
ama	1
▁আভিলা	1
োমি	1
oo	1
oki	1
▁মেৰী	1
GP	1
ili	1
▁ৰঙি	1
tin	1
ime	1
rua	1
▁কৃষ্ণমণ	1
▁চুতীয়া	1
▁বুদ্ধিমত	1
▁IF	1
িবৃত্তি	1
▁Gri	1
shor	1
yam	1
ugar	1
াহাৰ	1
▁নহওঁ	1
টোকিয়ো	1
▁Ju	1
▁মৃ	1
ked	1
ork	1
াহৰি	1
▁TD	1
▁নাটনি	1
▁ভুগি	1
যাওঁক	1
ৰিয়	1
্দ্	1
হেমিল্টন	1
▁SC	1
োঁট	1
▁আগবঢ়	1
বৃংহ	1
ষি	1
sty	1
cats	1
▁ভোগা	1
▁শীঘ্র	1
ড্র	1
▁গিল	1
াচ	1
অন্যথা	1
শংস	1
্যত	1
🅰ʍ	1
я	1
▁টোকিয	1
▁rad	1
iations	1
rays	1
▁Bab	1
ধুলা	1
api	1
ens	1
ber	1
সমৰ্থ	1
ুখী	1
ৰয়োজন	1
▁pla	1
kh	1
ob	1
ৰ্ত্তন	1
▁be	1
কামী	1
eight	1
Ō	1
ছাব	1
▁নিৰ্ধ	1
ৰোত	1
ৰূপৰ	1
▁নিয়ে	1
▁বেনা	1
গভীৰ	1
হূৰ্তত	1
▁ট্ৰেক	1
newmessages	1
ৰিব	1
য্দু	1
▁চিএ	1
▁EM	1
‍ষ	1
ভাষ	1
▁অন্তৰ্দৃষ্টি	1
Vo	1
পিক	1
HTL	1
ছিয়ে	1
জুহা	1
োড	1
▁পঠেত	1
য়াদ	1
uj	1
ş	1
▁Titl	1
▁পশ্চিম	1
▁ত্র	1
▁কলকাতা	1
▁কাৰ্য্যক্ষম	1
▁ভুলক	1
ইয়াত	1
নেক	1
ৰুৱাই	1
ece	1
▁অনুভূতি	1
▁মর্	1
ডুবা	1
ুমে	1
়িযি	1
how	1
▁writ	1
দনক	1
▁বীমকৃত	1
▁Kar	1
▁কেঁচ	1
▁চাবু	1
▁চৰ্তসাপেক্ষ	1
asch	1
িয়াপি	1
filepath	1
নথি	1
erac	1
▁rac	1
osum	1
▁বলি	1
▁num	1
mmuni	1
▁fee	1
war	1
▁এট	1
▁শা	1
ব্দ	1
রচ	1
▁মানস	1
▁কপ	1
তীক্ষ্	1
বংদে	1
লোকৈক	1
গৌৰৱ	1
ব্যৱহাৰৰ	1
̪	1
▁লেটাৰ	1
č	1
owns	1
টৱেৰটো	1
▁টৱেৰ	1
▁Plan	1
▁সাক্ষ্যপ্ৰমাণ	1
▁হাৰ্ড	1
ষ্টল	1
ছাইটি	1
▁un	1
ved	1
চালকৰ	1
▁যদ	1
▁যাম	1
ূচ	1
কিৰ	1
▁সূত্ৰটো	1
তম্য	1
ত্ৰপাত	1
▁জনপ্ৰিয়কৰণ	1
ই৷	1
!!	1
ntry	1
▁চৰকা	1
ৰক্ষা	1
▁এছএ	1
০৮	1
▁নির্ব	1
▁জলধ	1
ুলে	1
ybo	1
কএকাকী	1
pussy	1
ionz	1
afi	1
▁সাফ	1
▁ইউজাৰ	1
▁অনুসা	1
ংগিক	1
ংদমনি	1
ংত্র	1
ভ্ৰান্তি	1
টাইপ	1
▁নচল	1
▁বীমাকাৰ	1
্থন	1
▁ইনড	1
▁ব্যায়াম	1
▁অৰু	1
▁বিদ্য	1
▁উপলব্	1
▁হৈছ	1
▁মেন্যু	1
▁মাগীচ	1
▁আধি	1
▁যাদুক	1
অপাৰেটি	1
▁নিছি	1
বৃহ	1
েটেজি	1
লেটাৰ	1
Bhara	1
▁দৈব	1
▁বাথ	1
্দ্ৰ	1
▁অংশধাৰক	1
শ্যে	1
োচিত	1
▁মণ্	1
ণি	1
ডৈযি	1
▁মল	1
মহ	1
নল্লূর্	1
Ni	1
sita	1
alpa	1
পৰবৰ্ত	1
▁Kat	1
▁Hil	1
▁বহিৰ	1
্ভূত	1
ক্ষেত্ৰাধিকাৰ	1
▁ধনৰাশিৰপৰা	1
▁কৰাওঁ	1
▁আশীৰ	1
▁লাগিছিল	1
▁ইব্ৰ	1
উজ্জ্বল	1
ল্যাটিনট্যাগ	1
গুণাগুণ	1
▁যোগা	1
বাজে	1
▁stra	1
▁চিধা	1
Ci	1
ōka	1
▁জাৰ্ণেল	1
▁স্থিত	1
▁বাদা	1
নুবাদ	1
বিনামূলীয়া	1
ste	1
ƦФßᎥ	1
ɢɑ͜͡	1
▁জনপ্	1
রিয়	1
▁অধ্যয়নক	1
কপিৰাইট	1
ন্ধৰ	1
বগৈ	1
▁অৱহেল	1
▁Ed	1
িজিট	1
▁ছাইটসমূহ	1
ানগ্ন	1
বৃদ্ধা	1
CHF	1
লিচিটো	1
▁গাল্ফ	1
হুড	1
quo	1
▁account	1
Medi	1
জিনীয়	1
Gene	1
tics	1
Cli	1
nical	1
▁tria	1
▁সংক্ৰা	1
মক	1
dem	1
্ৰণ	1
Health	1
ac	1
▁বৃষ	1
▁Micr	1
▁Du	1
oper	1
▁IS	1
▁cl	1
erry	1
▁অংকসমূহ	1
▁আইচ	1
নশ্বিপ	1
sdi	1
ৰ্থতা	1
▁পেপ	1
্বাধিক	1
পেমেন্ট	1
চকু	1
▁পশ	1
ূপা	1
▁হাফিজ	1
▁ছৈ	1
▁ষান্মা	1
ষিক	1
িদা	1
যু	1
িম্ফ	1
মেড	1
▁সিদ্ধান্তত	1
EM	1
▁খুজিলে	1
▁একেট	1
ৱৈ	1
ষ্যস	1
ষ্টাডিজ	1
▁গ্য	1
িভিড	1
টকাৰ	1
ঘর	1
▁নক	1
আবেদন	1
উৎসৱ	1
▁United	1
▁Union	1
▁ধৰোঁ	1
=\	1
ঠিও	1
▁আহিছো	1
্গীত	1
▁সমাহিত	1
▁পদ্ধতিটো	1
▁প্ৰতিবিধ	1
▁ৰূপাভাম	1
▁মানৱীয়	1
▁গ্ৰাফ	1
▁ইণ্ট	1
িগ্ৰ	1
NU	1
LE	1
নিয়ন্ত্ৰণ	1
ফাইলসমূহ	1
▁ইসি	1
▁Kit	1
chen	1
▁মেজ	1
ইতিহাসত	1
▁কৰ্ণ	1
▁মাধ্য	1
িকী	1
িতজ্ঞ	1
▁অনুপাতটো	1
মঙ্গল	1
▁পিটি	1
yourn	1
ick	1
▁স্বাক্ষ	1
linkshere	1
খাট	1
▁রাই	1
▁বৃহত্	1
ইংৰাজী	1
▁ডায়েলাই	1
▁ংল	1
▁মিৰ্জা	1
নুৰ	1
▁EURNOK	1
ষ্ট্ৰীয়	1
মুল	1
▁যিটোৱে	1
প্ৰশাসনক	1
▁কৰ্মক্ষম	1
▁পৰিমাপ	1
ৰ্তি	1
▁পদ্ধতিসমূহ	1
মাণৰ	1
লেখন	1
▁মাৰ্	1
টেন	1
▁আমেৰিক	1
১৯৯১	1
্টিল	1
hl	1
একাকীভগ	1
▁চেংদ	1
▁বেড	1
▁ফিৰি	1
ফাউণ্ড	1
দ্বীপ	1
dor	1
▁শিল্পীক	1
▁সমাধ	1
small	1
চুট	1
window	1
▁অৰ্ডাৰ	1
আউট	1
কোৱাৰ	1
▁Cu	1
খা	1
েঁ	1
উদ্যান	1
গৱ	1
ংড	1
সাবে	1
পায়ী	1
▁হলি	1
▁ঢেকী	1
▁ইনফুস	1
▁ওঁ	1
wing	1
▁সংকোচন	1
োদি	1
ৱিক্ক	1
্ৰকৃত	1
ষ্টকৰ	1
ৰণি	1
হর্	1
bject	1
▁তাৰো	1
▁তালৈ	1
▁এম্বুলেন্সৰ	1
হেঁচকা	1
▁bh	1
াপপু	1
আইনা	1
শেষৰ	1
▁Dh	1
technic	1
ঁত	1
▁ডেটাবে	1
কাৰ্য্যবাহী	1
গ্যতা	1
ঙ্কিত	1
▁ভগজুতাহস্তমৈথুন	1
ঠা	1
▁পুলি	1
াওক	1
শুনি	1
▁অনুৰ্ধ	1
▁এলা	1
ধুলি	1
কাৰি	1
সতৰ্কবাণী	1
▁সংৰক্ষন	1
▁Pu	1
thi	1
mali	1
▁Video	1
Offic	1
▁Rel	1
পভট্যাগ	1
▁Alb	1
▁উষ্	1
ঞতা	1
ান্না	1
▁কোউ	1
ত্ম	1
unprotect	1
▁লোকসকলে	1
▁উল্ল	1
সম্পাদ	1
▁টিক	1
োউস	1
খি	1
▁উইপ	1
োকৰ	1
▁বৰ্তমানলৈ	1
এট	1
দৃশ	1
স্তব	1
ৰব্বী	1
▁Tagged	1
▁শিৰোনা	1
পার্টি	1
উল্	1
বানপানী	1
▁দুৰ্ভ	1
িক্ষক	1
▁খ্ৰীষ্ট	1
▁Water	1
rif	1
ication	1
▁হাৰ্ডিয়ে	1
চাইকেল	1
tandard	1
রিয়া	1
নিয়ন	1
ইউনিয়ন	1
▁পরা	1
িবার	1
▁ট্র	1
ৰ্ঘ্য	1
tw	1
▁বীণা	1
ভৃত	1
পতা	1
▁ওপৰিও	1
ৰাহী	1
লিম	1
oden	1
পুৰণি	1
▁সহযোগিতাৰ	1
▁আগ্রহ	1
ুনহা	1
▁শিশ	1
▁সংপ্	1
▁হাঙ্গেৰ	1
ট্যাগভিজা	1
ভালে	1
ৰবিন্দ	1
▁কেজ	1
ৱালে	1
▁উদ্বিগ্নতা	1
সেচ	1
মাইল	1
ত্ৰুটি	1
▁সংগ্ৰ	1
্ৰামে	1
্ৰবন্ধটি	1
Number	1
▁পৰ্য্যা	1
লোচনা	1
পাপন	1
কণ্ঠ	1
বিষণ্ণ	1
▁Im	1
efi	1
cienc	1
আইভি	1
িচিয়ে	1
ঘটা	1
বণ্টন	1
াখিল	1
রাম	1
পূৰ্বৰ	1
▁দৰেই	1
▁কটাব	1
▁হার	1
ুইয়া	1
সুমি	1
ক্সক্সক্স	1
ক্ষেত্ৰত	1
নিধিৰ	1
লনী	1
সপ্তাহ	1
nis	1
ঁও	1
▁আলবান	1
ুচ	1
▁ফ্রা	1
▁ইটালি	1
entia	1
lly	1
king	1
nap	1
▁গৌ	1
হাটী	1
এবাৰ	1
চৰিয়ত	1
প্রথম	1
ack	1
ated	1
eels	1
▁সন্ত্ৰাসবাদীৰ	1
ৎপ	1
অদৃশ্য	1
স্মৃত	1
▁তাঙ	1
▁তণ্	1
গড	1
ন্দৈ	1
▁চম্বন্দা	1
াহি	1
বেলে	1
েকুৱা	1
র্ক্	1
diti	1
ণ্মৈ	1
▁উর	1
ৈসে	1
▁সৈকতব	1
াঁচা	1
▁ৰেফাৰে	1
৩০০	1
সুৰ	1
খানা	1
▁মতা	1
প্ৰদৰ্শনী	1
लॉग	1
letter	1
ECH	1
বৰ্দ	1
টার	1
nesi	1
াণে	1
ned	1
নহয়	1
पुरे	1
ref	1
শনিবাৰ	1
▁বীজগণিত	1
▁open	1
down	1
▁blo	1
▁তিব্বত	1
ৰ্মী	1
ইছলামী	1
▁অছ	1
ীলা	1
ꞣꞎ❥ꞤꞠ	1
যোগানকাৰী	1
ৱাৰেণ্টি	1
OTT	1
ashcar	1
▁Ec	1
nomic	1
yin	1
CRI	1
ুডৈ	1
ন্তন	1
ত্রাণ	1
প্রব	1
ণম	1
তিভি	1
শ্চি	1
দধু	1
▁হেৰুৱাব	1
্তাক	1
▁fe	1
ature	1
ã	1
ïð❦	1
▁Sol	1
ubi	1
lity	1
complete	1
▁গাঁথ	1
▁ভিডি	1
▁গুর	1
▁ষ্টাম্প	1
কপি	1
dberror	1
একাউণ্ট	1
সাহিত্যিক	1
▁গ্ৰন্থক	1
বিবৰণ	1
ূত	1
স্মি	1
▁তেজস্	1
তেজস্বিনা	1
▁ইক	1
ামূল	1
চেইন	1
▁পুথিখন	1
লেঞ্চ	1
্ষা	1
▁গৰাকীজন	1
অৰ্ধ	1
liter	1
▁উজ	1
বায়ু	1
চিং	1
▁ইয়াহ	1
জহুৱা	1
আজি	1
পণ	1
▁গুৰুজনা	1
নির্ম	1
র্মী	1
▁ইম	1
জিৰা	1
▁বিৰেন	1
াঞ্জল	1
ীনাথ	1
▁বোকা	1
▁ঘন্টাত	1
ছল্	1
াগমাই	1
loc	1
▁সাক্ষাৎকা	1
থেৰ	1
▁হেপ	1
েন্সাৰ	1
বাঁ	1
লাদে	1
পৰিচালনাৰ	1
মেৰামতি	1
েন্দ্র	1
ম্পু	1
▁দুবা	1
তিযোগিতা	1
▁সংবেদনশীল	1
Image	1
Author	1
ত্য	1
etting	1
োবিন্দ	1
▁তিনিদিন	1
eacher	1
▁বুৰঞ্জী	1
▁২০১	1
ᴀʙɪʀ	1
BO	1
র্দ	1
োত্	1
▁সময়স	1
▁চাইছে	1
াত্ম্য	1
▁টোকি	1
পাইল	1
আঘাত	1
পুনৰ্নি	1
▁দমন	1
অন্	1
▁But	1
amai	1
liu	1
ছায়া	1
▁বত্	1
ান়ে	1
▁র়ু	1
কৃতি	1
CIIL	1
বেহা	1
▁সংবেদ	1
বৃত্তিৰ	1
অগ্	1
ৰণী	1
ুইড	1
মহিলাগৰাকী	1
▁পেহী	1
▁নাজান	1
▁Mou	1
mita	1
ট্ৰাষ্টৰ	1
▁শৈ	1
ন্থাৰ	1
গোবিন্দ	1
স্থল	1
তাৎপৰ্যপূৰ্ণভাৱে	1
ঁট	1
রনি	1
▁চোট	1
চ্চি	1
▁তগ	1
ঢ়ি	1
▁Ton	1
gues	1
উম	1
enot	1
laddr	1
জাননী	1
▁জগতখনত	1
▁পাণ্ডিত্য	1
মিয়	1
েভা	1
▁ইতালি	1
৪ৰ	1
প্রধান	1
দৰেই	1
Ę	1
Û	1
Ė	1
ূ্	1
אורח	1
?????????	1
▁ৱেবছ	1
মনৰ	1
মানচিত্র	1
cept	1
▁map	1
মালা	1
▁ফ্লে	1
কার্ড	1
▁টেলি	1
কাষ্ট	1
ৱস্থাৰ	1
ndian	1
▁পণ্ড	1
own	1
subtitle	1
FX	1
▁উপবিষয়	1
innocent	1
SON	1
▁ঢো	1
▁আমন	1
িদায়ক	1
পত	1
▁Communica	1
পৰৱ	1
মস	1
▁কলন্	1
বিক্ৰী	1
ুবেদ	1
তিব্বতী	1
ংকেত	1
পাং	1
্রমা	1
মায়ত	1
নং	1
াক্ষৰ	1
cent	1
বেস্তের্	1
বোত্ত	1
িষ	1
মাণ্ড	1
মভেদ	1
ৈরে	1
ফান	1
্যন্ত	1
াণঘাত	1
structor	1
▁মান্	1
গোল্ড	1
▁সমীক্ষ	1
পুনৰীক্ষ	1
মেথোক্স	1
থন	1
▁হাঁহ	1
▁বিনাম	1
ুলীয়া	1
▁মিচিং	1
নিধি	1
▁সম্ভাৱনীয়	1
Android	1
ছায়েন্স	1
alco	1
নিৰ্দেশ	1
দিষ্ট	1
▁নাগৰিকক	1
ৰ্ভাৱ	1
▁বেক	1
েলাইট	1
▁বেৱ	1
অবৈধ	1
▁তলৈ	1
নিণ্ড্রা	1
ৈত্	1
lty	1
￼	1
Ne	1
derl	1
স্মাৰকৰ	1
বিকাৰ	1
বিদেশ	1
▁ফ্ৰা	1
▁ডায়েৰি	1
িমূৰ	1
omputer	1
িয	1
▁হান	1
▁অনান	1
িউল	1
ক্তা	1
াগলপ	1
▁বৃষ্টি	1
উচ্চ	1
উত্ত	1
াপ	1
▁বিপৰ্য্যয়সমূহৰ	1
▁UA	1
К	1
ча	1
▁অপব	1
িত্ৰ	1
ীয়েক	1
২১	1
বৰ্ষ	1
ায়ুসংক্রান্ত	1
ক্ষতিৰ	1
ুষব	1
ুদী	1
GAID	1
ৎপাদন	1
সূ	1
▁চর্	1
সপ্তাহটো	1
শ্ৰেণীসমূহ	1
▁অকাল	1
বছাই	1
▁ডায়েগ	1
নষ্টিক	1
▁বেমাৰি	1
পৰিপক্ক	1
মৌলি	1
▁ইনফো	1
সত	1
লিচক	1
▁ভাৰতবৰ্ষ	1
▁এন্টাৰপ্ৰ	1
েণ	1
ৰ্ধক	1
ইনষ্টল	1
▁এইক্ষেত্ৰত	1
চেল	1
ঠক	1
কৰ্মী	1
▁যিহে	1
▁ওয়	1
ন্টী	1
▁ফাট	1
▁নক্সা	1
▁মাদ	1
яค	1
εε	1
হাদীছ	1
্ডুলিপি	1
▁তুলনাম	1
ুলক	1
বিচাৰি	1
প্ৰশ্ন	1
kip	1
ask	1
pedia	1
▁Letter	1
ption	1
Sil	1
point	1
Language	1
Media	1
Mic	1
osoft	1
Re	1
Network	1
unic	1
Vis	1
Stud	1
than	1
Award	1
CA	1
▁দৈৰ্ঘ	1
ওৱাই	1
▁সচি	1
ئ	1
▁টিম	1
াৰ্ছন	1
▁কাৰ্য্যাৱলী	1
সাম্য	1
▁সমাজক	1
▁অৱদানক	1
এইচটি	1
▁ফায়া	1
তাক	1
▁কেচ	1
লম	1
▁পেক	1
uscle	1
থোনি	1
▁বানা	1
ato	1
▁জহা	1
▁কালে	1
▁দৰ্শ	1
thumb	1
▁ওহ	1
ল্পনা	1
ifes	1
▁নিদান	1
▁পেছমেকাৰ	1
gua	1
▁কৰ্মৰাজি	1
HF	1
vac	1
▁চট	1
ীসকলে	1
য়জ্ঞা	1
ধ্ব	1
ূপ	1
udo	1
vic	1
iana	1
prefix	1
Prefix	1
তার	1
টুন	1
▁সৌভাগ্য	1
▁অনুসৰ	1
লচিং	1
▁এমএ	1
Ω	1
কিমান	1
wall	1
username	1
আইপি	1
coa	1
▁Blo	1
▁কাছা	1
কাৰীসকলে	1
▁প্ৰতিকৃতি	1
▁মূর্	1
দাবাদ	1
▁নিণ্ড্র	1
নিভাৰ্ছিট	1
▁নাগালেণ্ড	1
▁ব্যবস্থা	1
▁নল্লূর্	1
▁অকপট	1
▁পুণ	1
বিশ্ববিদ্যালয়	1
পদাৰ্থ	1
Inter	1
▁প্ৰতিস্থাপ	1
অৱসৰ	1
▁তেখেতক	1
বিভূ	1
আমী	1
ছজিদ	1
ৰিয়াজ	1
पंजाब	1
▁হেঁচক	1
HRD	1
ততঃ	1
ৈব	1
হিত	1
▁পৰ্য	1
▁বাঢ়	1
▁কমে	1
▁হিচাব	1
ছমে	1
linen	1
▁মনোভা	1
ীতিমাল	1
০১৩	1
era	1
࿐	1
ছৰা	1
শ্বত	1
িয়েট	1
প্পী	1
াইল্ড	1
নানক	1
মহাবিদ্যালয়ত	1
ৰ্কট	1
custom	1
লিপিৰ	1
▁Cr	1
নগ্ন	1
ম্ৰপা	1
eng	1
rtific	1
ub	1
্ত্ব	1
গ্যা	1
uthor	1
▁পলিচ	1
▁ৰঙ	1
হনি	1
▁Gra	1
থাও	1
▁মহাকাশচাৰী	1
bina	1
hij	1
hak	1
▁ho	1
▁শ্ল	1
▁ইউআই	1
এফএ	1
ফুটবল	1
▁ইস্	1
তাহাৰ	1
জ্	1
দুটা	1
▁কোম্পা	1
▁এপি	1
তত্	1
ষ্টকম	1
একাকীখেলনা	1
ৰিৱৰ	1
প্পি	1
vie	1
tn	1
amese	1
▁পশ্চাদ	1
▁গুৱাহ	1
▁উঠ	1
▁ষণ্ম	1
াস	1
িরুচ্	1
েচবুক	1
াৱতী	1
ডছ	1
▁ইণ্টাৰনে	1
▁কমিউনি	1
কেশ্যন	1
You	1
otherl	1
anguages	1
বাছ	1
ডাক্টৰ	1
▁দর্শ	1
problem	1
▁অভিপ্ৰায়	1
▁সংযো	1
যিত	1
etw	1
▁xvideos	1
▁পৃথ	1
্বি	1
▁হোমি	1
▁tha	1
iry	1
্ৰেডিং	1
সংক্ৰান্ত	1
ধানত	1
প্রবন্ধ	1
opy	1
▁Le	1
▁Ren	1
confirmed	1
জত	1
▁প্ৰছ	1
field	1
লিও	1
বুর্	1
ইদ্	1
▁নোহ	1
▁জলপ	1
্লাব	1
CT	1
বন্দ	1
▁মাতা	1
বিভি	1
দল	1
▁ইর	1
ৱু	1
িছ	1
▁সক্র	1
dj	1
vu	1
Vu	1
ML	1
▁চিন্তাবিদ	1
▁ইণ্ড	1
কৰাৰ	1
শ্যনে	1
ংটি	1
IN	1
ভারত	1
কান্ত	1
িৱৰ্তন	1
▁ডক্টৰে	1
▁বৃহস্পতিবা	1
অংগ	1
ক্কৈ	1
খচৰা	1
Ṩ	1
ΐ	1
লক্ষ্	1
▁Wor	1
মনত	1
ধিনিয়ম	1
itha	1
shown	1
ৰ্দান	1
▁মুদ	1
নামৰ	1
trib	1
▁আইপি	1
▁বাঙ	1
সংশোধ	1
Computer	1
▁Operator	1
▁সমকামীচ	1
enon	1
reat	1
▁scien	1
tist	1
▁Henr	1
roblems	1
▁সংসাধ	1
গাখীৰ	1
▁অভিনেতাগৰাকী	1
▁দেউতা	1
দেউতা	1
▁জোৱা	1
▁সন্ধ্য	1
▁সংস	1
জুলি	1
র্বত	1
দ্দি	1
নীতিক	1
িজ্যিক	1
▁ৰাজহ	1
াংগাৰ	1
part	1
software	1
মাংশ	1
পেষ	1
ীবোৰ	1
▁পোষক	1
▁জোখ	1
▁ধপ	1
পনি	1
mp	1
শাৰী	1
▁পৰ্য্যৱেক্ষন	1
তজা	1
▁word	1
ṭō	1
nment	1
ডংগ	1
ৌন	1
ুৱাই	1
জাযায়িৰী	1
আপল	1
▁মাং	1
▁নামস	1
হস্	1
রেণ	1
▁স্তোত	1
মিচ্ছ	1
ংডব	1
ৰ্বত	1
সাংবাদিকতা	1
তীক্ষ্ণ	1
সাংবাদিক	1
ছিল৷	1
দ্ধাৰ	1
নেকি	1
Co	1
ম্যা	1
ক্ৰিয়াকৰণ	1
〘ĴĦ	1
Ţ	1
〙	1
রার	1
চিকিৎসালয়	1
প্লিকে	1
▁দূৰত	1
বু	1
ডুচু	1
▁ভাষ	1
িংচু	1
হোটেল	1
ৰিজ	1
অতিথি	1
▁উণর	1
র়িন্	1
▁ভাৰচুৱেলাই	1
েচন	1
▁Extern	1
IFFCO	1
ড্ৰাইভ	1
াৰ্জ	1
অগ্নি	1
েবেক	1
শিচি	1
▁ফাঁ	1
ুগৰ	1
▁সিপ	1
ুত্ব	1
ছোৱালী	1
পুঁজি	1
▁আৰক্ষণ	1
▁পৰ্যালোচন	1
🚻	1
▁ৰেষ্ট	1
ার্থ	1
ভেৰি	1
ডিম্বাশয়	1
▁ছিষ্ট	1
্ট্রা	1
ইউএচ	1
বিশ	1
oup	1
▁Area	1
ঘণ্টা	1
িত্তি	1
যৈক্	1
aus	1
ুৱী	1
রুৱ	1
ৈক্ক	1
▁blowjob	1
নতম	1
ink	1
hī	1
ōm̐	1
public	1
গাঁৱ	1
চাঁ	1
৴	1
৶	1
৸	1
ৢ	1
মোউ	1
বঢ়াব	1
Free	1
▁বয়ল	1
tis	1
▁কান্	1
নাডা	1
ৰ্তালাপ	1
★℧	1
্যাড	1
িষ্	1
কল্	1
û	1
ঘিমা	1
বেছি	1
flags	1
্ভাব	1
্বত্	1
fi	1
বিৰোধি	1
ুপ	1
িবোৰ	1
িয়াংস	1
▁ভাইক	1
লিয়াম	1
boobs	1
breas	1
ngb	1
গৰ্ভধাৰণ	1
▁গ্রী	1
auc	1
▁সংশ্লেষ	1
⇏Łᕰ	1
CR	1
⇍	1
dio	1
vasc	1
রুল	1
্‍	1
ভিটা	1
▁MN	1
▁যন্ত্ৰক	1
স্ত্ৰী	1
ভয়	1
প্ৰধান	1
▁শিৰ	1
এছএ	1
বেও	1
ঞ্জৰ	1
াবদ্ধ	1
XX	1
▁বিক্ৰি	1
stern	1
▁Af	1
rica	1
▁ভাষাতাত্	1
ত্বিক	1
▁সৰ্বজন	1
কিছু	1
িম্ফো	1
্ৰীষ্টাব্দ	1
্ৰকাশ	1
বৰ্জন	1
ক্সি	1
KR	1
ৱির	1
হুৱ	1
▁প্ৰাধ্যাপ	1
▁৮৫	1
▁পৰীক্ষাৰ্থী	1
▁১৯৭৯	1
্ম	1
ৰ্তী	1
ণ্ণ	1
বিভাগটো	1
▁পুথিভ	1
্কাশ	1
ডব	1
▁ক্ষ	1
্বে	1
বতঃ	1
বোধক	1
▁কাৰ্	1
▁সেক	1
▁১৩৭	1
مي	1
স্বচ্ছতা	1
▁চুষ	1
োনো	1
ির়	1
Gaur	1
ঝ	1
▁বিশৃংখলতা	1
▁চৰিত্ৰক	1
◆	1
ding	1
mport	1
▁পেচ	1
▁কঠোৰ	1
উক্ত	1
ভো	1
লিউম	1
এং	1
স্লংদ্	1
ৱেটা	1
▁পৰিপ্ৰ	1
ক্ষিতত	1
UN	1
DP	1
▁ভাষাসমুহ	1
Tech	1
▁যুদ্ধব	1
লয়ৰ	1
ইনমেন্ট	1
▁১৯৩	1
তাওহীদ	1
▁ধৰন	1
ফাংচ	1
▁এইবোৰে	1
্ৰযুক্তিবিদ্যা	1
বাওক	1
Ac	1
zi	1
▁সন্দৰ্ভ	1
ৰ্বে	1
নিজা	1
▁সম্প্ৰসাৰ	1
নিম	1
nem	1
onic	1
পচন্দ	1
▁স্প্যান	1
ţ	1
▁স্তব্ধ	1
upport	1
রুৰ	1
েদু	1
জনীত	1
▁প্ৰশ্নাৱলী	1
▁she	1
আন্তৰ্	1
ৰিয়েলটো	1
▁ৰেকৰ্	1
নকি	1
জ্জ	1
ংলা	1
▁অবৈ	1
তনিক	1
শ্ৰমিক	1
পুনৰ	1
সংযোগ	1
▁অধ	1
খিত	1
কেন্দ্ৰ	1
বৈদ্যুতিক	1
ডিভিডি	1
জীৱবিজ্ঞানী	1
ৰ্ডাৰ	1
ট্ৰেকিং	1
▁জুউক	1
জাইন	1
nam	1
harma	1
অতো	1
ভ্য়	1
হেমাহি	1
▁প্ৰতিকিলো	1
৬৬	1
মেন্টত	1
দিল	1
▁অন্	1
নিয	1
ুমা	1
ণীখ	1
উদাহৰণস্বৰূপে	1
tanu	1
jee	1
াপি	1
কেন	1
এপ	1
সেউজ	1
▁Dan	1
▁নিযুক্ত	1
▁গুন	1
Pla	1
za	1
▁আক্ব	1
▁হ্যান্ড	1
সদস্যনাম	1
প্ৰধানমন্ত্ৰী	1
ষান	1
৬৯	1
▁অচি	1
১৮০০	1
ইচি	1
▁Astr	1
▁cus	1
ৰিম	1
জেক	1
▁Ind	1
▁ওলাব	1
▁মল্ল	1
যুজ	1
North	1
▁Mal	1
▁Ae	1
ifor	1
nica	1
stel	1
▁জলা	1
▁user	1
▁ঈক্ষণকামীসৈকত	1
recent	1
্ধান	1
▁বাগি	1
▁ভবিষ্য	1
▁প্ৰ্	1
শাসনী	1
▁Tele	1
দিনত	1
▁Fac	1
িণ্ড্র	1
তালিকাৰ	1
ঘটি	1
▁বাটত	1
▁নেথাক	1
্থাৎ	1
জাই	1
পৰাই	1
gal	1
দুৰ্ঘটনাত	1
▁কাকো	1
▁উচ্ছ	1
CLA	1
মুখা	1
▁মৌলি	1
মণে	1
▁সোউ	1
▁নেদ	1
ফি	1
শয়ন	1
myp	1
▁ৰূপায়	1
▁বিশেষজ্ঞসকল	1
▁পাণ্ডুলিপি	1
পৰামৰ্শ	1
নিজৰ	1
▁তাৰিখবোৰ	1
গণি	1
▁আৱৰ্জনা	1
▁মাহেক	1
▁৮০০০	1
বন্ধকত	1
JO	1
পট	1
hidi	1
nding	1
ৰ্দ	1
ৰোম	1
▁ৰিস	1
োৰ্	1
ড়ে	1
ালয়ত	1
▁মাজু	1
▁জোকা	1
▁শৌ	1
ফাতাৱা	1
হাম	1
াৱ	1
হুদ	1
♦	1
আধুনিকতা	1
এনে	1
watchno	1
tana	1
«	1
▁মণ্ড	1
কোউম	1
তিহ	1
্যবাহী	1
fo	1
▁মহোৎস	1
মন্ত্ৰ	1
bar	1
িকি	1
MT	1
ক্সক্স	1
▁ক্লাই	1
গাওঁত	1
সিজ	1
এইচবি	1
oye	1
urc	1
ভনীয়	1
ষ্টম	1
rchi	1
▁নেভিগে	1
▁প্ৰশংস	1
প্ৰেম	1
▁পবিত্	1
ুত্তৰ	1
াদী	1
❦	1
িহু	1
আট	1
only	1
হেঙ	1
▁Inno	1
IG	1
▁উলিয়াইছ	1
বিভক্ত	1
বিশ্বা	1
পাৰ্জন	1
🙂	1
ইনচ	1
▁মেট	1
িৰোধক	1
পৰে	1
▁অস্ত্র	1
োপচাৰ	1
▁Standa	1
ৱিষ্যত	1
▁অনিশ্চয়	1
ট্	1
▁Sea	1
দিশে	1
ামখ	1
▁কেও	1
▁tran	1
ামে	1
▁শ্ৰীনি	1
ৱাস	1
▁নিমিত্তে	1
▁av	1
å	1
ঁচ	1
্ন	1
্থীয়	1
▁পৰিপ্ৰেক্ষ	1
কৰ্ষ	1
chat	1
SL	1
ুঞ্জ	1
▁গোপী	1
্ৰজ	1
▁ৱন	1
