▁	9949
1	8750
)	8050
2	7233
0	6896
▁(	5948
,	5387
5	5013
.	4933
3	4753
4	4716
8	4241
6	4232
7	3728
9	3584
▁the	3384
▁of	3118
s	2856
-	2344
▁and	2215
:	2163
(	2137
▁to	1999
▁in	1607
▁'	1556
ing	1372
_	1280
▁a	1189
'	1134
▁is	1069
▁By	980
▁for	964
▁views	953
ed	939
>	884
▁=	848
▁or	796
▁-	768
▁The	734
',	636
▁on	626
/	623
▁by	595
▁you	546
▁be	525
▁with	489
▁your	479
▁A	479
▁:	476
▁_	465
▁G	460
d	449
▁as	437
y	429
’	392
▁from	381
▁are	378
▁that	370
al	358
▁Kissing	355
▁at	354
▁this	348
e	343
t	339
▁»	337
ly	325
▁Fleshlight	320
▁an	304
▁B	303
▁News	301
?	299
▁not	297
▁will	287
▁C	284
a	281
▁has	281
▁S	279
▁P	275
m	270
▁/	267
▁any	263
▁I	259
▁have	259
▁Latvian	247
▁Assam	246
▁"	240
ic	238
▁India	236
▁Islam	220
▁can	218
▁In	212
▁information	211
▁Thi	211
▁it	210
▁English	206
n	205
▁page	199
▁was	198
▁M	196
...	194
▁Policy	187
▁All	186
"	184
▁we	184
▁other	184
▁policy	181
▁Flasher	179
▁Assamese	178
▁which	174
▁all	173
▁TV	170
▁our	169
▁D	166
▁insurance	165
▁Page	164
▁&	164
er	162
▁also	162
▁under	160
▁Items	160
A	158
es	157
▁us	154
▁T	154
▁Number	151
in	150
▁E	147
▁R	147
▁c	145
▁Mathematics	145
been	144
▁Insurance	144
▁IFFCO	143
h	142
▁$	142
th	141
▁What	140
▁Quiz	138
▁h	136
▁Tricked	135
▁Categories	133
com	131
▁Home	128
▁We	126
▁time	126
▁Indian	126
i	125
]	125
▁videos	124
▁one	124
▁Al	123
▁may	123
onit	122
▁F	121
;	121
▁items	120
▁about	120
▁It	120
▁–	120
▁Guwahati	120
▁claim	116
l	115
▁damage	115
r	115
▁Sora	114
▁etc	113
g	112
%	112
▁insured	111
▁personal	111
▁more	110
rs	110
ion	110
▁if	109
x	109
or	107
༒	107
▁Videos	107
o	106
▁Vixen	106
▁H	105
▁L	105
▁Plus	104
▁use	104
▁year	103
▁Teen	103
able	103
C	102
▁his	101
on	100
▁do	100
▁‘	100
.',	99
National	98
▁up	97
ous	97
▁[	97
▁number	96
V	96
▁K	96
꧂	96
▁For	95
▁Rs	95
▁Articles	94
▁Old	93
▁cover	93
▁Muhammad	93
▁Chubby	93
▁You	92
um	91
S	91
▁into	91
▁p	90
▁such	90
▁e	89
▁꧁	89
▁loss	88
▁If	88
▁Office	88
▁against	88
p	87
▁Science	87
▁Telugu	85
▁new	85
▁One	85
▁accident	85
▁out	85
ml	85
The	84
▁To	83
▁who	83
▁pages	82
!	82
▁O	82
B	82
▁Tokio	82
ollywood	81
▁Day	81
▁No	81
an	81
▁Power	80
▁Of	80
▁their	80
▁Research	79
▁only	78
}}	78
▁than	77
▁Sex	77
ies	77
▁shall	77
▁Man	75
",	75
▁Quran	75
▁un	75
▁Rese	75
▁no	74
▁due	74
▁©	74
▁Information	74
▁Epson	74
old	73
▁its	73
P	73
▁plants	73
▁through	72
▁W	72
▁well	72
▁University	72
▁case	71
c	71
▁Books	71
▁N	71
▁Sci	71
▁Review	70
▁liability	70
▁following	70
ial	70
ta	70
Tech	70
▁vehicle	69
▁covered	68
▁Shelf	68
▁services	68
▁like	68
▁life	68
ation	68
▁+	68
▁used	68
▁General	68
▁online	67
▁but	67
▁Problems	67
▁x	67
▁GUWAHATI	67
▁years	67
▁over	67
▁b	67
▁Language	67
▁About	66
▁More	66
Nakshatr	66
▁Insured	66
▁Up	66
▁December	65
▁subject	65
▁available	65
E	65
▁Us	65
▁covers	65
▁per	64
▁two	64
▁{{	64
▁help	64
▁Knowledge	64
▁V	64
ment	64
▁seeds	64
▁service	63
text	63
▁i	63
▁there	63
▁business	63
▁Section	63
R	62
▁New	62
ity	62
▁Jan	62
▁Mature	62
▁order	62
▁#	62
▁Views	62
▁days	62
overnment	61
ari	61
D	61
mm	61
•	61
▁Non	61
▁world	61
▁An	60
▁Dr	60
est	60
▁J	60
▁On	59
▁translat	59
▁months	59
▁third	58
mail	58
▁Comments	58
▁products	58
▁user	58
M	58
▁KPR	58
▁some	58
W	58
▁Ltd	58
▁Delhi	57
▁And	57
▁he	57
▁Mom	57
▁file	57
▁“	57
Copyright	57
▁Health	57
▁Good	57
le	56
▁t	56
▁free	56
▁Glaze	55
▁death	55
▁after	55
▁Punjab	55
▁man	55
▁Fisting	55
st	55
▁Reviews	55
▁Black	55
▁address	55
▁Panties	54
▁these	54
▁+'	54
X	54
▁Club	54
▁contact	54
▁property	54
ary	54
▁Matters	53
▁day	53
Kes	53
b	53
▁premium	53
▁Interview	53
▁m	53
▁including	53
▁people	53
▁get	53
email	53
▁Raunchy	52
▁Young	52
:$	52
▁Contact	52
nternational	52
f	52
F	52
▁Bin	51
▁Windows	51
▁account	51
+)	51
PLU	51
▁Question	51
▁name	51
▁Physics	51
▁June	51
▁Times	51
▁...	51
▁Facial	51
ther	50
ive	50
▁need	50
▁below	50
RAL	50
▁Medical	50
▁Car	50
▁tubes	50
▁when	50
k	50
▁pay	49
▁Book	49
to	49
▁He	49
▁Biography	49
▁Anal	49
ur	49
▁injury	49
▁Lesbian	49
▁As	49
▁then	49
▁party	48
▁so	48
▁Translation	48
▁Abdul	48
up	48
▁High	48
▁Company	48
▁History	48
▁sex	47
ry	47
▁Pigtail	47
rising	47
▁take	47
▁Select	47
▁health	47
▁where	47
▁Arabic	47
▁first	47
Number	47
▁protected	47
page	47
edit	46
▁period	46
▁person	46
▁make	46
▁age	46
related	46
L	46
▁Asia	46
hould	46
▁Post	46
▁XXX	45
▁Life	45
▁February	45
▁clips	45
▁Packing	45
▁content	45
▁sum	45
▁data	45
▁g	45
▁form	45
▁U	45
▁November	45
▁Re	45
▁Do	45
▁Fro	45
se	45
▁company	44
ya	44
▁Read	44
▁Top	44
▁Suktam	44
▁Allah	44
en	44
▁change	44
▁value	44
▁Hindi	44
it	44
▁re	43
▁right	43
lease	43
▁book	43
▁made	43
▁place	43
no	43
▁District	43
▁Play	43
H	43
▁..	43
▁Asian	42
▁them	42
▁Amateur	42
=	42
I	42
▁Personal	42
▁How	42
▁Psycholog	42
▁Olympiad	42
▁provide	42
▁knowledge	42
▁collect	41
▁mature	41
▁Excavator	41
▁Is	41
▁said	41
▁amount	41
▁Gallery	41
+	41
▁d	41
://	41
▁work	41
▁Co	41
▁edit	41
acific	41
☬	41
▁Hospital	41
▁Yes	41
ha	40
▁Fat	40
▁coverage	40
▁Giant	40
id	40
@	40
▁my	40
ar	40
▁Interviews	40
▁languages	40
one	40
▁Threesome	40
▁during	40
▁same	40
▁next	39
▁many	39
▁most	39
▁Papers	39
co	39
▁bas	39
O	39
▁given	39
▁now	39
▁Any	39
▁Economic	39
▁how	39
▁Affairs	39
▁Math	39
▁vari	39
▁non	39
▁Commission	39
▁range	39
▁$$	39
▁access	39
▁before	38
▁Tube	38
ima	38
You	38
▁mention	38
▁Privacy	38
T	38
▁provided	38
▁teen	38
▁website	38
▁Special	38
▁Online	38
Tokio	38
▁Newsletter	38
▁August	38
▁f	38
▁mathematics	38
▁public	37
▁Keychain	37
shti	37
▁May	37
▁Xiaomi	37
▁Bas	37
▁expenses	37
www	37
▁Loss	37
▁flashing	37
▁Public	37
▁With	37
▁best	37
▁site	37
▁sale	36
▁amateur	36
▁Note	36
°	36
▁every	36
▁open	36
▁old	36
▁care	36
▁Business	36
▁October	36
while	36
as	36
▁Minister	36
▁text	36
▁part	36
▁different	36
▁Computer	36
tog	36
▁high	36
▁between	36
▁list	36
▁Couple	36
▁Free	36
ers	36
ate	35
known	35
▁Fun	35
▁Last	35
▁Issues	35
▁System	35
▁last	35
less	35
▁Fire	35
▁written	35
G	35
ng	35
▁Homemade	35
▁Medal	35
▁language	35
▁Hardness	35
▁Other	35
▁Women	35
search	35
▁legal	35
u	35
age	35
▁me	35
▁test	35
▁what	35
▁Technology	35
▁risk	35
▁*	34
▁medical	34
▁Education	34
▁education	34
▁Author	34
▁Accident	34
▁see	34
▁Email	34
▁Pantyhose	34
▁know	34
▁Sala	34
▁Party	34
▁College	34
▁privacy	34
▁required	34
▁provides	34
▁those	34
AHSEC	34
▁Sum	34
▁would	34
▁Dawah	34
▁without	34
▁product	34
ATE	34
by	34
▁There	34
▁web	34
▁Ni	33
▁Damage	33
▁Belief	33
▁Money	33
▁So	33
▁Sucking	33
bn	33
▁Hairy	33
▁basis	33
▁Girl	33
”	33
▁Posts	33
▁here	33
▁Recent	33
▁China	33
▁Show	33
▁British	33
▁anal	33
▁water	33
▁X	33
▁Model	33
▁Previous	33
▁Limited	33
▁Babe	32
▁gay	32
at	32
▁total	32
▁post	32
▁details	32
Your	32
un	32
ce	32
mg	32
ardeners	32
▁Tight	32
▁set	32
▁error	32
v	32
▁claims	32
▁July	32
z	32
▁group	32
▁date	32
▁__	32
▁Rulings	32
▁Department	32
▁process	32
▁create	32
▁At	32
▁protection	31
▁Country	31
▁treatment	31
▁Account	31
shing	31
title	31
▁section	31
▁country	31
▁Part	31
▁had	31
irac	31
▁ICTP	31
▁Quest	31
▁send	31
▁Rights	31
▁Download	31
▁Xmas	31
must	31
N	31
Thi	31
K	31
▁does	31
▁her	31
▁war	31
dhi	30
▁daily	30
▁Group	30
Z	30
▁password	30
▁Bengali	30
▁each	30
▁result	30
▁Careers	30
▁de	30
▁click	30
*	30
▁oldguy	30
▁September	30
▁Family	30
nd	30
▁request	30
▁Motor	30
▁Isuzu	30
▁experience	30
▁However	30
▁power	30
▁important	30
▁were	30
▁translation	30
▁School	30
imus	30
▁Web	30
▁along	30
▁January	30
▁NTM	30
▁°	30
▁Police	30
na	29
▁NKC	29
▁—	29
ermanen	29
▁limit	29
▁INDIA	29
▁few	29
▁state	29
▁Prophet	29
▁Muslim	29
▁Ali	29
▁financ	29
▁Your	29
▁just	29
▁awarded	29
▁xxx	29
▁Ne	29
▁because	29
▁Awards	29
dditional	29
▁look	29
▁title	29
▁Muscled	29
▁issue	29
▁States	29
▁War	29
▁Voyeur	29
▁My	29
▁Hypothes	29
YW	29
▁way	29
▁March	29
tooltip	28
▁changes	28
ized	28
▁Sata	28
▁week	28
▁cost	28
▁Vari	28
▁type	28
▁Sh	28
▁give	28
out	28
▁State	28
▁Centre	28
ty	28
os	28
▁Kannada	28
▁ISUZU	28
▁Gay	28
ptitude	28
▁HQ	28
▁Protector	28
▁Kumar	28
▁Mr	28
▁held	28
▁Gorgeous	28
▁kind	28
delete	28
▁Me	28
▁Snatch	28
▁above	28
round	28
▁own	28
▁USA	28
tic	28
▁Fingo	28
▁Statistics	28
OOD	28
&	28
Section	28
atch	28
ent	28
▁market	28
▁special	28
▁development	28
▁Bubble	28
▁Sri	27
▁maxim	27
▁Nama	27
vali	27
▁develop	27
▁r	27
▁Under	27
▁Open	27
▁Claim	27
▁want	27
▁family	27
▁Prof	27
▁NET	27
▁team	27
▁understand	27
▁message	27
▁Material	27
▁terms	27
▁Downloads	27
▁specific	27
▁design	27
▁already	27
▁fire	27
▁long	27
▁home	27
▁ma	27
▁Trad	27
▁working	27
▁Facts	27
▁Engineering	27
▁"$	27
OLL	27
▁permission	27
▁Di	27
ness	27
▁Liability	27
us	27
▁present	27
▁Type	27
yar	26
▁Website	26
▁Asht	26
ttara	26
▁Czech	26
▁Dominatrix	26
▁Act	26
ING	26
▁Live	26
▁Z	26
▁both	26
▁Sciences	26
▁go	26
▁Movie	26
▁Others	26
▁Form	26
▁problem	26
▁Can	26
▁Lifeguard	26
▁needs	26
▁April	26
▁Individual	26
il	26
▁Fiction	26
▁Prize	26
▁Wife	26
func	26
▁Vik	26
▁Cartoons	26
▁Archives	26
▁benefit	26
▁email	26
ah	26
▁HD	26
▁Development	26
▁protect	26
▁IP	26
▁risks	26
▁Society	26
▁basic	26
▁Seal	26
▁Economics	26
▁Products	26
▁call	26
▁science	26
▁travel	26
$$	26
▁location	26
Chief	26
Y	25
▁Spy	25
▁self	25
Visitors	25
▁strength	25
▁whe	25
▁support	25
▁Paper	25
el	25
time	25
▁Wet	25
▁Terms	25
▁Etiquette	25
▁Ultra	25
onic	25
▁Vibrator	25
tion	25
▁school	25
▁Accord	25
is	25
▁Sign	25
▁media	25
▁God	25
▁specified	25
▁exist	25
▁al	25
▁found	25
▁please	25
▁Close	25
▁Couch	25
▁Tubes	25
pur	25
▁Mission	25
▁others	25
▁quality	25
ch	25
▁ME	25
▁office	25
ti	25
View	25
▁Trade	25
▁Category	25
▁Dili	25
▁Xophura	25
▁@	25
▁Here	25
▁Saikia	25
kaur	25
▁articles	25
▁Sleeping	25
▁Govt	25
▁Food	25
}	25
▁questions	25
▁~	25
×	25
▁NM	25
▁Doctor	24
▁White	24
▁local	24
▁shows	24
▁Time	24
▁Bible	24
▁Barkotoki	24
very	24
▁Name	24
▁Ramanujan	24
te	24
ul	24
▁World	24
tical	24
▁Third	24
▁Hot	24
▁Poems	24
▁Limousine	24
▁k	24
▁nucle	24
▁posts	24
Special	24
ts	24
▁could	24
▁ID	24
▁system	24
man	24
▁SET	24
▁Cognition	24
▁payment	24
Super	24
▁physic	24
▁Glamour	24
▁Follow	24
category	24
▁making	24
€	24
_$	24
▁Kati	23
▁lead	23
▁Month	23
▁Ma	23
re	23
▁Sexy	23
▁says	23
▁become	23
▁car	23
ft	23
▁Child	23
▁Hajj	23
▁Busty	23
▁Experience	23
▁Service	23
SP	23
▁wide	23
▁Skirt	23
▁Claims	23
▁four	23
▁training	23
▁size	23
cm	23
▁settlement	23
ious	23
▁Ponytail	23
▁films	23
▁premises	23
▁Cute	23
▁Qa	23
á	23
▁big	23
▁Channel	23
▁area	23
▁Video	23
the	23
▁Webcam	23
▁Chunky	23
▁hand	23
Unite	23
▁Phone	23
▁question	23
▁Beautiful	23
rev	23
▁settings	23
▁Workshop	23
▁Mille	23
nium	23
gs	23
▁US	23
NAME	23
▁Civil	23
▁Transformation	23
▁'{{	23
▁database	23
cross	23
▁Slave	23
▁Dev	23
▁law	23
▁Oral	23
J	23
▁back	23
▁act	23
▁Private	23
▁Bondage	23
▁-'	23
▁Site	23
▁Aadhaar	23
▁civil	23
▁Tech	23
▁dis	22
▁girl	22
▁video	22
ia	22
▁Fitness	22
right	22
▁Entertainment	22
▁young	22
▁Japanese	22
▁purpose	22
▁created	22
▁German	22
▁Culture	22
▁start	22
▁Manj	22
my	22
tch	22
▁less	22
₦	22
▁update	22
ter	22
▁link	22
abha	22
▁reports	22
ful	22
▁Rachamalla	22
▁Mathematic	22
▁another	22
▁includes	22
▁Machine	22
▁Biology	22
▁history	22
▁Older	22
xxx	22
▁disease	22
▁America	22
▁"'''	22
▁sell	22
▁PC	22
▁large	22
▁Galway	22
▁Pvt	22
▁record	22
▁movies	22
▁good	22
▁Masturbating	22
▁Death	22
▁Infographic	22
▁Honours	22
error	22
SITE	22
▁conditions	22
name	22
▁talk	22
▁Mar	22
▁members	22
▁Likes	22
▁rights	22
▁Fiqh	22
▁industry	22
▁paper	22
▁Gagging	22
▁Toys	22
▁event	21
▁hospital	21
prefs	21
▁hours	21
▁Support	21
▁version	21
▁Muni	21
▁Award	21
▁mom	21
▁AbdulRaoof	21
▁black	21
▁Who	21
▁general	21
▁Prayer	21
▁Cru	21
▁means	21
▁technology	21
▁Tri	21
U	21
▁reason	21
▁Music	21
afa	21
▁contents	21
▁particular	21
▁among	21
▁Screaming	21
not	21
▁police	21
▁material	21
am	21
ericulture	21
▁Bikini	21
▁Con	21
▁example	21
▁Secretary	21
▁Girlfriend	21
▁enter	21
▁application	21
▁meet	21
▁Sha	21
▁Shaving	21
anit	21
▁Bikash	21
▁Medicine	21
▁month	21
▁Xxx	21
▁applicable	21
▁complete	21
▁illness	21
▁After	21
▁Hardcore	21
PC	21
▁designed	21
▁caused	21
▁offer	21
ca	21
▁Pur	21
[	21
ve	21
▁Get	21
▁options	21
▁category	21
▁body	21
▁Per	21
cannot	21
▁Classic	21
▁Go	21
▁cookie	21
licious	20
▁LTD	20
▁writing	20
▁money	20
▁v	20
▁cru	20
▁plant	20
▁come	20
file	20
▁Him	20
▁Institute	20
▁grow	20
▁network	20
▁ensure	20
▁read	20
▁Milk	20
listed	20
▁List	20
https	20
▁Size	20
▁Critic	20
▁Italy	20
▁device	20
▁security	20
expr	20
▁apply	20
▁via	20
▁Afar	20
▁Guide	20
ool	20
▁Congress	20
▁receive	20
▁equipment	20
▁Travel	20
▁Educational	20
▁Squirt	20
▁Check	20
▁projects	20
▁notice	20
▁tech	20
TV	20
▁Ch	20
▁TOKIO	20
ie	20
▁operations	20
named	20
▁customer	20
▁policies	20
▁Linkages	20
꙰	20
▁Body	20
▁Social	20
▁Sa	20
▁providers	20
▁Click	20
▁Oil	20
upon	20
▁math	20
▁See	20
▁government	20
Tut	20
▁students	20
going	19
▁agent	19
▁main	19
▁code	19
▁road	19
▁woman	19
▁Standard	19
▁Update	19
▁Handbag	19
▁Lakshmi	19
ach	19
▁pantyhose	19
▁PVT	19
▁Story	19
▁Hotel	19
▁DB	19
▁co	19
action	19
move	19
▁payable	19
▁Be	19
▁panties	19
▁Nylon	19
II	19
▁interview	19
ual	19
▁Clu	19
▁Two	19
if	19
▁Toon	19
▁room	19
▁Tiny	19
▁jerking	19
▁computer	19
▁j	19
▁Value	19
▁announce	19
▁prestig	19
▁Audition	19
other	19
▁food	19
▁full	19
▁she	19
▁Learn	19
▁Shake	19
▁block	19
▁child	19
tails	19
▁Or	19
▁wiki	19
w	19
▁directly	19
▁species	19
for	19
▁search	19
▁Expenses	19
▁three	19
▁problems	19
▁Friday	19
▁Nu	19
▁President	19
▁offers	19
▁books	19
▁Game	19
▁Gloryhole	19
▁department	19
༻	19
▁MediaWiki	19
▁users	19
▁Big	19
▁De	19
▁since	19
▁benefits	19
▁tub	19
▁FC	19
▁Internet	19
▁respect	19
▁HC	19
English	19
▁Professor	19
▁Latest	19
▁words	18
watchlist	18
▁contains	18
▁Bizhub	18
▁Rules	18
▁comprehensive	18
▁teaching	18
group	18
▁allowed	18
▁hospitalisation	18
▁Design	18
▁Make	18
▁Un	18
▁Pretty	18
▁Figures	18
▁too	18
▁short	18
▁:-	18
'''	18
▁Freak	18
▁চ	18
▁japanese	18
list	18
▁share	18
▁Wild	18
▁Metal	18
logged	18
▁Team	18
▁Abdu	18
▁Theore	18
▁Padma	18
▁Centerfold	18
▁Next	18
▁face	18
▁region	18
ist	18
▁Das	18
▁perils	18
currently	18
▁Bill	18
▁wish	18
ma	18
▁past	18
▁news	18
minor	18
▁edits	18
Xxx	18
Search	18
▁machine	18
▁activities	18
▁Sofa	18
▁study	18
▁paid	18
▁Cock	18
ance	18
▁Boss	18
▁phone	18
When	18
▁Butt	18
ium	18
▁much	18
▁Set	18
▁consider	18
▁Invalid	18
protected	18
▁further	18
▁member	18
wards	18
▁Search	18
anta	18
▁bank	18
▁Sweet	18
\	18
▁ml	18
▁parties	18
▁countries	18
▁browser	18
▁Generator	18
▁published	18
▁valid	18
▁Work	18
▁small	18
▁immediately	18
▁Dynam	18
▁Raman	18
▁Groupsex	18
▁skill	18
like	18
▁accept	18
▁Director	18
▁bodi	18
▁strike	18
▁employment	18
▁{	18
▁Naughty	17
AP	17
▁Media	17
▁schedule	17
▁Swapping	17
▁ago	17
ə	17
▁price	17
▁Roll	17
▁research	17
▁received	17
▁require	17
onotheism	17
▁Fashion	17
new	17
▁Total	17
▁Photo	17
▁mathematic	17
ৰা	17
▁Academy	17
ism	17
▁learning	17
▁Sections	17
▁http	17
ɑ	17
▁common	17
▁music	17
▁files	17
▁key	17
▁Singh	17
▁cookies	17
reason	17
▁House	17
iya	17
▁charges	17
▁visit	17
org	17
▁national	17
url	17
▁Microsoft	17
▁materials	17
▁Whi	17
'$	17
▁Ubuntu	17
▁registered	17
▁Beach	17
▁Off	17
hole	17
kg	17
arga	17
me	17
▁Gau	17
lah	17
▁Su	17
▁article	17
▁end	17
▁major	17
▁PCOS	17
▁decide	17
In	17
▁Head	17
▁links	17
▁control	17
˞	17
▁motor	17
▁Beauty	17
▁worship	17
▁French	17
▁find	17
▁Prime	17
▁losses	17
▁Thursday	17
▁Missionary	17
]]	17
▁interest	17
▁Ethics	17
▁Art	16
si	16
▁Feb	16
onica	16
inolta	16
▁disablement	16
▁try	16
▁entire	16
▁management	16
ily	16
▁annual	16
▁diseases	16
▁great	16
▁Tease	16
▁Skinny	16
▁pronunciation	16
▁Bank	16
▁role	16
taking	16
▁Some	16
HQ	16
▁Kinky	16
My	16
▁am	16
▁even	16
▁jacuzzi	16
jan	16
este	16
▁announcement	16
▁Charles	16
▁Bennet	16
▁Shiny	16
▁Message	16
▁lakh	16
▁employees	16
▁companies	16
▁trade	16
▁Fasting	16
▁Reserved	16
▁press	16
▁North	16
rdy	16
▁Sale	16
▁Sarma	16
▁Cheating	16
▁return	16
hood	16
ak	16
ted	16
▁district	16
son	16
ikh	16
▁Puking	16
▁Sam	16
ksha	16
▁en	16
ulb	16
ani	16
▁Sunday	16
▁Blonde	16
▁requirements	16
▁Keypad	16
▁Pressure	16
kw	16
▁Sep	16
▁Saturday	16
▁collection	16
▁step	16
▁soon	16
▁include	16
▁continue	16
▁him	16
▁Angel	16
▁Drunk	16
▁check	16
▁Coverage	16
▁Plant	16
▁Order	16
image	16
▁l	16
ull	16
▁feel	16
."	16
▁Face	16
▁promote	16
User	16
▁bring	16
▁involved	16
▁Industrial	16
▁unique	16
▁Gaeilge	16
▁levels	16
▁IslamHouse	16
▁Facesitting	16
ad	16
▁Tattoo	16
▁flood	16
▁real	16
▁Perils	16
₹	16
▁Mi	16
▁Questions	16
▁expert	16
LASH	16
▁Mini	16
▁riot	16
▁Bus	16
▁Erotic	15
▁Editor	15
▁Library	15
▁show	15
▁Faith	15
▁Nara	15
sim	15
▁children	15
ting	15
▁Digital	15
▁Frames	15
▁mobile	15
Hide	15
▁hairy	15
▁Li	15
▁human	15
▁project	15
Show	15
▁mis	15
use	15
▁PDF	15
nantha	15
ন	15
▁গণিত	15
▁won	15
▁contract	15
▁Maha	15
▁hospitalization	15
▁private	15
ICTP	15
lists	15
IBM	15
▁Wats	15
▁w	15
Express	15
▁button	15
There	15
help	15
ace	15
▁Dec	15
▁MB	15
▁Hole	15
rief	15
▁better	15
▁Through	15
▁close	15
▁Amazing	15
▁Films	15
▁'''	15
hide	15
▁Vampire	15
▁Ministry	15
▁direct	15
▁plan	15
▁simple	15
▁Deep	15
kW	15
▁Strip	15
▁wife	15
▁earlier	15
▁TPA	15
▁provid	15
▁Mobile	15
▁virtue	15
▁Feedback	15
▁supply	15
▁PM	15
Related	15
▁Blindfolded	15
▁Stand	15
view	15
escription	15
▁Union	15
▁Si	15
▁Sniffing	15
▁box	15
▁xHamster	15
ian	15
▁TX	15
▁costs	15
▁Popular	15
party	15
▁Wednesday	15
▁NT	15
Go	15
▁Not	15
▁OF	15
▁Tamil	15
▁purposes	15
▁Extreme	15
▁Classy	15
▁AutoCAD	15
▁characters	15
▁ML	15
▁Content	15
▁Church	15
ir	15
▁fund	15
▁sign	15
▁Wrestling	15
▁done	15
▁Dutch	15
–	15
till	15
see	15
▁Kit	15
▁types	15
▁hard	15
ions	15
▁But	15
▁Nude	15
▁Mile	15
hati	15
▁teacher	15
▁≤	15
▁categories	15
▁Babysitter	15
▁degree	15
▁vehicles	15
▁regarding	15
▁female	15
▁inter	15
Sc	15
linked	15
▁Army	15
▁image	14
▁watchlist	14
▁Raj	14
▁Areas	14
▁minim	14
▁GAURAVZONE	14
▁Norwegian	14
▁Parts	14
▁pre	14
▁GLAZE	14
β	14
▁Sunnah	14
contributions	14
▁Fondling	14
curred	14
▁Virtue	14
▁Christmas	14
user	14
password	14
ew	14
▁Sabha	14
স	14
▁Now	14
▁model	14
▁contributions	14
ities	14
~	14
▁Euro	14
▁Twink	14
ex	14
▁bag	14
▁Slovakia	14
▁top	14
▁Ghetto	14
▁Cougar	14
line	14
▁story	14
▁Scooter	14
▁increasing	14
▁mind	14
▁Electric	14
▁Most	14
j	14
▁Silk	14
▁nature	14
▁<	14
form	14
int	14
▁store	14
▁Lick	14
▁renewal	14
▁websites	14
▁Cre	14
▁beach	14
▁plans	14
▁committ	14
▁possible	14
▁house	14
▁scheme	14
▁necessary	14
▁Portal	14
▁popular	14
▁Choking	14
AS	14
▁Chinese	14
▁Wh	14
▁Google	14
▁level	14
de	14
▁Ex	14
▁::	14
▁South	14
▁Teacher	14
referred	14
▁answer	14
▁Pre	14
vid	14
▁certain	14
MY	14
▁African	14
ata	14
▁Tags	14
▁represent	14
▁note	14
▁documents	14
▁defloration	14
▁editing	14
▁prevent	14
▁Le	14
▁failure	14
▁Ho	14
▁features	14
▁Treatment	14
▁might	14
▁skills	14
ification	14
▁Strength	14
▁Hungarian	14
▁Ti	14
▁society	14
▁First	14
▁Aged	14
▁Care	14
▁Sir	14
▁Berne	14
RA	14
▁trust	14
▁RECTV	14
▁job	14
end	14
▁Twitter	14
fully	14
▁Class	14
upload	14
▁Bharti	14
▁natural	14
ization	14
ropagat	14
▁Rabwah	14
▁Super	14
▁social	14
show	14
▁Tor	14
▁Problem	14
▁Workout	14
▁Condom	14
▁HR	14
ors	14
▁Nalbari	14
Ḽ	14
▁buy	13
KW	13
ocus	13
Edit	13
▁Heat	13
▁Four	13
▁Ko	13
▁Share	13
▁eyes	13
ingle	13
fixed	13
ory	13
▁accord	13
sp	13
▁award	13
la	13
▁times	13
▁Parody	13
▁Ki	13
ni	13
▁Heart	13
dge	13
▁Ibrahim	13
▁clear	13
▁Nasty	13
▁com	13
▁join	13
▁together	13
▁MP	13
▁results	13
▁down	13
▁con	13
▁sub	13
▁assist	13
▁Print	13
▁easy	13
▁course	13
▁able	13
▁Botanix	13
▁except	13
▁percent	13
▁Security	13
▁exceed	13
▁Illness	13
▁learn	13
link	13
wamy	13
▁Granny	13
▁Law	13
▁relat	13
ishvas	13
▁keep	13
▁Writer	13
html	13
ID	13
ond	13
go	13
▁Cotton	13
▁damaged	13
▁kissing	13
▁field	13
liable	13
▁damages	13
▁parts	13
▁Unit	13
▁recent	13
▁Center	13
▁Short	13
▁Funny	13
▁suit	13
ip	13
▁fresh	13
᭄	13
▁mother	13
Kurdish	13
▁Water	13
▁keypad	13
▁Call	13
▁Toll	13
▁line	13
▁Create	13
▁charge	13
▁Har	13
▁BO	13
▁Slim	13
▁subtotal	13
history	13
▁Point	13
࿇	13
▁Abu	13
▁off	13
▁Self	13
▁Court	13
▁Hair	13
▁\"	13
talk	13
▁liabilities	13
▁Mechanic	13
▁Mo	13
next	13
▁explosion	13
▁Price	13
▁Da	13
▁Malayalam	13
▁Gujarati	13
▁hidden	13
▁Dating	13
vi	13
༺	13
▁seek	13
▁selected	13
▁Rate	13
protect	13
▁}}	13
▁Students	13
▁guide	13
▁organization	13
±	13
▁Find	13
▁did	13
eed	13
▁Study	13
▁higher	13
▁Jyoti	13
▁Kalita	13
▁Every	13
▁Worship	13
▁leas	13
Lee	13
▁Events	13
▁career	13
▁Feet	13
▁comments	13
Å	13
▁connection	13
▁building	13
▁sector	13
▁added	13
▁[[	13
▁Perfect	13
▁Certificate	13
▁earthquake	13
▁Foreplay	13
▁Bha	13
min	13
▁preview	13
▁Association	13
▁declar	13
recentchanges	13
▁Crazies	13
▁Exhibitionists	13
▁Date	13
light	13
▁Best	13
▁today	13
="	13
▁original	13
▁Ash	13
▁Help	13
▁persons	13
▁initiative	13
͙	13
▁commercial	13
▁toys	13
MM	13
▁Lezdom	12
▁transfer	12
▁caught	12
▁audio	12
▁Ad	12
▁Muslims	12
▁employee	12
▁VirtualBox	12
▁action	12
▁requested	12
▁primar	12
▁Trust	12
witch	12
▁explain	12
▁celebrat	12
▁VAANI	12
rg	12
version	12
▁Pro	12
▁condition	12
An	12
Category	12
▁vision	12
ī	12
▁exists	12
▁Disc	12
▁Porn	12
▁Abhinav	12
⁣	12
₳	12
▁capacity	12
▁insurer	12
▁Swas	12
▁scientific	12
▁facility	12
▁five	12
▁Piercing	12
ector	12
king	12
porn	12
▁Test	12
▁Alex	12
▁Allie	12
▁growth	12
▁Place	12
▁Origin	12
▁left	12
▁City	12
▁Bonus	12
▁NCB	12
▁minister	12
▁Straight	12
▁thing	12
▁Orgy	12
▁Japan	12
▁compensation	12
Months	12
▁fact	12
Block	12
ba	12
wiki	12
▁Building	12
▁American	12
bies	12
▁actual	12
▁Armpit	12
ior	12
▁Zubeen	12
rill	12
ever	12
▁offered	12
▁incident	12
▁vagina	12
▁deleted	12
▁Submissive	12
▁Scheme	12
▁EUR	12
▁Road	12
▁current	12
▁Ebony	12
▁safe	12
▁Human	12
▁Spanish	12
▁Ac	12
▁COVID	12
DY	12
▁Product	12
ɪ	12
▁default	12
▁source	12
▁Over	12
ctn	12
▁Start	12
▁believe	12
▁IT	12
▁laws	12
▁add	12
▁software	12
▁SILKS	12
clear	12
Muslims	12
▁toleran	12
▁App	12
▁Control	12
▁hq	12
▁excavator	12
ge	12
ass	12
ina	12
▁Publish	12
▁Crop	12
`	12
ical	12
stan	12
No	12
aṃ	12
▁beauty	12
▁similar	12
▁Annual	12
ably	12
▁write	12
▁mathematician	12
▁rele	12
vant	12
Us	12
length	12
een	12
▁Posing	12
▁disk	12
▁Vintage	12
▁kg	12
ments	12
▁Doo	12
sex	12
▁EP	12
▁Doll	12
▁acts	12
▁Burglary	12
▁AC	12
▁Ethnic	12
▁YOU	12
▁ei	12
▁Mirror	12
▁sister	12
▁removed	12
▁Locate	12
▁Banging	12
▁goals	12
▁Facebook	12
▁fasting	12
▁Committee	12
▁Y	12
ure	12
{	12
▁practice	12
ṃ	12
▁Lecturer	12
▁series	12
▁report	12
▁Premium	12
▁mark	12
▁discover	12
▁Mathletics	12
▁Members	12
▁insurers	12
ra	12
▁love	12
▁download	12
▁six	12
▁crore	12
▁log	12
▁statement	12
▁Bunny	12
▁worth	12
yan	12
▁root	12
▁authority	12
▁Salih	12
▁Feature	12
▁Citizenship	12
care	12
createacc	12
▁Tall	12
▁ways	12
▁Languages	12
▁areas	12
▁Nature	12
ns	12
▁oil	12
ton	12
▁constitute	12
▁practices	12
▁Become	12
▁attempt	12
▁operation	12
▁Legal	11
year	11
▁student	11
▁Umra	11
▁TRAD	11
n̪d̪	11
▁interests	11
▁gap	11
▁window	11
ening	11
▁episode	11
▁IRDA	11
▁fees	11
ding	11
āya	11
▁foreign	11
xplanation	11
▁Lawful	11
▁Hunter	11
▁auto	11
▁Boy	11
ঔৣ	11
▁describe	11
▁invalid	11
▁Cowgirl	11
▁external	11
ating	11
▁outside	11
▁USD	11
ł	11
▁delivery	11
▁Eas	11
▁temporary	11
▁sections	11
▁Market	11
▁Monday	11
▁MIUI	11
▁women	11
,"	11
▁opportunit	11
▁mail	11
▁filmmaker	11
▁East	11
▁Gaping	11
▁Data	11
▁Cash	11
ole	11
aka	11
▁moved	11
ence	11
▁Bathing	11
▁responsib	11
▁otherwise	11
▁display	11
▁Use	11
▁Tape	11
▁multi	11
▁Ya	11
Central	11
nt	11
▁Satin	11
andi	11
▁Meghalaya	11
Rahman	11
dvice	11
$	11
Hd	11
▁works	11
feed	11
▁View	11
▁final	11
▁Engineer	11
▁Ahmad	11
▁construction	11
▁CM	11
▁Christ	11
house	11
log	11
▁Com	11
▁His	11
▁cases	11
▁≥	11
▁navigation	11
▁Wide	11
▁tab	11
▁Panty	11
▁Compilation	11
▁WE	11
".	11
▁Festival	11
▁Success	11
▁publish	11
▁voyeur	11
▁Pregnant	11
▁turn	11
ok	11
▁stories	11
▁`	11
▁critical	11
▁Cover	11
▁second	11
▁generated	11
cant	11
é	11
▁indemni	11
All	11
▁electrical	11
▁Foundation	11
▁trees	11
hyam	11
yo	11
▁Gogoi	11
▁Ram	11
Error	11
ā	11
▁choose	11
ather	11
▁generate	11
wah	11
▁ask	11
▁Oriya	11
▁Kyr	11
et	11
▁lesbian	11
▁Movies	11
are	11
iv	11
▁normal	11
display	11
▁tools	11
▁II	11
Move	11
ED	11
▁Sport	11
ana	11
▁Scoo	11
ud	11
▁partners	11
▁path	11
▁th	11
▁quote	11
▁kidney	11
▁Join	11
IN	11
▁practical	11
day	11
CM	11
▁Low	11
▁Bora	11
signed	11
▁hold	11
FT	11
▁let	11
▁issues	11
ble	11
▁Hadiths	11
▁film	11
▁Are	11
▁pro	11
▁vi	11
▁economy	11
hi	11
struction	11
▁Pump	11
▁Don	11
▁discussion	11
▁point	11
▁Creed	11
▁Europe	11
▁Nudist	11
▁Skype	11
▁Kidneyin	11
▁tense	11
▁Enter	11
▁map	11
▁Balls	11
▁enable	11
▁discount	11
▁Cleavage	11
▁perform	11
deleted	11
▁potential	11
mon	11
▁consequent	11
ending	11
File	11
▁view	11
Munajjid	11
▁print	11
▁Plate	11
▁Reader	11
▁revision	11
▁contractor	11
▁Brutal	11
▁identified	11
▁resources	11
▁Auto	11
▁movie	11
▁Emo	11
▁menu	11
unknown	11
▁File	11
▁Rough	11
▁Double	11
rave	11
liss	11
▁Abhi	11
▁cyclone	11
▁landslide	11
reach	11
▁pressure	11
▁cancellation	11
▁Suvidha	11
▁Sarba	11
▁focus	11
▁concept	11
▁processing	11
▁sent	11
’.	11
▁Kits	11
▁cultural	11
▁associate	11
▁invasion	11
▁Android	11
▁prophet	11
▁Will	10
▁Dildo	10
▁Dey	10
▁bus	10
▁FAQ	10
▁Framework	10
▁duration	10
haracteristics	10
▁Housewife	10
ʊ	10
ʌɾ	10
▁systems	10
bit	10
▁importance	10
▁solving	10
▁allow	10
▁Style	10
▁far	10
▁Kids	10
▁weeks	10
ish	10
▁opportunity	10
▁Speed	10
key	10
▁credit	10
▁Pillars	10
tha	10
ৰ	10
▁Moore	10
▁led	10
▁Today	10
▁standard	10
arriage	10
▁Machinery	10
▁Boiler	10
▁Melons	10
▁entitled	10
𓆩	10
𓆪	10
ci	10
▁NQ	10
▁se	10
aksha	10
Amendment	10
▁Constitution	10
▁cashless	10
▁card	10
▁Growth	10
▁app	10
▁da	10
▁Gold	10
free	10
▁away	10
▁Patent	10
▁cuckold	10
default	10
▁Coed	10
news	10
▁domestic	10
▁Tur	10
LC	10
Ltd	10
▁ac	10
▁Northeast	10
▁Biswa	10
▁DOC	10
▁Protection	10
▁Property	10
Fawzaan	10
▁Major	10
ollution	10
oz	10
▁refu	10
flix	10
▁Mediclaim	10
same	10
)="	10
▁contain	10
▁cause	10
▁Oiled	10
.'''	10
▁term	10
▁yourself	10
▁night	10
nterface	10
▁operat	10
create	10
◤	10
header	10
tv	10
▁Whip	10
▁Garg	10
▁Cy	10
▁put	10
▁unfor	10
eseen	10
▁Types	10
▁moral	10
▁started	10
▁Film	10
▁digit	10
▁sever	10
▁Coronavirus	10
▁Hand	10
code	10
▁fisting	10
▁strong	10
▁drink	10
▁Dept	10
▁Grandpa	10
ø	10
▁changed	10
▁Thank	10
ositive	10
submit	10
▁Min	10
Create	10
▁Bedroom	10
▁Street	10
▁Latex	10
ro	10
▁European	10
▁Bir	10
▁homemade	10
▁asian	10
▁Application	10
▁hotel	10
▁Mumbai	10
▁Location	10
ita	10
ified	10
TM	10
▁Canva	10
▁successfully	10
ant	10
▁appro	10
pri	10
▁Song	10
▁Korean	10
▁Love	10
▁Hottest	10
▁Babes	10
asha	10
aziranga	10
▁Islamhouse	10
▁sen	10
▁Pickups	10
yz	10
▁Uni	10
▁born	10
▁chief	10
▁effect	10
ε	10
▁Buy	10
▁Celebrity	10
▁Info	10
▁Venkata	10
▁Krishna	10
▁solutions	10
▁centres	10
▁sharing	10
▁conduct	10
ave	10
pt	10
▁injuries	10
watch	10
▁Tuber	10
▁prices	10
▁iP	10
^	10
▁brother	10
ify	10
▁Gu	10
▁Great	10
▁capital	10
▁Fetish	10
▁hospitals	10
▁Men	10
▁Letter	10
yer	10
▁prepare	10
▁Career	10
▁Hell	10
▁air	10
▁fields	10
▁Sur	10
▁class	10
creation	10
▁blog	10
▁fam	10
▁correct	10
bus	10
▁inform	10
info	10
▁Prison	10
Do	10
fa	10
▁IIT	10
▁meeting	10
▁events	10
☠︎	10
₭	10
▁Natural	10
cha	10
▁Main	10
▁tough	10
▁exam	10
▁Log	10
▁remain	10
▁points	10
ll	10
▁Juggs	10
with	10
▁Displacement	10
▁Code	10
dential	10
▁Corrupt	10
▁contribute	10
and	10
▁Armenian	10
▁Axom	10
ej	10
▁Change	10
ika	10
▁tits	10
▁doctor	10
▁anti	10
▁Oct	10
full	10
▁extra	10
▁option	10
ay	10
pussy	10
▁Argentinian	10
▁id	10
sh	10
all	10
▁affect	10
¥	10
▁Na	10
▁Answer	10
▁renew	10
▁male	10
ung	10
ᴀ	10
▁courses	10
▁Par	10
#	10
▁accepted	10
꧁	10
your	10
▁handl	10
▁sources	10
▁Festivals	10
▁Plan	10
usha	10
▁lot	10
▁IDV	10
▁authorities	10
▁Age	9
▁bathroom	9
Governance	9
▁Press	9
▁Garlic	9
Teen	9
—	9
▁Action	9
▁metal	9
▁dependent	9
▁granny	9
▁again	9
▁Yojna	9
▁package	9
ES	9
including	9
project	9
▁Khabar	9
▁Dam	9
▁orders	9
▁Honor	9
▁Knowl	9
▁happen	9
▁Adorable	9
▁Maid	9
▁translators	9
▁pe	9
metadata	9
ۣۜ	9
short	9
▁achiev	9
oor	9
▁Master	9
▁rate	9
▁sales	9
▁Q	9
▁defects	9
▁procedure	9
▁tabs	9
uja	9
▁Bhargava	9
ু	9
▁এ	9
া	9
▁double	9
▁positive	9
▁located	9
▁journal	9
▁Bharat	9
box	9
▁avail	9
▁Seed	9
▁dildo	9
twenty	9
▁Dai	9
▁Savera	9
mes	9
▁That	9
mobile	9
▁Amit	9
▁Puneet	9
▁occurrence	9
▁Socks	9
▁move	9
▁FOR	9
▁Forum	9
▁novel	9
▁Long	9
ally	9
▁glass	9
ms	9
▁Chang	9
▁Room	9
▁anything	9
▁los	9
ashless	9
Other	9
ling	9
kar	9
▁household	9
%)	9
▁goods	9
▁burglary	9
▁Policies	9
▁consequence	9
▁defect	9
▁arrested	9
▁carry	9
blocked	9
▁blocked	9
▁ability	9
our	9
q	9
▁Directors	9
caption	9
▁READ	9
▁Tez	9
▁Hail	9
▁difference	9
▁Fast	9
▁Abdur	9
▁Bengaluru	9
▁Then	9
▁prior	9
expiry	9
▁Step	9
▁bill	9
▁reading	9
▁Companies	9
Watch	9
▁Tinsukia	9
▁Mohamm	9
▁Bride	9
▁occurred	9
▁opt	9
▁Infill	9
stream	9
▁cancel	9
▁follow	9
▁SunPorno	9
▁serve	9
ylla	9
▁array	9
from	9
▁Husband	9
AH	9
▁professional	9
▁editor	9
▁Mask	9
▁Arrested	9
▁Her	9
▁pass	9
▁Project	9
▁Bed	9
Development	9
▁Small	9
▁function	9
▁License	9
▁Temple	9
▁Srinivas	9
▁revolution	9
ible	9
▁Bound	9
ko	9
▁decision	9
appiness	9
eya	9
assistance	9
▁People	9
dB	9
▁college	9
▁submit	9
▁Cost	9
▁cash	9
▁sure	9
:\$	9
▁latest	9
▁culture	9
options	9
▁di	9
▁Swa	9
Small	9
thing	9
India	9
emaining	9
Info	9
message	9
▁Audio	9
▁Maharashtra	9
eet	9
elcome	9
▁select	9
▁Toy	9
▁Marathi	9
▁NEWS	9
▁Job	9
▁studies	9
▁informed	9
rd	9
HC	9
▁ad	9
ise	9
▁ever	9
ck	9
▁Heels	9
▁Pu	9
▁facilities	9
▁advertising	9
▁live	9
▁secret	9
▁interested	9
▁Student	9
▁seal	9
▁fast	9
▁season	9
▁cum	9
▁Ta	9
▁Iffco	9
▁Rodali	9
▁Have	9
▁depreciation	9
▁jobs	9
▁ratio	9
▁Network	9
▁Daily	9
▁individual	9
▁installation	9
power	9
NV	9
▁wear	9
▁User	9
▁reset	9
প	9
temporary	9
▁Tuesday	9
▁Abel	9
▁Perky	9
▁organizations	9
▁Applications	9
▁official	9
▁Bareback	9
▁cons	9
ē	9
▁Pra	9
March	9
▁Hard	9
▁occur	9
▁Ver	9
▁meaning	9
days	9
▁Mother	9
▁Win	9
ine	9
▁Burglar	9
Years	9
block	9
ailway	9
preview	9
▁Fula	9
▁intend	9
Ï	9
▁deceased	9
revision	9
▁court	9
▁city	9
▁recently	9
▁Regional	9
▁Jorhat	9
▁Scientific	9
▁Ukrainian	9
PA	9
▁Bloopers	9
▁Muf	9
pages	9
▁proper	9
▁Nav	9
ä	9
lady	9
▁machinery	9
▁later	9
▁Hy	9
▁secure	9
▁connect	9
▁Record	9
▁RE	9
SON	9
▁Issue	9
▁Spit	9
▁improve	9
▁alleged	9
ability	9
▁Clause	9
▁Quality	9
▁rules	9
ped	9
▁Services	9
▁windows	9
▁detail	9
▁Prasad	9
▁Authority	9
side	9
▁Chick	9
▁Forest	9
▁Cor	9
▁animal	9
elling	9
▁Install	9
▁Assistant	9
▁strive	9
▁Zoo	9
▁framework	9
▁confiscation	9
HM	9
III	9
▁Scholarship	9
▁regard	9
▁impact	9
▁divers	9
▁◥	9
▁CB	9
▁rebel	9
lion	9
▁Goswami	9
▁HPV	9
▁mov	8
ab	8
▁men	8
▁Bulbs	8
matsu	8
▁Christian	8
▁sexy	8
ɛ̝n̺	8
▁aim	8
▁offering	8
▁server	8
▁Publisher	8
▁screen	8
▁reward	8
▁matter	8
▁save	8
once	8
▁accidents	8
▁passed	8
▁Parents	8
▁Uphol	8
▁Spec	8
closing	8
core	8
iaries	8
▁Radio	8
▁She	8
▁getting	8
urah	8
modified	8
▁Peac	8
aq	8
▁Send	8
▁holder	8
❯	8
ital	8
toxic	8
Latest	8
▁Fundamental	8
Book	8
ল	8
▁CMI	8
▁indian	8
▁independent	8
still	8
ো	8
▁Dancing	8
▁provider	8
▁Electronic	8
▁Region	8
▁Hospitalisation	8
▁Pa	8
▁Menstrua	8
istance	8
nik	8
▁Vocabulary	8
▁Jerking	8
▁PQ	8
▁Medi	8
hield	8
OS	8
▁Shi	8
khar	8
▁rule	8
.”	8
▁fundamental	8
▁yet	8
▁Administrator	8
▁numbers	8
embership	8
▁Munjal	8
▁Sub	8
▁Garden	8
▁Escort	8
number	8
ley	8
▁Finance	8
TER	8
▁XP	8
▁username	8
▁receiv	8
▁stay	8
▁Store	8
▁Chengdu	8
▁presence	8
▁seven	8
▁Safety	8
▁CAB	8
▁Mah	8
endra	8
▁Narayan	8
NCB	8
▁Protect	8
▁Drill	8
▁sites	8
▁Imam	8
▁determine	8
▁La	8
ated	8
▁Officer	8
▁Although	8
▁Dorm	8
▁president	8
▁Dis	8
▁accessories	8
▁Trip	8
▁Uncle	8
▁Net	8
▁Air	8
▁Drinking	8
▁method	8
▁consist	8
▁difficult	8
forget	8
▁Abused	8
▁AWG	8
teen	8
▁Fur	8
۝	8
▁Tag	8
▁Manager	8
▁Menu	8
war	8
▁Russian	8
▁Opacity	8
▁width	8
▁Cam	8
▁publishers	8
▁approval	8
]]"	8
What	8
▁word	8
▁excess	8
▁usage	8
▁Ka	8
▁Recitation	8
▁Sonowal	8
▁Oja	8
▁Persi	8
▁names	8
Assam	8
▁international	8
He	8
▁Helpline	8
▁Word	8
▁encourage	8
▁titles	8
▁Innovation	8
▁San	8
sqm	8
▁preferences	8
ME	8
men	8
▁Modi	8
▁Baruah	8
▁Prag	8
▁TO	8
▁Lingerie	8
content	8
▁aware	8
do	8
ṣ	8
hu	8
▁Theatre	8
▁Sensual	8
▁Biographi	8
▁Petite	8
▁wave	8
anners	8
▁Fact	8
que	8
▁easi	8
exists	8
▁itself	8
▁document	8
▁railway	8
▁carrie	8
▁Rocco	8
▁breakdown	8
▁shr	8
▁magazine	8
▁robbery	8
Page	8
▁Ranj	8
▁religion	8
▁Neha	8
▁freak	8
▁Arun	8
anagar	8
▁Stud	8
stored	8
▁cross	8
Simple	8
▁hd	8
▁gain	8
site	8
▁port	8
afi	8
▁maintenance	8
invalid	8
▁doing	8
early	8
▁Malaysian	8
<	8
▁Undressing	8
▁Punjabi	8
▁reserved	8
▁Goals	8
▁included	8
▁Management	8
▁Nullifiers	8
ula	8
IT	8
▁li	8
▁storage	8
RY	8
▁factor	8
▁Chain	8
specialpages	8
Redirect	8
per	8
▁express	8
always	8
▁purchase	8
▁Like	8
▁BJP	8
▁Ha	8
▁Boots	8
▁stocks	8
▁Risk	8
times	8
▁separate	8
▁consideration	8
▁ba	8
▁encyclopedia	8
ᴋ	8
▁portal	8
iti	8
ves	8
frac	8
▁Dur	8
▁weather	8
▁la	8
set	8
raditional	8
▁login	8
̷	8
▁dead	8
▁Just	8
▁increased	8
▁freight	8
▁activity	8
▁Ag	8
▁submitt	8
▁Comprehensive	8
GB	8
]].	8
technical	8
▁side	8
board	8
▁advice	8
▁Three	8
ijan	8
▁deliver	8
vind	8
▁feedback	8
▁circumstances	8
count	8
of	8
Bongaigaon	8
▁Maths	8
▁nerv	8
▁Week	8
Q	8
▁Hey	8
ferred	8
▁CIN	8
▁Cylinder	8
pa	8
▁Advisor	8
ign	8
▁bisexual	8
ttachment	8
▁enhance	8
▁characteristics	8
);	8
▁revisions	8
▁signature	8
▁photo	8
For	8
▁Jun	8
ol	8
▁boy	8
▁Rubber	8
▁Benefits	8
▁Strapon	8
▁addition	8
raj	8
▁ال	8
ا	8
ر	8
▁Volume	8
jump	8
▁schoolgirl	8
▁Mail	8
▁Speculum	8
ny	8
▁leader	8
▁bite	8
▁creat	8
▁accused	8
lic	8
▁perfect	8
▁Rash	8
▁Assistance	8
▁stock	8
}}_	8
SET	8
▁Program	8
▁Sanj	8
admin	8
▁Monster	8
▁±	8
got	8
redirect	8
▁adjust	8
▁author	8
▁success	8
ena	8
▁Apps	8
▁reported	8
▁Yoruba	8
▁Options	8
▁ruling	8
▁menstrua	8
▁spread	8
▁income	8
▁agree	8
▁fur	8
▁Mon	8
▁Trans	8
ala	8
▁Virtues	8
▁Justice	8
▁Real	8
▁theft	8
ũ	8
▁Hidden	8
▁Ladies	8
arendra	8
▁fuel	8
▁comment	8
li	8
▁bridge	8
▁populariz	8
▁NB	8
tention	8
▁உ	8
▁Casting	8
▁proposal	8
ong	8
ཌ	8
▁Jul	8
▁Election	8
▁enem	8
pcs	8
TR	8
▁ECG	8
▁exchange	8
✞	8
▁Right	8
▁identity	8
mil	8
▁depend	8
▁object	8
▁came	7
edits	7
▁SO	7
▁fat	7
wa	7
▁photos	7
aḥ	7
▁minutes	7
▁transit	7
▁limits	7
▁hot	7
▁semi	7
assets	7
▁Custom	7
▁Zakah	7
▁IN	7
▁honour	7
▁Back	7
▁wait	7
nship	7
vā	7
▁solo	7
▁models	7
doors	7
Wahhab	7
▁cre	7
zu	7
▁Weight	7
eer	7
▁Submit	7
▁×	7
created	7
level	7
ommercial	7
PO	7
▁ALL	7
▁Veblr	7
▁approv	7
gen	7
▁abuse	7
▁Practitioner	7
▁Ramdorai	7
▁Ph	7
▁marvel	7
্	7
ম	7
▁supported	7
গ	7
▁originat	7
▁Explosion	7
▁Equipment	7
▁participat	7
▁CSIR	7
japanese	7
twelve	7
▁Yu	7
cial	7
resetpass	7
▁Rain	7
▁tube	7
▁spirit	7
ping	7
▁Tele	7
▁Tips	7
alaya	7
▁status	7
▁Legs	7
nexpected	7
▁Turkish	7
ball	7
COPY	7
▁groups	7
▁Sitharaman	7
▁Clear	7
▁complex	7
▁tool	7
▁forms	7
▁Zakat	7
▁cattle	7
MO	7
gram	7
▁multiple	7
▁Key	7
claim	7
▁Dutta	7
▁Bar	7
▁noted	7
▁Paris	7
▁storm	7
HV	7
Browse	7
▁Sp	7
▁Out	7
▁discounts	7
▁stand	7
▁Definition	7
▁achieve	7
▁Uzbek	7
▁successful	7
▁Miniskirt	7
▁Khan	7
ven	7
▁Introduction	7
▁customers	7
▁Payment	7
gateway	7
▁however	7
guidance	7
▁bear	7
▁Glasses	7
▁Ja	7
od	7
▁TN	7
ankaj	7
▁program	7
Tube	7
▁rise	7
▁Grandma	7
▁membership	7
▁Ca	7
▁Cart	7
Login	7
entry	7
▁installments	7
▁tr	7
▁Bosnian	7
/$	7
▁Stream	7
▁Platform	7
rfe	7
▁variet	7
▁Schoolgirl	7
Facial	7
▁Kalkim	7
▁Cachar	7
▁giv	7
▁commence	7
hirk	7
▁longer	7
micro	7
▁channel	7
▁format	7
matic	7
▁Period	7
part	7
▁gardeners	7
ITI	7
▁Studies	7
▁literar	7
▁Arab	7
Top	7
▁charged	7
▁Renew	7
▁guarantee	7
▁heart	7
▁classic	7
▁Agent	7
▁Flyover	7
Ask	7
table	7
▁rare	7
▁item	7
▁sole	7
ennai	7
▁virgins	7
lit	7
▁recover	7
Rajasthan	7
▁Jai	7
▁Image	7
▁Baby	7
▁contamination	7
▁Cloud	7
▁clean	7
▁Subject	7
▁transport	7
createaccount	7
▁($	7
▁reinstate	7
▁Days	7
ebony	7
▁Seduce	7
▁Field	7
▁fall	7
▁fun	7
▁Mistress	7
ubs	7
her	7
▁whatsoever	7
▁Tam	7
Ber	7
▁Om	7
oaching	7
▁Mega	7
orist	7
▁OEM	7
▁Give	7
having	7
▁subsequent	7
▁Collar	7
▁average	7
▁chinese	7
▁Islands	7
EST	7
▁quick	7
▁reference	7
esai	7
▁true	7
▁happy	7
▁centers	7
▁Du	7
▁Bhav	7
▁le	7
▁Bihu	7
lo	7
▁mix	7
infinite	7
sides	7
▁electronic	7
ggers	7
▁prob	7
▁Toilet	7
▁Stories	7
▁Engine	7
Un	7
▁Massage	7
▁Crazy	7
▁Kerala	7
▁becom	7
▁vita	7
▁\	7
▁!	7
PF	7
▁virtual	7
▁behind	7
wnership	7
▁Bottle	7
WD	7
section	7
http	7
▁temperature	7
licensed	7
▁Flirt	7
▁Drilled	7
▁occasions	7
▁Wah	7
å	7
ru	7
busty	7
▁WhatsApp	7
▁bu	7
▁engag	7
vention	7
▁Kidney	7
eith	7
▁communication	7
▁Researchers	7
▁Tim	7
▁MIT	7
▁Oxford	7
▁citation	7
▁reads	7
had	7
▁Tra	7
▁Direct	7
▁promot	7
▁lives	7
▁Visit	7
▁proportion	7
▁steps	7
▁competition	7
ARE	7
▁Bizarre	7
▁Recipe	7
akam	7
▁tear	7
stocking	7
▁Deut	7
pc	7
▁detect	7
▁ABOUT	7
▁Brazilian	7
▁Doct	7
rines	7
▁fashion	7
▁base	7
▁Ramadan	7
▁Cinema	7
▁organized	7
▁constant	7
}{	7
▁Fitter	7
▁Annie	7
▁consumer	7
▁extensive	7
▁Shiva	7
actions	7
▁broad	7
SM	7
▁hit	7
▁Subscribe	7
▁shipping	7
▁Hd	7
▁Spanking	7
fingering	7
Name	7
▁গ	7
▁Cr	7
▁Airport	7
▁dialysis	7
▁Naj	7
Arfaj	7
▁instruments	7
▁discuss	7
▁u	7
▁unexpected	7
▁Religions	7
▁hardcore	7
comment	7
▁summary	7
▁Pragya	7
ne	7
▁acid	7
▁Continue	7
}}:	7
▁Eat	7
▁Humid	7
ṇ	7
▁lack	7
▁Shaved	7
▁Second	7
▁Politics	7
▁Swallow	7
▁Retrieve	7
▁Pregnancy	7
ji	7
▁OneNote	7
▁Apr	7
login	7
summary	7
▁Surprise	7
▁Jail	7
ight	7
▁Experienced	7
▁near	7
]]'	7
▁Married	7
▁programs	7
tional	7
▁Abdurrah	7
▁late	7
Ł	7
▁committee	7
▁indirectly	7
undelete	7
▁Bisexual	7
▁exposure	7
ATION	7
▁Hazarika	7
▁restrictions	7
▁extension	7
〘	7
Đ	7
〙	7
userrights	7
ن	7
▁Wuhan	7
NB	7
▁vs	7
▁style	7
phant	7
ʌ	7
▁John	7
▁syn	7
▁kra	7
▁restaurant	7
egative	7
links	7
mum	7
▁joined	7
▁scientist	7
▁emergenc	7
▁Wheeler	7
op	7
▁prompt	7
▁review	7
▁Qur	7
▁aspects	7
▁admitted	7
▁Muk	7
▁usur	7
▁Exotic	7
γ	7
▁Kush	7
▁URL	7
rought	7
▁Flood	7
▁Archive	7
ultiple	7
▁situations	7
▁Corporate	7
roposal	7
▁bursting	7
▁Speaking	7
ora	7
▁info	7
▁Insurer	7
▁Months	7
▁missing	7
▁remov	7
▁graduate	7
ins	7
▁nude	7
▁Morning	7
▁whole	7
ey	7
▁Peeing	7
crimina	7
▁External	7
tory	7
▁Aug	7
▁heav	7
▁concerns	7
▁disclosure	7
▁french	7
ery	7
pdf	7
▁ATM	7
▁Operation	7
export	7
ised	7
▁Think	7
▁concern	7
▁citizens	7
▁fraud	7
▁release	7
▁significant	7
▁host	7
▁Path	7
▁Mahanta	7
titled	7
▁beginn	7
▁ball	7
talkpage	7
amine	7
▁lightning	7
▁manner	7
▁disability	7
▁Sach	7
▁messages	7
▁Stunning	7
▁Brahmaputra	7
▁Six	7
▁Launch	7
▁cards	7
we	7
▁Ar	7
udden	7
▁Kar	7
▁Rhy	7
▁manufacturer	7
▁repairs	7
▁Bag	7
lingual	7
▁devote	7
▁classroom	7
▁light	7
▁browsing	7
▁command	7
▁requisition	7
merge	7
▁Saty	7
mong	7
har	7
zed	7
▁affected	7
▁seiz	7
𑁆	7
▁proceed	7
▁Czechia	7
Add	7
iaomi	7
bas	7
▁edited	7
ite	7
reset	7
✿	7
࿐	7
▁Sahitya	7
Assamese	7
ད	7
℟	7
℥℟	7
Privacy	7
ousebreaking	7
▁FI	7
CCI	7
▁creative	7
▁Locker	7
▁huge	7
▁En	7
▁Oldy	7
▁hostilities	7
whe	7
surrection	7
▁military	7
▁pregnancy	7
▁force	7
▁meant	7
▁Alphabet	7
▁Attribut	7
▁situation	7
▁noun	7
▁suicide	7
ee	7
▁skin	7
▁ko	7
net	7
▁Casablanca	7
IMO	7
▁Examin	6
description	6
Visit	6
▁examples	6
▁reserve	6
▁expand	6
▁pillar	6
▁Perennials	6
▁Fantasy	6
▁rura	6
urban	6
▁Woman	6
▁regulat	6
bad	6
MENT	6
chhe	6
▁wrote	6
ice	6
inux	6
▁Using	6
▁Prophets	6
▁extend	6
sa	6
▁Green	6
▁Title	6
checked	6
language	6
desc	6
▁·	6
▁TWR	6
▁Schedule	6
▁choice	6
too	6
▁equal	6
▁vscoop	6
uddin	6
'''$	6
▁Consultant	6
ৱ	6
জ	6
▁icon	6
▁muscle	6
required	6
ttitude	6
▁manager	6
▁bound	6
▁million	6
▁nation	6
▁distributor	6
▁Receive	6
▁curriculum	6
ট	6
▁Jeans	6
▁living	6
▁Smothering	6
▁legs	6
▁Pool	6
value	6
▁Australian	6
▁rent	6
HK	6
▁Fold	6
▁BQ	6
▁Earthquake	6
▁Kav	6
▁duty	6
▁thinking	6
▁essential	6
hiv	6
▁complet	6
tip	6
▁Inside	6
▁Red	6
▁Kam	6
Project	6
empower	6
▁Nirmal	6
▁Sperm	6
▁Texas	6
▁Battery	6
▁Conditions	6
▁active	6
▁regular	6
▁Pass	6
▁player	6
▁writer	6
▁Tar	6
▁convenience	6
▁Civilization	6
▁Purity	6
▁community	6
▁Exclusions	6
▁PRO	6
Transit	6
▁Afrikaans	6
▁Swahili	6
▁Nation	6
scene	6
▁threat	6
og	6
▁fittings	6
ov	6
▁Redhead	6
▁obtained	6
▁Stockings	6
▁Creativ	6
▁Manga	6
▁impose	6
atic	6
▁typical	6
ize	6
▁Austria	6
▁uses	6
Shopp	6
▁Philips	6
raw	6
auto	6
▁description	6
▁Series	6
▁Taboo	6
▁Daniel	6
▁Dream	6
google	6
▁Konwar	6
asir	6
Sadi	6
▁Cucumber	6
EL	6
▁Stepmom	6
CE	6
ç	6
ndemni	6
▁INR	6
subject	6
nvesha	6
▁adverse	6
article	6
[[$	6
ick	6
▁Electrical	6
▁journey	6
▁reach	6
fare	6
PE	6
▁Donate	6
▁Fund	6
▁produc	6
▁Åberg	6
mp	6
▁Pay	6
▁fetish	6
▁Learning	6
ganj	6
▁Pension	6
▁mean	6
▁cuttings	6
▁scale	6
▁Regular	6
mi	6
▁vintage	6
eaches	6
▁Africa	6
▁Sample	6
▁HB	6
▁Leng	6
"/	6
▁loading	6
userlog	6
JJ	6
▁Jump	6
▁Amputee	6
►	6
▁art	6
▁Nightwear	6
Use	6
▁Chairman	6
▁passengers	6
▁seat	6
▁OK	6
▁Bare	6
Ð	6
▁Leather	6
▁packing	6
hing	6
▁template	6
ঁ	6
চ	6
▁notification	6
▁client	6
▁convey	6
▁comply	6
he	6
▁Ra	6
▁Swinger	6
▁Agreement	6
▁NO	6
ê	6
▁Meanwhile	6
tigation	6
▁aircraft	6
▁proposer	6
▁Gandhi	6
▁functions	6
▁fla	6
MT	6
rance	6
▁mon	6
▁height	6
▁Ten	6
yr	6
▁Latin	6
▁Sales	6
▁Industry	6
▁palms	6
▁frost	6
▁bigge	6
urface	6
▁max	6
▁Sak	6
limate	6
▁Torture	6
▁commission	6
▁Leashed	6
▁Easter	6
▁introduc	6
▁collapse	6
▁surrounding	6
▁causes	6
▁origin	6
advanced	6
ë	6
categories	6
Categories	6
▁Obese	6
▁director	6
▁Voltage	6
CBI	6
ethanol	6
▁cam	6
▁logs	6
ি	6
▁guest	6
āpa	6
ḥ	6
▁Expenditure	6
▁track	6
▁highlight	6
▁Textile	6
▁ISO	6
lets	6
▁Bo	6
▁Ro	6
▁nin	6
▁Mis	6
ipb	6
US	6
............	6
▁installed	6
▁Sivasagar	6
▁Classroom	6
▁Gasket	6
▁Thai	6
argument	6
▁Beaver	6
▁Anime	6
▁King	6
mechanical	6
▁Yash	6
▁Karnataka	6
▁expense	6
▁”	6
▁usual	6
▁protest	6
▁Stack	6
ikimedia	6
▁modern	6
▁Collaborat	6
▁engine	6
va	6
▁ra	6
▁Required	6
▁Marketing	6
▁teens	6
▁board	6
ka	6
▁Hav	6
▁Drugs	6
ɭ	6
▁Gra	6
▁Mahmo	6
ner	6
▁driving	6
▁driver	6
▁formula	6
▁conjecture	6
▁patent	6
▁occasion	6
▁birth	6
▁Sta	6
▁Employees	6
▁explicit	6
Qahtani	6
▁Shah	6
▁Maintenance	6
▁Developing	6
▁Environment	6
▁identify	6
▁propert	6
▁mission	6
▁Paddled	6
▁Thanks	6
▁Sumu	6
VIDEOS	6
▁Showroom	6
nded	6
Ga	6
▁professor	6
venting	6
▁protocol	6
๖	6
ilers	6
▁SC	6
▁Dry	6
▁speaking	6
urniture	6
▁Reinstate	6
▁responsibility	6
▁stated	6
▁grant	6
cious	6
▁fill	6
Hz	6
▁blonde	6
▁Military	6
▁Training	6
ler	6
▁tasteless	6
▁Pure	6
MediaWiki	6
▁diaries	6
▁Horn	6
▁É	6
▁Text	6
Ba	6
az	6
TOKIO	6
▁recognize	6
class	6
▁launched	6
▁brands	6
▁consumers	6
▁internet	6
mar	6
▁Rail	6
▁Star	6
We	6
China	6
▁Bio	6
chat	6
whatsapp	6
▁Meet	6
▁worldwide	6
qbsettings	6
▁goal	6
▁farmers	6
▁agriculture	6
Sorry	6
▁accounts	6
urt	6
girlfriend	6
▁comedy	6
▁Perverted	6
▁completed	6
▁valuable	6
▁Penetration	6
unt	6
▁NOT	6
▁Shri	6
▁Land	6
▁recommendation	6
▁Therefore	6
▁Know	6
loy	6
tinguish	6
ger	6
▁space	6
▁treat	6
NA	6
▁stop	6
▁Vi	6
▁Sm	6
riti	6
bar	6
nagar	6
▁Temp	6
▁resolution	6
▁Proof	6
▁Rama	6
Upload	6
▁Practice	6
▁examination	6
▁fee	6
▁Western	6
headline	6
▁Park	6
AIR	6
▁registration	6
▁Quote	6
▁exclusive	6
▁Son	6
▁weight	6
▁attack	6
▁corporate	6
▁Guru	6
ological	6
▁prayers	6
▁operate	6
▁Register	6
▁Annu	6
mbulance	6
Summary	6
▁Andy	6
▁green	6
▁Bos	6
▁copy	6
▁organize	6
▁increase	6
▁table	6
▁Shelves	6
▁Important	6
▁Take	6
▁pulla	6
▁hubby	6
▁wild	6
none	6
ho	6
▁Srigunam	6
▁Wind	6
af	6
▁foot	6
▁abroad	6
▁Further	6
▁reimbursement	6
▁merc	6
reme	6
▁Address	6
underline	6
Zog	6
▁Pale	6
▁Nage	6
Ꮆ	6
ش	6
Re	6
▁little	6
wheeler	6
▁Flashing	6
▁HIV	6
▁pov	6
▁analysis	6
▁Solutions	6
▁advis	6
▁Contract	6
▁Because	6
vil	6
▁agreement	6
▁principle	6
▁Vene	6
▁Has	6
▁JavaScript	6
drau	6
▁breed	6
ara	6
IP	6
▁Login	6
shown	6
▁[[{{	6
▁Ba	6
{{	6
lief	6
®	6
▁pregnant	6
▁procedures	6
▁unauthori	6
▁gas	6
Am	6
▁THE	6
▁Anti	6
▁Spread	6
▁Adjust	6
▁unit	6
▁trip	6
math	6
▁arrive	6
▁DAB	6
pi	6
▁Current	6
▁match	6
▁housewife	6
▁Bh	6
nvelope	6
ell	6
͢	6
scope	6
▁Founde	6
▁useful	6
▁Talk	6
▁("	6
overflow	6
▁tanks	6
special	6
▁compulsory	6
▁Map	6
Drive	6
▁vessel	6
▁Hardrock	6
▁namespaces	6
GST	6
ali	6
▁Element	6
▁run	6
▁scor	6
▁excellence	6
ut	6
▁son	6
▁Drive	6
rc	6
▁expect	6
hamed	6
ateg	6
account	6
esh	6
rape	6
⋆	6
Tags	6
▁researchers	6
▁Hi	6
▁Declar	6
ecast	6
dom	6
▁Br	6
▁crop	6
▁supplement	6
▁lecture	6
▁Organisation	6
cera	6
▁carton	6
▁eight	6
▁Nov	6
▁partial	6
▁greater	6
▁Moreover	6
▁beautiful	6
▁funny	6
▁Guidance	6
alent	6
phet	6
▁Gangbang	6
▁Providing	6
AutoDesk	6
nanda	6
ava	6
rollback	6
▁why	6
▁bad	6
▁Teach	6
▁Results	6
▁Where	6
be	6
▁decades	6
▁Pradesh	6
em	6
▁mode	6
▁bin	6
▁Valentine	6
ju	6
▁behavior	6
▁Operat	6
▁Opportunity	6
▁Conduct	6
▁Executive	6
mature	6
▁Steel	6
▁Nurse	6
▁researched	6
▁Report	6
▁bulbs	6
▁Hindu	6
▁Additional	6
Warning	6
:'''	6
▁SIM	6
▁inspect	6
result	6
nologin	6
Sex	6
February	6
▁Gopinath	6
eering	6
▁cha	6
▁immediate	6
▁Owner	6
hanja	6
▁rates	6
CBD	6
▁Exam	6
▁Ran	6
▁Jo	6
▁Cookies	6
ancy	6
▁Huge	6
▁Ball	6
guri	6
▁refer	6
ri	6
▁Contents	6
▁Saud	6
Not	6
▁Disclaimer	6
amateur	6
ony	6
▁༄	6
ɪɴ	6
RMO	6
▁pieces	6
▁domain	6
▁inland	6
▁master	6
▁blood	6
▁hear	6
▁Hours	6
everything	6
▁Case	6
▁pamp	6
▁rais	6
▁Notice	6
▁Vip	6
▁͙	6
▁established	6
CAM	6
▁Seni	6
***	6
▁Mohammad	6
Enter	6
▁SH	6
▁Reference	6
▁legacy	6
▁certificate	6
▁KPO	6
▁Uniform	6
life	6
▁keeping	6
ush	6
cular	6
oid	6
▁kept	6
ub	6
҉	6
▁narrow	6
▁remember	6
▁integer	6
n̺	6
context	6
▁input	6
star	6
than	6
▁Jona	6
▁Input	6
▁GALWAY	6
^{	6
▁Shy	5
ver	5
▁Yoxhub	5
▁du	5
▁gorgeous	5
bat	5
▁Benefit	5
▁suffers	5
▁Cum	5
lide	5
▁Vegetable	5
structures	5
unning	5
access	5
ental	5
▁writers	5
▁efforts	5
▁Engage	5
▁Interact	5
▁Deed	5
▁land	5
dynamic	5
▁explanation	5
els	5
▁Fa	5
▁dr	5
▁Sister	5
▁Infinity	5
meta	5
▁Hour	5
▁disclose	5
▁rep	5
▁query	5
mal	5
▁Lok	5
▁Trend	5
▁turnover	5
▁duly	5
▁plump	5
▁Got	5
bility	5
conception	5
▁vener	5
eal	5
▁Buttfucking	5
Bio	5
▁Level	5
Dühring	5
▁VM	5
ṭa	5
▁Agriculture	5
▁hunks	5
▁passion	5
▁pra	5
▁founder	5
▁pursui	5
▁dreams	5
▁pan	5
efficient	5
▁Athletic	5
▁Breakdown	5
▁আ	5
▁Welding	5
▁limited	5
▁cleaning	5
suf	5
uidelines	5
Fire	5
ITE	5
▁Article	5
▁Aziz	5
ö	5
films	5
onsequent	5
External	5
remember	5
▁prefix	5
▁Krishnam	5
akhi	5
▁straight	5
rahman	5
▁Pancha	5
▁Ratna	5
▁animals	5
oggle	5
off	5
▁deal	5
place	5
▁med	5
▁silver	5
unexpected	5
▁Girls	5
namespace	5
▁col	5
▁Credit	5
allmessages	5
▁accordance	5
led	5
▁sho	5
pping	5
egacy	5
▁Murty	5
▁released	5
rup	5
▁session	5
jit	5
▁panel	5
▁null	5
▁Basis	5
KEY	5
▁rail	5
can	5
▁Malay	5
▁pussy	5
▁Deen	5
tes	5
▁Force	5
beach	5
▁Youth	5
▁Tel	5
▁Logo	5
tal	5
▁Punished	5
▁empty	5
profile	5
den	5
▁invest	5
ram	5
▁television	5
▁fa	5
Champ	5
▁Host	5
▁Planning	5
▁closed	5
▁Workmen	5
▁Lab	5
▁association	5
▁global	5
▁Board	5
▁emo	5
▁begin	5
▁don	5
▁task	5
▁break	5
▁Pack	5
▁Orgasm	5
▁Bil	5
egend	5
AIL	5
masturbation	5
ups	5
▁KOM	5
ATSU	5
▁FA	5
most	5
▁♔	5
♔	5
▁Ahmed	5
▁Clip	5
▁cm	5
KI	5
Shashi	5
Del	5
▁ex	5
▁Since	5
BE	5
آ	5
▁Friends	5
▁Crores	5
▁Groped	5
tī	5
▁saved	5
except	5
▁installing	5
ics	5
▁Sal	5
▁Advertising	5
water	5
▁rimming	5
▁parents	5
▁keys	5
▁SMS	5
▁journalist	5
▁Vid	5
ays	5
▁Sin	5
▁Hija	5
eeth	5
▁Should	5
▁Los	5
▁pray	5
▁walk	5
▁Reports	5
▁Cases	5
▁folk	5
▁equivalent	5
oxy	5
▁প	5
normal	5
Remove	5
▁custody	5
▁hire	5
▁Edition	5
uel	5
▁Believ	5
alloon	5
▁village	5
▁Comment	5
▁crores	5
missing	5
▁Well	5
Ô	5
▁bra	5
▁namespace	5
▁candidate	5
ɑʀ	5
ҟ	5
awi	5
▁Normal	5
▁Cast	5
Naba	5
▁Thu	5
▁flash	5
▁typing	5
prev	5
row	5
▁Panel	5
▁experiences	5
▁Write	5
▁edition	5
Part	5
▁Agency	5
▁Device	5
▁definition	5
▁Ins	5
▁Earlier	5
epresentative	5
▁Deepthroat	5
▁effectively	5
▁po	5
▁carriage	5
▁Pet	5
▁[...]	5
cheng	5
Hover	5
OX	5
vials	5
iffcotokio	5
▁Summer	5
▁Bit	5
almost	5
xotic	5
arnivorous	5
▁grasses	5
▁Electronics	5
▁selection	5
▁loot	5
AC	5
▁logo	5
whatlinkshere	5
HRC	5
▁Max	5
▁Add	5
lty	5
▁attend	5
ran	5
RWBCIS	5
▁Pradhan	5
structure	5
▁explore	5
▁HRC	5
UR	5
▁Children	5
▁flexibility	5
▁requirement	5
▁Hospitalization	5
▁ingredients	5
▁tradition	5
▁fair	5
trong	5
▁division	5
hanti	5
▁Swar	5
▁Bhatnagar	5
▁Biker	5
Mainland	5
▁transmission	5
▁prayer	5
▁Wat	5
licate	5
▁flo	5
▁gra	5
▁lift	5
▁'''\$	5
▁engineering	5
CC	5
▁legislation	5
▁festival	5
art	5
▁Port	5
▁anywhere	5
▁var	5
▁BM	5
▁locked	5
▁modification	5
▁Count	5
ern	5
moved	5
▁Error	5
▁fault	5
।	5
′′	5
SS	5
▁CR	5
▁drive	5
▁Commons	5
▁ṛṣi	5
aṇḍ	5
max	5
aram	5
broken	5
▁picture	5
ɔgɔ	5
▁Skills	5
▁Fri	5
▁Cha	5
SAN	5
ɪl	5
▁ˀ	5
aims	5
▁literature	5
▁profile	5
yi	5
read	5
babes	5
▁families	5
▁FOLLOW	5
restricted	5
alli	5
▁deserve	5
▁Limit	5
▁Rent	5
HA	5
nice	5
▁den	5
▁Cookie	5
▁Plastic	5
▁architect	5
▁conversation	5
▁shared	5
▁speak	5
▁SI	5
▁contracts	5
ENT	5
▁Graphic	5
▁Alien	5
▁Israel	5
insurance	5
ñ	5
▁diagnostic	5
▁hazard	5
▁component	5
▁thereof	5
▁collaborat	5
▁Stra	5
▁Pip	5
▁Merc	5
▁gold	5
▁Sources	5
▁Wear	5
▁Dish	5
▁Sharing	5
ð	5
lap	5
▁fixture	5
▁pcs	5
▁succeed	5
▁tips	5
mails	5
▁allowance	5
userpage	5
▁Watching	5
▁firm	5
▁executive	5
▁position	5
Mature	5
Australia	5
zam	5
▁distribution	5
▁possess	5
▁Ty	5
sch	5
Boss	5
▁Humping	5
▁Password	5
media	5
Media	5
▁Daddy	5
▁Jam	5
▁drop	5
lu	5
ree	5
▁diet	5
cute	5
▁tweets	5
▁Frost	5
▁sup	5
lay	5
▁France	5
ivot	5
▁theory	5
”.	5
▁Mix	5
▁define	5
▁$$\	5
zeta	5
▁periods	5
▁Crossdressing	5
▁Financ	5
Help	5
▁letter	5
▁complaints	5
arish	5
▁relationship	5
▁Sect	5
stal	5
▁Laure	5
▁restore	5
icked	5
▁agents	5
oli	5
ied	5
▁sectors	5
▁Local	5
▁Laxmi	5
▁Urdu	5
▁camera	5
Kinky	5
▁Virtual	5
pro	5
▁MLC	5
governance	5
▁Ban	5
aint	5
Log	5
▁PART	5
_{{	5
▁Bucket	5
▁disabled	5
▁bacteria	5
▁resistance	5
▁Chandras	5
utdoor	5
▁Ghos	5
▁Irani	5
[[	5
Alok	5
▁images	5
fox	5
Current	5
DM	5
ndran	5
Thanjaavoor	5
▁Item	5
thyl	5
▁Oleate	5
EO	5
▁Anup	5
▁Sara	5
manufacturing	5
▁Australia	5
▁James	5
▁EXCAVATOR	5
▁Exxxtra	5
index	5
օ	5
▁Color	5
▁Mouthful	5
ʟ	5
▁Cop	5
▁Investigation	5
dated	5
ghai	5
▁Abhij	5
allpages	5
▁Boxing	5
itar	5
▁Cello	5
Content	5
▁nī	5
mu	5
▁CAD	5
PG	5
▁govt	5
▁Database	5
▁Faculty	5
▁Experts	5
za	5
▁Vice	5
▁tell	5
▁Drugged	5
▁AD	5
nocookies	5
▁Branch	5
iesel	5
▁Software	5
▁facilitat	5
tie	5
▁vid	5
▁AN	5
dha	5
▁plus	5
ccumulator	5
ski	5
▁issu	5
▁evidence	5
▁delivered	5
▁[[$	5
▁༺	5
How	5
darsh	5
▁Rep	5
months	5
▁Communication	5
▁Uyghur	5
ving	5
craft	5
▁dedicat	5
this	5
▁excit	5
WF	5
▁Brunette	5
▁petition	5
▁Sup	5
never	5
▁Pilgrimage	5
▁Seek	5
long	5
▁FO	5
big	5
DSP	5
Ň	5
Golden	5
▁Bi	5
▁confirmed	5
lead	5
▁Wikipedia	5
▁Es	5
▁ideas	5
To	5
▁references	5
▁Insertion	5
ould	5
▁Construction	5
experimental	5
▁pain	5
EMA	5
WAL	5
▁Graci	5
ural	5
ries	5
▁Scholars	5
▁Link	5
▁Status	5
ward	5
▁Offer	5
α	5
▁Saggytits	5
Road	5
▁Table	5
▁hour	5
▁institutions	5
▁workshop	5
▁Present	5
[{{	5
:{{	5
▁Tongue	5
▁Reality	5
exe	5
MPa	5
▁fantasy	5
▁districts	5
SI	5
ph	5
▁MNC	5
▁Bal	5
▁Bihar	5
▁friend	5
▁Blog	5
▁Sah	5
efore	5
▁platform	5
▁blondes	5
ICS	5
body	5
▁organis	5
IF	5
▁align	5
"]	5
▁Light	5
▁heading	5
▁Choice	5
ಲ	5
ೆ	5
ib	5
thaim	5
publisher	5
▁clip	5
viewsource	5
▁eye	5
alam	5
MW	5
▁Sanjeev	5
bber	5
▁Chet	5
clusive	5
▁god	5
▁teachers	5
floating	5
achal	5
mai	5
pornstars	5
ccuracy	5
▁girlfriend	5
▁Dep	5
uty	5
▁Kolkata	5
▁compa	5
ct	5
UL	5
▁healthy	5
▁genius	5
▁Wiktionary	5
▁administrators	5
▁para	5
medical	5
▁LIVE	5
holesale	5
▁ambulance	5
Jalukbari	5
▁Ky	5
▁wreck	5
▁collision	5
▁Courses	5
date	5
▁submission	5
▁negligen	5
্ৰী	5
Tablet	5
▁airport	5
▁welcome	5
ake	5
▁objective	5
taining	5
▁Se	5
▁color	5
▁Polish	5
▁pump	5
Post	5
MAI	5
▁recognition	5
▁TED	5
▁bibliography	5
▁Farm	5
▁amend	5
▁Kendra	5
▁install	5
▁Toyota	5
▁Sun	5
▁consultations	5
▁Anus	5
▁Fol	5
▁production	5
▁visible	5
▁Transportation	5
▁changing	5
style	5
▁Femdom	5
▁consent	5
▁owner	5
▁farmer	5
▁Thickness	5
▁enough	5
▁PA	5
Share	5
▁redirects	5
▁Ji	5
▁Kz	5
▁policyholder	5
▁admission	5
▁saying	5
▁baby	5
▁Bra	5
▁approach	5
ney	5
▁Bet	5
▁continuous	5
▁Pil	5
▁Compa	5
▁aggregate	5
personal	5
▁Floor	5
▁Foursome	5
▁Organizations	5
▁showcase	5
▁Pan	5
▁violat	5
skar	5
▁ULFA	5
home	5
hd	5
onversation	5
▁respond	5
land	5
▁Paul	5
CAD	5
Porn	5
▁CHE	5
▁guru	5
▁Lipstick	5
η	5
diff	5
da	5
ot	5
▁agricultur	5
▁Italian	5
▁rainfall	5
▁couple	5
▁Partners	5
▁Sheikh	5
▁Increase	5
▁Th	5
Settings	5
▁Dibrugarh	5
▁RSS	5
ʜ	5
▁cartoon	5
▁Features	5
▁occurr	5
▁custom	5
▁exercise	5
activeusers	5
▁Tits	5
▁Actress	5
▁deduct	5
▁Loan	5
Canada	5
▁transaction	5
▁Fill	5
Huge	5
▁shelf	5
▁generat	5
▁got	5
▁micro	5
▁Identification	5
▁HTML	5
LE	5
▁latina	5
▁investment	5
First	5
Open	5
▁Arm	5
▁previous	5
▁borne	5
▁Tay	5
lor	5
▁Dust	5
▁permissible	5
▁[[:$	5
Ҝ	5
▁clock	5
▁Indium	5
▁su	5
▁LIABILITY	5
IES	5
▁Po	5
stand	5
▁gender	5
sig	5
▁tax	5
▁reduc	5
lon	5
▁QR	5
▁displayed	5
its	5
shaved	5
facesitting	5
▁Ap	5
▁Hospitals	5
▁bondage	5
▁Registration	5
▁drug	5
▁Calculator	5
▁push	5
such	5
▁clicking	5
di	5
▁ch	5
▁Lu	5
▁Temperature	5
▁Intimat	5
▁think	5
▁EX	5
▁collaborative	5
▁restriction	5
Ꭵ	5
▁specially	5
▁SB	5
sql	5
▁radio	5
▁Topics	5
▁Mil	5
▁prime	5
▁belonging	5
pta	5
▁promotion	5
▁Van	5
ese	5
▁failed	5
▁Bear	5
▁Homepage	5
▁updates	5
▁Hungary	5
GH	5
▁arrang	5
LOP	5
▁cute	5
Change	5
▁na	5
hlet	5
ida	5
▁sustain	5
▁Pirate	5
Di	5
▁Idea	5
etta	5
▁prove	5
▁maa	5
eh	5
▁Baligaon	5
’’	5
▁duties	5
▁TIFR	5
▁আৰ	5
▁Ono	5
▁massage	5
▁station	5
▁Provide	5
num	5
ei	5
▁Manag	5
▁documentation	5
▁Warning	5
public	5
▁ASSAM	5
ESE	5
▁Bazar	5
▁Settings	5
▁Forbidd	5
oom	5
▁cheating	5
▁Domination	5
mark	5
▁hair	5
▁Lotto	5
▁ten	5
ended	5
▁Scottish	5
▁profession	5
▁Golf	5
▁Mathematician	5
PM	5
▁webcam	5
`,`	5
▁Nursing	5
▁warning	5
▁qualit	5
pl	5
ill	5
Hub	5
▁Creampie	5
▁dishe	5
▁agreed	5
▁Guys	5
ard	5
previous	5
▁parking	5
▁drama	5
teel	5
▁prospect	5
▁Hort	5
▁Conway	5
▁geographic	5
nu	5
▁gal	5
▁Lockdown	5
dal	5
̶	5
▁offices	5
▁Teenage	4
▁mere	4
▁venture	4
▁assignment	4
rap	4
Singapore	4
Maxim	4
▁Strike	4
▁tv	4
▁Spank	4
stri	4
Madagascar	4
Old	4
voyeur	4
▁Ladders	4
▁ku	4
▁leav	4
▁Method	4
▁execut	4
▁stress	4
AGE	4
▁JOBS	4
▁Messenger	4
logs	4
▁playwright	4
▁encourag	4
▁memory	4
▁Mika	4
▁Corner	4
MI	4
▁lingerie	4
eś	4
▁safeguard	4
▁belief	4
monotheism	4
kind	4
▁jinn	4
lawful	4
▁recitation	4
pe	4
▁simpl	4
oll	4
▁Box	4
▁SE	4
LECT	4
hit	4
efault	4
▁Own	4
▁Portuguese	4
▁Dhubri	4
▁Bad	4
De	4
▁head	4
▁Awardees	4
▁TOP	4
▁Vote	4
run	4
▁rest	4
▁Anesthe	4
tist	4
▁Specialist	4
mL	4
▁স	4
▁Competition	4
ependent	4
▁Computers	4
Experience	4
click	4
▁Moor	4
▁personnel	4
▁fulfill	4
▁inspir	4
▁accessibility	4
▁remote	4
▁corner	4
rights	4
▁clause	4
▁safeguards	4
anger	4
▁Dirty	4
str	4
▁ম	4
▁surgeries	4
PAN	4
vast	4
privacy	4
▁Admission	4
͢͢͢	4
▁Ah	4
Me	4
▁innocent	4
▁Dhawan	4
ICC	4
▁Cup	4
It	4
▁citizen	4
▁neglect	4
▁gift	4
▁theorem	4
eplay	4
bug	4
ext	4
o̞	4
▁lodge	4
▁lock	4
▁ladder	4
▁pull	4
▁Zombie	4
▁obtain	4
used	4
▁winners	4
mulated	4
▁play	4
stic	4
▁Haze	4
★	4
▁trad	4
▁Isaiah	4
▁Govern	4
▁←	4
▁Shandong	4
▁Xbox	4
▁Chen	4
▁friends	4
▁graphic	4
ists	4
ont	4
▁Lightning	4
BP	4
Massive	4
▁stepmom	4
change	4
▁earned	4
▁Mpa	4
▁Reason	4
Amazing	4
▁Emerg	4
ency	4
AM	4
▁charg	4
▁UPS	4
▁beliefs	4
abir	4
▁searching	4
▁girls	4
▁Trina	4
▁Original	4
BL	4
▁complaint	4
▁Grievance	4
▁Redressal	4
▁Zealand	4
∆	4
BRO	4
gothi	4
▁Jesus	4
aj	4
▁Television	4
God	4
▁bless	4
▁sing	4
▁dance	4
”)	4
ntm	4
oc	4
rity	4
▁employer	4
▁satisfy	4
▁statut	4
ompensation	4
▁associations	4
ocieties	4
▁breaks	4
As	4
▁ideal	4
▁Amazingly	4
portal	4
▁solution	4
ride	4
▁standards	4
blockip	4
VP	4
▁automatically	4
▁EM	4
中	4
文	4
▁Recommendations	4
▁viewed	4
▁Moisture	4
▁equat	4
▁say	4
▁Innocent	4
fer	4
▁Freckled	4
▁geet	4
ht	4
ust	4
▁rice	4
▁Michael	4
▁Rose	4
AE	4
▁GQ	4
▁expire	4
OY	4
▁settled	4
nivers	4
▁adjective	4
▁Tea	4
▁papers	4
▁exams	4
▁holidays	4
▁Surveyors	4
▁font	4
▁verb	4
▁Extension	4
▁hails	4
Barpeta	4
▁California	4
▁Teens	4
LET	4
▁mesh	4
Karim	4
▁Copy	4
▁hence	4
riste	4
▁Happ	4
month	4
▁Bleeding	4
▁organisation	4
§	4
▁Princess	4
▁Truth	4
▁comfort	4
ture	4
শ	4
Pr	4
shared	4
responsibilities	4
join	4
▁Dad	4
▁Karm	4
▁Photos	4
▁Religious	4
hidden	4
profit	4
▁tongue	4
▁Sy	4
▁Mexican	4
▁craft	4
▁figure	4
▁setup	4
server	4
nary	4
AR	4
commod	4
▁repair	4
BJP	4
▁Borah	4
▁Ame	4
tani	4
Tribal	4
▁Prayers	4
▁endorsement	4
ila	4
▁Homeopath	4
▁Unani	4
ৰক	4
pager	4
ten	4
▁regulations	4
▁involves	4
▁Khu	4
ang	4
▁Task	4
▁mount	4
▁gardening	4
eimbursement	4
btak	4
▁Interest	4
PIL	4
▁matches	4
▁Cheerleader	4
▁Mess	4
frog	4
SA	4
mb	4
ark	4
▁reaction	4
▁Radioactive	4
zeb	4
▁Picture	4
mination	4
▁sync	4
▁Diseases	4
▁bar	4
▁Grihshoryam	4
del	4
è	4
▁Albanian	4
iddle	4
▁rain	4
▁fra	4
omeone	4
▁CO	4
▁Dhu	4
▁Ud	4
kat	4
▁train	4
▁Impurit	4
▁KK	4
!'''	4
▁Liquid	4
▁pl	4
▁pronoun	4
▁spouse	4
▁Gaming	4
▁computers	4
Japan	4
▁Paras	4
▁cars	4
▁closeup	4
▁Colourline	4
▁Corporation	4
Rs	4
type	4
▁Grace	4
Mantri	4
wet	4
▁TUBE	4
▁KW	4
▁Auditorium	4
▁Exchange	4
▁Procedure	4
࿗	4
ï	4
Yearly	4
▁fruits	4
acco	4
▁striptease	4
▁houses	4
▁DC	4
▁machines	4
▁coat	4
▁Rank	4
▁bottom	4
externally	4
▁Fix	4
permitted	4
▁ঘ	4
▁PI	4
Softcore	4
▁ICU	4
▁Exclusive	4
GMCH	4
▁islam	4
suppress	4
▁enroll	4
self	4
▁ā	4
yatāṃ	4
vert	4
▁rubber	4
ral	4
▁bo	4
▁spirits	4
▁Average	4
bby	4
▁Desk	4
▁Brand	4
io	4
Mpa	4
▁PTFE	4
▁Ser	4
CUS	4
Tits	4
Home	4
▁routine	4
Invalid	4
ieces	4
▁Cancellation	4
▁translate	4
▁Haryana	4
▁Ada	4
ess	4
ron	4
▁Chat	4
▁Universities	4
aternity	4
Books	4
▁delete	4
ik	4
missions	4
▁suppliers	4
▁supplier	4
▁Bangla	4
ɲ	4
ʈ	4
▁bandh	4
▁seen	4
▁optic	4
▁mā	4
rk	4
▁Attack	4
▁HT	4
rajo	4
nya	4
▁Structure	4
ans	4
exhausted	4
Protect	4
▁brunette	4
▁Wiki	4
nocreate	4
হ	4
stry	4
▁possession	4
▁assured	4
sey	4
▁Mouth	4
bel	4
ome	4
CS	4
▁legitimate	4
▁jurisdiction	4
processor	4
mighty	4
ps	4
ually	4
▁Numer	4
hat	4
▁crash	4
get	4
▁Result	4
ă	4
▁spend	4
su	4
▁explosi	4
▁Fo	4
▁provision	4
▁Quick	4
▁Sky	4
▁owned	4
▁Gauge	4
Fift	4
▁Agents	4
꧅	4
▁Complete	4
▁Moaning	4
▁Available	4
▁Nirbhaya	4
▁Rape	4
▁enrich	4
▁Prim	4
▁naughty	4
Contribution	4
▁lessons	4
▁structure	4
CU	4
nic	4
▁ones	4
▁expertise	4
▁Banga	4
cc	4
▁Scandal	4
▁Narrat	4
▁Ze	4
hong	4
match	4
failure	4
▁Ocean	4
▁Banks	4
▁CG	4
uxi	4
▁bi	4
▁threesome	4
cus	4
▁Depreciation	4
▁par	4
▁Person	4
▁Vidya	4
IV	4
▁ownership	4
▁Dig	4
RT	4
KS	4
moha	4
▁AUTO	4
▁Artisan	4
▁Stethoscope	4
▁Ele	4
▁Sugar	4
▁wet	4
Peac	4
▁Pakistan	4
▁fake	4
▁leaders	4
▁Staff	4
top	4
rie	4
Sac	4
}=	4
)$$	4
}+\	4
gan	4
famous	4
▁challenges	4
▁directors	4
▁Leggings	4
ngli	4
Social	4
Experiment	4
▁cycle	4
building	4
LTD	4
words	4
▁Searches	4
illa	4
char	4
Inputs	4
▁grandpa	4
mode	4
▁petite	4
▁Fake	4
▁residence	4
▁Packag	4
▁Tool	4
▁Soon	4
▁Mangal	4
▁Scientist	4
dika	4
ants	4
▁Vishnu	4
▁mistakes	4
▁omission	4
▁soil	4
▁Steph	4
▁Bbw	4
▁topics	4
▁subscribe	4
Lo	4
LIA	4
▁forward	4
left	4
▁BD	4
▁Many	4
umble	4
have	4
▁Disablement	4
▁Viol	4
▁preparation	4
▁Kashmir	4
▁Arabian	4
▁sp	4
▁Balance	4
▁WORK	4
▁Horse	4
▁Fl	4
▁Plot	4
▁stakeholders	4
▁Must	4
▁intelligence	4
▁babes	4
members	4
▁Cleaning	4
bed	4
itis	4
▁Holes	4
▁HV	4
aqq	4
▁Fine	4
▁collectors	4
▁Dealers	4
▁owners	4
▁Terrorism	4
▁Bu	4
permission	4
imal	4
▁Bombay	4
menu	4
▁Associate	4
ade	4
▁broadly	4
▁whatever	4
▁Philippines	4
▁Magic	4
Never	4
▁Solution	4
▁balance	4
▁Deb	4
▁derive	4
▁workmanship	4
▁Negligence	4
novative	4
▁infrastructure	4
▁administrat	4
col	4
▁profiles	4
▁Divin	4
pad	4
▁MMMM	4
livepreview	4
▁Discover	4
INI	4
▁bang	4
php	4
ᴇ	4
▁cock	4
spiration	4
▁artist	4
preced	4
▁follows	4
▁Warehous	4
▁Eid	4
▁Giv	4
▁hardware	4
▁correctly	4
copyright	4
ṭ	4
wala	4
▁cylinders	4
▁treatments	4
ye	4
ashk	4
▁viz	4
ibliography	4
ki	4
selected	4
⚔	4
LO	4
BAL	4
▁Tokyo	4
▁Works	4
▁Ans	4
▁voice	4
▁demand	4
▁Mesh	4
khil	4
▁maid	4
▁JÛ	4
joy	4
▁Sharma	4
▁Hon	4
▁INT	4
IMA	4
▁Canadian	4
▁Down	4
▁Pi	4
OUR	4
▁Option	4
▁statistics	4
Free	4
āra	4
▁Trends	4
im	4
eli	4
▁breakage	4
▁Storage	4
ђ	4
▁Cool	4
▁Testi	4
▁Stock	4
▁Pashto	4
ue	4
▁Hub	4
bag	4
▁administration	4
▁Little	4
Deductible	4
drunk	4
▁transportation	4
▁mortal	4
Delete	4
▁challenging	4
dive	4
▁Instagram	4
▁Silchar	4
movedto	4
▁Var	4
isa	4
▁stage	4
CO	4
▁Deka	4
ber	4
▁Factor	4
▁Tenerife	4
Contents	4
van	4
▁confirmation	4
▁reflect	4
ET	4
▁viral	4
▁Enjoy	4
▁hassle	4
▁approximate	4
▁upline	4
▁celebrity	4
BK	4
▁qualifi	4
▁professionals	4
▁Excess	4
ap	4
▁Trampling	4
▁errors	4
▁xmas	4
ফ	4
▁AIDS	4
▁kille	4
▁quran	4
▁Des	4
▁virus	4
▁milk	4
▁Magazine	4
▁handed	4
elan	4
▁Bang	4
▁moment	4
▁Past	4
▁Priyank	4
▁Chand	4
▁Traffic	4
▁Durga	4
Hidden	4
▁Solo	4
Ex	4
к	4
▁Stamps	4
▁Vehicle	4
Blood	4
bu	4
☬☠	4
â	4
ster	4
▁Touch	4
▁clubs	4
mī	4
▁Tribun	4
Pages	4
▁Chance	4
▁future	4
▁excellent	4
▁Unfortunately	4
hy	4
urriculum	4
▁Space	4
▁Complaint	4
▁enjoy	4
▁patient	4
check	4
▁Navigation	4
ep	4
Ele	4
oster	4
▁Tolerance	4
MOTIV	4
align	4
[/	4
nder	4
▁shiny	4
yam	4
▁spell	4
▁communicat	4
▁desir	4
▁asked	4
▁low	4
▁commodit	4
⚜	4
▁resident	4
▁Advantages	4
recognise	4
word	4
igtit	4
ṇa	4
ṟa	4
▁Lock	4
▁Ladder	4
skl	4
▁Capital	4
▁Handa	4
▁realize	4
▁upskirts	4
lable	4
Glaze	4
▁Access	4
▁Yahya	4
lene	4
stock	4
▁মি	4
▁milfs	4
var	4
width	4
height	4
▁buildings	4
▁interior	4
▁Kul	4
▁Kha	4
▁tend	4
oo	4
▁Answered	4
▁→	4
fi	4
▁unti	4
▁Exclusion	4
▁effected	4
Interview	4
On	4
ences	4
▁Forward	4
▁introduction	4
▁Multi	4
▁cancell	4
▁Drama	4
▁raid	4
NF	4
▁doctors	4
▁staffs	4
ctively	4
dbl	4
rnament	4
▁mushroom	4
▁kits	4
▁Panjab	4
▁gloryhole	4
▁III	4
blast	4
▁Square	4
▁operator	4
▁Rich	4
HD	4
hala	4
▁Vision	4
▁ill	4
▁Victor	4
▁ধৰ	4
িত	4
▁Dhar	4
▁Poly	4
▁finance	4
romotion	4
amping	4
▁prioriti	4
▁convenient	4
▁fines	4
▁aspirations	4
▁shape	4
▁opted	4
▁devices	4
▁Glu	4
▁certifi	4
▁ENG	4
EER	4
▁Handl	4
؏	4
PT	4
dentification	4
▁idea	4
▁discipline	4
Source	4
▁Chandra	4
▁Plump	4
▁Footjob	4
glaze	4
▁amendments	4
▁Proper	4
▁filled	4
Windows	4
▁tall	4
▁Bangladesh	4
▁ab	4
▁Dance	4
▁Painting	4
▁Locator	4
▁compris	4
▁interaction	4
▁relate	4
▁Processes	4
urit	4
anian	4
▁ouguiya	4
otPorn	4
▁Break	4
sign	4
▁Supplication	4
eb	4
▁orgasm	4
yperlink	4
▁tags	4
▁Example	4
▁Turb	4
▁Thrus	4
▁opacity	4
double	4
win	4
qi	4
▁spot	4
Insurance	4
▁industries	4
[[:$	4
pipe	4
▁reasons	4
▁Grant	4
▁attention	4
▁'''[[	4
]]'''	4
▁Solved	4
▁InfoComm	4
▁enabled	4
▁Lee	4
▁z	4
ĩ	4
uchi	4
▁Lith	4
directed	4
▁IDOL	4
▁Supply	4
AA	4
room	4
▁Restrict	4
▁adult	4
destination	4
▁heaven	4
▁sport	4
eyya	4
▁boobs	4
iamond	4
rn	4
▁recip	4
ient	4
▁anxiety	4
New	4
▁Theft	4
akh	4
Up	4
▁Am	4
▁Melan	4
▁IS	4
▁Humanity	4
ʼ	4
▁Disadvantages	4
▁denied	4
fe	4
adhika	4
▁musical	4
▁cartons	4
▁hc	4
airy	4
ɨ	4
▁units	4
lose	4
▁Ke	4
▁park	4
▁AskIslamPedia	4
NKC	4
▁volume	4
duplicatesearch	4
▁translator	4
NDE	4
tolen	4
polling	4
▁IDSA	4
▁Fi	4
▁Understand	4
▁recovered	4
gi	4
▁Muhamm	4
▁cosmetic	4
▁delay	4
ustain	4
▁promise	4
local	4
lyn	4
▁Extr	4
▁values	4
loginreq	4
\"	4
▁node	4
▁religious	4
▁Load	4
▁Fidelity	4
▁Clean	4
liness	4
ayan	4
▁Aunt	4
mic	4
epair	4
▁samā	4
▁Jocks	4
▁Rack	4
▁Mount	4
▁thanks	4
▁presentation	4
▁hyena	4
▁initial	4
▁Mari	4
warning	4
emin	4
▁verification	4
aper	4
_{	4
▁Matures	4
usergroup	4
▁Consultations	4
▁ye	4
▁iPhone	4
▁shops	4
lug	4
▁bags	4
̃	4
▁Domi	4
cili	4
▁kilobytes	4
unlimited	4
Merge	4
▁Hockey	4
ყ	4
▁ca	4
▁Coffin	4
▁touch	4
▁tied	4
▁CAS	4
sulfide	4
▁Kil	4
▁individuals	4
▁bracket	4
▁Yama	4
js	4
jumpto	4
▁tru	4
▁LIMITATION	4
ANY	4
UND	4
▁AND	4
TES	4
▁actor	4
ga	4
▁Sunn	4
▁Siddha	4
▁Rao	4
▁Translat	4
▁spar	4
without	4
▁profit	4
▁suspect	4
𑁂	4
𑀢	4
Apart	4
▁Paytm	4
▁super	4
Ħ	4
▁Dhekiakhowa	4
▁Lust	4
antine	4
▁Spring	4
▁recommend	4
force	4
▁Stadium	4
▁Belgian	4
▁Bela	4
▁Hone	4
▁Hyderabad	4
uwa	4
▁Sissy	4
▁Murder	4
▁vocabulary	4
▁indicat	4
▁twinks	4
▁Gym	4
▁birthday	4
▁celebration	4
▁Explore	4
▁Bombshell	4
▁Literacy	4
ronic	4
▁Hanum	4
▁Sel	4
member	4
▁Yogurt	4
first	4
▁West	4
▁Jamaica	4
▁Though	4
▁Insp	4
▁dictionary	4
▁confirm	4
DC	4
▁Patrick	4
▁PHP	4
▁appli	4
▁grounds	4
▁Rai	4
ᴇʀ	4
▁programme	4
▁Gree	4
▁Ski	4
Template	4
CK	4
bi	4
▁brazilian	4
▁Hol	4
▁dishonest	4
▁cast	4
rated	4
▁attributes	4
▁diameter	4
▁Anas	4
▁feature	4
▁cell	4
▁hole	4
▁agencies	4
▁linguist	4
▁Jawa	4
hru	4
aught	4
▁Artistic	4
ort	4
▁Programs	4
āṃ	4
▁floods	4
▁Eh	4
▁Commo	4
▁Met	4
files	4
ficiency	4
▁Commissioner	4
▁environment	4
▁performance	4
editors	4
om	4
▁measure	4
▁ups	4
▁publishe	4
▁arise	4
▁lesbians	4
▁Releases	4
▁Sheen	4
given	4
Save	4
AL	4
▁themselves	4
TUBE	4
lation	4
secretary	4
▁portfolio	4
anity	4
▁advertiser	4
meat	4
some	4
tropic	4
✧	4
☆	4
irendra	4
gohain	4
▁Ken	4
▁twitter	4
badtitle	4
ama	4
another	4
++	4
$$.	4
tu	4
▁terrorist	4
▁Disease	4
▁Suzhou	4
▁Buckle	4
▁AbdulAzi	4
▁principles	4
▁traditional	4
▁Insulin	4
▁symptoms	4
Thai	4
query	4
tsiplanm	4
wan	4
List	4
way	4
▁horn	4
fficient	4
av	4
▁Buddhis	4
▁Sects	4
▁undergo	4
angle	4
▁pole	4
▁Alternatively	4
Advanced	4
▁fine	4
▁banner	4
▁advertise	4
▁Rod	4
specially	4
kin	4
ي	4
▁Candidate	4
playing	4
sysop	4
uff	4
▁sound	4
▁Dhol	4
pion	4
▁Qualification	4
▁Accessibility	4
▁Intention	4
aughter	4
tter	4
▁Pin	4
uta	4
▁AGP	4
▁movement	4
▁built	4
▁invi	4
▁illegal	4
ŋ	4
▁Tak	4
▁Base	4
▁contribution	4
▁tasks	4
shift	4
▁folder	4
▁Keyboard	4
▁CHF	4
let	4
ղ	4
uploaded	4
▁influence	4
▁Vijaya	4
م	4
session	4
air	4
▁boiler	4
ou	4
▁license	4
Real	4
▁ovaries	4
▁Tai	4
}}/	4
ū	4
▁GBP	4
▁Ga	4
▁surve	4
▁Parliament	4
ons	4
▁easter	4
removed	4
▁Finish	4
▁Paradise	4
▁Cal	4
▁Wale	4
▁Enjo	4
ining	4
▁Pen	4
Dr	4
:≥	4
UKI	4
▁enormous	4
▁alone	4
▁sun	4
gra	4
▁śrī	4
fluent	4
▁samples	4
▁Goddess	4
▁o	4
mala	4
kgs	4
▁Lecture	4
⚡	4
▁instructions	4
▁Bishnu	4
idget	4
▁random	4
uki	4
▁watch	4
▁Source	4
▁Borwein	4
charis	4
lam	4
Kitchen	4
sunny	4
▁Customer	4
▁kit	4
Documents	4
black	4
allowe	4
Promote	4
▁versatil	4
▁nutrition	4
▁apart	4
▁fabrics	4
▁identical	4
▁reput	4
▁gathering	4
----------------	4
▁medicine	4
▁candidates	4
▁appear	4
Step	4
▁ahead	4
arehouse	4
▁transferred	4
newer	4
▁patterns	4
▁{{{	4
data	4
}}}	4
gin	3
▁procrastination	3
▁merg	3
▁joint	3
▁portion	3
▁gang	3
▁died	3
▁BE	3
▁Riot	3
▁curv	3
▁babe	3
wire	3
ś	3
ṇī	3
anson	3
Behind	3
▁plea	3
ilek	3
ham	3
▁limbs	3
▁deep	3
under	3
▁sauna	3
▁Sewa	3
timezone	3
▁differ	3
▁Release	3
▁MAN	3
▁CAREER	3
▁solicitation	3
▁critic	3
▁Memori	3
▁institute	3
▁promis	3
▁sweet	3
▁cream	3
▁Even	3
exclud	3
▁bed	3
cid	3
mah	3
Black	3
▁Cas	3
▁CAT	3
idan	3
▁authored	3
▁Tawh	3
▁reciter	3
▁sa	3
Na	3
▁celebrate	3
scr	3
▁magnet	3
▁Gab	3
▁Gen	3
weed	3
arse	3
bow	3
alias	3
extension	3
note	3
parent	3
path	3
▁Drink	3
mount	3
▁deposit	3
▁Withdraw	3
tract	3
▁Entit	3
▁Sab	3
▁Aj	3
▁commences	3
bt	3
▁achievements	3
▁Til	3
results	3
'''.	3
▁Duties	3
omali	3
▁drugs	3
▁alcohol	3
▁Surge	3
bo	3
▁Tata	3
ক	3
▁অ	3
UGC	3
Statistics	3
+...	3
racle	3
▁vā	3
du	3
▁gate	3
▁Lesb	3
▁leap	3
▁Distributor	3
▁groom	3
▁franchise	3
spread	3
▁disadvantage	3
▁lower	3
contri	3
▁GDPR	3
▁Want	3
post	3
girl	3
▁Judi	3
fifty	3
▁alternative	3
āna	3
▁WORLD	3
▁Egyptian	3
▁Municipality	3
ewellery	3
ock	3
▁Exclud	3
▁Cricket	3
▁temper	3
ancient	3
▁epic	3
nk	3
ðʌ	3
ʧ	3
tube	3
▁sensitive	3
▁relation	3
▁moms	3
adjective	3
▁Smesharik	3
▁vol	3
▁Course	3
▁doubl	3
SHOP	3
xcellence	3
▁Large	3
ables	3
▁Crane	3
endors	3
▁specialist	3
▁setting	3
▁games	3
▁programmes	3
▁Herb	3
▁Kr	3
▁interact	3
mita	3
▁Tourist	3
▁conv	3
ulsion	3
▁Units	3
▁UK	3
low	3
vintage	3
▁Posters	3
▁reduced	3
itgi	3
▁voluntar	3
esides	3
▁Coordination	3
▁Chi	3
▁Screenshot	3
▁Hogtied	3
▁GOLD	3
▁Cumshower	3
▁technique	3
▁practitioners	3
tm	3
▁Owners	3
oop	3
▁sect	3
wo	3
▁Quant	3
shop	3
eu	3
▁Chechen	3
▁Cub	3
▁Capacity	3
▁Kobelco	3
▁fix	3
▁Advertise	3
dham	3
▁receipt	3
marks	3
▁Summers	3
olin	3
▁Opinion	3
▁wo	3
▁Dia	3
unk	3
tattoo	3
▁redirect	3
images	3
▁Sand	3
▁cr	3
bodi	3
hil	3
abh	3
apping	3
satellite	3
▁whil	3
▁equipments	3
▁Yak	3
lev	3
bortion	3
▁preserv	3
▁Jamaat	3
▁obligations	3
▁worker	3
▁delegat	3
▁officers	3
▁Blocks	3
▁productive	3
▁morning	3
▁aid	3
▁fascinat	3
▁Fines	3
▁penalties	3
cht	3
Orissa	3
wikipedia	3
Auto	3
start	3
▁PAR	3
▁bike	3
newuserlog	3
▁Hit	3
MR	3
statistics	3
tan	3
▁Java	3
Ꮲ	3
▁bla	3
Song	3
range	3
large	3
▁String	3
▁Meri	3
tive	3
▁Colossians	3
▁Tharoor	3
а	3
▁swinger	3
gangbang	3
▁Libraries	3
BC	3
▁BEE	3
cel	3
$.	3
Ŧ	3
▁Eye	3
▁Seat	3
ü	3
▁attach	3
loaded	3
▁AOA	3
▁Breast	3
▁amounts	3
▁telephone	3
▁attendant	3
▁cu	3
▁suffered	3
▁shut	3
▁ceta	3
▁subsidiaries	3
▁Fee	3
region	3
▁zone	3
▁downloading	3
SK	3
watchthis	3
lash	3
▁Bhu	3
pen	3
▁cycl	3
native	3
▁accompany	3
▁plastic	3
Chinese	3
▁ICT	3
break	3
▁objects	3
▁Rub	3
res	3
▁Establish	3
bating	3
orders	3
seeds	3
▁tissues	3
▁pollen	3
three	3
▁Indonesia	3
▁tree	3
ier	3
▁Coffee	3
▁lecturer	3
▁Masjid	3
▁Fall	3
▁Sc	3
▁Zomato	3
tamil	3
▁currency	3
oph	3
ops	3
▁bangla	3
eph	3
▁cur	3
string	3
uminat	3
INN	3
Cutting	3
▁Ez	3
▁Stage	3
▁Reappoint	3
▁Suck	3
▁Kshit	3
ija	3
▁booty	3
sexy	3
East	3
▁Serbia	3
▁Meaning	3
▁Nand	3
▁Deca	3
▁Cente	3
▁celebrations	3
▁ISOG	3
▁Root	3
case	3
Revision	3
▁peril	3
▁Matondkar	3
▁Shetty	3
foot	3
Ƒîʀɛ	3
Shaq	3
▁Wi	3
▁Manufacturing	3
▁Sarania	3
▁Agricultur	3
▁Ayurved	3
▁Sidh	3
▁insert	3
▁য	3
▁ক	3
▁suffer	3
▁scenario	3
paid	3
▁miss	3
ilestones	3
kesh	3
▁boat	3
▁sisters	3
NT	3
▁customized	3
▁Interesting	3
▁TM	3
í	3
▁Ƭ	3
▁bench	3
zzz	3
Politics	3
▁convert	3
ku	3
▁radiation	3
▁subpages	3
rang	3
Rahul	3
▁Fil	3
▁Comic	3
▁formal	3
loginsuccess	3
\$	3
\".'''	3
▁combine	3
hosen	3
luv	3
third	3
▁industrial	3
ground	3
COT	3
TO	3
▁Viral	3
▁mess	3
der	3
▁memor	3
uring	3
▁chains	3
▁father	3
UPE	3
▁Reshuffle	3
▁DE	3
jjah	3
qee	3
qah	3
▁Zak	3
IPR	3
▁accompanie	3
▁Pharmac	3
▁Animal	3
▁Theory	3
▁Poem	3
▁exclusions	3
▁ছ	3
▁Clar	3
▁cat	3
▁strapon	3
▁spank	3
▁Ol	3
ronunciation	3
map	3
step	3
▁seed	3
▁cycads	3
▁ornament	3
▁vegetable	3
▁Leon	3
▁shutdown	3
▁Chidambaram	3
▁electronics	3
Laptop	3
matches	3
▁Virgin	3
▁ভ	3
▁memorize	3
▁bbw	3
▁Mysti	3
dhya	3
AMTRON	3
▁Warranty	3
▁RS	3
▁renewals	3
▁premiums	3
▁NX	3
▁Settlement	3
▁spoke	3
retype	3
LAR	3
▁ENGLISH	3
▁Watch	3
▁Trump	3
č	3
uary	3
▁perspective	3
▁Half	3
▁documented	3
▁vegetables	3
▁Too	3
▁Movement	3
▁accessed	3
▁wa	3
tley	3
border	3
Methoxy	3
svoyeur	3
▁Patients	3
Discussion	3
▁ই	3
SX	3
▁Revenge	3
▁Krisham	3
▁precis	3
Hodgkin	3
▁Rev	3
nest	3
▁fitness	3
▁Sailor	3
▁character	3
asts	3
▁feminin	3
▁Princ	3
ples	3
▁fan	3
ngali	3
▁marks	3
ipar	3
▁WF	3
▁Dong	3
representati	3
Amharic	3
▁Lean	3
▁temp	3
video	3
▁adorable	3
▁relationships	3
ek	3
PAPER	3
▁Caramel	3
▁chubby	3
NER	3
readonly	3
▁entries	3
▁Admi	3
▁climate	3
cy	3
▁Lovelace	3
▁Fr	3
▁Remov	3
sub	3
▁succeeded	3
▁Barbie	3
▁Purchase	3
▁disputes	3
▁Cho	3
customcss	3
▁Kokrajhar	3
▁Row	3
▁Unfo	3
lding	3
▁Ok	3
▁element	3
OR	3
▁Hypnotized	3
AY	3
▁subjects	3
vocation	3
▁Far	3
▁Occasion	3
▁Sitting	3
▁Canton	3
NIS	3
ʌɪ̯	3
ɳɳ	3
SLTD	3
stack	3
▁progress	3
protectedpage	3
blondeteen	3
▁HUB	3
য়	3
▁cook	3
▁Khali	3
▁Bdsm	3
Dec	3
▁Numbers	3
▁sequence	3
▁Mills	3
▁Rum	3
▁Tafs	3
ations	3
▁GNU	3
KK	3
▁LIMITED	3
▁giant	3
▁inception	3
▁Quarters	3
▁behalf	3
ligence	3
webcam	3
▁alternatives	3
▁overview	3
▁XXXKinky	3
red	3
▁Jew	3
▁twi	3
▁Daughter	3
LV	3
Ra	3
▁AbdulMuhs	3
Kurd	3
redirects	3
▁Button	3
▁ray	3
▁assembly	3
▁Dhruba	3
Sul	3
▁Common	3
▁supplication	3
▁Cay	3
▁Methyl	3
▁faith	3
▁warranty	3
▁PLA	3
hook	3
▁jɛ̝	3
rinding	3
▁rituals	3
ilgrimage	3
▁AH	3
▁fift	3
▁loan	3
▁Pillar	3
▁inf	3
𐌄	3
▁Gang	3
▁globally	3
▁enterprise	3
▁lists	3
▁Meetings	3
▁dollar	3
Munajj	3
▁hadith	3
▁redhead	3
▁Oppos	3
eem	3
etting	3
▁looks	3
▁moves	3
▁simultaneously	3
▁replacement	3
RU	3
AJA	3
▁officer	3
▁states	3
lore	3
▁fresher	3
▁Gur	3
tlas	3
▁Varieties	3
▁Latina	3
rovince	3
▁Equatoria	3
DMCA	3
preg	3
▁dependents	3
epper	3
ica	3
▁Pearl	3
▁partner	3
▁BUSINESS	3
cro	3
▁Quer	3
▁gradual	3
▁possibl	3
▁promi	3
nent	3
CSR	3
BRIC	3
amba	3
lean	3
▁Lim	3
breasts	3
▁Badaw	3
▁Stotrams	3
▁honey	3
▁Masturbation	3
▁absolute	3
▁handles	3
▁fil	3
▁ON	3
▁IRDAI	3
▁Domini	3
▁Sang	3
nes	3
▁Wire	3
Poly	3
$$,	3
▁Eu	3
▁Courag	3
▁Ava	3
▁lining	3
Inde	3
anks	3
▁ped	3
▁Riding	3
HAR	3
▁Places	3
oolbox	3
OT	3
繁	3
WT	3
▁superior	3
▁brand	3
▁Pratidin	3
Remember	3
▁fucking	3
aji	3
aashtakam	3
indī	3
▁enquiries	3
▁register	3
▁energy	3
▁Han	3
▁Coa	3
▁Vignanam	3
▁Siva	3
▁bizarre	3
▁skinny	3
▁organ	3
▁bio	3
▁facial	3
yB	3
XA	3
mK	3
▁forwarder	3
▁mar	3
▁sq	3
▁yd	3
▁Scene	3
▁incorrect	3
complete	3
▁breaking	3
scanner	3
▁digitiz	3
agged	3
▁Palla	3
PD	3
▁CNY	3
▁Shanghai	3
▁disp	3
▁Ob	3
▁DO	3
MIT	3
▁PER	3
▁Udd	3
▁shemales	3
▁Bird	3
ute	3
ō	3
▁Mor	3
▁Inco	3
▁ru	3
▁homosexual	3
▁intelligent	3
▁Develop	3
▁Sincerely	3
,”	3
Preferences	3
▁pleasure	3
\".	3
disabled	3
▁Franchises	3
▁Grievances	3
▁Antibiotic	3
▁prescri	3
▁Inf	3
▁functioning	3
loe	3
▁Juicy	3
]]\	3
▁pictures	3
▁difficulties	3
▁intimate	3
▁Compan	3
▁washing	3
▁Chrom	3
▁End	3
▁Pal	3
azz	3
▁Clown	3
sheet	3
▁globe	3
▁demanding	3
ris	3
▁Alo	3
▁Juice	3
▁cfnm	3
▁matters	3
t̪t̪	3
▁prod	3
igious	3
Tamil	3
HSLC	3
▁bal	3
isted	3
▁wedding	3
▁Chihuahua	3
▁Mop	3
▁QTP	3
mila	3
House	3
KYC	3
▁Side	3
▁Strap	3
▁Awesome	3
cascading	3
▁toughness	3
▁payments	3
▁WOMEN	3
DL	3
blank	3
▁blank	3
▁nurtur	3
hindi	3
Next	3
ented	3
▁Neighbor	3
▁plate	3
▁Nice	3
▁intellectual	3
echnical	3
▁Mac	3
▁Whe	3
▁favourite	3
And	3
ware	3
eṅka	3
▁nil	3
jj	3
PL	3
bigass	3
ḍa	3
▁Repository	3
▁Mir	3
▁Humiliation	3
Teasing	3
compare	3
versions	3
See	3
▁versions	3
Chance	3
hir	3
anti	3
▁attract	3
ypocrisy	3
▁produced	3
▁narrati	3
▁Chemical	3
▁Boobs	3
Expiry	3
ipblocklist	3
▁beginner	3
▁phrase	3
▁Pat	3
dah	3
enter	3
ology	3
headed	3
▁cancer	3
▁Caucasian	3
Alexandra	3
nn	3
▁sh	3
bes	3
▁Hobsbawm	3
▁campa	3
▁mistress	3
Learn	3
▁Shut	3
▁authori	3
▁representative	3
▁particulars	3
▁confidence	3
▁clima	3
▁Pizza	3
▁Solve	3
▁poly	3
▁workshops	3
ṣṭa	3
▁Caneing	3
▁Administration	3
aimed	3
ig	3
cooled	3
mer	3
Qazabri	3
rod	3
▁Aircrafts	3
label	3
▁blend	3
herent	3
ynchron	3
AASU	3
▁implementation	3
ks	3
▁wonder	3
▁mass	3
▁Æ	3
tric	3
▁Valid	3
▁Diameter	3
▁Lahowal	3
cam	3
▁centuries	3
▁underwriting	3
▁Clamp	3
▁Madina	3
REAS	3
▁centre	3
KP	3
▁librari	3
liance	3
parser	3
function	3
▁St	3
▁assess	3
aluation	3
▁addressed	3
▁Camp	3
▁Hymn	3
▁Function	3
▁Beijing	3
Reason	3
emis	3
▁Etc	3
ombustion	3
how	3
▁resign	3
▁priority	3
▁identifi	3
West	3
ianna	3
softcore	3
ITA	3
▁Dimension	3
▁HOME	3
▁favor	3
▁assure	3
▁Brit	3
▁Guy	3
entiment	3
quare	3
▁accomplish	3
▁Charl	3
kitchen	3
▁Bull	3
▁Sl	3
▁Pee	3
▁attribut	3
utant	3
▁derivative	3
▁kn	3
▁imp	3
▁ho	3
ert	3
▁Zain	3
▁Soft	3
▁Boro	3
▁Taib	3
require	3
▁ব্য	3
▁Shar	3
▁Urban	3
▁transition	3
▁ground	3
ze	3
pool	3
▁CAA	3
mari	3
▁false	3
▁UP	3
Broken	3
▁Worth	3
▁Lakh	3
▁Puja	3
tilt	3
▁float	3
▁Lymphoma	3
▁terrorism	3
▁Sufi	3
▁Card	3
▁Zhongyue	3
▁AK	3
▁Vista	3
ple	3
▁Council	3
maid	3
▁Discussion	3
▁progressive	3
▁Packaging	3
noarticletext	3
FULLPAGENAME	3
REG	3
refixindex	3
Da	3
▁nor	3
opinion	3
▁FAQs	3
▁Poll	3
▁ARE	3
OURS	3
▁THAT	3
▁feet	3
fire	3
▁Thailand	3
▁wwatching	3
Enabl	3
▁Designation	3
▁CRO	3
SING	3
EET	3
▁fullest	3
Methoxyeth	3
▁Vers	3
pon	3
▁purify	3
back	3
erjee	3
irang	3
Palms	3
▁Pest	3
qu	3
hot	3
▁aunt	3
▁intake	3
benefit	3
▁desires	3
▁Moran	3
▁keypads	3
current	3
▁dialog	3
▁appears	3
instrol	3
▁dancing	3
▁steam	3
▁SP	3
nstab	3
template	3
oodle	3
▁qui	3
ely	3
uties	3
▁Cli	3
▁servicing	3
▁inquiry	3
▁Gad	3
▁Inundation	3
▁Landslide	3
▁Storm	3
▁speed	3
▁Borb	3
▁sentence	3
▁import	3
▁Passionate	3
Authentication	3
▁Bhog	3
para	3
ه	3
UT	3
āvaṇ	3
mooth	3
sia	3
▁Sk	3
wing	3
▁mandat	3
▁communities	3
loating	3
Technology	3
anie	3
athi	3
©	3
▁Jewellery	3
Gear	3
▁Ray	3
▁Trader	3
lakṣmī	3
▁TAL	3
adend	3
▁Ste	3
▁Zinc	3
pixels	3
▁incur	3
petite	3
▁Led	3
▁Flash	3
ATIONS	3
▁ER	3
fantasy	3
author	3
▁Updates	3
▁finished	3
▁remin	3
isc	3
▁Raghunathan	3
▁Fe	3
yn	3
ternal	3
Mathletics	3
Katha	3
▁Saw	3
▁headquarter	3
Fisting	3
▁Rates	3
Contact	3
▁clothing	3
▁Introduc	3
▁TGN	3
▁outcome	3
▁operators	3
▁wind	3
screen	3
▁disclaimer	3
▁universities	3
▁Crime	3
▁Dharm	3
▁cent	3
yah	3
feedback	3
▁angel	3
ಸ	3
ಹ	3
ಗ	3
ಳ	3
ು	3
laya	3
▁Français	3
▁Jet	3
ppy	3
দা	3
▁Cuban	3
discipline	3
specialpage	3
sha	3
▁participate	3
▁Mummification	3
▁hygiene	3
scu	3
ppet	3
▁Amid	3
▁Protests	3
▁suspe	3
▁glu	3
▁Volunt	3
▁dur	3
▁CAPD	3
usion	3
▁Belt	3
ometer	3
▁IC	3
IPL	3
▁archive	3
▁substantia	3
▁Mark	3
▁Jiang	3
Indian	3
▁ob	3
iously	3
Krish	3
yaan	3
▁modify	3
▁revise	3
global	3
▁Lo	3
▁Rupabham	3
stick	3
Below	3
▁Sat	3
▁edge	3
▁Mona	3
▁Artist	3
▁Davi	3
xy	3
▁sort	3
▁violen	3
▁Hence	3
▁Relief	3
▁grave	3
▁Term	3
▁Runn	3
▁Swedish	3
uent	3
cated	3
▁forest	3
▁farm	3
▁variant	3
লি	3
▁Maxim	3
▁Organization	3
RO	3
▁Lea	3
ked	3
▁Pain	3
▁scholars	3
▁Hassa	3
▁propos	3
internal	3
▁opens	3
▁OR	3
▁cheaper	3
ivity	3
Hc	3
ef	3
▁Foot	3
▁fe	3
▁ᴘ	3
hiya	3
TC	3
▁Anim	3
▁gag	3
▁Basumatar	3
▁Fu	3
▁Judaism	3
▁Sports	3
▁Tok	3
▁Regula	3
▁ap	3
▁earn	3
▁([[	3
▁deletion	3
▁eat	3
▁avoid	3
▁CA	3
newimages	3
▁chosen	3
kyo	3
▁toner	3
▁Attend	3
▁literacy	3
▁requests	3
▁Requests	3
ে	3
▁Advertisement	3
ire	3
fortunate	3
awk	3
QWL	3
▁NQWL	3
QTT	3
rel	3
which	3
▁repaired	3
UM	3
ଓଡିଆ	3
▁Prob	3
▁surprise	3
▁Tariff	3
doctor	3
rative	3
ring	3
▁licking	3
KG	3
▁horse	3
▁Reserve	3
Password	3
▁Lenses	3
alves	3
OTE	3
▁Tera	3
raffic	3
uke	3
▁Patan	3
▁football	3
▁soccer	3
▁Lack	3
▁effort	3
▁bodies	3
▁Ru	3
boob	3
▁Magazines	3
▁Tribute	3
▁FreePornVideos	3
dildo	3
friend	3
toll	3
▁Lesson	3
color	3
▁flower	3
Horizon	3
▁build	3
Select	3
AMP	3
▁WHO	3
▁Faulty	3
EVE	3
▁t̪	3
ɳ	3
▁innovations	3
asc	3
▁serial	3
▁av	3
▁Tal	3
▁Uzan	3
▁ä	3
dev	3
▁Sankardev	3
microb	3
▁Slovak	3
▁logical	3
jyoti	3
▁diff	3
▁rollback	3
▁Lift	3
▁Essential	3
EX	3
DUR	3
rish	3
tim	3
▁kms	3
▁advisor	3
▁dissemination	3
▁duplicate	3
mā	3
▁Shivan	3
▁BRA	3
▁Rupa	3
▁Brush	3
▁Schools	3
▁Request	3
▁Gujarat	3
▁Solar	3
orient	3
▁leverage	3
▁institution	3
▁Process	3
lated	3
▁Manipur	3
wali	3
▁russian	3
▁Braces	3
address	3
▁Convert	3
▁Gross	3
▁representatives	3
theism	3
⎠	3
imitati	3
▁Fernande	3
▁surface	3
▁Suz	3
▁Burn	3
Hindi	3
aus	3
▁Genius	3
wn	3
hoose	3
▁Intr	3
BAG	3
▁guys	3
ori	3
abs	3
depth	3
▁depth	3
▁Lifestyle	3
ʏ	3
▁Facility	3
American	3
▁numeric	3
▁Maru	3
▁trib	3
usual	3
▁verses	3
Mechanic	3
▁Appliances	3
asket	3
size	3
Swachh	3
Petite	3
▁index	3
zech	3
▁workers	3
hew	3
eplacement	3
vic	3
ke	3
▁Olympiads	3
▁armpits	3
▁Ju	3
▁piss	3
formulation	3
▁suffering	3
י	3
▁organizing	3
▁vaccine	3
▁topic	3
▁discusse	3
driver	3
ounting	3
gnore	3
asswordremindert	3
▁Scr	3
subcategory	3
▁subcategories	3
▁seedlings	3
▁improvement	3
Shaved	3
nominal	3
▁abid	3
▁shar	3
▁Chopra	3
stitutional	3
lookup	3
▁Groups	3
▁Casino	3
▁mountable	3
▁feed	3
▁Principles	3
ockdown	3
▁liquor	3
manuscript	3
▁youth	3
ZZI	3
limit	3
▁immobiliz	3
OI	3
▁ajax	3
▁Val	3
BM	3
Ƚ	3
︎	3
Ù	3
roda	3
▁suggestion	3
hr	3
▁parameter	3
▁KH	3
Qad	3
▁Validity	3
▁thank	3
bracket	3
▁Subscription	3
▁Visual	3
Mathematics	3
▁Alert	3
▁gro	3
▁negligence	3
▁Facilities	3
VAL	3
AB	3
▁EXC	3
RED	3
▁Madhur	3
▁Dixit	3
mann	3
rana	3
▁Rajk	3
iz	3
▁Soo	3
▁Panch	3
▁Guides	3
▁sexual	3
▁automatic	3
▁Truck	3
ecutive	3
▁Subsidence	3
rogation	3
▁dy	3
▁𑀧𑁄	3
𑀭𑀼	3
𑀫	3
𑀢𑀼	3
non	3
▁scan	3
£	3
▁Ð	3
▁Madhavdev	3
yu	3
▁Mahindra	3
▁Chapter	3
District	3
groups	3
▁Ganesh	3
▁Inter	3
▁GI	3
BY	3
overall	3
▁locations	3
alya	3
▁AUD	3
▁Righteous	3
subscription	3
▁speaker	3
▁bonus	3
▁thickness	3
▁NE	3
onomy	3
itle	3
▁Chart	3
ssa	3
▁suck	3
Sucking	3
ecades	3
Quiz	3
ges	3
▁rating	3
only	3
hn	3
▁burner	3
▁Activities	3
▁Mal	3
Σ	3
▁ge	3
▁Detail	3
▁sake	3
▁NuVid	3
PCS	3
▁hydr	3
▁sample	3
▁buckle	3
▁Expo	3
▁Broadcast	3
▁Practic	3
prefsnologin	3
▁Begum	3
ransliteration	3
work	3
▁Haw	3
occupation	3
▁Antique	3
▁failures	3
▁Nobel	3
ack	3
▁affiliates	3
▁Grammar	3
SHI	3
rica	3
bbed	3
confirmed	3
▁AVE	3
▁Retr	3
▁salvation	3
▁Mas	3
success	3
▁groo	3
▁Files	3
▁Reciters	3
ᴍ	3
▁implement	3
▁former	3
▁Endowment	3
▁optional	3
𑀺	3
HB	3
▁Tutorial	3
▁SA	3
illin	3
▁Specifications	3
aṅka	3
Ē	3
ld	3
☣	3
☠	3
▁Makkah	3
▁EN	3
gl	3
▁Thick	3
▁Label	3
bot	3
AI	3
Under	3
▁Bonne	3
▁configur	3
contribs	3
ought	3
▁poison	3
▁accurate	3
▁Asph	3
▁Legend	3
retard	3
Prohibit	3
▁stolen	3
capture	3
▁Mill	3
harl	3
economic	3
▁Unti	3
berg	3
▁Tgirl	3
Business	3
Sports	3
italian	3
ulous	3
▁Florida	3
amahaṃ	3
dye	3
▁vṛ	3
▁Made	3
▁Paint	3
▁Cousin	3
▁Silver	3
▁cameras	3
▁Yojana	3
high	3
▁warm	3
▁carbon	3
oxide	3
▁Cars	3
missingcomment	3
▁leadership	3
▁Joint	3
▁Shan	3
▁networking	3
vātma	3
▁tattva	3
tra	3
orous	3
Wanted	3
▁Begin	3
host	3
teenage	3
▁inaugurate	3
▁appreciation	3
CHIN	3
mediawiki	3
Manu	3
▁rack	3
scal	3
Solo	3
▁Medhi	3
▁Sto	3
winn	3
olic	3
IANS	3
Mumbai	3
▁accountability	3
▁justice	3
▁Dand	3
▁Boys	3
▁sal	3
Acquire	3
chan	3
▁Chair	3
▁autonomy	3
▁vitamin	3
ER	3
essa	3
▁Mut	3
ɛ	3
assam	3
▁quantit	3
▁Cric	3
Track	3
eramic	3
͙N͙	3
H͙	3
▁though	3
▁response	3
▁delight	3
▁Area	3
▁Height	3
hṛ	3
operator	3
phu	3
▁commo	3
illage	3
thy	3
▁curve	3
winner	3
riya	3
▁typ	3
▁hurricane	3
▁tempest	3
undation	3
▁rockslide	3
about	3
About	3
▁CT	3
ficial	3
▁vast	3
▁river	3
ʌɾʌ	3
urisprudence	3
▁jurisprudence	3
▁Gadkari	3
filter	3
▁Aash	3
rintable	3
mulator	3
respective	3
▁Pravasi	3
▁Dh	3
▁Burha	3
John	3
এব	3
েল	3
▁বি	3
ী	3
RUB	3
▁Year	3
iagnostic	3
▁Sansk	3
▁Championships	3
▁Customized	3
huge	3
▁ride	3
▁lights	3
▁gr	3
rata	3
▁Skin	3
▁husband	3
▁foreigners	3
▁Tribunal	3
SHA	3
▁Relative	3
aski	3
slampedia	3
ISL	3
▁ন	3
▁ja	3
lee	3
▁easier	3
▁voyeurh	3
▁Galile	3
chi	3
MEI	3
▁IM	3
attery	3
▁center	3
VU	3
▁Spain	3
ailed	3
Recent	3
cum	3
▁squirting	3
▁butt	3
izing	3
▁followed	3
market	3
▁Battle	3
ola	3
Ghan	3
▁treasur	3
▁Lalit	3
phal	3
▁Ed	3
▁AT	3
limina	3
kol	3
▁star	3
nesh	3
ricks	3
▁hundred	3
▁CD	3
Bhabha	3
▁Je	3
▁dimension	3
▁resource	3
divid	3
▁Keychains	3
Pregnancy	3
nurse	3
▁improving	3
onda	3
AX	3
𑀓𑀼	3
$,	3
CA	3
▁dealing	3
▁Pulle	3
▁Acrobatic	3
Ã	3
▁remove	3
▁tests	3
hetto	3
▁tickets	3
▁apple	3
anda	3
▁mill	3
fenney	3
▁thousand	3
navigation	3
nstruments	3
EN	3
vas	3
PDC	3
Village	3
Rockstars	3
▁audition	3
▁specta	3
▁contingencies	3
▁hacker	3
army	3
ough	3
▁involv	3
▁SX	3
UC	3
▁smoking	3
▁Nit	3
proof	3
▁magic	3
ɛ̝	3
ŋg	3
ɪ̯	3
▁immense	3
dar	3
▁bond	3
ngzhou	3
▁Zhe	3
Trademarks	3
iqu	3
▁Avali	3
ros	3
▁termin	3
▁ensur	3
▁applica	3
job	3
▁residents	3
▁blue	3
field	3
▁deities	3
alled	3
lain	3
▁SLTD	3
DR	3
rotchless	3
blocklog	3
▁Shape	3
▁Toddler	3
▁Kada	3
▁hormone	3
hick	3
▁evening	3
▁proof	3
virus	3
▁pulse	3
▁Territori	3
▁educat	3
nude	3
KV	3
▁Bodoland	3
▁Front	3
ebre	3
▁taj	3
▁texts	3
▁freshers	3
stub	3
▁deeds	3
▁Sour	3
▁Officials	3
▁Caught	3
▁faithful	3
▁diagrams	3
▁instruction	3
▁CATE	3
source	3
▁factories	3
}°	3
ঃ	3
articles	3
▁Pipe	3
ɽ	3
ʌŋ	3
է	3
▁ju	3
▁pedagog	3
▁shower	3
eva	3
hema	3
mahim	3
captcha	3
▁defend	3
▁Zeolite	3
▁Kho	3
▁packaging	3
▁Ak	3
username	3
▁Bilas	3
▁BS	3
STM	3
Dead	3
▁Manufacturer	3
▁fuck	3
▁Also	3
▁exten	3
mine	3
▁balloon	3
▁necessit	3
bs	3
realname	3
▁ov	3
▁Tab	3
▁brutal	3
Videos	3
Amateur	3
▁Train	3
▁XNXX	3
▁FREE	3
▁maintaining	3
hand	3
ribb	3
▁belt	3
▁wires	3
▁por	3
atches	3
lthough	3
▁Sikhism	3
▁Tourism	3
▁Names	3
▁Creat	3
▁Secularism	3
▁stadium	3
BI	3
▁Geh	3
▁survey	3
nath	3
▁●	3
dication	3
▁API	3
zhu	3
▁output	3
cket	3
made	3
▁Rider	3
▁Injury	3
BOss	3
▁street	3
▁interviews	3
	3
	3
▁copyright	3
▁wrongful	3
equate	3
book	3
▁Ability	3
▁Majmoo	3
Fata	3
▁Favorite	3
▁Bureau	3
▁wrong	3
ᤂ	3
໔	3
ৡ	3
asian	3
▁UN	3
▁dacoity	3
electric	3
▁lamp	3
▁aerials	3
▁civi	3
Con	3
intentionally	3
ench	3
val	3
alities	3
▁togetherness	3
▁kʌ	3
▁Tree	3
▁Digg	3
Library	3
▁Roman	3
▁venue	3
▁Iceland	3
▁pick	3
▁Lollipop	3
ECG	3
▁Bulgarian	3
▁technologies	3
Ꮑ	3
▁tires	3
iological	3
▁passenger	3
lite	3
oice	3
▁aru	3
pak	3
▁paradise	3
▁sizes	3
▁broker	3
DI	3
▁Bridge	3
uthentication	3
authenticated	3
▁authenticated	3
▁Basi	3
▁Lokhra	3
filehist	3
▁OS	3
▁worry	3
▁temple	3
▁crim	3
add	3
tara	3
grave	3
database	3
▁IA	3
▁ৰ	3
▁thai	3
watching	3
▁Jer	3
▁Degree	3
▁Flor	3
▁Topless	3
▁watching	3
▁sheer	3
▁efficiency	3
▁Sankardeva	3
stead	3
cl	3
Amba	3
umar	3
▁AM	3
▁profiling	3
eg	3
এল	3
▁MOTO	3
GU	3
▁constraint	3
▁Barkataki	3
Und	3
▁Village	3
▁draw	3
▁Shareholders	3
▁Kong	3
▁LifeHacker	3
ı	3
▁Entry	3
▁Dynamic	3
▁SU	3
▁entrepreneur	3
awa	3
lines	3
▁Let	3
ঠ	3
▁Indic	3
▁Virus	3
ēṉ	3
▁Stick	3
ᴏ	3
increasing	3
▁emerg	3
▁agri	3
👑	3
▁duplication	3
▁Smut	3
eating	3
Ladyboy	3
JC	3
▁Suit	3
▁schools	3
▁sericulture	3
hold	3
▁nurse	3
seen	3
▁processes	3
amids	3
▁severe	3
ternship	3
▁Operator	3
Milf	3
Undelete	3
▁integra	3
▁game	3
▁burial	3
Bengali	3
▁Sing	3
▁layout	3
▁oiled	3
▁MPa	3
▁leone	3
▁'←	3
Big	3
▁wil	3
▁disciplines	3
▁weekend	3
▁humiliation	3
High	3
ccurrence	3
ʌt̪	3
luffy	3
į	3
ل	3
▁distinct	3
▁tank	3
emia	3
rovisions	3
▁maturity	3
▁Stop	3
▁cultivation	3
carton	3
▁Hill	3
therapy	3
▁handle	3
▁Kohli	3
▁Lactati	3
cyst	3
▁wholesale	3
▁examinations	3
▁fiction	3
▁medications	3
āsan	3
mainpage	2
abund	2
position	2
▁torture	2
AUT	2
koṭi	2
praṇ	2
apā	2
duk	2
▁Lady	2
▁Scenes	2
erge	2
specified	2
▁throats	2
▁Glance	2
Tuber	2
pɪɾʌp	2
ɪll	2
ʌjɪ̯	2
▁draft	2
▁householders	2
▁principal	2
UTC	2
Online	2
▁Setup	2
▁developer	2
▁governments	2
▁currencies	2
▁Mineral	2
▁POPULAR	2
▁CHO	2
ICE	2
▁Kai	2
Kalb	2
▁requir	2
▁assamese	2
▁Acholi	2
▁poet	2
▁dozen	2
renamed	2
▁Litera	2
▁transfers	2
▁Wait	2
▁kick	2
ISI	2
ENG	2
Clips	2
aṭam	2
Lesbian	2
▁tawheed	2
▁shirk	2
▁broadcast	2
rac	2
hai	2
▁gather	2
▁greet	2
▁intention	2
▁relative	2
▁awning	2
xag	2
onal	2
▁shantranslation	2
asset	2
params	2
published	2
▁Foods	2
▁guardian	2
Fe	2
IAN	2
glass	2
osaic	2
▁Verb	2
▁Adjectives	2
▁calculate	2
▁applies	2
onvalescen	2
▁sterility	2
fertility	2
▁psych	2
▁disorders	2
▁substances	2
▁addict	2
lone	2
▁Sloan	2
ৰত	2
ান	2
দ	2
ীয়	2
ৰণ	2
State	2
CSIR	2
Anti	2
▁jock	2
bition	2
mat	2
▁Independen	2
wide	2
▁flag	2
▁EEA	2
entity	2
asy	2
▁sports	2
amera	2
▁Format	2
dak	2
ডা	2
bias	2
▁PE	2
▁Ganbang	2
▁Sikh	2
▁Sve	2
nska	2
▁Shim	2
▁Pink	2
▁Estes	2
▁decentralized	2
RADI	2
▁JA	2
ssi	2
▁bat	2
sman	2
▁thumb	2
▁enquir	2
▁reform	2
▁suggest	2
Entrepreneurship	2
asses	2
▁quot	2
mo	2
▁feb	2
▁Penetrating	2
▁Hetero	2
n̺d̺rʌ	2
lʌɪ̯	2
▁ʧ	2
▁Celebrations	2
▁Stotram	2
▁stu	2
ffed	2
FIC	2
ncest	2
lateral	2
▁loans	2
▁COMP	2
▁op	2
MG	2
eason	2
▁Schola	2
essel	2
late	2
▁Fest	2
▁Ami	2
▁Globalization	2
▁MO	2
▁gun	2
▁govern	2
▁RCMT	2
▁Whatsapp	2
▁Em	2
panel	2
▁purchased	2
▁apps	2
subtitle	2
KB	2
▁Indra	2
▁dignitaries	2
▁Fair	2
sir	2
▁Basumatari	2
attend	2
easurement	2
▁Systems	2
▁ইউ	2
owl	2
▁Photography	2
▁Nudity	2
▁Dominno	2
▁Choudhury	2
▁ignored	2
▁eligibility	2
alone	2
▁retain	2
▁wordings	2
▁entitlement	2
▁Collected	2
▁collects	2
omedy	2
▁Bishop	2
▁Sophi	2
▁MALA	2
%).	2
otto	2
▁serious	2
▁porn	2
han	2
Qase	2
former	2
llegations	2
orry	2
▁satisfie	2
▁cal	2
▁pissing	2
▁Kris	2
▁Yobt	2
hydr	2
▁lan	2
▁collapsed	2
▁stunning	2
▁stepp	2
shoora	2
▁bid	2
pier	2
smalltits	2
nnocenthigh	2
▁Remember	2
▁Ward	2
▁rever	2
▁Bay	2
ୟ	2
▁creampie	2
onj	2
dhikar	2
▁Morcha	2
▁kidn	2
▁Cable	2
igital	2
▁excluded	2
seven	2
▁FS	2
QR	2
ncludes	2
(“	2
Site	2
MANA	2
▁TOYOTA	2
strate	2
▁medi	2
▁monitor	2
▁Bronch	2
▁cubic	2
▁learners	2
▁WFDSA	2
ederation	2
▁serv	2
AHO	2
▁Machin	2
▁skirt	2
cache	2
▁socks	2
hap	2
▁frequent	2
but	2
nack	2
▁refresh	2
FS	2
Communit	2
ptions	2
CLIP	2
▁dialect	2
▪	2
tooth	2
past	2
▁conform	2
plication	2
▁compensat	2
dhaka	2
Blow	2
▁Shemale	2
Cute	2
▁Naasir	2
▁Spo	2
fuel	2
▁lubrica	2
gnifica	2
Account	2
dai	2
matures	2
IM	2
▁Unlimited	2
NTA	2
SY	2
▁upskirt	2
▁Version	2
igger	2
nese	2
▁Character	2
▁gut	2
zing	2
stery	2
manager	2
faq	2
TD	2
hool	2
▁Moni	2
onwar	2
▁Say	2
Range	2
▁rob	2
▁Profile	2
▁puni	2
▁exemp	2
ZE	2
rose	2
▁extract	2
▁а	2
и	2
wife	2
seh	2
cong	2
EE	2
࿔ྀ	2
ۼ	2
oldguy	2
▁luck	2
now	2
▁Princip	2
▁Micro	2
▁Catalogue	2
▁Inad	2
▁mitigat	2
shion	2
▁burden	2
undo	2
▁Brun	2
sw	2
▁performances	2
▁Desktop	2
term	2
▁cāva	2
WA	2
▁Archi	2
tects	2
▁Consult	2
▁SDK	2
▁updating	2
deleting	2
egation	2
flu	2
▁town	2
▁Accept	2
▁utilit	2
gas	2
▁labour	2
grade	2
CARE	2
iyana	2
aily	2
▁Agn	2
ars	2
▁Mart	2
▁HAM	2
▁ha	2
mmer	2
arrow	2
juli	2
▁Revision	2
▁Techni	2
ques	2
notice	2
▁twenty	2
▁Journalists	2
fucking	2
▁Benefi	2
▁preferred	2
six	2
▁Nil	2
▁gums	2
pay	2
mate	2
aculty	2
▁Governor	2
ɛɛ	2
turkish	2
acia	2
▁amy	2
▁thalia	2
েক	2
supererogatory	2
▁enema	2
▁Jos	2
LD	2
xml	2
proxyblocker	2
▁Baile	2
eous	2
rasad	2
▁COR	2
CIAL	2
ogi	2
▁Protest	2
emanding	2
▁Unshaven	2
▁Pov	2
uzz	2
▁HA	2
æ	2
▁cams	2
▁Charit	2
▁SOURCE	2
arija	2
gob	2
▁minimal	2
▁embarrassing	2
▁censu	2
dney	2
Monday	2
specific	2
▁pesticides	2
▁beating	2
▁swing	2
ception	2
timezoneuse	2
SHAN	2
▁Va	2
▁nur	2
▁ABO	2
CW	2
lub	2
▁YOM	2
opal	2
AYA	2
▁POWER	2
ages	2
Band	2
▁Ultimate	2
OME	2
▁TRANSLATION	2
▁Tractor	2
▁provisions	2
▁exceptions	2
Previous	2
▁MOQ	2
▁tons	2
▁escalat	2
▁signal	2
▁writ	2
▁Wa	2
kā	2
▁daśab	2
jā	2
āh	2
▁Tomorrow	2
▁Gaye	2
▁Py	2
gun	2
▁italian	2
▁disc	2
iometric	2
▁ZL	2
▁recit	2
Cheque	2
▁Illnesses	2
▁Nat	2
▁Ahmedabad	2
▁petitioners	2
▁shifting	2
ensor	2
▁UL	2
NET	2
āṅ	2
▁bhuvanatray	2
ṇḍit	2
▁Ponder	2
▁Memoriz	2
▁Albert	2
PTD	2
▁é	2
Au	2
Educational	2
▁Dub	2
▁Kenn	2
igh	2
ଓଡ଼ି	2
gent	2
▁stain	2
fight	2
▁clothe	2
▁soft	2
▁Ṣ	2
alā	2
Fill	2
dub	2
èr	2
▁sanction	2
▁ar	2
rm	2
uzzle	2
arsh	2
א	2
AZE	2
DER	2
Fit	2
▁Glyc	2
rhiz	2
Goose	2
▁Bachelor	2
▁Resource	2
abbie	2
	2
▁Bonuses	2
umber	2
▁advantage	2
seed	2
ucculents	2
erennials	2
ille	2
▁employed	2
arel	2
▁DVDs	2
▁earth	2
▁ICHI	2
AN	2
Lesson	2
nts	2
▁Kalapahar	2
▁Summit	2
▁consignment	2
omo	2
▁pads	2
▁Ek	2
ement	2
▁Liner	2
▁masculine	2
▁Judgment	2
▁Cat	2
css	2
▁Thus	2
michael	2
▁composition	2
▁Amy	2
▁erotica	2
▁tick	2
▁Ou	2
Confirm	2
▁textbox	2
▁extensions	2
▁Pena	2
phe	2
▁uncertainties	2
▁Ruling	2
uddha	2
▁PMFBY	2
▁LEARN	2
FORM	2
complex	2
▁Wipro	2
ষ	2
্প	2
▁Barr	2
▁wives	2
▁Technolog	2
▁Hrs	2
ň	2
ňţ	2
▁Assa	2
▁nutritional	2
searchresults	2
▁catalogue	2
death	2
▁fr	2
anking	2
STORY	2
AKAN	2
▁arrest	2
▁engineer	2
▁bribery	2
▁conceiv	2
▁consultation	2
ensive	2
▁AIBA	2
▁sāyi	2
▁dig	2
ambara	2
rūpa	2
avat	2
▁territor	2
▁extreme	2
	2
ethyl	2
▁Wise	2
▁hardsextube	2
▁Discuss	2
▁Budget	2
▁jeans	2
entilator	2
lessing	2
▁analy	2
▁entr	2
▁cap	2
▁nine	2
▁lecturers	2
śā	2
pāśa	2
śat	2
śānti	2
śad	2
samādh	2
▁Er	2
▁Feel	2
KN	2
▁Testing	2
BS	2
medium	2
▁stores	2
▁Tender	2
▁Mout	2
▁illustrat	2
▁exhaustive	2
hag	2
▁enthusias	2
▁door	2
arhrhu	2
rha	2
then	2
inthi	2
itz	2
▁protein	2
▁Candid	2
▁Municipal	2
▁waste	2
▁Equipments	2
▁Daitto	2
▁incredible	2
young	2
▁Woo	2
▁Oth	2
▁dw	2
verbs	2
▁scripts	2
IANG	2
▁Kiss	2
▁quarter	2
Bureaucra	2
isinfectant	2
▁Cleaner	2
abb	2
▁Analytic	2
ease	2
MP	2
lock	2
▁calls	2
confirm	2
▁Collection	2
‐	2
▁Alumin	2
XXX	2
▁Ɓ	2
▁Vehicles	2
▁Jagiroad	2
▁Morigaon	2
▁Orang	2
▁agitation	2
▁Fau	2
pia	2
▁Gun	2
olo	2
RW	2
lc	2
▁Ann	2
▁TY	2
▁Naked	2
Shiddy	2
▁amazing	2
▁CHAN	2
PUR	2
Pantone	2
▁judge	2
▁believers	2
▁Fresher	2
▁incre	2
bɛ	2
anga	2
▁tw	2
newpage	2
▁Shari	2
▁Purpose	2
Industrial	2
SEBA	2
AMCC	2
eriodical	2
▁gl	2
bourg	2
▁Lip	2
▁Gua	2
nzhou	2
▁Adh	2
▁Spokesman	2
supported	2
▁n̺	2
ɾɪ	2
ðɨ	2
▁mʊ	2
n̺ʌɪ̯	2
ʋʌn̺ʌ	2
ɾɨ	2
▁Kingdom	2
IB	2
era	2
▁Ablution	2
▁Objectives	2
▁IV	2
lesbian	2
ivi	2
▁TECH	2
TRO	2
▁Football	2
🏆	2
▁HEBREWS	2
▁alexi	2
otes	2
obbin	2
▁Zakaa	2
▁hoist	2
▁Cri	2
minal	2
▁slande	2
▁Gyan	2
▁Ku	2
▁Youthful	2
▁Theater	2
wp	2
live	2
ming	2
dish	2
▁Palestinian	2
▁Father	2
▁die	2
▁terminal	2
▁sud	2
▁apt	2
zza	2
Abbaa	2
▁Thallium	2
PU	2
▁PR	2
▁MRI	2
▁ultra	2
sound	2
Inciden	2
pawg	2
▁Chal	2
▁UIDAI	2
liant	2
Bathing	2
▁compile	2
▁implied	2
▁accuracy	2
▁trouble	2
aborted	2
Delet	2
▁hook	2
▁Char	2
turbat	2
ɳɖ	2
▁Moisturiz	2
Muqbil	2
▁Factory	2
▁Tricke	2
▁appr	2
ais	2
cknowledge	2
ۣ	2
ᛗ	2
Ğ	2
Ꭿ	2
▁target	2
fline	2
▁Plea	2
▁Reject	2
▁prospe	2
▁Nawawi	2
œ	2
¶	2
teacher	2
atin	2
ids	2
▁hereafter	2
▁Iris	2
pply	2
▁nea	2
tly	2
▁Pic	2
▁instance	2
▁fulfil	2
▁exponential	2
meone	2
Send	2
▁cop	2
▁PRI	2
gaon	2
▁Patient	2
▁Tit	2
homa	2
nosuch	2
▁tri	2
▁Gui	2
nea	2
Removal	2
▁preg	2
children	2
niece	2
▁Desi	2
▁listen	2
▁minute	2
▁manual	2
wesome	2
▁Cyca	2
▁deterioration	2
umph	2
rot	2
fish	2
coral	2
▁sensual	2
▁Tumblr	2
clips	2
quisition	2
erty	2
Ꮥ	2
ᴀʙ	2
▁niścalatattv	2
▁token	2
Oct	2
eng	2
plus	2
▁roads	2
doggy	2
Lex	2
▁insertion	2
▁VC	2
GT	2
inguist	2
retrieve	2
hrine	2
herefore	2
▁mosque	2
▁poor	2
▁Compress	2
▁Recently	2
▁frame	2
▁sitting	2
▁Circu	2
▁Fabri	2
▁Institut	2
carbon	2
▁Lay	2
pery	2
{(	2
ldots	2
+\	2
,$$	2
▁interviewer	2
ostanol	2
ionate	2
▁damp	2
▁Surf	2
▁Girdle	2
▁Walk	2
▁Hitachi	2
▁misfortune	2
PH	2
RAK	2
▁SOL	2
TIONS	2
mɛn	2
▁raj	2
▁Chip	2
▁Slap	2
▁instances	2
▁aspiration	2
▁premier	2
▁proposition	2
chore	2
iated	2
▁Ellip	2
▁doesn	2
▁daddy	2
▁【	2
̿	2
▁gagging	2
▁assault	2
▁Dialysis	2
▁Bor	2
ua	2
▁Talks	2
śyāma	2
▁Blackmail	2
▁Tract	2
morpho	2
demic	2
▁advisers	2
Translation	2
consistency	2
▁incorporat	2
▁chemical	2
ertilizer	2
▁Macho	2
▁Cycle	2
Fix	2
organized	2
acct	2
throttle	2
▁Snake	2
▁deals	2
tartup	2
▁Backs	2
eat	2
ccessories	2
aving	2
▁indicate	2
▁Analysis	2
nam	2
ānasa	2
ntellectual	2
▁packed	2
usta	2
▁SUB	2
IGHT	2
▁WITH	2
OUT	2
MISSION	2
hab	2
▁Bharali	2
ব	2
উ	2
▁reviews	2
▁Thereafter	2
▁uṇarv	2
cūḻ	2
▁cricket	2
▁summer	2
▁Hitchhiker	2
HT	2
▁gyno	2
▁pr	2
▁GL	2
IMPS	2
▁Lokp	2
▁infection	2
▁Urin	2
▁Stre	2
▁Throat	2
onia	2
▁Acne	2
▁ear	2
▁transformation	2
caveng	2
rib	2
▁modified	2
▁spy	2
▁spi	2
▁Jenny	2
oy	2
▁Much	2
serrorstext	2
reasons	2
▁plays	2
▁possibilit	2
▁holiday	2
▁exclusion	2
▁EURZAR	2
▁graph	2
kip	2
▁bri	2
▁Dear	2
▁voc	2
Bait	2
etti	2
▁sea	2
▁Clothed	2
ΐ	2
ή	2
▁sat	2
anic	2
vaginal	2
currentevents	2
ea	2
▁Norway	2
▁Den	2
assis	2
LLER	2
common	2
▁Twi	2
iñci	2
ūji	2
▁Integrat	2
▁Once	2
▁t̪ʌlʌɪ̯	2
dberrortext	2
▁synt	2
ax	2
▁remembered	2
sky	2
ork	2
videos	2
▁Kub	2
ota	2
▁annually	2
week	2
Reinforcement	2
▁learner	2
Crossdresser	2
▁feast	2
laba	2
REMI	2
▁Jay	2
threesomes	2
▁Jessi	2
JavaScript	2
äa	2
je	2
kj	2
▁Ur	2
▁Qui	2
▁Bl	2
Wiktionary	2
boo	2
ռ	2
▁Knees	2
Liability	2
girls	2
SER	2
▁damping	2
cascade	2
͛	2
▁LinkedIn	2
Mail	2
▁Line	2
TEM	2
NESS	2
▁CREAM	2
catch	2
▁elections	2
▁Kom	2
lled	2
▁rankings	2
▁chart	2
master	2
ร	2
▁fasten	2
dia	2
nfringement	2
▁Ge	2
▁Chemistry	2
▁Nutriflow	2
▁browsers	2
🦋	2
▁FRE	2
ATURE	2
▁mo	2
▁Fujian	2
tya	2
mṛta	2
maṅgaḷa	2
▁CADJPY	2
bigbutt	2
evvā	2
▁Alm	2
adin	2
unawara	2
books	2
licit	2
▁Allure	2
▁databases	2
▁Translations	2
▁Dictionaries	2
▁Hameed	2
undress	2
▁Gaga	2
oma	2
uga	2
▁smart	2
▁PS	2
▁Gam	2
▁Delicacy	2
▁Chaudhuri	2
▁ltd	2
real	2
hour	2
▁documentaries	2
▁Kat	2
blocks	2
▁HOW	2
hlä	2
ruth	2
ntha	2
▁OPEN	2
▁expression	2
▁Surg	2
astro	2
▁planning	2
▁NeighborhoodL	2
▁Silos	2
▁moth	2
▁ver	2
CY	2
▁Sho	2
rit	2
▁transcript	2
Inter	2
active	2
▁Bolt	2
Subject	2
Graduate	2
▁proofs	2
verified	2
hanas	2
▁sail	2
esque	2
✪	2
syn	2
▁jo	2
▁Backstage	2
▁Airfreight	2
ugal	2
▁DST	2
ide	2
▁motivat	2
ūḍa	2
aṇṭa	2
uṇya	2
Irish	2
▁Voca	2
uploads	2
vac	2
▁Uncl	2
▁Nepali	2
▁Skill	2
▁Heights	2
ⱥ	2
ḍuk	2
▁ś	2
ug	2
▁Professional	2
▁Uz	2
▁Ir	2
Male	2
Guna	2
Quality	2
rage	2
<±	2
▁suppose	2
atory	2
পা	2
Legs	2
adjustable	2
andingo	2
▁Governance	2
ANN	2
ADA	2
Ə	2
Ş	2
prop	2
▁Madras	2
▁Cambridge	2
▁Hardy	2
wood	2
lbs	2
rom	2
▁Sunbathing	2
▁Raymond	2
Î	2
▁Ô	2
Anal	2
Japanese	2
▁Celebrate	2
▁Baha	2
▁Prad	2
▁adj	2
ourne	2
hearing	2
▁warrant	2
▁reject	2
▁convict	2
jpg	2
▁stud	2
Malayalam	2
▁WIND	2
MRC	2
gle	2
ainfall	2
▁Tweets	2
▁preserve	2
▁bridges	2
▁Cycads	2
▁evaluat	2
amadh	2
enu	2
vide	2
ear	2
kala	2
NITI	2
▁Jit	2
comp	2
▁audit	2
▁enforce	2
▁confidentiality	2
PSE	2
ati	2
▁Cap	2
▁Picket	2
restore	2
!!!	2
dhury	2
▁Nick	2
ocation	2
▁zero	2
▁bit	2
▁confused	2
hopped	2
▁Indi	2
hours	2
▁billion	2
▁doggy	2
tribution	2
ʌmmʌjɪ̯ʌpp	2
ɨl	2
xɨ	2
}}.	2
ADE	2
nnah	2
SCI	2
mber	2
▁lynn	2
▁Dp	2
beca	2
▁Linares	2
▁Abkhaz	2
Аҧсуа	2
.[	2
▁sunplas	2
টি	2
▁PornRabbit	2
ompulsory	2
ircumstances	2
fit	2
itting	2
▁Candy	2
▁Gohain	2
▁Aircraft	2
occer	2
volcani	2
▁dist	2
▁Cause	2
bani	2
▁gen	2
ensus	2
▁Zn	2
▁nano	2
wellings	2
▁DR	2
▁Glass	2
▁bolívar	2
GN	2
unna	2
▁Glam	2
▁livelihood	2
▁Baker	2
ynonyms	2
▁Cypr	2
iniform	2
▁ban	2
▁oppos	2
CAA	2
▁Judge	2
▁Naw	2
pukur	2
▁Ethic	2
Electronic	2
▁Collect	2
uni	2
nis	2
ʀᴀ	2
▁Surround	2
Janakpuri	2
mypreferences	2
items	2
▁Patro	2
î	2
censored	2
pain	2
necessary	2
▁delays	2
}}]].	2
▁glasses	2
▁Ketch	2
▁Pouch	2
ION	2
ި	2
nterracial	2
gies	2
▁Khutba	2
script	2
▁Script	2
▁Macedonian	2
ird	2
▁Piano	2
▁Kan	2
▁biography	2
▁Xx	2
▁transmit	2
▁strict	2
thorn	2
PNG	2
▁CNG	2
▁Amo	2
▁Adamu	2
▁WHAT	2
▁DEMA	2
ND	2
▁debtor	2
showhide	2
▁Resources	2
▁appoint	2
ters	2
▁LOCA	2
counter	2
ln	2
thanol	2
▁mistake	2
▁Sarmah	2
▁Tweet	2
▁Grow	2
▁Lawn	2
▁Tropica	2
▁objectives	2
▁IcePorn	2
any	2
▁Mole	2
▁MAT	2
ank	2
nda	2
nallur	2
hum	2
ilum	2
▁mob	2
▁Jag	2
▁Manch	2
flags	2
opo	2
▁swingers	2
more	2
lin	2
nosuchaction	2
hal	2
center	2
м	2
σ	2
▁album	2
seas	2
quest	2
▁allocate	2
▁Hailstorm	2
yclone	2
ornado	2
▁maintain	2
imuddin	2
unishment	2
▁templates	2
ಪ	2
ರ	2
್	2
ಯ	2
ಾ	2
ೋ	2
ಚ	2
ನ	2
▁frequently	2
▁instantly	2
▁planne	2
▁soar	2
ق	2
ت	2
▁tang	2
▁asset	2
▁Classmate	2
amukh	2
itor	2
Wants	2
recognize	2
Party	2
cholo	2
taṟi	2
īpa	2
uj	2
▁invalidate	2
▁experienced	2
▁intimat	2
▁Diabete	2
▁Intens	2
▁Ben	2
▁Prostat	2
BPH	2
▁limb	2
otic	2
▁Malawi	2
▁Afrika	2
▁transform	2
▁Kazakh	2
▁polytheism	2
▁uniform	2
Av	2
▁Josh	2
arsha	2
▁entities	2
threesome	2
tit	2
▁Transport	2
TTA	2
muggl	2
▁TRADER	2
dufe	2
undi	2
bara	2
zone	2
▁cbt	2
▁decorations	2
Beeg	2
▁Pixel	2
▁Density	2
▁Boat	2
▁outdoors	2
pantyhose	2
infringement	2
▁confidential	2
CTS	2
SE	2
ARS	2
Az	2
༺༒༻	2
▁shaved	2
cosplay	2
blonde	2
▁Discount	2
▁Recit	2
▁Musha	2
udhai	2
umulat	2
▁Varadhan	2
▁Sar	2
dhar	2
▁licen	2
muscle	2
muscled	2
▁Romania	2
lexi	2
saurus	2
▁technician	2
▁Zo	2
roa	2
▁Sinhala	2
Import	2
Flor	2
yster	2
▁elder	2
abilit	2
etween	2
decision	2
▁Overview	2
LU	2
Ch	2
▁KUN	2
▁Winners	2
▁Pun	2
▁predict	2
▁Concept	2
▁himself	2
▁FIF	2
mA	2
orrosiv	2
▁Alappuzha	2
recent	2
contributors	2
Usi	2
▁Member	2
General	2
banon	2
▁Jordan	2
Dharams	2
▁Dramatic	2
▁succeeding	2
orldwide	2
found	2
▁shy	2
TI	2
Nat	2
▁Passion	2
▁Hung	2
kvaṇatk	2
harī	2
▁Av	2
▁nud	2
▁employers	2
▁someone	2
▁Airways	2
▁Oh	2
▁Negligen	2
▁contra	2
▁Foam	2
SEET	2
▁Manipuri	2
▁bagg	2
▁MR	2
blis	2
▁Kimberl	2
fan	2
appearance	2
▁Mean	2
mid	2
▁believer	2
▁purity	2
▁ritual	2
▁gh	2
▁intent	2
▁Mu	2
▁opposites	2
▁Mass	2
▁stable	2
dellogpage	2
▁thought	2
▁harvest	2
▁rapture	2
▁Ascen	2
▁nic	2
▁Fantas	2
▁diagnosis	2
brace	2
Dhu	2
▁Contingencies	2
▁CHAL	2
USD	2
▁stickam	2
▁Telephon	2
▁Nate	2
lready	2
▁convicts	2
urder	2
Ǥ	2
▁inventory	2
▁restrict	2
▁Glimpse	2
▁Employment	2
▁Screen	2
▁Thread	2
▁BSP	2
▁IST	2
Foot	2
▁Muscle	2
Organi	2
▁Adult	2
AK	2
IDV	2
oconut	2
rase	2
▁Tue	2
▁Wed	2
▁periodically	2
▁fetch	2
utonomous	2
▁Mountain	2
▁academics	2
▁Flower	2
▁Zone	2
▁LIP	2
onsumer	2
▁Hacker	2
▁Mistake	2
▁Hassle	2
▁Crore	2
▁Corona	2
ূ	2
চী	2
ত্ৰ	2
akes	2
▁habits	2
doubt	2
▁Kamal	2
fnm	2
▁fabr	2
▁Sleeve	2
raises	2
Punjabi	2
▁wikipedia	2
▁featured	2
▁Lakhs	2
Tranny	2
queen	2
squirting	2
▁reforms	2
say	2
▁Writing	2
IFF	2
memoriz	2
Test	2
▁Chris	2
elite	2
▁Inform	2
▁disse	2
▁judgment	2
▁mandatory	2
▁subsidi	2
nconstitutional	2
Internal	2
▁Henr	2
▁Adams	2
Al	2
elivery	2
alois	2
▁mu	2
▁Cube	2
▁Conifers	2
▁Librarian	2
▁Examples	2
▁Bronze	2
▁Immuniz	2
kha	2
▁Bearing	2
▁Configuring	2
ᴀʀᴀʙ	2
Otherwise	2
ffm	2
ᐃ	2
▁Masjed	2
▁scam	2
KD	2
▁OBOE	2
▁addresses	2
▁Marie	2
▁Sauna	2
ini	2
trying	2
▁procure	2
▁Years	2
▁Fried	2
rich	2
▁defen	2
JOST	2
exit	2
lau	2
▁exp	2
▁diagnose	2
▁Physic	2
▁cont	2
▁doll	2
rison	2
▁CONTROL	2
LER	2
▁CF	2
\'\'\'	2
"]]	2
separat	2
▁investigate	2
CAG	2
druff	2
▁malnutrition	2
▁prevalen	2
spik	2
▁COM	2
Room	2
scribe	2
Islami	2
islam	2
qa	2
nolinkshere	2
alfa	2
▁rogu	2
angzhou	2
▁Lessons	2
▁থ	2
ipper	2
▁obs	2
db	2
▁HQWL	2
▁PQWL	2
ddy	2
sette	2
▁appliance	2
▁COLL	2
▁Artisans	2
īr	2
ādh	2
yā	2
ਪ	2
ੰ	2
ਜ	2
ਾ	2
ਬ	2
ੀ	2
Sea	2
hur	2
▁Prab	2
▁Mind	2
▁Earth	2
utch	2
▁Rig	2
▁Gynecological	2
▁Luc	2
▁Volunteer	2
sets	2
▁Politic	2
wc	2
Paypal	2
gold	2
▁diamond	2
strong	2
▁pil	2
RIVE	2
▁Indigenous	2
▁Sche	2
▁disorder	2
▁GROUP	2
▁Uda	2
ulia	2
▁fin	2
TED	2
ajr	2
▁clarif	2
jali	2
▁Yog	2
ordinate	2
▁WA	2
RD	2
▁Vessel	2
▁Neog	2
▁sacrifice	2
▁battl	2
lesbians	2
▁Subtitl	2
viewdeleted	2
▁Lez	2
▁red	2
UK	2
riticism	2
▁algebra	2
▁aspirants	2
▁Spir	2
reparation	2
▁Trick	2
▁winn	2
thi	2
▁ssbbw	2
▁Dow	2
noemail	2
combusti	2
▁Cyp	2
oject	2
▁bottle	2
online	2
web	2
quote	2
jsp	2
RE	2
TRI	2
QU	2
SH	2
atrix	2
▁t̪ʌmmɪl	2
mʉ̩	2
ʌɾɪ	2
▁hosts	2
▁Covers	2
▁Deposit	2
abbrev	2
▁HAND	2
▁Vivek	2
▁preside	2
▁veter	2
▁Bhaga	2
▁ò	2
▁û	2
▁Madha	2
▁thirty	2
two	2
asara	2
harma	2
▁prana	2
▁soul	2
AsRIE	2
▁ft	2
secure	2
▁HTTP	2
▁Feng	2
nbsp	2
resistan	2
phy	2
cci	2
▁Elegant	2
▁Puss	2
▁evaluate	2
BT	2
DAND	2
℞	2
added	2
Added	2
Omi	2
anontalk	2
Talk	2
lts	2
five	2
uhavenewmessages	2
multi	2
▁myself	2
butt	2
▁naa	2
▁KM	2
▁Thim	2
arity	2
▁stone	2
liver	2
construction	2
CAR	2
▁sins	2
shipped	2
▁methods	2
▁tenant	2
landlord	2
▁kuṟi	2
▁koḷḷ	2
▁kūṟu	2
vaṃ	2
hta	2
▁Smok	2
graduate	2
BAK	2
lim	2
Pakistan	2
تو	2
plain	2
▁reveal	2
ura	2
▁fluori	2
Hit	2
▁Veterinarian	2
▁MalluApps	2
▁capabilities	2
ographic	2
▁century	2
▁Nagaland	2
▁rubr	2
▁Lux	2
oltage	2
▁wire	2
▁shout	2
northeast	2
tub	2
Ma	2
▁Wal	2
rah	2
dependence	2
▁interracial	2
llustrate	2
▁sec	2
inusitis	2
Sis	2
▁Advantage	2
▁Python	2
▁dictionaries	2
▁easiest	2
bys	2
▁Nar	2
▁⎝	2
▁muslim	2
▁demonstrat	2
▁Liv	2
▁surger	2
aestheti	2
illing	2
▁cavity	2
▁Mul	2
▁JOB	2
nab	2
ruck	2
ushan	2
repatriation	2
▁baggage	2
▁passport	2
ramar	2
▁Mallikarjun	2
▁goodwill	2
▁Controller	2
▁garages	2
▁distress	2
▁barriers	2
ours	2
▁Carina	2
DEC	2
▁Dungeon	2
▁Cardio	2
▁grandi	2
eeq	2
Mens	2
LF	2
▁spoil	2
▁Freedom	2
▁Spa	2
DU	2
▁Apple	2
afari	2
If	2
root	2
Chi	2
▁BTS	2
▁Jac	2
▁Block	2
▁Plumber	2
tri	2
bcat	2
▁FIR	2
▁JO	2
FORCE	2
▁HERE	2
😝	2
▁Encyclopedia	2
▁Modern	2
Kabi	2
▁Riyad	2
▁Cartoon	2
digenous	2
▁genre	2
▁regions	2
▁Goalpara	2
▁Naam	2
▁Deh	2
lara	2
▁Ragh	2
Fitness	2
mad	2
Mu	2
iq	2
Bentley	2
▁Astra	2
ints	2
▁pixels	2
IME	2
VIEWS	2
wara	2
▁Brother	2
Prefix	2
Fingering	2
▁LINK	2
Visual	2
Editor	2
ecruit	2
▁Valves	2
▁lab	2
dh	2
sukh	2
▁lo	2
▁Shearing	2
speed	2
▁comput	2
where	2
VS	2
dong	2
DD	2
shore	2
▁MIS	2
OUS	2
▁Pragjyoti	2
Ƭ	2
health	2
icking	2
par	2
▁Balear	2
▁Poster	2
logan	2
isaster	2
▁consultan	2
LIFE	2
▁STYL	2
▁Pol	2
Yuva	2
▁Arc	2
GIS	2
RI	2
tation	2
▁Lat	2
▁tower	2
▁dism	2
▁pill	2
▁rider	2
▁formatting	2
prob	2
subcat	2
▁hardness	2
▁radi	2
cal	2
̵	2
Counter	2
ast	2
▁pri	2
ZECH	2
xnxx	2
Series	2
খ	2
▁fever	2
▁REC	2
RUIT	2
▁tariff	2
Clean	2
▁FR	2
FSM	2
ORIYA	2
▁sickness	2
maternity	2
femdom	2
glasses	2
▁meetings	2
LSOs	2
▁manage	2
support	2
Gallant	2
ULL	2
▁arrange	2
▁min	2
loty	2
▁Dass	2
▁expired	2
ebruary	2
ᴄ	2
▁Snap	2
mf	2
diaries	2
IMF	2
▁Bez	2
▁DirtyTeen	2
person	2
spite	2
ṅñ	2
atu	2
akṣ	2
raṇa	2
▁dvār	2
▁Theme	2
▁sā	2
▁Hatiga	2
Discuss	2
=\	2
}+	2
▁undertake	2
rable	2
QUI	2
NG	2
compass	2
ordination	2
longpage	2
▁Broom	2
boy	2
CGL	2
ury	2
Ladder	2
▁fear	2
vard	2
▁Pit	2
▁GK	2
tech	2
Website	2
ledge	2
▁Global	2
▁Powder	2
▁RECORDS	2
▁AL	2
nclosed	2
Pok	2
▁Rhenium	2
▁packet	2
▁Sni	2
ejan	2
▁lawyer	2
▁Vape	2
Construction	2
ndling	2
▁Comp	2
▁Build	2
▁WordPress	2
▁citizenship	2
▁Afghanistan	2
TH	2
VE	2
HIS	2
▁UNE	2
AGG	2
ANG	2
UGU	2
noe	2
▁Apt	2
tik	2
aryan	2
▁Ayu	2
urvedi	2
ummar	2
humi	2
edne	2
oja	2
▁Hedg	2
eeti	2
▁lapse	2
▁orientation	2
▁↭	2
↭	2
Treat	2
▁Kill	2
Output	2
▁inclusion	2
uk	2
akar	2
▁Sham	2
▁Sik	2
▁satisfactor	2
▁cheque	2
𑀡	2
▁stick	2
▁merchant	2
HIM	2
Bharat	2
▁♫♫	2
▁Conference	2
college	2
lesbianass	2
lished	2
DHE	2
▁cury	2
▁Bornamghar	2
▁sublim	2
▁farewell	2
vināś	2
maś	2
nute	2
bust	2
tags	2
▁lux	2
ollo	2
▁Serv	2
▁hands	2
ound	2
▁pigtail	2
closure	2
▁Official	2
▁Holidays	2
lue	2
▁Excellen	2
▁fantas	2
GA	2
BU	2
▁channels	2
▁engage	2
▁radioactivity	2
sustain	2
▁fission	2
upskirts	2
▁Crack	2
please	2
▁Found	2
government	2
▁retail	2
aviya	2
▁histories	2
▁lacta	2
noname	2
fibre	2
embedde	2
Questions	2
ved	2
▁GRA	2
▁Namghar	2
▁Twin	2
▁Helmet	2
lindfolded	2
Ω	2
larity	2
▁Laborator	2
nce	2
suck	2
kah	2
hrin	2
addcat	2
Ø	2
▁electric	2
import	2
▁Soap	2
oncentration	2
last	2
▁MAG	2
ຮ	2
▁listening	2
▁Presentation	2
▁Mono	2
volves	2
define	2
jo	2
logout	2
ASH	2
▁fish	2
▁responses	2
▁Ug	2
▁Franchise	2
▁yes	2
▁CAP	2
▁occupation	2
together	2
Sa	2
▁Bat	2
poet	2
Ka	2
hya	2
arij	2
bandhu	2
▁Muharram	2
▁Emp	2
▁Upgrade	2
wear	2
′′)	2
▁met	2
▁transparen	2
Member	2
aginal	2
browse	2
archive	2
ryan	2
▁wisdom	2
backs	2
city	2
successful	2
▁drastically	2
▁extraordinary	2
▁pretty	2
▁lau	2
reate	2
PBUH	2
▁banged	2
regularity	2
▁RH	2
interracial	2
▁inc	2
▁Chan	2
陳	2
昌	2
▁Prophe	2
cies	2
▁infant	2
tools	2
▁loose	2
iarrhoea	2
▁Nichi	2
SUB	2
BD	2
ets	2
▁Ahlu	2
jama	2
▁Ded	2
icated	2
▁Cascade	2
put	2
▁Triangle	2
eau	2
eight	2
recreate	2
ugh	2
asturbating	2
idha	2
≥	2
▁distributed	2
▁central	2
EAM	2
▁TIP	2
ktiḥ	2
▁pure	2
Շ	2
ʀ	2
unda	2
bang	2
▁Cu	2
▁Copper	2
Set	2
▁Sitemap	2
▁Booklet	2
▁Compare	2
𑀵𑀺	2
Bathroom	2
▁obesity	2
Respect	2
▁Dant	2
▁bot	2
▁learned	2
▁TP	2
aditi	2
▁Incredibles	2
kart	2
tomach	2
Madan	2
templatesused	2
▁Emulsion	2
Ť	2
dji	2
reem	2
▁Sweetheart	2
▁Ye	2
Material	2
ROM	2
uppress	2
▁Actor	2
chy	2
Transfer	2
▁modest	2
Options	2
Customize	2
Cookies	2
Exceptions	2
▁Nilsson	2
▁Amba	2
▁Squirts	2
▁Graham	2
▁Tanned	2
▁salarie	2
▁Characters	2
▁LI	2
editing	2
linktext	2
}}]]	2
▁roma	2
▁Patented	2
nia	2
ccredit	2
▁Bangkok	2
boot	2
capacity	2
▁Bullocks	2
▁Fault	2
০	2
▁endeavo	2
▁availability	2
▁CH	2
▁securit	2
nard	2
AST	2
▁winner	2
▁venom	2
▁levelheadedness	2
tasia	2
asic	2
▁APK	2
▁exact	2
▁Obedien	2
Fi	2
▁hotspot	2
▁Jaya	2
▁publication	2
▁organisations	2
▁Sarusajai	2
▁Channels	2
elle	2
▁Lind	2
ems	2
Sequence	2
ɔ	2
ain	2
▁twin	2
ned	2
Stories	2
Articles	2
Lifestyle	2
Entertainment	2
eep	2
▁sugar	2
milfs	2
tāṃ	2
śara	2
rme	2
aś	2
failed	2
Rollback	2
Stamp	2
▁stamp	2
▁pilgrim	2
▁dies	2
▁fly	2
bc	2
▁disasters	2
▁Eligibility	2
kHz	2
▁expens	2
▁Metals	2
▁photograph	2
▁branch	2
▁Poland	2
▁Shorts	2
▁Connect	2
▁consum	2
cereal	2
▁contributor	2
▁methane	2
▁deliverables	2
▁oxygen	2
▁pronounce	2
▁white	2
PORN	2
SEARCH	2
▁Delete	2
▁Mun	2
▁NDFB	2
▁Controll	2
াই	2
▁moderate	2
▁pa	2
ñca	2
aṁ	2
▁pancha	2
lan	2
▁Centres	2
inda	2
▁Gee	2
ketch	2
after	2
▁consultancy	2
▁managed	2
Plastic	2
▁MS	2
▁Priya	2
LAS	2
external	2
▁[//	2
ulina	2
▁Miracle	2
BET	2
dalus	2
▁Dubai	2
▁versatility	2
may	2
মে	2
dhik	2
▁Benz	2
yl	2
▁PLAY	2
▁wall	2
▁Pri	2
▁parent	2
road	2
changepassword	2
▁Sinhal	2
hø	2
▁Saura	2
enab	2
Darrang	2
Marathi	2
JV	2
▁filipino	2
▁Sorority	2
▁Farmer	2
save	2
visible	2
▁Tawheed	2
▁Titan	2
▁TECHNOLOG	2
▁bon	2
eless	2
▁skinless	2
▁Late	2
▁Bord	2
nics	2
▁physician	2
OWN	2
▁Swiss	2
▁ǟ	2
ʍ	2
xxxtrasmall	2
ছ	2
Burglary	2
▁solid	2
aruḷ	2
oun	2
▁Radiation	2
ockslide	2
▁raise	2
aken	2
▁yearly	2
preferences	2
▁Kas	2
▁Fuck	2
slut	2
▁Stu	2
ready	2
ising	2
▁Entrepreneur	2
emaker	2
ranga	2
EI	2
I͙	2
͙P͙	2
▁͙B͙	2
Ạ	2
͙C͙	2
cumshots	2
small	2
XX	2
▁Chicken	2
▁Programmes	2
▁Trouble	2
ommandments	2
▁directive	2
▁Belarus	2
▁Agro	2
burner	2
▁ke	2
śi	2
▁kaṃsa	2
āda	2
▁python	2
offset	2
Nagaon	2
utiny	2
fficacy	2
▁remaining	2
▁environmental	2
ational	2
dimensional	2
▁Brian	2
ʊn̺n̺	2
▁Combin	2
▁ST	2
▁Ramesh	2
licitat	2
ailstorm	2
দি	2
Display	2
ister	2
kit	2
▁sk	2
elet	2
▁GO	2
RAP	2
▁Nickel	2
▁classification	2
▁MD	2
▁Specific	2
skin	2
acket	2
▁Arti	2
▁ele	2
▁numer	2
▁songs	2
▁establishment	2
ɨkk	2
Kayal	2
▁}	2
dealing	2
HAI	2
ʂ	2
հ	2
movenotallowed	2
▁Shui	2
▁Profit	2
sk	2
▁Fernand	2
▁Villegas	2
▁Nash	2
▁ব	2
কল	2
Got	2
▁cri	2
Bad	2
▁APRI	2
▁Arizona	2
toggle	2
etaphor	2
ordinary	2
▁১	2
▁Brochure	2
▁Apprentice	2
✅	2
osa	2
▁Che	2
▁Bach	2
ulent	2
igarettes	2
newbies	2
solv	2
▁Sexual	2
▁gym	2
▁Reg	2
expired	2
▁repay	2
▁SEAL	2
uba	2
au	2
llah	2
▁Foreign	2
Explained	2
YE	2
DOW	2
ALLE	2
▁Display	2
▁Manganese	2
▁Masseu	2
oactive	2
▁ram	2
zl	2
resh	2
yw	2
watchers	2
Always	2
ABA	2
mother	2
Tafseer	2
agic	2
▁Machkhowa	2
deen	2
anak	2
▁LGB	2
emba	2
▁GAID	2
MAC	2
▁activation	2
CPU	2
⃟	2
IS	2
ritish	2
▁Comorian	2
▁Shop	2
▁Pussy	2
▁wor	2
Saheem	2
alus	2
▁axi	2
OO	2
using	2
lib	2
▁Vad	2
▁librar	2
▁Fla	2
▁Ev	2
accmailt	2
AKER	2
Is	2
▁Jagan	2
▁proceedings	2
SEN	2
Û	2
redir	2
▁bulls	2
▁Male	2
▁Buffaloes	2
▁optim	2
▁que	2
▁te	2
▁Wage	2
▁Aurora	2
possess	2
locked	2
nl	2
▁prepositions	2
▁Eyes	2
mbos	2
▁crops	2
▁conjunct	2
▁planner	2
La	2
Ef	2
VL	2
verything	2
▁desire	2
▁guided	2
UMA	2
▁Lyrics	2
▁Bhak	2
▁Bel	2
ersecution	2
▁Possible	2
lie	2
course	2
▁hav	2
▁tā	2
aṟiy	2
▁bedd	2
▁Simpl	2
▁GB	2
iṟ	2
▁Shoes	2
▁withdraw	2
▁Im	2
llowance	2
▁penetration	2
▁Miscellany	2
▁Hive	2
▁nuditytits	2
▁Ayurveda	2
▁Lead	2
▁kā	2
▁Excel	2
ev	2
▁Aditya	2
▁Syndrome	2
▁nationalisation	2
▁therewith	2
▁Ent	2
śa	2
Ɩɛɠɛŋɖ	2
▁Bish	2
nhance	2
▁CXZ	2
▁lover	2
▁Meeting	2
hang	2
▁Anaesthe	2
xygen	2
▁Medicines	2
rough	2
ccupation	2
▁prioritiz	2
outs	2
▁Jain	2
▁amateurs	2
ombie	2
worm	2
▁Remind	2
zard	2
▁Lev	2
handjobs	2
▁delayed	2
ODE	2
▁WB	2
BF	2
▁Motorcycle	2
▁logg	2
▁𑀅𑀯	2
𑀓𑁆	2
𑀯	2
𑀼	2
𑀷𑁆	2
▁𑀦𑀺𑀷𑁆𑀶	2
DA	2
EC	2
▁Typically	2
zim	2
▁utilize	2
⏝	2
yes	2
▼	2
▁Mum	2
hara	2
bal	2
▁mailing	2
▁examine	2
Tools	2
slide	2
▁choos	2
▁ethn	2
▁heritage	2
▁jewel	2
interface	2
▁interface	2
arallel	2
▁Pr	2
ecision	2
▁regi	2
IMPO	2
▁meanwhile	2
▁rout	2
▁plying	2
▁Harsh	2
ānā	2
▁saṃv	2
ۇ	2
iyeng	2
fal	2
napshot	2
eduction	2
XP	2
▁Forget	2
▁clients	2
RB	2
▁proxy	2
pimple	2
excess	2
Gynecologist	2
▁Infertility	2
▁diabetes	2
▁complications	2
▁Drilling	2
▁awards	2
matics	2
JA	2
render	2
▁chargeable	2
Adjustable	2
mash	2
▁toilet	2
▁Watering	2
provided	2
۞	2
Ɇ	2
▁Reciter	2
▁VOL	2
tcher	2
paris	2
fr	2
▁Plu	2
ucts	2
▁nationalization	2
▁necessar	2
▁Bhatt	2
SC	2
VC	2
▁rough	2
▁brazzers	2
pornstar	2
brunette	2
anal	2
ways	2
💀	2
ɾ	2
▁ventilat	2
▁Fig	2
Database	2
mmortal	2
▁audience	2
▁beat	2
▁Bond	2
ʌð	2
ʋɛ̝	2
▁ʋɑ	2
ɻ	2
▁laptop	2
▁Mek	2
▁ne	2
▁Nir	2
▁Cameltoe	2
tained	2
▁Divid	2
jiang	2
▁correspondence	2
omen	2
▁CookiesLegal	2
▁count	2
śumbh	2
āsu	2
▁ni	2
▁fight	2
▁congr	2
▁modul	2
ত	2
grams	2
▁syr	2
ules	2
▁sarve	2
hruv	2
▁⚠️	2
▁MAX	2
▁MAXIM	2
ookup	2
▁Italia	2
▁pur	2
▁Regulation	2
▁sl	2
▁sufferings	2
▁lava	2
▁Netherlands	2
▁verif	2
sponsor	2
▁Digit	2
information	2
▁epidemic	2
▁Challeng	2
hoe	2
▁Bhawan	2
▁foundation	2
▁manifestation	2
▁Sankaradeva	2
▁Meli	2
lla	2
Action	2
▁Interruption	2
▁Recommend	2
egovi	2
▁Bosnia	2
▁Herz	2
▁devi	2
treat	2
▁supra	2
sternal	2
orta	2
▁substernal	2
sugar	2
▁pancreas	2
▁cells	2
▁livecams	2
Uzbekistan	2
▁ghlass	2
NRC	2
mile	2
▁arisen	2
▁Setting	2
ormatting	2
digit	2
¤	2
▁BTAD	2
▁migrants	2
▁Brahma	2
noexactmatch	2
▁Kau	2
shal	2
bbw	2
▁Mike	2
justif	2
ustify	2
paragraph	2
bali	2
▁Doggy	2
▁paste	2
▁Banana	2
▁Mug	2
COM	2
▁powder	2
▁Maligaon	2
▁Mondal	2
▁Workshops	2
Seminars	2
▁academic	2
▁impart	2
▁disseminate	2
▁Scorpio	2
hreshold	2
Hand	2
▁Bribe	2
▁RECO	2
END	2
lid	2
ṟṟ	2
uv	2
kaḷ	2
▁sunnah	2
▁Switzerland	2
deletion	2
ANT	2
▁UPDATE	2
▁Translator	2
orrect	2
▁DL	2
▁coordination	2
▁surge	2
bin	2
ifference	2
▁Active	2
trategies	2
ELL	2
▁Bargirl	2
▁CHFJPY	2
egitimate	2
▁encrypt	2
FR	2
▁Estonia	2
▁Episode	2
janu	2
Rock	2
ador	2
til	2
▁Album	2
▁$$(	2
pairs	2
ɪn̺	2
▁Journey	2
▁Abd	2
▁Baz	2
▁Fellowship	2
▁Scar	2
ì	2
ց	2
▁Goal	2
▁Catfight	2
▁Deals	2
correctly	2
াল	2
▁corpus	2
constitution	2
▁pipes	2
▁Antichrist	2
▁tribu	2
▁mer	2
urna	2
ocate	2
▁manifest	2
▁APIs	2
▁Buckles	2
▁Covered	2
▁Tribe	2
▁weapons	2
▁SS	2
▁ugly	2
▁Arunudoi	2
KMSS	2
generic	2
KILL	2
utomatic	2
gang	2
HUNTER	2
▁YouTube	2
heading	2
▁forum	2
▁غ	2
س	2
عل	2
cj	2
hl	2
SUH	2
plate	2
▁Riots	2
▁MAS	2
▁vidoe	2
▁solved	2
▁defeat	2
sage	2
▁Wash	2
▁YouPorn	2
▁Melod	2
Mexican	2
▁czp	2
thirty	2
▁Mish	2
bile	2
▁Import	2
umper	2
ico	2
▁broke	2
throttled	2
spam	2
▁Floods	2
▁prank	2
▁stranger	2
▁Phones	2
Babe	2
Pussy	2
▁Tig	2
rin	2
marine	2
bd	2
▁Sans	2
▁Looking	2
Flat	2
indian	2
▁Stall	2
▁japan	2
▁downblouse	2
▁Economy	2
hub	2
uted	2
▁Writ	2
▁Blank	2
▁Bajaj	2
▁Rabi	2
▁Institution	2
yin	2
▁Processing	2
what	2
▁embrac	2
▁modernization	2
▁em	2
pathy	2
ectomy	2
▁university	2
optional	2
img	2
qb	2
ʆ	2
ɡ	2
riding	2
▁GBPJPY	2
Movs	2
▁Titjob	2
▁à	2
▁ì	2
ô	2
▁ō	2
▁Nam	2
tia	2
abinet	2
▁FX	2
▁Cell	2
Geometr	2
ches	2
▁gangb	2
▁Manuscript	2
Index	2
ffer	2
aire	2
ISRO	2
▁Brea	2
▁song	2
▁Chocolate	2
opt	2
▁nutrients	2
minerals	2
uses	2
▁scr	2
rowning	2
ink	2
▁Flexible	2
▁Kushbel	2
▁landscape	2
TrannyShemale	2
Le	2
ͣ	2
▁emphasi	2
thumbnail	2
▁Lotion	2
▁Veri	2
▁mA	2
▁worm	2
omb	2
Kohm	2
▁Michel	2
tors	2
ademi	2
earing	2
р	2
▁bikini	2
MU	2
lot	2
charge	2
UPA	2
▁stockings	2
DN	2
▁tutorials	2
▁PROpaid	2
diti	2
evin	2
▁erosion	2
▁Shahua	2
▁sacr	2
▁performed	2
▁Sweetie	2
BTC	2
༘	2
Criticism	2
Worship	2
▁overflow	2
inan	2
nx	2
▁GRO	2
▁Kitten	2
▁Born	2
▁Finger	2
▁Oscars	2
▁Forms	2
▁...:	2
andbag	2
elope	2
tai	2
▁mysteri	2
▁Palgha	2
tirum	2
ākā	2
avī	2
umā	2
▁altered	2
▁centen	2
Vietnamese	2
▁Succulents	2
▁Spirit	2
▁telugu	2
▁webpage	2
▁XX	2
Mov	2
▁nut	2
Local	2
▁backb	2
▁unpredictable	2
jp	2
▁GU	2
rb	2
fulfillment	2
▁🌟	2
🌟	2
▁Publications	2
▁Submission	2
▁champion	2
hem	2
Ɖ	2
▁satellite	2
▁Nails	2
▁pose	2
▁url	2
▁Basque	2
blowjob	2
kay	2
mac	2
xponential	2
cise	2
▁giraffe	2
ope	2
▁distributors	2
niv	2
śo	2
surāṇā	2
▁Express	2
▁Sanskrit	2
▁automat	2
hensi	2
▁slut	2
▁Ramazaan	2
bhagav	2
mportance	2
▁guides	2
▁Tec	2
jah	2
sibility	2
▁Haired	2
Ro	2
▁Punk	2
CCESS	2
▁DIN	2
▁Hardbodied	2
▁habit	2
cannotdelete	2
kkj	2
aturopathy	2
payment	2
▁deb	2
hoj	2
▁Scenario	2
▁summariz	2
▁Lor	2
▁Sachal	2
Brunette	2
▁TOI	2
▁CLEAN	2
Bhagwa	2
anchi	2
▁strip	2
▁Bridg	2
▁properly	2
▁Backroom	2
eadership	2
▁apprehended	2
leather	2
▁Haren	2
▁Zai	2
lamp	2
▁Sahi	2
▁Bota	2
akal	2
▁Acharya	2
axi	2
horny	2
ppm	2
▁AQA	2
NO	2
śanaṃ	2
nāśan	2
‘	2
hygienic	2
নি	2
▁Koo	2
Vai	2
ORG	2
Modified	2
Nurse	2
ustomizable	2
▁Perspective	2
▁nominee	2
manda	2
▁Agarwala	2
▁Rup	2
ibe	2
đ	2
▁WLA	2
RS	2
princess	2
YON	2
rious	2
💔	2
▁Survey	2
▁VID	2
Peachy	2
▁Heritage	2
▁Moz	2
▁Belon	2
Beat	2
▁Shell	2
qualifi	2
▁Ext	2
▁AGE	2
Ñ	2
▁Rahman	2
jay	2
ং	2
DE	2
▁Trainee	2
▁inaugurating	2
▁wikis	2
°∆°	2
▁Biodata	2
qualification	2
Porno	2
▁Pissing	2
method	2
▁Za	2
ood	2
▁prais	2
ensation	2
▁Parag	2
▁York	2
stadh	2
▁idol	2
▁acc	2
ST	2
☤	2
ḧ	2
▁Heli	2
▁Zeppelin	2
Query	2
▁coeds	2
Internet	2
▁render	2
▁combination	2
▁finger	2
ṅk	2
▁reproductive	2
▁Ham	2
Date	2
▁orchid	2
▁Methodolog	2
▁Jerk	2
▁Charges	2
▁Qarsyiah	2
▁Mov	2
▁trademarks	2
registered	2
▁interrupt	2
▁Angle	2
▁unsubscribe	2
▁Estate	2
aul	2
▁Reduc	2
▁Guid	2
Sandbox	2
numbers	2
▁Aim	2
▁Jazz	2
▁Mahapuru	2
▁crown	2
▁Starr	2
arnings	2
▁midd	2
▁meal	2
▁Halo	2
utter	2
Don	2
▁Jalu	2
ৰামানুজন	2
▁সংখ্যা	2
Some	2
radh	2
policies	2
▁Dum	2
rch	2
ude	2
▁Tau	2
Information	2
▁toolbar	2
Reminder	2
▁dep	2
▁Shak	2
hari	2
🌹	2
П	2
ada	2
alita	2
▁ka	2
▁Headlines	2
EMEN	2
▁Sou	2
▁shift	2
▁indirect	2
laiman	2
▁guarante	2
▁settle	2
ː	2
▁Competit	2
striptease	2
dir	2
NEU	2
▁grievance	2
▁Albi	2
iana	2
▁planet	2
▁SciQs	2
o̸	2
▁Hull	2
rregular	2
iP	2
TOP	2
▁Mandir	2
tease	2
▁ʋɪɾʌjɪ̯	2
▁Lili	2
▁GBPDKK	2
▁Banking	2
▁acrobatic	2
▁Myth	2
Statement	2
electrical	2
interwiki	2
▁RedTube	2
▁Pap	2
bigtits	2
ography	2
▁deepthroat	2
boobs	2
GP	2
▁tranquility	2
▁Rati	2
▁Ticket	2
▁exclud	2
▁Station	2
▁sav	2
Banna	2
ains	2
▁Tagged	2
fix	2
▁xcache	2
я	2
accountcreated	2
☆☬	2
Ŕ	2
▁malay	2
gu	2
▁implementing	2
▁monitoring	2
▁unk	2
empt	2
Lines	2
▁Wood	2
Buckle	2
Sab	2
sanit	2
▁vandalis	2
▁Pursu	2
quisite	2
▁herbs	2
opathy	2
▁variations	2
wi	2
Aashooraa	2
nine	2
Kidney	2
▁Pranami	2
▁effective	2
▁shoplift	2
▁imprison	2
▁hir	2
ɴ	2
̶ᴇ̶	2
Made	2
arby	2
▁kishtey	2
meyd	2
patrolled	2
EMO	2
acked	2
ests	2
akhet	2
uw	2
eric	2
▁shipment	2
▁elevat	2
Mai	2
atikram	2
ATOR	2
Czech	2
band	2
KE	2
▁clinic	2
▁Mura	2
tries	2
▁aspect	2
granny	2
ṭṭ	2
ale	2
solo	2
DAC	2
▁determin	2
ai	2
nc	2
ubai	2
Mark	2
▁WPL	2
▁establishments	2
▁modules	2
eamless	2
▁shaving	2
▁voyage	2
▁shareholders	2
▁vo	2
inhnh	2
▁Matt	2
▁Cattle	2
▁tyre	2
Ꮋ	2
Ꭼ	2
▁irregular	2
status	2
▁Empower	2
Tip	2
▁tabtip	2
Public	2
▁Martin	2
pyr	2
▁Bolívar	2
▁tig	2
▁kar	2
▁northeast	2
▁Need	2
▁vac	2
annot	2
▁preference	2
idity	2
editmyuser	2
▁Pounding	2
Act	2
▁Nutrition	2
▁Gar	2
▁✰	2
▁heights	2
▁Troop	2
▁solicit	2
ode	2
WIS	2
▁Ganguly	2
▁iOS	2
abled	2
Delhi	2
Odi	2
angana	2
Uttar	2
▁BLA	2
▁Lodge	2
gainst	2
▁AbdulM	2
asim	2
▁Sad	2
dam	2
▁Hussain	2
engineering	2
HP	2
celebrities	2
▁PHIL	2
shan	2
Telugu	2
rick	2
akuri	2
▁Cobalt	2
▁Crops	2
imgmultipage	2
śāntikṣamecāmerū	2
▁ballo	2
▁Fight	2
Saturday	2
র	2
у	2
▁insure	2
ignorewarning	2
▁cylinder	2
Serv	2
advantages	2
▁beneficiaries	2
▁Pune	2
Ciara	2
nished	2
Quick	2
▁cargo	2
āvan	2
ees	2
itha	2
▁thirteen	2
ąř	2
▁anyway	2
kash	2
UP	2
▁Neon	2
neq	2
prime	2
ᴡ	2
ɪᴛ	2
▁Fitte	2
Crop	2
Xmas	2
▁Ravage	2
bian	2
▁Quar	2
▁uneven	2
▁remunerati	2
▁Wedding	2
▁script	2
▁Hud	2
▁connectivity	2
▁Tiger	2
▁Zakar	2
▁Silks	2
▁Exist	2
epression	2
▁hungry	2
▁administrator	2
TPA	2
▁Sweden	2
▁Reflect	2
▁Refractor	2
▁ṟ	2
urai	2
▁Commit	2
uicide	2
▁Bok	2
φ	2
ʌn̪d̪ɪ	2
▁t̪ʌn̪d̪	2
minutes	2
▁Russia	2
▁böne	2
▁ren	2
owned	2
▁abo	2
arewell	2
ply	2
▁shop	2
Game	2
Over	2
fail	2
〄	2
▁Closeup	2
yuan	2
CLAIM	2
▁claimant	2
▁sleeping	2
hawk	2
▁Secretari	2
▁জ	2
ruḷk	2
▁Dar	2
▁decipher	2
▁pi	2
sample	2
Link	2
movepage	2
ix	2
𒆜	2
👻	2
Group	2
administrator	2
▁situat	2
▁Cultur	2
▁worshipped	2
▁adapt	2
͟͟͞	2
▁Stars	2
oot	2
▁Wit	2
▁disclos	2
▁Gul	2
▁Ahl	2
▁Degrees	2
lashcards	2
▁Piss	2
▁dil	2
NH	2
own	2
jing	2
▁humidity	2
heat	2
iqui	2
▁textarea	2
ngolia	2
hentai	2
ugar	2
▁Cer	2
▁fatal	2
shoot	2
Without	2
▁Draw	2
	2
changeable	2
Groups	2
▁Wai	2
▁Minn	2
▁Myo	2
mdy	2
ban	2
jeet	2
▁Arneja	2
▁commerc	2
▁Innovative	2
▁likeableness	2
ORT	2
▁PROJECTS	2
▁competit	2
▁cracking	2
▁coa	2
▁Aab	2
foursome	2
▁āra	2
▁kṣay	2
▁Misc	2
acking	2
▁Organ	2
Vac	2
▁𑀫	2
𑁆𑀢	2
▁pla	2
toon	2
▁Dharam	2
NEH	2
▁Chea	2
Sh	2
KeezMovies	2
rithmet	2
▁Fermat	2
▁pseudo	2
বী	2
▁Ano	2
mass	2
▁Chromium	2
▁Pigeon	2
Ą	2
▁Sanskriti	2
▁Gurukul	2
▁Hero	2
bind	2
▁Cadmium	2
▁Holiday	2
ṇṭ	2
▁viḷamp	2
▁backpack	2
▁NIT	2
▁LANGUAGE	2
▁Sch	2
▁Madrassa	2
▁sponsor	2
▁downline	2
▁wi	2
räja	2
nthi	2
▁Jayant	2
গণিত	2
▁macro	2
▁proteins	2
▁==	2
▁POS	2
▁Cali	2
between	2
▁taxi	2
Ꭺ	2
▁Kale	2
subpages	2
SGST	2
ament	2
▁theater	2
▁Principle	2
▁revenue	2
drive	2
Sr	2
MHA	2
vesti	2
▁Yasi	2
atre	2
▁handwriting	2
bre	2
▁immun	2
▁Nadu	2
JI	2
▁wins	2
▁sunna	2
▁discharge	2
cture	2
None	2
▁smṛt	2
▁Lâkkou	2
ò	2
anny	2
rīm	2
▁acup	2
▁Beryllium	2
Aq	2
unprotected	2
͞	2
▁gā	2
থ	2
▁Flame	2
❦	2
adtitle	2
tābhyāṃ	2
TDIL	2
▁tattooed	2
▁parse	2
➕➕	2
▁JÛK	2
▁oṉṟ	2
▁camp	2
les	2
ᴘ	2
▁Invoice	2
▁heir	2
▁Beverage	2
bā	2
▁pregg	2
▁marry	2
āsa	2
▁madhy	2
▁Ung	1
Leaders	1
medy	1
mped	1
▁south	1
Nirbhaya	1
▁tra	1
ṃś	1
sura	1
Man	1
▁impa	1
ssion	1
▁SHR	1
CHT	1
OTP	1
Chat	1
▁sw	1
agat	1
onytail	1
webcams	1
▁Refu	1
WC	1
premises	1
▁hor	1
rr	1
THER	1
die	1
▁Trea	1
sure	1
Problem	1
cards	1
nsmall	1
test	1
ZO	1
▁LA	1
THOU	1
▁styl	1
ogha	1
nāya	1
ūla	1
sine	1
Pantyhose	1
andra	1
sorted	1
aheem	1
rider	1
Wet	1
collapse	1
pm	1
ista	1
▁pilo	1
Kab	1
Had	1
eedi	1
Ḝ	1
ṂṾ	1
express	1
▁installment	1
▁Andr	1
node	1
▁punished	1
estimate	1
▁buyer	1
ache	1
showing	1
_'''	1
▁cure	1
▁intentional	1
injury	1
suicide	1
iatric	1
omatic	1
▁Tren	1
ব্	1
▁দ	1
▁বিৰ	1
ঞ	1
্ম	1
Are	1
appi	1
ccu	1
▁waterp	1
oof	1
▁barrier	1
▁club	1
Isuzu	1
▁EU	1
▁nail	1
activities	1
ধ	1
exposure	1
xposure	1
izu	1
▁partnership	1
Rau	1
ẏ	1
policy	1
gypt	1
announce	1
▁Californ	1
apsed	1
▁Pythagor	1
eans	1
ality	1
ʋɑ	1
▁wʊ	1
ɪ̯ʌ	1
mʌɾɨ	1
ʌmbʌ	1
▁entertained	1
▁Jal	1
functionalities	1
▁boys	1
ronze	1
▁Cheer	1
▁Consultancy	1
tuesday	1
Tuesday	1
HONE	1
▁Eliminate	1
ponents	1
▁insta	1
orrupt	1
UTH	1
▁magnets	1
▁constru	1
▁Groove	1
▁Brazil	1
▁column	1
aime	1
atiya	1
wishers	1
Mitra	1
▁Phukan	1
remises	1
occupie	1
▁কে	1
oon	1
▁erotic	1
ifts	1
▁Clothe	1
eginner	1
▁AV	1
affected	1
▁expir	1
YAL	1
▁Prev	1
▁Spandex	1
▁crotch	1
▁Dogg	1
Pure	1
punlace	1
▁Computing	1
kpr	1
▁browse	1
▁else	1
oncerns	1
▁SK	1
ogra	1
▁Qualifi	1
▁Quantity	1
GRO	1
inky	1
▁batt	1
▁negat	1
innovation	1
bra	1
vo	1
lect	1
ced	1
facial	1
schoolgirl	1
classroom	1
innocenthigh	1
▁aw	1
ନୀ	1
Oriya	1
▁Upskirt	1
▁manufacture	1
putra	1
▁aerial	1
▁mast	1
▁belong	1
tribute	1
workmen	1
▁demonstrate	1
nties	1
ect	1
▁MH	1
▁rela	1
energ	1
erwear	1
▁vegeta	1
rian	1
▁Pop	1
▁Pick	1
udde	1
Alba	1
anee	1
▁Academ	1
fresher	1
finished	1
▁catal	1
yst	1
▁Hyun	1
urp	1
▁german	1
popular	1
Most	1
bala	1
〖Ḱ	1
〗	1
Sci	1
four	1
丂	1
◥	1
Church	1
analytic	1
tag	1
SJ	1
▁Konw	1
▁Princes	1
▁Muham	1
dberr	1
RNA	1
Sachal	1
ennis	1
lary	1
▁Cream	1
ӡ	1
swingers	1
husband	1
▁banglad	1
rect	1
CEE	1
ᬊᬁ	1
Beautiful	1
rt	1
missible	1
protection	1
changed	1
▁undone	1
trib	1
ncreas	1
▁mid	1
▁cali	1
cīma	1
ikki	1
▁Save	1
TOYO	1
▁TOYO	1
JEC	1
ipulation	1
▁Lik	1
▁Failure	1
Ha	1
washi	1
GCL	1
▁EURPLN	1
▁Aas	1
▁adhe	1
▁hallo	1
allow	1
▁cart	1
▁ow	1
usu	1
omah	1
extract	1
forward	1
▁gene	1
fucks	1
fund	1
sevent	1
ceeding	1
▁palm	1
ship	1
Khar	1
ĴỄΨ	1
嫠	1
hardsextube	1
amster	1
songs	1
story	1
obligat	1
▁ড	1
sources	1
Sources	1
▁Preet	1
▁VIE	1
TB	1
UI	1
byte	1
repo	1
summ	1
Join	1
Order	1
POR	1
▁RESP	1
ON	1
SIBILITY	1
▁Reminder	1
▁Linked	1
ʃ	1
ˈ	1
▁Kel	1
tur	1
ismo	1
saved	1
▷	1
◁	1
▁Montenegr	1
▁Flesh	1
▁Multimedia	1
▁insect	1
▁Bre	1
▁exe	1
reg	1
Mask	1
rse	1
▁Officia	1
WB	1
tam	1
▁Molded	1
omi	1
managed	1
upererogatory	1
ksh	1
Fri	1
Sat	1
▁inundat	1
voices	1
▁Receiv	1
▁Attribute	1
Sunnah	1
▁Jama	1
▁daśa	1
uvi	1
rā	1
jitā	1
Patte	1
ongy	1
rabian	1
Samp	1
▁Ethan	1
ΞᾹ	1
ṞⱣÖ	1
▁opposite	1
would	1
▁disrespect	1
💤	1
EK	1
śāy	1
apart	1
family	1
quivalen	1
formal	1
▁deter	1
▁scrutin	1
industrial	1
🚃	1
▁rel	1
uct	1
tiny	1
soon	1
▁spreadi	1
▁Applica	1
Excavator	1
ב	1
ַר	1
GENT	1
▁POW	1
bizarre	1
travel	1
urop	1
▁Radi	1
▁Hart	1
nthusiast	1
ARNING	1
Animals	1
RPO	1
azing	1
Relative	1
▁resid	1
▁Bhargav	1
Gang	1
▁amaz	1
▁Amaz	1
▁sof	1
crea	1
▁Jewel	1
lly	1
▁Maxi	1
ML	1
Light	1
fat	1
▁carbide	1
▁nudity	1
pillar	1
tsbabe	1
▁Doub	1
welve	1
▁Legg	1
ţ	1
hī	1
▁APP	1
Bla	1
▁Espe	1
▁Glossary	1
▁Fas	1
PMFBY	1
SIA	1
▁PLAT	1
Latin	1
▁সং	1
egoti	1
xpenditure	1
urgeries	1
▁Resid	1
yearly	1
▁cul	1
inary	1
▁Safe	1
carriage	1
▁HI	1
▁AR	1
erformance	1
kṣaya	1
ārā	1
THA	1
▁Oxy	1
tropi	1
▁colum	1
bina	1
regu	1
▁professors	1
fisting	1
▁Buses	1
ymphoma	1
ambi	1
eceipts	1
▁schoolgir	1
ସଭ୍	1
tensi	1
▁Colour	1
▁Friction	1
AT	1
▁Cross	1
religious	1
Rong	1
▁Joy	1
▁kno	1
cking	1
ኣማርኛ	1
hamster	1
▁purchas	1
Video	1
▁las	1
carpa	1
ariz	1
Fasting	1
▁Hye	1
wat	1
▁LEV	1
▁TitsM	1
Homemade	1
▁Mongo	1
ose	1
Ꙙⷹԥⷢꙡⷦꚃⷮꚕⷹ	1
purpose	1
▁Vehic	1
▁estimat	1
chain	1
Total	1
hutdown	1
▁Hindus	1
▁Chech	1
†	1
‡	1
▁′	1
Zinc	1
♜	1
℮	1
℮ʑ⇜	1
Shillong	1
▁Maj	1
▁popu	1
▁inq	1
avoid	1
ealing	1
▁PH	1
▁CONNECT	1
OLD	1
OD	1
IR	1
highlight	1
Format	1
alternative	1
▁decisi	1
SO	1
RRY	1
erking	1
letter	1
▁Comme	1
orative	1
▁DTO	1
쿠르드어	1
▁EVEN	1
TS	1
Students	1
uq	1
▁Las	1
hkar	1
mati	1
nstallation	1
Deep	1
Rememb	1
Prayer	1
ʌn̺ʌʋ	1
ʌʋ	1
▁n̺ʌ	1
Registration	1
expand	1
▁technological	1
▁Amul	1
nag	1
ādhi	1
paśā	1
adman	1
ābha	1
Temporary	1
HTTP	1
▁IG	1
quotes	1
bike	1
▁tex	1
Hu	1
sari	1
fea	1
tification	1
≤	1
AYAL	1
▁Ton	1
ntelligent	1
▁Mori	1
▁defa	1
ᐊᓂᔑᓈᐯᒧᐎᓐ	1
▁ORGANI	1
emise	1
▁Vac	1
▁nails	1
Destin	1
falls	1
▁fig	1
scumshot	1
women	1
▁Defini	1
consider	1
gathering	1
weigh	1
mplementing	1
▁decisions	1
monitoring	1
india	1
environment	1
Ko	1
▁terror	1
▁anni	1
▁Changsari	1
᚛þ	1
᚜	1
▁Latvia	1
jat	1
▁Amate	1
xercise	1
sports	1
lk	1
ading	1
▁radioactiv	1
▁rā	1
ābh	1
eri	1
enne	1
▁Cit	1
rus	1
eadquarter	1
▁Shank	1
ntai	1
▁LAT	1
NTS	1
▁NEW	1
users	1
▁Padm	1
▁ɪ̯	1
ɪɾʌ	1
▁Minutes	1
▁Aff	1
ord	1
▁Tour	1
Fa	1
RL	1
Bro	1
idelity	1
Rodali	1
ition	1
ß	1
▁́	1
▁Infant	1
▁Feeding	1
hereby	1
ଦେଶ	1
nxx	1
SAM	1
THI	1
▁manag	1
▁JH	1
glad	1
▁Alternative	1
▁cham	1
otte	1
somes	1
Bisexual	1
Threesome	1
kisl	1
ead	1
▁Andaman	1
▁Upornia	1
▁Cuck	1
rthi	1
azi	1
bbi	1
▁Pub	1
▁BU	1
ɪʀ	1
▁Batt	1
okin	1
etics	1
▁equi	1
Nawawi	1
▁spac	1
▁nir	1
DX	1
▁Lau	1
shka	1
▁Cums	1
▁slippe	1
▁GS	1
▁Facials	1
down	1
llika	1
oudspeaker	1
Retrieve	1
▁Night	1
clusion	1
▁Mecca	1
ongress	1
IVE	1
DIA	1
Important	1
lars	1
▁Electro	1
apture	1
▁Franc	1
▁Die	1
ruits	1
dots	1
▁Basel	1
▁Prop	1
ginn	1
▁finishe	1
▁BA	1
Email	1
Girl	1
▁Legging	1
bondage	1
▁Hint	1
▁contingenc	1
🗺	1
shahi	1
PS	1
ꃅ℧	1
ꃅ	1
ꪑ	1
▁Incredible	1
體	1
▁sac	1
▁institutes	1
MCG	1
Ї	1
┻	1
═━╼	1
Bab	1
▁im	1
vara	1
ākuc	1
aṭ	1
▁plac	1
▁repl	1
▁Solom	1
logical	1
iss	1
antia	1
▁sessi	1
iflora	1
onservation	1
▁Vai	1
▁Devi	1
▁esteem	1
Editing	1
▁Sali	1
technology	1
products	1
▁alternat	1
▁km	1
dating	1
ginal	1
preferred	1
Net	1
NEW	1
bath	1
rubb	1
facebook	1
alysis	1
OV	1
▁Blu	1
▁Jyot	1
Gagging	1
▁Typical	1
PR	1
ীন	1
ege	1
▁Fractal	1
sṛ	1
jya	1
aśar	1
śoka	1
saṃvi	1
toons	1
couraged	1
XXXXXX	1
wis	1
▁Ride	1
TightC	1
▁Cow	1
▁staff	1
▁Administrat	1
kaṭ	1
antat	1
does	1
exist	1
provision	1
kakh	1
▁Kum	1
Advisor	1
zbek	1
▁Ny	1
▁oppose	1
vis	1
▁livecam	1
onsistency	1
▁burglar	1
sley	1
international	1
''\$	1
discount	1
llback	1
Require	1
▁Kay	1
lynn	1
Sales	1
ection	1
UTI	1
system	1
ntibiotic	1
▁transpo	1
onucle	1
▁rem	1
nants	1
defend	1
isuse	1
ickers	1
ampus	1
ncertainties	1
▁worries	1
app	1
shtakam	1
cked	1
▁Resign	1
marriage	1
connect	1
▁experienc	1
inking	1
▁str	1
anding	1
▁IE	1
⋉	1
⋊	1
♀	1
▁markets	1
▁moon	1
▁vir	1
tābhyā	1
̪ʌʋʌ	1
ʋʌɾ	1
efly	1
💯	1
▁directions	1
▁Had	1
▁couldn	1
harmac	1
தமிழ்	1
eparation	1
▁bangladeshi	1
✵	1
ꫛ	1
ꫛ✵	1
▁JE	1
▁Broth	1
bisexual	1
team	1
Level	1
ames	1
virgins	1
slim	1
Kick	1
Պ	1
ն	1
Damage	1
blind	1
▁Geo	1
physic	1
HUB	1
HAM	1
VI	1
CES	1
▁POL	1
▁Ƥ	1
ʜᴇ	1
ᴜ	1
▁HU	1
DIN	1
YS	1
▁alter	1
gus	1
▁Koni	1
ac	1
zp	1
oppin	1
❥	1
before	1
▁Emer	1
▁persona	1
tique	1
▁HS	1
anchayat	1
▁prope	1
AIBA	1
▁Cancell	1
mind	1
😚Ṩτվ	1
▁Nau	1
heng	1
By	1
CH	1
›	1
ṛp	1
▁rūp	1
cesi	1
uko	1
ñc	1
assp	1
riki	1
▁Genera	1
▁Translators	1
▁Glossar	1
▁Shaw	1
diq	1
Shemale	1
Tea	1
FK	1
Dhru	1
℣	1
hardcore	1
oral	1
etermine	1
typical	1
Chai	1
overs	1
▁studi	1
▁Mast	1
▁Res	1
REP	1
▁zo	1
rma	1
Qa	1
written	1
distributed	1
ICHI	1
inal	1
organizing	1
gagging	1
▁oxidation	1
rinking	1
fringe	1
దేశం	1
gandha	1
iśca	1
contin	1
allowed	1
here	1
"$	1
Wire	1
⛵	1
boat	1
▁Cent	1
▁tape	1
vidh	1
mān	1
une	1
▁kār	1
dba	1
▁Vegetables	1
uation	1
ubtotal	1
tning	1
iśu	1
pā	1
ḍu	1
Oil	1
occo	1
reports	1
▁Agri	1
jw	1
jri	1
ignature	1
haka	1
TA	1
▁Ven	1
Yox	1
Reinstate	1
carry	1
▁reinstat	1
ntik	1
▁Vo	1
anol	1
▁Vick	1
Mr	1
nity	1
ellows	1
▁surpris	1
alpha	1
Í	1
Ì	1
Ó	1
	1
Ò	1
Toys	1
Oral	1
urba	1
▁Vijay	1
▁Sr	1
▁Seduc	1
Seduce	1
MCH	1
▁Num	1
▁Heav	1
jam	1
inian	1
urag	1
▁Xia	1
keti	1
▁CRE	1
acuzzi	1
ference	1
idelines	1
BLA	1
matter	1
▁inaugura	1
rabi	1
▁Deli	1
Par	1
rtisan	1
▁maintained	1
PLI	1
onaire	1
utif	1
store	1
▁Carbide	1
mpurity	1
▁humidi	1
fication	1
Moi	1
division	1
zero	1
Division	1
personally	1
vin	1
Disable	1
aching	1
▁Sofia	1
Ar	1
▁Nudi	1
▁Jav	1
ʌr	1
xʌ	1
▁Gia	1
▁oblig	1
ENCE	1
▁bach	1
AIDS	1
▁Gre	1
ixie	1
rdcore	1
▁navigat	1
▁Alexa	1
▁Hiren	1
Guwahati	1
ermissionserrors	1
Permissions	1
🤭	1
▁variation	1
ife	1
ssj	1
services	1
▁erupt	1
▁atmospher	1
null	1
shape	1
▁retire	1
▁Gola	1
▁Rab	1
ngue	1
composit	1
▁tu	1
nnels	1
annels	1
Jum	1
uah	1
En	1
kul	1
▁Ori	1
via	1
থা	1
So	1
rançais	1
▁Mid	1
acting	1
▁GP	1
UNIC	1
LITY	1
▁commun	1
alised	1
Version	1
♡	1
Bank	1
Laho	1
issy	1
▁trainer	1
Compilation	1
ӑш	1
▁aide	1
Ʀ	1
BAD	1
ympho	1
garh	1
Children	1
FID	1
Button	1
ersonnel	1
▁Nep	1
▁Phan	1
ltd	1
▁Autom	1
▁Tabl	1
à	1
searchresult	1
▁Polyester	1
cq	1
▁pdf	1
muni	1
pack	1
PAGENAME	1
Swinger	1
▁Dhi	1
vehi	1
‫ދ	1
ވެހ	1
‬	1
Chart	1
Engine	1
▁Rob	1
▁nautica	1
▁pip	1
▁stations	1
Vo	1
teachers	1
wal	1
dels	1
▁Xn	1
Xx	1
admission	1
▁Conifer	1
ushroom	1
onian	1
▁SSC	1
raft	1
▁Pot	1
iruv	1
▁nuc	1
arvat	1
hivan	1
uṇ	1
disp	1
elfare	1
▁consistency	1
≦	1
▁graduat	1
▁repu	1
▁Limp	1
paradise	1
✨	1
т	1
∂	1
ᄿ✨	1
▁Arrange	1
owing	1
arvesting	1
ield	1
prevent	1
▁Typ	1
urricane	1
Prev	1
↑	1
→	1
SIT	1
:''	1
▁Egypt	1
ꜛ	1
ڶ	1
ـٲ	1
ݪꜜ	1
▁Vibrat	1
▁Incredibl	1
▁Charle	1
▁iffco	1
▁Param	1
Disc	1
▁Brin	1
ɕ鬱	1
⌁	1
EAN	1
atsapp	1
▁aṟi	1
য	1
▁Outr	1
fits	1
arr	1
▁Hyper	1
pla	1
omiya	1
▁LT	1
▁Ethi	1
esponsibility	1
▁conscien	1
▁priv	1
leged	1
▁studied	1
random	1
arrier	1
Him	1
▁Pix	1
Jeff	1
yala	1
brazzers	1
orgy	1
clip	1
âl	1
icate	1
kaṃ	1
▁univers	1
sthma	1
tonia	1
▁AST	1
cer	1
Mate	1
xhibitionist	1
outdoor	1
clothed	1
Saff	1
questions	1
CB	1
▁CONS	1
MIN	1
▁Metho	1
fake	1
ERN	1
Cr	1
▁finish	1
▁Temporar	1
sı	1
Ada	1
Ramanujan	1
rdos	1
Carniv	1
Prof	1
▁Alexand	1
▁Gro	1
ndi	1
eck	1
▁Freight	1
modal	1
▁Transpo	1
▁Goa	1
ramod	1
lapsed	1
odybuild	1
po	1
▁thesauri	1
cons	1
▁nurs	1
keeping	1
anism	1
January	1
update	1
transcript	1
Mailing	1
Cycads	1
Exotic	1
Frost	1
Succulents	1
Annuals	1
Perennials	1
Vegetable	1
Iris	1
Bulbs	1
Exchange	1
Translators	1
HI	1
KUN	1
nett	1
▁experiment	1
hfulness	1
Korea	1
appy	1
contributor	1
disclaimer	1
erials	1
▁Malaysia	1
▁Scot	1
▁Gae	1
lative	1
antho	1
Note	1
''':	1
▁comprise	1
▁eligib	1
agreement	1
āñcī	1
▁kāñcī	1
pu	1
ramaṇ	1
ñcī	1
production	1
▁prohibited	1
statement	1
ethane	1
Shop	1
▁Histor	1
SAI	1
orida	1
mpton	1
▁Lia	1
meter	1
Average	1
▁Eli	1
▁GMC	1
well	1
▁fiqh	1
usl	1
dhū	1
▁El	1
▁Assemb	1
▁conf	1
▁Absorpti	1
Start	1
PAP	1
▁Ambula	1
tches	1
▁spli	1
lings	1
▁Diabet	1
Jail	1
Employment	1
Legal	1
Cost	1
LEN	1
GES	1
OMA	1
AG	1
fetish	1
ค	1
Ҩ₡	1
▁gener	1
▁Trac	1
epatriation	1
xi	1
Shanqette	1
hrome	1
reader	1
▁propose	1
scholars	1
knowledge	1
▁Punishment	1
logpage	1
▁Mp	1
Policy	1
sword	1
Height	1
social	1
Expert	1
urse	1
Verb	1
▁Patte	1
▁Kus	1
▁Royal	1
ldren	1
▁inciden	1
▁decade	1
ites	1
▁Brothe	1
▁Patien	1
Bibliograph	1
▁fit	1
কা	1
Italian	1
iterat	1
nfrastructure	1
elon	1
donesian	1
JizzBu	1
nker	1
Kha	1
▁politician	1
▁constructed	1
xz	1
ncreased	1
nting	1
ooks	1
▁hus	1
Hameed	1
▁Prais	1
worth	1
ANCE	1
LL	1
Break	1
erc	1
▁nar	1
volution	1
promise	1
▁Joi	1
▁Nan	1
feng	1
ngxi	1
ureaucrat	1
ᴛᴀ	1
➰❤	1
️	1
married	1
Double	1
ᓀᐦ	1
ᔭᐍᐏᐣ	1
Shin	1
JD	1
▁bail	1
RC	1
tant	1
NAI	1
▁Barman	1
rini	1
▁screens	1
NC	1
mailerror	1
phrase	1
Jan	1
ān	1
▁Eng	1
▁Marxis	1
lump	1
contractor	1
ortion	1
Doll	1
▁ZE	1
HANI	1
miah	1
▁Variet	1
working	1
searchsubtitle	1
Links	1
Here	1
▁physi	1
▁enhancement	1
▁Shik	1
oku	1
Ф	1
▁Cur	1
▁Smartp	1
RCH	1
Gallery	1
▁Brows	1
▁Taste	1
elicacy	1
mouth	1
AJ	1
ssessment	1
iron	1
▁fell	1
▁Turk	1
ҫ	1
▁Squir	1
rishna	1
hanging	1
▁Relie	1
▁Tools	1
▁Patrika	1
ECTION	1
ncourag	1
▁mater	1
daś	1
vasa	1
mpr	1
ilipino	1
▁Swede	1
daug	1
lia	1
Liv	1
▁Plex	1
Earth	1
ynecologist	1
ynecological	1
aomi	1
▁Laur	1
Bag	1
hest	1
hese	1
Snatch	1
▁Broad	1
▁NGOs	1
▁Depend	1
forbidden	1
ifers	1
▁LAN	1
CIA	1
LS	1
ipur	1
▁legislat	1
walla	1
▁mag	1
tras	1
⚽	1
dien	1
vely	1
▁extrem	1
ucumber	1
jeans	1
biy	1
diz	1
Bajaj	1
modi	1
▁tweeted	1
ritten	1
orate	1
plast	1
Archives	1
chosen	1
holder	1
agala	1
cent	1
Can	1
ENER	1
wikim	1
ppʌ	1
ɽɨ	1
▁Intelli	1
aux	1
Jesus	1
tainment	1
ctress	1
▁gor	1
TAN	1
▁Ice	1
azar	1
bati	1
È	1
advise	1
▁duo	1
malltits	1
▁Schoolg	1
▁convi	1
nced	1
cholarship	1
oint	1
NIN	1
▁LO	1
Sta	1
inety	1
Implosion	1
sses	1
▁summarize	1
agree	1
disagree	1
▁Nava	1
Ƥ	1
Ɛ	1
▁immobili	1
▁liter	1
Twink	1
▁Mus	1
tone	1
▁Gi	1
▁Salu	1
tations	1
pha	1
km	1
writ	1
Wiki	1
piration	1
▁domina	1
frame	1
bles	1
bili	1
▁tract	1
validate	1
𒀱ꪳ	1
𐍂𐌀𐌾𐍈𐌽𒀱ꪳ	1
▁bizar	1
bits	1
▁commenc	1
Te	1
nancy	1
ṟu	1
maṟ	1
gai	1
iñc	1
▁viś	1
nosuchuser	1
▁Fit	1
ᓄᒃᑎᑐᑦ	1
inuk	1
titut	1
Afghanistan	1
پښ	1
▁alarming	1
des	1
ounds	1
varies	1
settlement	1
▁paradi	1
gm	1
▁dem	1
▁capabilit	1
Tripura	1
keys	1
shout	1
▁Authentic	1
Qur	1
adh	1
irah	1
wta	1
Akhi	1
continu	1
▁Simp	1
zz	1
Trace	1
▁doc	1
▁deci	1
alvation	1
▁drum	1
₱	1
✂	1
pheno	1
believers	1
Valentine	1
Pou	1
▁Covi	1
▁Vib	1
orge	1
ushma	1
hrase	1
▁Seminar	1
▁Criticism	1
workshops	1
▁Wheel	1
▁wholes	1
olders	1
▁comp	1
oba	1
flora	1
▁Transcript	1
helves	1
▁expi	1
Night	1
Security	1
nan	1
ifu	1
▁HOU	1
▁garage	1
ASE	1
▁phase	1
▁Chap	1
Type	1
▁Shukra	1
panty	1
▁Grand	1
arameter	1
phri	1
▁Epi	1
logue	1
ensored	1
Modern	1
iting	1
ça	1
▁Unt	1
reated	1
▁Bis	1
kir	1
pali	1
ଆ	1
ourism	1
▁authentic	1
touch	1
fly	1
Pornstar	1
Teens	1
ril	1
eychains	1
($	1
▁Subtitling	1
Sleeping	1
▁virgin	1
▁Sush	1
Active	1
▁Brow	1
Sunday	1
dule	1
aranti	1
▁Informati	1
fabric	1
ching	1
Kil	1
SVC	1
dow	1
▁Guang	1
▁NS	1
CELLA	1
NE	1
▁Destr	1
uctible	1
▁surg	1
▁stipulation	1
◈	1
LAN	1
Ͼ◈	1
delivery	1
dco	1
▁Follo	1
Licensing	1
▁Ang	1
adia	1
ִד	1
ש	1
▁flow	1
▁Respons	1
NDR	1
▁Pura	1
▁Bhas	1
epatitis	1
▁Micros	1
⇒	1
asteless	1
▁Forg	1
exceed	1
arching	1
▁vibra	1
venues	1
──	1
───	1
╤╦	1
͇	1
【	1
balance	1
ARI	1
ụ	1
▁Wid	1
▁sick	1
adly	1
▁Te	1
jas	1
FO	1
RM	1
revisions	1
ABI	1
sual	1
▁Grih	1
horya	1
llin	1
ois	1
ttes	1
▁obligat	1
▁Mina	1
?"	1
cuckold	1
▁Vu	1
bado	1
Flash	1
▁Object	1
macro	1
documentation	1
flash	1
player	1
settings	1
▁CX	1
config	1
appoint	1
RSS	1
▁Condo	1
lence	1
Hamster	1
▁Economi	1
etary	1
▁Jeff	1
▁fram	1
reported	1
Hardcore	1
Fuck	1
▁chain	1
ādika	1
hispa	1
restling	1
▁Championship	1
rh	1
▁Chariali	1
▁Hump	1
▁Gal	1
▁Congre	1
gation	1
dian	1
▁Mad	1
]]:	1
▁Bulgaria	1
▁Jurisdiction	1
▁Sig	1
NTM	1
ired	1
▁fel	1
fession	1
ifications	1
ulfide	1
conductor	1
Indium	1
sesqui	1
homemade	1
Mesh	1
inch	1
μ	1
reen	1
▁timeline	1
canner	1
▁asses	1
aiwan	1
▁prefer	1
ential	1
ridge	1
moto	1
▁swi	1
♂	1
▁Cabinet	1
Muslim	1
▁STATE	1
LLOW	1
▁APPL	1
▁IF	1
▁REA	1
ITS	1
FF	1
ILIA	1
NDER	1
▁SUC	1
▁CIRCUMSTANCES	1
▁LIABILIT	1
▁OTHERWISE	1
OU	1
AVE	1
EEN	1
HALL	1
ONE	1
ercent	1
Bokmål	1
▁Strategies	1
▁boundar	1
race	1
▁Injur	1
urnover	1
▁tow	1
▁Impact	1
▁inte	1
ŵ	1
𑀴𑀸	1
𑀴	1
𑀓	1
▁stre	1
reinstate	1
replacement	1
♫♫	1
hard	1
♫	1
▁Hall	1
Images	1
▁pornt	1
toys	1
beautiful	1
vagina	1
Þ	1
÷	1
▁Finally	1
▁taste	1
▁Dhekia	1
▁pal	1
mṛt	1
tvā	1
▁sam	1
bhū	1
▁initiat	1
UV	1
▁propagat	1
▁ট	1
cleaning	1
▁Acce	1
জি	1
▁CONT	1
ACT	1
chang	1
▁Manda	1
kini	1
super	1
gative	1
▁Mala	1
Key	1
DAI	1
▁ionising	1
▁exception	1
▁interruption	1
▁Miz	1
▁Anyt	1
oiso	1
▁wan	1
agger	1
Si	1
erra	1
Fle	1
face	1
fulness	1
lastmodifiedat	1
candal	1
unate	1
quet	1
▁Honour	1
▁Boot	1
dollar	1
▁Amb	1
Sir	1
April	1
▁behavio	1
▁SciQ	1
VKV	1
IK	1
away	1
KY	1
ANS	1
FL	1
▁enro	1
Surge	1
ath	1
ow	1
▁sati	1
faction	1
ilab	1
▁Bath	1
rest	1
ermitted	1
▁merge	1
▁Memb	1
vian	1
⧼	1
บ	1
⧽	1
▁grammar	1
▁Terri	1
bly	1
raf	1
handl	1
▁REL	1
▁QUE	1
abysitter	1
llegal	1
Associate	1
▁MI	1
CRO	1
hats	1
gist	1
ঢ	1
▁castle	1
▁Mach	1
▁SHE	1
▁SITE	1
mak	1
▁disti	1
rank	1
edge	1
▁Bri	1
sban	1
তা	1
▁Russ	1
Brand	1
Toyota	1
Health	1
mmobilize	1
▁Doc	1
Translator	1
OSE	1
KIN	1
yle	1
▁Adam	1
every	1
CEO	1
▁nu	1
velo	1
membering	1
roups	1
▁hype	1
lif	1
Vid	1
▁CON	1
cles	1
▁breast	1
TY	1
Box	1
▁Defi	1
▁Commuter	1
▁Cutt	1
cream	1
JB	1
▁Capa	1
▁enterprises	1
▁buyers	1
▁notic	1
oddler	1
bout	1
▁Dadd	1
ario	1
三菱	1
ulfill	1
romises	1
sunnah	1
hursday	1
Thursday	1
📘	1
▁multilingual	1
mant	1
olunteers	1
Wiktionar	1
ians	1
erness	1
▁bangladesh	1
▁Pony	1
play	1
addgroup	1
pretty	1
fun	1
SQL	1
lave	1
warn	1
▁recreati	1
Stick	1
▁Island	1
onfiscation	1
▁tutorial	1
TE	1
tā	1
▁śa	1
ន৳	1
Year	1
mates	1
pycam	1
▁massag	1
tiya	1
▁Rong	1
shi	1
▁chose	1
▁Cont	1
gnific	1
odemich	1
УЉ	1
ebmaster	1
onjecture	1
▁Applicat	1
Brutal	1
Figure	1
▁strang	1
orbid	1
▁supplie	1
▁Gol	1
ssy	1
Anon	1
Map	1
pub	1
🅷🅸🅽🅳🅸	1
anical	1
Gr	1
▁va	1
▁Lal	1
▁Sain	1
ediatric	1
▁FILM	1
▁THI	1
▁kū	1
karu	1
ṇām	1
▁Mustard	1
Islam	1
miy	1
☢	1
▁Makka	1
▁compet	1
even	1
▁Eight	1
▁Nine	1
point	1
py	1
Hardness	1
treme	1
ncoding	1
nās	1
ike	1
Min	1
▁Exploited	1
uarantee	1
OFFICE	1
▁VIDEO	1
Chang	1
▁branche	1
Slovakia	1
operators	1
CI	1
Thailand	1
uffaloes	1
▁Parentage	1
৫	1
▁hi	1
hassle	1
November	1
▁deadli	1
▁conco	1
ction	1
institute	1
STI	1
dabad	1
venom	1
Overs	1
oks	1
▁reb	1
ukes	1
▁Publi	1
▁IME	1
alt	1
▁Rac	1
▁Nur	1
turing	1
▁personality	1
utlook	1
hram	1
esquirt	1
wires	1
▁locate	1
▁remotely	1
▁Arrangement	1
head	1
Pattern	1
▁Addi	1
▁INd	1
Ab	1
▁Nayyar	1
ssex	1
▁Calcutta	1
both	1
ISC	1
nuk	1
▁Tw	1
▁amendment	1
▁Cons	1
▁essen	1
bsolute	1
Headlines	1
nga	1
▁che	1
Tribute	1
Sankaradeva	1
dot	1
pok	1
▁voyeurbizarre	1
spying	1
CHEN	1
ano	1
igeon	1
▁approaches	1
flies	1
bah	1
▁miles	1
Candy	1
placement	1
▁Stone	1
▁watche	1
▁Kalyan	1
food	1
▁sta	1
organis	1
▁concentrat	1
Travel	1
pplicable	1
▁Sixt	1
graphics	1
papers	1
JM	1
INFO	1
▁---	1
GIRL	1
▁Jol	1
tatt	1
▁Pranam	1
Ś	1
rī	1
tattva	1
āma	1
▁Voy	1
ager	1
wanted	1
▁Sent	1
uru	1
BPO	1
pot	1
▁atmosphere	1
▁spontaneous	1
▁coun	1
▁VI	1
uche	1
▁Achi	1
lle	1
▁filip	1
immed	1
alway	1
▁tim	1
arpet	1
legant	1
▁designs	1
ometric	1
campus	1
▁dro	1
▁pipe	1
NOW	1
▁intellectu	1
▁stake	1
▁basket	1
▁Abh	1
▶	1
passed	1
onedit	1
ⱥŇ	1
Ç	1
😓	1
▁handjob	1
▁Que	1
bh	1
▁Era	1
▁Anno	1
▁concl	1
▁rank	1
▁universal	1
ower	1
Air	1
uffy	1
▁OC	1
ously	1
▁Tia	1
ounge	1
CIDENT	1
OVER	1
▁limitation	1
dism	1
alendar	1
ȶ	1
াম	1
▁produce	1
iful	1
kk	1
nal	1
kak	1
shame	1
Ƒ	1
iu	1
ֆ	1
Down	1
assamese	1
Daughter	1
gupt	1
▁degr	1
ades	1
restriction	1
jacu	1
Ta	1
Ư	1
Ý	1
͙G͙	1
Ú	1
Ĩ	1
Ệ	1
Á	1
Ố	1
͙I͙	1
Ồ	1
É	1
G͙	1
▁pig	1
skinny	1
teams	1
kee	1
tner	1
士林豪	1
▁digitization	1
▁EA	1
▁episodes	1
▁Arabia	1
бел	1
Rupabham	1
Kalkim	1
Srigunam	1
Dantauram	1
Grihshoryam	1
Krisham	1
utriflow	1
entine	1
ommunity	1
hā	1
kāv	1
specif	1
▁BP	1
Sivasagar	1
impur	1
▁Dhema	1
herewith	1
▁plane	1
▁equation	1
ɪ̯ʌn̺	1
▁cere	1
izes	1
▁acco	1
lades	1
ignition	1
mpilation	1
girlfriendS	1
Taboo	1
▁Pad	1
nee	1
tiquette	1
Stru	1
nz	1
▁chal	1
fant	1
▁Bike	1
Musha	1
imitation	1
game	1
btain	1
▁expan	1
▁grass	1
▁broadl	1
eaf	1
▁cris	1
ennial	1
naugura	1
λ	1
ʛ	1
↯	1
ɪʋʌn̺	1
rawal	1
▁Nee	1
Line	1
▁instruct	1
▁Roy	1
მ	1
▁IFF	1
returnto	1
merican	1
▁Ple	1
KPR	1
North	1
SLET	1
Girlfriend	1
ric	1
▁demon	1
ucking	1
stolen	1
pair	1
▁TOY	1
igat	1
▁sys	1
▁Tempe	1
▁NU	1
CLE	1
YA	1
patrol	1
▁patrol	1
▁chat	1
▁Scan	1
slip	1
১	1
▁WEB	1
▁Temper	1
lb	1
Deg	1
▁Deg	1
▁Liabilit	1
Employe	1
▁Ibrah	1
▁bulb	1
breaking	1
▁Capacit	1
seri	1
▁muc	1
▁Sever	1
DKK	1
review	1
▁Gum	1
▁donate	1
▁lakhs	1
Art	1
▁Scho	1
penha	1
uer	1
▁cain	1
erti	1
▁Opa	1
queness	1
▁Kikuyu	1
ONA	1
▁INFORMATION	1
initiat	1
▁Acro	1
▁russ	1
pup	1
▁Syn	1
▁whiten	1
birth	1
haq	1
Duba	1
Awa	1
ontributors	1
Massage	1
ensitivity	1
Tu	1
tity	1
Mul	1
LEG	1
▁retr	1
RR	1
amou	1
ntr	1
INDIA	1
happy	1
▁fanta	1
luf	1
▁za	1
choo	1
tong	1
▁admin	1
iru	1
tay	1
▁Cheat	1
▁Insul	1
▁Cl	1
Roll	1
Ponytail	1
▁Distribut	1
▁wander	1
Aus	1
itu	1
▁Hus	1
▁Tamkeni	1
MK	1
Nalbari	1
Tinsukia	1
Morigaon	1
▁Fak	1
▁Handic	1
Ⱥ	1
ᤉᝣ	1
⁩	1
SU	1
asse	1
duce	1
Creampie	1
rene	1
Pir	1
poll	1
▁Famil	1
▁Sura	1
Daman	1
▁Ajo	1
financ	1
▁immo	1
vable	1
▁temporar	1
HS	1
▁Linu	1
ustria	1
▁Consultation	1
natha	1
geni	1
nsure	1
telephone	1
ussi	1
lat	1
Cast	1
▁Chee	1
▁lesb	1
eas	1
LIS	1
▁ধ	1
ৌ	1
organ	1
rele	1
▁Mang	1
rove	1
▁Fan	1
▁Rhodi	1
odman	1
hawan	1
Raw	1
▁Panchayat	1
allin	1
token	1
jk	1
YO	1
Eh	1
PK	1
gnosis	1
rows	1
ows	1
▁pleased	1
▁teach	1
▁HAN	1
ISA	1
ALI	1
YRI	1
▁Devo	1
▁Brothers	1
fast	1
comfort	1
▁donat	1
iyu	1
daṇḍ	1
riy	1
Two	1
ṉav	1
▁avai	1
▁naṇṇ	1
ṉa	1
ivaṉ	1
tail	1
iza	1
wl	1
▁Smt	1
ere	1
peak	1
cur	1
Office	1
▁Citizens	1
▁Jaw	1
▁Chuck	1
dsm	1
ailey	1
▁Citizen	1
dust	1
hiddencat	1
▁Fin	1
nish	1
vak	1
atṛ	1
karaṇ	1
shantranslation	1
▁marriage	1
ЯѦ	1
Ƨ	1
є	1
բ	1
▁procedur	1
▁Pradyum	1
▁Daya	1
curr	1
▁amended	1
MV	1
▁festiv	1
xa	1
plan	1
▁outdoor	1
▁Japanes	1
▁auxil	1
helping	1
▁bril	1
ardo	1
▁Vin	1
▁Nag	1
▁Tues	1
▁researcher	1
▁twink	1
▁scrutiny	1
jack	1
think	1
▁Look	1
▁FreePorn	1
roll	1
▁regex	1
▁continu	1
▁functionality	1
▁Lithuania	1
[[{{	1
𑀺𑀵	1
𑀇	1
▁𑀅	1
𑀶	1
𑀝	1
𑀭	1
▁villa	1
ates	1
epsi	1
CD	1
xie	1
essenger	1
▁applic	1
heating	1
▁furn	1
aces	1
babe	1
nka	1
ider	1
feminin	1
▁Qu	1
King	1
▁Pervert	1
domain	1
Value	1
rges	1
▁Iq	1
elani	1
▁Osa	1
▁Emara	1
▁Popula	1
▁popula	1
▁socio	1
▁ads	1
accept	1
LP	1
pped	1
metro	1
▁pric	1
▁boo	1
▁Kno	1
▁Ligh	1
ogo	1
----	1
▁cool	1
spot	1
Olympiad	1
▁Thomas	1
▁affi	1
vit	1
sauce	1
dhā	1
ābhy	1
tiḥ	1
▁Hui	1
ئ	1
غ	1
چ	1
▁disaster	1
ppoint	1
Suda	1
already	1
▁DD	1
NSE	1
śruti	1
Buy	1
mond	1
Milk	1
▁Swin	1
burne	1
flo	1
prohibited	1
equivalent	1
proxyblock	1
irsut	1
TSU	1
important	1
▁Bodo	1
tami	1
▁lesbi	1
Read	1
ased	1
illion	1
renewal	1
╳Ꭻᱛ	1
╳	1
২	1
ADJ	1
Marie	1
gged	1
ducted	1
rtha	1
charya	1
brazzer	1
cheating	1
bukk	1
▁penalt	1
▁kin	1
amcare	1
has	1
▁FLO	1
▁reli	1
Hema	1
ngo	1
wash	1
▁unp	1
▁Gon	1
oxi	1
lpi	1
NEE	1
PCO	1
n̺ʌm	1
ɨɲ	1
˞:	1
mʌ	1
n̺n̺ʌ	1
▁inspiration	1
born	1
▁investigation	1
arasi	1
▁Window	1
▁Pig	1
mentation	1
▁Lou	1
At	1
harva	1
ECH	1
ANIC	1
▁DATA	1
EPF	1
changes	1
graph	1
tonian	1
ately	1
Shandong	1
details	1
aśca	1
▁hate	1
ṣu	1
▁cā	1
anner	1
▁faces	1
oronavirus	1
rupt	1
▁loc	1
▁pleasur	1
্যা	1
oin	1
smo	1
anag	1
haṃ	1
lak	1
āḍ	1
▁Purchas	1
wrong	1
empty	1
nnouncements	1
▁Statu	1
▁Bur	1
mese	1
also	1
eterinarian	1
▁resort	1
Â	1
▁affiliate	1
herein	1
Xiaomi	1
▁seriously	1
ult	1
imately	1
qaw	1
SR	1
Want	1
uggestion	1
▁Org	1
▁Glo	1
cover	1
heir	1
▁lay	1
longi	1
▁Pare	1
oddess	1
▁Brahm	1
▁unc	1
▁panthe	1
▁↑	1
▁Ce	1
ssels	1
▁PV	1
DF	1
workshop	1
▁Typing	1
▁Chaudh	1
▁Rewa	1
ermissible	1
▁Abo	1
Ali	1
zet	1
ć	1
	1
Ple	1
otus	1
▁Dictionar	1
President	1
▁Asam	1
▁Veter	1
oct	1
lix	1
▁Sau	1
rashtra	1
requisit	1
urrency	1
িয	1
Every	1
rice	1
Bodoland	1
bū	1
rry	1
▁dedicate	1
▁Speci	1
Urin	1
▁Electr	1
maintenance	1
Maintenance	1
ums	1
AD	1
OTIC	1
Press	1
▁Mate	1
sys	1
ednesday	1
Wednesday	1
▁classifi	1
ifteen	1
▁Orienta	1
buk	1
bytes	1
rau	1
ṣam	1
adbh	1
ṣa	1
ṇam	1
nami	1
▁Bell	1
▁Strawberry	1
ttles	1
▁Sw	1
irl	1
Trend	1
Hunter	1
alid	1
alih	1
RedTube	1
oḻ	1
umpu	1
ntat	1
▁deed	1
ndly	1
▁DI	1
GG	1
SCRI	1
▁Isa	1
onvicts	1
original	1
▁PROCESS	1
lvin	1
aquel	1
grow	1
ntinu	1
Compare	1
▁Sankarde	1
purus	1
চে	1
▁GA	1
▁Explor	1
ECOM	1
▁miniski	1
С	1
hubby	1
penalt	1
Audio	1
emo	1
dialysis	1
▁Random	1
Orde	1
▁Helic	1
hrys	1
▁mara	1
candi	1
▁divis	1
▁Mait	1
resse	1
⦅Ɠ	1
ժ	1
⦆	1
Past	1
eeds	1
ngle	1
▁Visitor	1
▁vend	1
▁establish	1
expected	1
hose	1
Latina	1
Beauty	1
Thumb	1
inc	1
verflow	1
▁Mens	1
▁Defend	1
▁Differen	1
ionising	1
ria	1
▁vul	1
FW	1
🅙🅞🅨	1
oi	1
▁hung	1
there	1
▁grocer	1
abort	1
▁Abort	1
✠▤	1
▤✠	1
▁Town	1
uzhou	1
GC	1
eautiful	1
▁Fant	1
▁HAS	1
ᜰꦿ	1
ض	1
ح	1
ك	1
لل	1
إ	1
NSER	1
guest	1
client	1
dro	1
Pharm	1
Bud	1
▁Chit	1
Sp	1
▁dise	1
ulator	1
▁Shin	1
】	1
Battle	1
▁Delight	1
▁favour	1
▁vanda	1
▁nipple	1
▁BRL	1
ervic	1
Nylon	1
norate	1
sec	1
License	1
operation	1
lumin	1
ashi	1
Afa	1
▁WORKS	1
FIF	1
OWER	1
▁Fie	1
▁Jas	1
▁tail	1
lamps	1
cho	1
elts	1
hen	1
▁score	1
▁Feder	1
▁Galle	1
▁Mandin	1
▁Rule	1
ituation	1
पाद	1
▁humiliat	1
Mobile	1
▁Assignment	1
▁Teac	1
izza	1
▁Thiruv	1
br	1
opa	1
gov	1
▁Jane	1
▁domination	1
🤨👇🏼	1
▁Introduce	1
Biz	1
Nas	1
downblouse	1
peeches	1
▁Ladbrokes	1
camp	1
equirements	1
etropoli	1
▁Produc	1
KHz	1
Ke	1
anthem	1
annual	1
▁Khar	1
Financ	1
ntermediar	1
ically	1
aware	1
▁lie	1
uter	1
ggs	1
emorrh	1
uram	1
Lit	1
▁Prepar	1
▁mal	1
itra	1
▁sin	1
White	1
▁Usage	1
Example	1
oḷ	1
kū	1
ṭit	1
▁taṉ	1
ṉaṟivu	1
▁māynt	1
ί	1
մ	1
ϯ	1
Multimedia	1
Galway	1
Emula	1
Comput	1
Fetish	1
Husband	1
Wife	1
shk	1
ndroid	1
activity	1
▁sil	1
extensions	1
▁Stor	1
bbie	1
▁Rip	1
LEAN	1
ã	1
ĕ	1
ĭ	1
ó	1
ŏ	1
ú	1
ù	1
ŭ	1
▁ū	1
ÿ	1
rab	1
☾	1
cientifically	1
▁pediatricians	1
▁panty	1
BA	1
Ď	1
▁Pak	1
▁germinat	1
▁Equi	1
▁Mexic	1
trating	1
▁movements	1
▁mechanisms	1
▁arab	1
abili	1
▁Canada	1
regula	1
making	1
olving	1
▁Making	1
nding	1
wise	1
emale	1
▁Unman	1
▁reduce	1
College	1
fied	1
ilton	1
▁political	1
▁practitioner	1
haram	1
▁sy	1
oyal	1
▁fruit	1
omorrow	1
abi	1
ntertainment	1
Cyc	1
ͥ	1
ͫ	1
tizing	1
▁Entero	1
▁Shir	1
▁Swe	1
ater	1
▁Coat	1
temp	1
▁thumbnail	1
bay	1
▁Colle	1
ctibles	1
Bay	1
▁coupons	1
Exist	1
Brazil	1
▁logic	1
▁Tr	1
ojan	1
▁indi	1
tely	1
plicates	1
▁Resi	1
tance	1
▁Moist	1
ongmon	1
▁Lang	1
khu	1
gitation	1
rgument	1
▁Sol	1
хь	1
г	1
Gangbang	1
Busty	1
▁Hirsut	1
ularly	1
▁Chai	1
Chattisgarh	1
JNU	1
NDA	1
ppel	1
wag	1
Researchers	1
▁disast	1
rous	1
hist	1
YU	1
edonia	1
French	1
ctory	1
LSO	1
parag	1
▁fal	1
cat	1
Research	1
▁guy	1
▁Lips	1
utba	1
shed	1
OC	1
༗ཽ	1
ྃ༢	1
jewel	1
TIC	1
▁Philippi	1
select	1
adoption	1
devices	1
Nai	1
wers	1
▁Memory	1
ndall	1
reesome	1
▁Jy	1
nvasion	1
emy	1
▁Custody	1
rolling	1
▁reside	1
Third	1
▁flush	1
▁hospitalised	1
One	1
massage	1
sque	1
jia	1
▁Zhong	1
nto	1
dhav	1
▁Bod	1
fere	1
evaluat	1
verse	1
Cowgirl	1
▁Sharee	1
▁barb	1
▁Scholar	1
▁$$=	1
Feed	1
riving	1
▁definit	1
wapping	1
Plan	1
IDE	1
▁BASE	1
▁FE	1
KA	1
▁declare	1
ý	1
śś	1
🔱	1
nton	1
Shur	1
aim	1
disambiguation	1
isambiguations	1
DP	1
variable	1
Vari	1
⩔ƗⱠ	1
similar	1
advisor	1
Sou	1
llen	1
print	1
▁Appe	1
ndices	1
Haj	1
iri	1
▁Suppli	1
ntals	1
nge	1
▁Kut	1
▁mons	1
ontains	1
pest	1
ľ	1
lí	1
▁pant	1
▁ELI	1
▁Dru	1
▁Embr	1
ards	1
stablishments	1
erie	1
equ	1
▁Suk	1
idya	1
▁qualif	1
▁accumulat	1
▁instinct	1
▁ple	1
▁śūl	1
kānti	1
dṛ	1
▁celebrit	1
▁Liza	1
ortune	1
aliber	1
▁circu	1
ʋʉ̩	1
mʌl	1
ɨm	1
▁Villa	1
eFuck	1
▁spam	1
prot	1
blue	1
▁epidermis	1
tah	1
novation	1
Imam	1
osque	1
cessors	1
dhy	1
▁philosoph	1
dramati	1
folder	1
ʝѳ	1
kɛ	1
▁Snow	1
▁ʋ	1
nej	1
▁mann	1
awah	1
nud	1
äja	1
▁jun	1
hampionships	1
▁dispos	1
surance	1
DEM	1
ITY	1
Orgy	1
Boy	1
▁Del	1
phi	1
▁strange	1
download	1
urthermore	1
▁Cabin	1
▁Shippment	1
ipu	1
▁infringe	1
࿊ꀤ	1
ꀤ	1
▁Cumshot	1
Kissing	1
eighbor	1
teur	1
▁Kali	1
▁DIS	1
INF	1
ECT	1
▁pair	1
japan	1
lowjob	1
▁Engag	1
hṛt	1
madhya	1
▁gat	1
Teach	1
▁Gan	1
▁Xo	1
ngho	1
▁inqui	1
sitive	1
bird	1
🐓	1
▁ro	1
▁BR	1
posts	1
ears	1
▁Tv	1
▁Memo	1
irs	1
tree	1
▁Col	1
Posing	1
▁SGS	1
MB	1
▁Edit	1
Bdsm	1
andjob	1
Femdom	1
Durab	1
lves	1
tray	1
tible	1
▁stating	1
Floods	1
build	1
▁bil	1
Neha	1
mper	1
healthy	1
▁uncover	1
▁mechanism	1
▁tolera	1
obacter	1
▁clo	1
bacteria	1
▁তি	1
মা	1
▁Fishe	1
Diab	1
jav	1
LANGUAGES	1
standard	1
Agent	1
ame	1
rag	1
hū	1
dvaya	1
Virtual	1
deva	1
▁koṭ	1
▁Monte	1
iest	1
▁cult	1
writer	1
TN	1
▁banne	1
▁Bog	1
▁nam	1
Jyoti	1
blondes	1
『	1
』	1
ά	1
ŗ	1
ǟ	1
ǿ	1
covery	1
🅑🅛🅐🅒🅚🅟🅐🅝🅣🅗🅔🅡	1
▁Azər	1
☞	1
JÛ	1
llow	1
Lu	1
ᴠ	1
omponents	1
▁Manufacture	1
▁Jenni	1
▁revo	1
cable	1
▁mapp	1
▁Whole	1
town	1
Events	1
cle	1
ymptoms	1
▁afore	1
said	1
CumshotS	1
hemale	1
ines	1
▁awarde	1
▁AskIslam	1
pedia	1
Belon	1
Ah	1
▁LIMIT	1
Ä	1
iversity	1
Titles	1
Adult	1
▁SunPornopo	1
▁Ve	1
▁Ul	1
cers	1
bari	1
Traffic	1
normous	1
iden	1
▁Sona	1
Episode	1
Pradhan	1
His	1
▁Gap	1
pper	1
▁PRA	1
NAM	1
RAN	1
äj	1
ahdi	1
mun	1
▁Analyst	1
Digital	1
giya	1
▁ref	1
translate	1
{{{	1
companies	1
iodata	1
▁Industri	1
▁AMC	1
hips	1
▁Accidents	1
need	1
▁kon	1
slave	1
Pounding	1
CID	1
anand	1
▁tabl	1
orority	1
▁Mans	1
iyan	1
Sep	1
▁preposition	1
ZA	1
pology	1
Sak	1
lympiad	1
▁Subsc	1
〖Ɲ	1
Ɓ	1
Ƙ〗	1
℺	1
ḅ	1
ṁ	1
▁gau	1
▁cove	1
ুট	1
▁Gyn	1
▁Sil	1
BN	1
PDF	1
explosion	1
▁relian	1
▁payo	1
bhi	1
aki	1
phen	1
dhava	1
▁interv	1
irregular	1
裸露	1
Days	1
burg	1
▁Peach	1
▁Gradin	1
tection	1
contents	1
tanks	1
▁Mirac	1
pression	1
TT	1
Dimension	1
▁encoding	1
Fall	1
▁Document	1
▁mich	1
candid	1
bikini	1
eggings	1
elo	1
quent	1
▁EMA	1
Trademark	1
Except	1
▁reproduc	1
▁Trademark	1
election	1
▁nā	1
gaya	1
▁nat	1
avig	1
penetration	1
SHOR	1
▁NK	1
▁Parent	1
sbig	1
enable	1
▁Nas	1
arget	1
▁deadline	1
▁af	1
naissance	1
▁appreciate	1
▁east	1
▁vers	1
▁nylon	1
☋☈♗☈	1
⌘	1
Table	1
commerc	1
ceased	1
festiv	1
▁replace	1
LUS	1
IONS	1
half	1
ँ	1
cars	1
▁devot	1
unc	1
ooked	1
▁sli	1
ces	1
▁Deva	1
▁Detach	1
EG	1
takes	1
ebon	1
eanwhile	1
milf	1
handjob	1
heri	1
▁Admin	1
merci	1
lessly	1
▁Naga	1
adhu	1
ema	1
perma	1
mycustom	1
▁Krish	1
Return	1
ꎇ꒒ꍏꉓꂦ	1
tiru	1
▁Abi	1
▁safety	1
toolbar	1
Mission	1
icts	1
▁Balan	1
apse	1
aksh	1
▁Sinha	1
īva	1
nmu	1
▁Mk	1
Ө	1
unprotect	1
Unprotect	1
SMS	1
Administrator	1
ūlā	1
kuc	1
lāk	1
īlā	1
damba	1
pine	1
rmy	1
ḍ	1
uku	1
inching	1
▁Ant	1
▁Proce	1
present	1
agaraj	1
▁Gandh	1
amu	1
▁archiv	1
▁Bona	1
▁Fide	1
▁fifty	1
onnections	1
▁Aja	1
mitra	1
▁Rockstar	1
hocolate	1
Мё	1
ї	1
ǎ	1
Lipi	1
▁Stro	1
kṣa	1
▁śi	1
▁passage	1
ielding	1
▁trai	1
lok	1
metada	1
ripu	1
▁rang	1
▁dish	1
▁fabric	1
FC	1
eague	1
dull	1
▁injur	1
anish	1
▁Sheng	1
ntra	1
▁pac	1
stro	1
Sage	1
rilliance	1
▁Final	1
▁silen	1
Gh	1
̰Ꮖ	1
▁ado	1
lescent	1
airdresser	1
TEL	1
USI	1
Baligaon	1
▁Barua	1
▁Gazipur	1
ʌn̺	1
▁Buz	1
▁acrobat	1
Blonde	1
Masturbating	1
horit	1
▁Viola	1
damage	1
templates	1
Include	1
▁patien	1
South	1
ile	1
ordin	1
▁DVD	1
▁Disp	1
rim	1
▁Avail	1
▁Rural	1
Kids	1
▁Turn	1
▁AF	1
ENTS	1
▁Geom	1
threesomeamat	1
orial	1
eitalian	1
ITTE	1
lingerie	1
▁Miscellan	1
▁Launche	1
🔤	1
ause	1
appear	1
Israel	1
▁occupan	1
▁disabilities	1
▁suf	1
WHO	1
Tokyo	1
▁pixel	1
▁VP	1
­	1
auth	1
human	1
iah	1
▁Propert	1
▁Neighborhood	1
▁Clothing	1
stra	1
▁Brune	1
ulin	1
tanagar	1
Sale	1
iman	1
Tami	1
Muhammad	1
cess	1
ccused	1
imming	1
▁Revi	1
▁CAR	1
▁Aero	1
sol	1
Diff	1
⎝	1
🅰	1
evi	1
open	1
▁guard	1
▁KA	1
À	1
Location	1
▁XC	1
Amber	1
pregnant	1
runk	1
▁proto	1
hippie	1
ҽ	1
career	1
bold	1
▁Hook	1
rmal	1
pets	1
▁leones	1
▁ph	1
▁ফ	1
▁Mod	1
vanta	1
sell	1
Ā	1
ṭha	1
upa	1
verses	1
▁mut	1
gency	1
dget	1
October	1
eportedly	1
▁combin	1
▁roll	1
▁differentia	1
evolution	1
newmessages	1
rä	1
awyers	1
impo	1
hesaurus	1
tizens	1
▁insight	1
▁Lan	1
honest	1
Cell	1
▁Lympho	1
HTL	1
▁Lymph	1
LA	1
yndrome	1
▁yā	1
ṉṟ	1
āynt	1
▁Sec	1
eter	1
ammad	1
Ju	1
hani	1
▁Blue	1
bora	1
ular	1
▁Cut	1
bbl	1
dling	1
▁Anth	1
Hi	1
shooraa	1
▁AW	1
▁dress	1
▁accus	1
Perform	1
ece	1
▁Reag	1
▁Religion	1
▁hai	1
iry	1
ɢ	1
▁Gene	1
▁Suite	1
▁elsewhere	1
fishnet	1
▁downloa	1
▁softwar	1
patch	1
▁crack	1
english	1
everages	1
hei	1
faiyr	1
ayl	1
winni	1
▁scree	1
▁shel	1
ollad	1
nagh	1
▁arran	1
ght	1
▁gre	1
ien	1
▁grin	1
held	1
KTL	1
▁pers	1
Ř	1
❣	1
EVEL	1
loses	1
filepath	1
erac	1
avigat	1
▁mat	1
▁Sav	1
ann	1
▁Nagar	1
folk	1
tom	1
▁Kor	1
vator	1
▁rig	1
▁Diarrhoea	1
BBW	1
Holly	1
ṛt	1
tāt	1
▁sprin	1
▁Hima	1
Personal	1
ffect	1
elongings	1
demy	1
stify	1
NECTOR	1
CUM	1
▁reache	1
eq	1
trial	1
▁ঐ	1
rist	1
Keychain	1
▁naturopathy	1
laborator	1
ndle	1
▁referr	1
bele	1
▁pilot	1
▁recipe	1
irst	1
▁quest	1
uries	1
▁innovat	1
▁minds	1
sphere	1
▁recruit	1
▁Commen	1
SSC	1
asp	1
▁forces	1
ṇḍ	1
teasing	1
Qu	1
imer	1
weetheart	1
Metal	1
rgy	1
accurac	1
again	1
iff	1
NQ	1
onfidential	1
▁SAR	1
ᖫ	1
Ÿ	1
ǝ	1
ᖭ	1
fuck	1
Allow	1
▁mus	1
eums	1
arium	1
door	1
iums	1
▁Translate	1
▁practic	1
▁seri	1
▁SCH	1
crop	1
price	1
operati	1
IFFCO	1
Strategi	1
▁Later	1
iety	1
Tr	1
▁desp	1
িয়া	1
ওক	1
▁stipulat	1
stigation	1
itai	1
calh	1
inallu	1
▁Words	1
▁territori	1
jurisdiction	1
cumulat	1
▁rej	1
hunky	1
▁Hous	1
▁Moham	1
latin	1
qualit	1
With	1
Fore	1
VAC	1
▁summari	1
▁unre	1
solved	1
▁dispute	1
truste	1
dog	1
request	1
venture	1
Т	1
Ꮶ	1
Ᏻ	1
▁Philippine	1
piso	1
▁transparency	1
andwriting	1
:\	1
Program	1
Files	1
icrosoft	1
▁unlike	1
CHF	1
ULF	1
HAN	1
GE	1
▁Bron	1
▁Mani	1
cox	1
▁Statistic	1
⚠️	1
rine	1
▁belongs	1
▁Micr	1
Image	1
una	1
tics	1
▁Infants	1
▁Cooper	1
Agriculture	1
▁Innovat	1
alayalam	1
RIS	1
▁GLA	1
ALL	1
▁FLA	1
model	1
Widen	1
HER	1
LATE	1
Story	1
▁Contribut	1
Pal	1
acrifice	1
bove	1
Stop	1
iva	1
points	1
ইউ	1
আৰ	1
▁Anand	1
▁Pira	1
▁PGD	1
▁ingredient	1
▁categor	1
▁Exc	1
pts	1
Salih	1
sured	1
uine	1
✰	1
拍击	1
zhou	1
▁Committe	1
▁Rest	1
▁Tie	1
▁Bombs	1
▁ki	1
mili	1
▁char	1
ypno	1
gnis	1
▁fest	1
ᛕ	1
▁Fata	1
Parent	1
▁Qar	1
retr	1
▁Eco	1
riendly	1
kia	1
ofa	1
▁Attr	1
along	1
▁Graph	1
▁Andh	1
iharChandigarhCh	1
attisgarh	1
oaGujaratHaryana	1
Jam	1
khan	1
dKarnatakaKerala	1
adhya	1
Pond	1
yPunjabRajasthan	1
▁NaduT	1
khand	1
▁Bengal	1
sje	1
NK	1
UN	1
APE	1
Control	1
Regional	1
Languages	1
Tick	1
▁EC	1
spe	1
Flix	1
Random	1
▁tweet	1
linkshere	1
Ꮢ	1
ᴘʀ	1
eld	1
ela	1
atra	1
▁Sund	1
▁academi	1
▁mod	1
you	1
▁publisher	1
▁EURNOK	1
▁measur	1
▁periodic	1
▁footjob	1
▁Tran	1
▁flows	1
▁discloses	1
ograph	1
▁Earn	1
tress	1
▁Reviewer	1
shell	1
alisa	1
uti	1
bhāt	1
tted	1
Kannada	1
Gujarati	1
Urdu	1
▁NewsB	1
puri	1
Asamiya	1
Nepali	1
hv	1
BRE	1
TEN	1
SION	1
SB	1
lashe	1
swi	1
beauty	1
window	1
opens	1
troller	1
▁Audit	1
▁Bilvaashtakam	1
cultural	1
WL	1
Chairman	1
▁NH	1
MUN	1
NI	1
rush	1
VA	1
☑	1
kri	1
▁Buck	1
▁Bark	1
▁tbsp	1
Condom	1
ʋɪ	1
amming	1
д	1
с	1
▁FILMS	1
▁PU	1
▁Neig	1
lux	1
TGN	1
govt	1
ayy	1
iver	1
adak	1
semi	1
kno	1
▁terr	1
▁Bhar	1
▁Bort	1
hakur	1
▁Employee	1
pattern	1
ᏉꂅภԾო	1
employee	1
▁res	1
onate	1
▁assur	1
Executive	1
₽	1
Һ	1
attvaṃ	1
▁pā	1
yaṃ	1
sho	1
uggs	1
▁knowing	1
ȼɦ	1
ƶ	1
ȡ	1
▁Gas	1
▁Refractoriness	1
HOT	1
Official	1
ART	1
▁POLIC	1
samateur	1
secret	1
▁Lub	1
▁Shu	1
mey	1
ateway	1
▁Dawa	1
nomi	1
bb	1
(\	1
ujarati	1
▁Limousin	1
▁enforc	1
uch	1
▁receipts	1
Product	1
▁Celeb	1
▁Feed	1
▁Reading	1
▁পৰ	1
oul	1
▁fortu	1
fortu	1
Philippines	1
imezone	1
▁Whit	1
nny	1
▁Arg	1
▁charit	1
▁Rach	1
▁Sor	1
oxic	1
▁Shall	1
employed	1
UID	1
▁rubb	1
limpse	1
ures	1
▁admir	1
MA	1
Fighter	1
▁Engl	1
▁Certificat	1
gure	1
verage	1
sexual	1
▁uni	1
▁expos	1
▁Valentin	1
rabad	1
Cock	1
Jizz	1
Miles	1
pat	1
mel	1
▁GT	1
Bike	1
World	1
Lists	1
Function	1
layed	1
mental	1
Human	1
muno	1
soever	1
▁inhere	1
tence	1
▁pantyho	1
▁NP	1
ration	1
▁sleep	1
▁NAI	1
EBA	1
▁Contr	1
adi	1
ctor	1
▁Uber	1
Uber	1
chas	1
approv	1
▁IITs	1
▁Albania	1
▁Kos	1
▁Ukrain	1
▁Refrigerat	1
Gaming	1
▁Biograph	1
▁Musli	1
Prophet	1
▁arabic	1
hairy	1
xvideo	1
Who	1
dle	1
▁striking	1
এ	1
rita	1
Second	1
vy	1
ɪɾ	1
n̪d̪ɪ	1
ʋʌɪ̯	1
imari	1
ore	1
▁Git	1
▁XN	1
ago	1
minute	1
▁xx	1
▁Kal	1
ingrad	1
Mos	1
Sim	1
ropol	1
Vol	1
grad	1
classic	1
Yes	1
aturday	1
blouse	1
confirmation	1
More	1
▁Eig	1
ঔ	1
Ⲙ	1
Ʉ	1
losses	1
▁cheat	1
▁GEN	1
ᘜᗩᙢᙘ	1
vies	1
ʋ	1
▁Fresh	1
herita	1
▁smo	1
ভ	1
▁LOC	1
▁Philosophy	1
▁Hu	1
CRI	1
FOR	1
EVER	1
ctually	1
NUS	1
▁Solu	1
learners	1
▁photographs	1
dberror	1
literar	1
▁Enabl	1
History	1
EEP	1
▁Links	1
ই	1
▁Intel	1
▁qua	1
▁Guidelines	1
ānu	1
▁underst	1
ص	1
ى	1
و	1
▁Contain	1
▁Nud	1
Cl	1
āṟ	1
eṉ	1
āy	1
oṇṭa	1
pan	1
▁Doggystyle	1
areback	1
▁lacs	1
▁Ope	1
liter	1
Rack	1
▁LOG	1
▁FIL	1
among	1
dose	1
Extreme	1
nergy	1
stitution	1
Hul	1
▁substance	1
wheele	1
establishment	1
espite	1
▁conc	1
▁histor	1
▁obligation	1
▁Bloc	1
Lock	1
ODU	1
repair	1
total	1
𓊈	1
š	1
𓊉	1
▁Pho	1
▁Dan	1
mpo	1
▁Lib	1
FULLPAGENA	1
arbie	1
cting	1
▁Socio	1
▁tea	1
etroleum	1
IIT	1
▁Insect	1
icide	1
▁Mong	1
▁spring	1
arian	1
look	1
▁Beauties	1
???????	1
iki	1
deep	1
▁GAT	1
▁TECHNO	1
𖤐ꪋⲅⲧᥙ	1
ꪶꪊ𖤇ᯓ	1
ꗄ	1
▁Prote	1
▁suppress	1
nstagram	1
telugu	1
ikidata	1
iterature	1
BIL	1
▁Lovely	1
▁Baku	1
▁diabet	1
Board	1
▁welfare	1
dance	1
pole	1
ISH	1
Tease	1
▁Mou	1
unction	1
lyover	1
lies	1
GS	1
▁RG	1
Zoo	1
Doggystyle	1
Cream	1
Pie	1
▁Glor	1
istan	1
fective	1
arma	1
notif	1
reveal	1
addr	1
Rev	1
DO	1
flower	1
lers	1
▁stag	1
▁Leg	1
autonom	1
updates	1
Updates	1
ession	1
▁Hadi	1
ships	1
vice	1
▁versa	1
▁Int	1
▁blocke	1
eme	1
activation	1
Loading	1
▁assign	1
▁pictur	1
▁Xhamster	1
api	1
doma	1
▁flas	1
̄	1
ƒ	1
ˍ	1
̋	1
̊	1
PER	1
▁ADVIS	1
ORS	1
shemales	1
innocent	1
েজ	1
RSON	1
abe	1
▁Isl	1
enska	1
▁Communica	1
Exclud	1
Tax	1
▁Tibet	1
documented	1
▁mappin	1
▁conj	1
▁consult	1
▁mounta	1
ineering	1
▁surv	1
▁Secur	1
▁adver	1
▁puss	1
ounded	1
▁salva	1
▁bibli	1
▁imm	1
ersion	1
useum	1
▁cuck	1
▁Tension	1
স্	1
built	1
Methyl	1
solve	1
▁Taqbaylit	1
udds	1
SCO	1
▁biy	1
Rim	1
Nasty	1
nventory	1
nq	1
science	1
ophe	1
lows	1
pellings	1
▁Obes	1
▁dishon	1
▁Sla	1
▁simplif	1
centric	1
▁Diver	1
▁Valve	1
▁flexib	1
silic	1
tex	1
aver	1
ALA	1
▁Quanti	1
shel	1
world	1
ickle	1
defects	1
Pro	1
pul	1
sid	1
▁Lin	1
seng	1
▁north	1
gn	1
oni	1
vai	1
conven	1
defici	1
burst	1
rgery	1
▁Rom	1
anjal	1
▁Barta	1
MATI	1
Code	1
▁Sanct	1
device	1
▁activat	1
▁GaysPower	1
▁AbdulRa	1
diseases	1
akān	1
īrak	1
▁russi	1
Forms	1
▁Amlan	1
laks	1
▁Parth	1
ttery	1
rug	1
▁tho	1
▁conclusion	1
▁challenge	1
selves	1
Any	1
May	1
▁Ahadith	1
dcast	1
▁Hadith	1
Pedia	1
▁Progress	1
Locale	1
ACK	1
mas	1
namghar	1
Namghar	1
Jorhat	1
▁alum	1
nus	1
▁NGO	1
～	1
combina	1
▁swin	1
▁dog	1
esented	1
urbo	1
▁Hire	1
▁Reward	1
Essential	1
HE	1
BG	1
▁Loading	1
azili	1
Donat	1
mbha	1
gur	1
vī	1
car	1
edroom	1
▁Jess	1
thumb	1
▁Ooh	1
rochure	1
dib	1
▁TA	1
ILO	1
▁Gr	1
panties	1
▁cultivat	1
▁Materials	1
ray	1
▁Chem	1
▁Pac	1
guardian	1
▁withdrawn	1
▁attain	1
hid	1
tre	1
𑁄𑁆	1
𑀦	1
𑁃	1
𑀮𑀝	1
𑀬	1
𑀸𑀗	1
lud	1
prefix	1
▁'[[	1
▁fortune	1
▁tattoo	1
atching	1
wall	1
agging	1
▁Coco	1
▁orig	1
ami	1
education	1
fields	1
▁effi	1
▁Phani	1
hanged	1
▁front	1
▁Naren	1
defe	1
AW	1
t̪ɪ	1
▁n̺ʌll	1
ɨʋ	1
▁Wil	1
plays	1
neak	1
▁Physicist	1
Willi	1
▁Thurs	1
▁Dies	1
Question	1
Steel	1
pers	1
Ņ	1
nfo	1
▁condens	1
▁Satellite	1
HRD	1
crypt	1
▁Cyclo	1
ussian	1
▁Pythag	1
owal	1
▁Royals	1
▁Peni	1
sibi	1
▁Pea	1
Tur	1
▁OTHER	1
GOR	1
zo	1
ツ	1
▁Colleg	1
iate	1
▁JU	1
custom	1
Private	1
▁voy	1
dur	1
close	1
▁Terroris	1
uremature	1
arti	1
esidence	1
mit	1
Govt	1
dentity	1
Fun	1
parties	1
nations	1
appointment	1
soft	1
▁resu	1
agh	1
▁introduce	1
▁IBA	1
epository	1
▁"[[	1
estheti	1
Ɗ	1
ngth	1
aw	1
etter	1
Headline	1
▁reminde	1
▁poll	1
▁thereafter	1
NS	1
pit	1
aṇat	1
āyai	1
umping	1
▁bathing	1
aṉ	1
বা	1
খ্যা	1
▁Radiat	1
Innovative	1
ICT	1
▁coordinat	1
kē	1
ḷā	1
Aug	1
Ronga	1
Boi	1
mpa	1
novel	1
Young	1
Achi	1
stling	1
▁OPE	1
Ass	1
▁Indo	1
astu	1
suppliers	1
languages	1
Bus	1
▁occupie	1
▁Titles	1
problem	1
▁Jou	1
▁CLOSE	1
weight	1
ড	1
়	1
▁যৌ	1
cams	1
gay	1
boys	1
Tri	1
Manag	1
LMS	1
vision	1
fabrics	1
ratio	1
Sponsor	1
opy	1
mqa	1
rried	1
ř	1
oil	1
▁Harve	1
▁formulat	1
Poo	1
NJ	1
▁armpit	1
hul	1
assengers	1
ESS	1
ENTIAL	1
void	1
nin	1
likar	1
Class	1
জী	1
যা	1
Love	1
owed	1
rocessors	1
dj	1
vu	1
▁XM	1
Vu	1
nesses	1
aluk	1
▁enrol	1
uting	1
GI	1
▁Ama	1
loss	1
bound	1
phs	1
contains	1
▁ga	1
!!	1
SHOU	1
▁Lum	1
kka	1
▁Jen	1
Reality	1
Taga	1
vijaya	1
lakṣm	1
▁Spray	1
epid	1
tractor	1
༆	1
ꪜ	1
Ꮭ	1
ꦿ	1
Ꮮ	1
tracting	1
caught	1
cognis	1
▁frauds	1
▁apprehend	1
reng	1
▁Maju	1
ested	1
ase	1
older	1
Click	1
ACHI	1
Older	1
▁stoma	1
Granny	1
▁Positi	1
ahan	1
▁Koh	1
ngul	1
ahe	1
Sai	1
sahe	1
▁Mand	1
regular	1
▁Sidd	1
isi	1
▁Bloo	1
▁Responsib	1
▁fet	1
▁Iran	1
IRD	1
alth	1
▁Siri	1
fai	1
▁foll	1
guna	1
Jaz	1
airi	1
EMI	1
booksources	1
movies	1
▁Dix	1
▁Mos	1
bite	1
▁pounding	1
agar	1
andhu	1
came	1
columns	1
ndra	1
morro	1
concer	1
uzu	1
▁explor	1
clone	1
Co	1
▁Pickup	1
κ	1
ɪɴɢ	1
LOSS	1
bab	1
Hospital	1
▁Ero	1
▁jol	1
▁adv	1
▁span	1
appa	1
aract	1
▁Franç	1
Sin	1
Marc	1
Legend	1
▁Uns	1
Short	1
তি	1
কৰ	1
idel	1
▁Porns	1
atr	1
Hotel	1
Res	1
▁Disabl	1
▁Organise	1
▁Intern	1
Follow	1
▁PP	1
Fath	1
jid	1
Status	1
limited	1
▁DON	1
dr	1
sunna	1
▁emerge	1
deeds	1
▁pun	1
omestic	1
elim	1
▁Tho	1
▁Collapse	1
enants	1
▁COP	1
🕉	1
▁ঔ	1
▁nird	1
▁brahma	1
vidha	1
ifier	1
ecessary	1
èn	1
pè	1
nhnh	1
▁maru	1
hurai	1
icca	1
Self	1
blowjobs	1
▁Fish	1
▁Schoo	1
dictions	1
▁inconsistenc	1
shemale	1
hemales	1
adyboy	1
▁Glory	1
NING	1
BO	1
nvolved	1
Ṇ	1
Ṁ	1
▁fac	1
▁thereby	1
▁enhanc	1
ishnet	1
▁Goth	1
▁Organiz	1
▁TS	1
OTU	1
▁Manz	1
lahi	1
▁Hang	1
▁Terror	1
commercial	1
▁MU	1
SEA	1
theft	1
ressure	1
▁therapies	1
Su	1
celandic	1
ison	1
▁Vish	1
ASI	1
▁shal	1
bangb	1
▁HUNT	1
UBE	1
kari	1
▁ticket	1
▁Phy	1
▁Nak	1
ag	1
⏤	1
ͤ	1
ⷦ	1
ꪝ	1
śu	1
ñci	1
hānu	1
aṇṭ	1
▁Galv	1
pre	1
▁MN	1
erma	1
▁Kanna	1
▁Mada	1
usi	1
uto	1
garwal	1
AGEN	1
▁Theorem	1
edric	1
▁Villani	1
tchen	1
▁minu	1
▁ship	1
▁streng	1
▁Increas	1
hD	1
jQ	1
TAC	1
KR	1
udi	1
critic	1
rathi	1
▁Ranji	1
Web	1
discussion	1
IGH	1
▁BASED	1
▁equip	1
Journal	1
▁Kab	1
addi	1
▁spelling	1
ewal	1
oye	1
Ag	1
▁certification	1
bis	1
Ug	1
▁Wo	1
nders	1
ind	1
VII	1
▁slave	1
camlive	1
girlsvideo	1
▁Rememb	1
lig	1
HOU	1
OK	1
◆	1
Goldman	1
Sach	1
CBS	1
▁AGEN	1
OEM	1
aha	1
Allah	1
oleum	1
volume	1
▁bath	1
▁Was	1
Heels	1
isamb	1
▁Consider	1
drop	1
▁UND	1
ostilities	1
ส	1
ė	1
▁Blindfold	1
▁Mag	1
iling	1
anifestation	1
▁tay	1
MLC	1
Wale	1
▁econo	1
logy	1
nglis	1
ega	1
▁powered	1
▁Pv	1
Own	1
Extension	1
▁Span	1
etc	1
priorit	1
▁🐵	1
Jh	1
őņ	1
🐵	1
▁Disable	1
tions	1
awar	1
▁Leader	1
ANI	1
▁Saver	1
zdom	1
▁imag	1
inations	1
verna	1
Cartosat	1
▁Residen	1
▁newborn	1
gnant	1
Wa	1
Deepthroat	1
▁underlin	1
layers	1
▁Centr	1
▁arm	1
OL	1
▁Abuse	1
haudh	1
▁Tap	1
CHI	1
😘	1
▁Paypal	1
😍	1
Panties	1
Trade	1
▁Adm	1
「言語一覧	1
」	1
▁Sind	1
▁Jenn	1
▁consumption	1
▁Pres	1
▁onion	1
purity	1
▁satisfact	1
aṟivu	1
▁nallu	1
ṇarv	1
āṉa	1
rav	1
▁tāṉ	1
antā	1
Po	1
anu	1
▁Chatt	1
▁innovation	1
▁respective	1
▁Jon	1
anab	1
lde	1
▁spectac	1
▁attorney	1
Pla	1
Masjid	1
▁AQ	1
oe	1
▁instal	1
front	1
▁married	1
▁Gate	1
omati	1
▁cus	1
icki	1
GD	1
▁tranquili	1
jection	1
▁turk	1
xen	1
usc	1
cognition	1
▁Aiz	1
mig	1
culus	1
aliforni	1
pē	1
▁Chu	1
vash	1
Babysitter	1
Redhead	1
Baby	1
Kit	1
▁Mainta	1
nance	1
♚	1
͟	1
҂	1
▁curricul	1
▁hall	1
release	1
buntu	1
▁strateg	1
Life	1
evan	1
MEC	1
▁Med	1
guj	1
RIA	1
▁Tatto	1
▁Hos	1
▁Instruct	1
raig	1
▁Ministries	1
ḻ	1
avā	1
uṇar	1
kiṉ	1
ōk	1
SIS	1
people	1
▁commit	1
▁ত	1
্য	1
tips	1
▁jenn	1
tubes	1
ʌɾɨð	1
ɨʋʌ	1
▁kʌɾɨ	1
ɪɪ̯ʌ	1
ɪ̯ɨ	1
sai	1
nji	1
private	1
output	1
Th	1
lossary	1
vek	1
over	1
ension	1
▁hypothe	1
ť	1
▁subsidiar	1
▁hid	1
inding	1
---	1
Hall	1
▁SL	1
▁Secretaria	1
kie	1
anja	1
▁lac	1
Meghalaya	1
▁Gumm	1
student	1
Hara	1
♦	1
▁Alpha	1
watchno	1
ʽ	1
▁Eb	1
ayi	1
▁Cro	1
quette	1
bbe	1
koum	1
font	1
▁Peril	1
lcohol	1
▁Rul	1
Success	1
courage	1
▁milli	1
woman	1
ning	1
▁disburs	1
bursement	1
▁miracles	1
police	1
administration	1
▁exempted	1
asturba	1
trip	1
limb	1
▁Needy	1
Size	1
▁Meta	1
Trader	1
▁NRC	1
▁Golaghat	1
▁dat	1
SOU	1
▁Alternati	1
▁Mat	1
rices	1
serve	1
fil	1
▁biop	1
ahi	1
anonymous	1
✘	1
☂	1
▁ANTI	1
IAL	1
▁FAC	1
▁UGC	1
▁Hov	1
module	1
rogressive	1
🙂	1
▁Maori	1
epeated	1
SAC	1
▁Missi	1
osit	1
formin	1
male	1
▁contrac	1
ulation	1
▁induc	1
▁Trio	1
▁visibl	1
▁thro	1
bbing	1
▁unde	1
▁Envelop	1
egan	1
▁Tru	1
Word	1
press	1
·	1
▁Humiliat	1
mɛ	1
ROR	1
▁Squ	1
riting	1
▁Secr	1
▁bachelor	1
▁cables	1
▁cable	1
ål	1
lsam	1
▁burn	1
▁stalwart	1
harge	1
nominat	1
umb	1
▁fail	1
▁div	1
iṅ	1
āmaṇi	1
hāma	1
▁rata	1
mandi	1
▁mano	1
ṛta	1
nīr	1
rāj	1
▁śo	1
▁kanaka	1
īṭ	1
ṣṭ	1
nāy	1
ikā	1
▁rat	1
chen	1
▁dui	1
jane	1
aṅg	1
sundarī	1
